{
  "version": "1.0",
  "truncation": null,
  "padding": null,
  "added_tokens": [
    {
      "id": 0,
      "content": "[UNK]",
      "single_word": false,
      "lstrip": false,
      "rstrip": false,
      "normalized": false,
      "special": true
    },
    {
      "id": 1,
      "content": "[PAD]",
      "single_word": false,
      "lstrip": false,
      "rstrip": false,
      "normalized": false,
      "special": true
    },
    {
      "id": 2,
      "content": "[CLS]",
      "single_word": false,
      "lstrip": false,
      "rstrip": false,
      "normalized": false,
      "special": true
    },
    {
      "id": 3,
      "content": "[SEP]",
      "single_word": false,
      "lstrip": false,
      "rstrip": false,
      "normalized": false,
      "special": true
    },
    {
      "id": 4,
      "content": "[MASK]",
      "single_word": false,
      "lstrip": false,
      "rstrip": false,
      "normalized": false,
      "special": true
    }
  ],
  "normalizer": null,
  "pre_tokenizer": {
    "type": "Whitespace"
  },
  "post_processor": {
    "type": "TemplateProcessing",
    "single": [
      {
        "SpecialToken": {
          "id": "[CLS]",
          "type_id": 0
        }
      },
      {
        "Sequence": {
          "id": "A",
          "type_id": 0
        }
      },
      {
        "SpecialToken": {
          "id": "[SEP]",
          "type_id": 0
        }
      }
    ],
    "pair": [
      {
        "SpecialToken": {
          "id": "[CLS]",
          "type_id": 0
        }
      },
      {
        "Sequence": {
          "id": "A",
          "type_id": 0
        }
      },
      {
        "SpecialToken": {
          "id": "[SEP]",
          "type_id": 0
        }
      },
      {
        "Sequence": {
          "id": "B",
          "type_id": 1
        }
      },
      {
        "SpecialToken": {
          "id": "[SEP]",
          "type_id": 1
        }
      }
    ],
    "special_tokens": {
      "[CLS]": {
        "id": "[CLS]",
        "ids": [
          2
        ],
        "tokens": [
          "[CLS]"
        ]
      },
      "[SEP]": {
        "id": "[SEP]",
        "ids": [
          3
        ],
        "tokens": [
          "[SEP]"
        ]
      }
    }
  },
  "decoder": null,
  "model": {
    "type": "BPE",
    "dropout": null,
    "unk_token": "[UNK]",
    "continuing_subword_prefix": null,
    "end_of_word_suffix": null,
    "fuse_unk": false,
    "byte_fallback": false,
    "ignore_merges": false,
    "vocab": {
      "[UNK]": 0,
      "[PAD]": 1,
      "[CLS]": 2,
      "[SEP]": 3,
      "[MASK]": 4,
      "!": 5,
      "\"": 6,
      "#": 7,
      "$": 8,
      "&": 9,
      "'": 10,
      "(": 11,
      ")": 12,
      "*": 13,
      ",": 14,
      "-": 15,
      ".": 16,
      "/": 17,
      "0": 18,
      "1": 19,
      "2": 20,
      "3": 21,
      "4": 22,
      "5": 23,
      "6": 24,
      "7": 25,
      "8": 26,
      "9": 27,
      ":": 28,
      ";": 29,
      "=": 30,
      "?": 31,
      "A": 32,
      "B": 33,
      "C": 34,
      "D": 35,
      "E": 36,
      "F": 37,
      "G": 38,
      "H": 39,
      "I": 40,
      "J": 41,
      "K": 42,
      "L": 43,
      "M": 44,
      "N": 45,
      "O": 46,
      "P": 47,
      "Q": 48,
      "R": 49,
      "S": 50,
      "T": 51,
      "U": 52,
      "V": 53,
      "W": 54,
      "X": 55,
      "Y": 56,
      "Z": 57,
      "\\": 58,
      "_": 59,
      "a": 60,
      "b": 61,
      "c": 62,
      "d": 63,
      "e": 64,
      "f": 65,
      "g": 66,
      "h": 67,
      "i": 68,
      "j": 69,
      "k": 70,
      "l": 71,
      "m": 72,
      "n": 73,
      "o": 74,
      "p": 75,
      "q": 76,
      "r": 77,
      "s": 78,
      "t": 79,
      "u": 80,
      "v": 81,
      "w": 82,
      "x": 83,
      "y": 84,
      "z": 85,
      "in": 86,
      "er": 87,
      "th": 88,
      "an": 89,
      "on": 90,
      "es": 91,
      "or": 92,
      "ar": 93,
      "ed": 94,
      "the": 95,
      "en": 96,
      "at": 97,
      "al": 98,
      "to": 99,
      "st": 100,
      "ing": 101,
      "it": 102,
      "of": 103,
      "re": 104,
      "ic": 105,
      "as": 106,
      "ou": 107,
      "is": 108,
      "ay": 109,
      "il": 110,
      "ro": 111,
      "and": 112,
      "ion": 113,
      "le": 114,
      "ter": 115,
      "id": 116,
      "ac": 117,
      "el": 118,
      "om": 119,
      "for": 120,
      "ent": 121,
      "ad": 122,
      "ch": 123,
      "et": 124,
      "ur": 125,
      "am": 126,
      "ol": 127,
      "day": 128,
      "ig": 129,
      "ec": 130,
      "ir": 131,
      "he": 132,
      "ers": 133,
      "ot": 134,
      "us": 135,
      "un": 136,
      "39": 137,
      "ag": 138,
      "ve": 139,
      "ill": 140,
      "ow": 141,
      "est": 142,
      "im": 143,
      "ra": 144,
      "ut": 145,
      "ver": 146,
      "ear": 147,
      "ation": 148,
      "com": 149,
      "all": 150,
      "se": 151,
      "pl": 152,
      "be": 153,
      "qu": 154,
      "op": 155,
      "ith": 156,
      "In": 157,
      "ew": 158,
      "ri": 159,
      "ce": 160,
      "em": 161,
      "ak": 162,
      "igh": 163,
      "ul": 164,
      "ts": 165,
      "ap": 166,
      "with": 167,
      "that": 168,
      "its": 169,
      "The": 170,
      "ex": 171,
      "res": 172,
      "oun": 173,
      "up": 174,
      "pro": 175,
      "de": 176,
      "Re": 177,
      "ters": 178,
      "ly": 179,
      "sh": 180,
      "ist": 181,
      "con": 182,
      "sa": 183,
      "lo": 184,
      "ast": 185,
      "ain": 186,
      "ld": 187,
      "ab": 188,
      "wh": 189,
      "ks": 190,
      "over": 191,
      "are": 192,
      "ian": 193,
      "by": 194,
      "00": 195,
      "ate": 196,
      "uters": 197,
      "said": 198,
      "um": 199,
      "por": 200,
      "our": 201,
      "St": 202,
      "has": 203,
      "out": 204,
      "ies": 205,
      "end": 206,
      "ess": 207,
      "ia": 208,
      "rom": 209,
      "ct": 210,
      "ost": 211,
      "ight": 212,
      "Ch": 213,
      "pr": 214,
      "ack": 215,
      "AP": 216,
      "wor": 217,
      "off": 218,
      "Reuters": 219,
      "comp": 220,
      "from": 221,
      "af": 222,
      "os": 223,
      "ment": 224,
      "we": 225,
      "pe": 226,
      "ity": 227,
      "art": 228,
      "tr": 229,
      "ard": 230,
      "his": 231,
      "ore": 232,
      "ha": 233,
      "if": 234,
      "ust": 235,
      "man": 236,
      "..": 237,
      "US": 238,
      "esday": 239,
      "ine": 240,
      "od": 241,
      "one": 242,
      "iv": 243,
      "ial": 244,
      "ell": 245,
      "ive": 246,
      "ther": 247,
      "was": 248,
      "te": 249,
      "ke": 250,
      "ted": 251,
      "will": 252,
      "new": 253,
      "sp": 254,
      "ip": 255,
      "tw": 256,
      "year": 257,
      "su": 258,
      "lt": 259,
      "fir": 260,
      "gt": 261,
      "ge": 262,
      "Th": 263,
      "after": 264,
      "ice": 265,
      "mer": 266,
      "la": 267,
      "per": 268,
      "ud": 269,
      "Fr": 270,
      "ace": 271,
      "ould": 272,
      "gh": 273,
      "quot": 274,
      "old": 275,
      "ans": 276,
      "ie": 277,
      "ord": 278,
      "oc": 279,
      "sec": 280,
      "have": 281,
      "\\$": 282,
      "ning": 283,
      "ong": 284,
      "ant": 285,
      "ind": 286,
      "ound": 287,
      "ick": 288,
      "ere": 289,
      "ser": 290,
      "illion": 291,
      "arg": 292,
      "own": 293,
      "og": 294,
      "their": 295,
      "amp": 296,
      "gr": 297,
      "act": 298,
      "ep": 299,
      "ber": 300,
      "ame": 301,
      "sof": 302,
      "any": 303,
      "New": 304,
      "ok": 305,
      "ish": 306,
      "ign": 307,
      "ident": 308,
      "cl": 309,
      "Un": 310,
      "ide": 311,
      "ree": 312,
      "ile": 313,
      "bl": 314,
      "ach": 315,
      "tern": 316,
      "ass": 317,
      "but": 318,
      "ome": 319,
      "ne": 320,
      "ark": 321,
      "ru": 322,
      "ions": 323,
      "ime": 324,
      "ire": 325,
      "ue": 326,
      "Ira": 327,
      "Iraq": 328,
      "ond": 329,
      "age": 330,
      "ays": 331,
      "av": 332,
      "ob": 333,
      "ail": 334,
      "Mon": 335,
      "ry": 336,
      "cent": 337,
      "ake": 338,
      "first": 339,
      "att": 340,
      "--": 341,
      "ph": 342,
      "port": 343,
      "ors": 344,
      "200": 345,
      "An": 346,
      "two": 347,
      "Mic": 348,
      "ek": 349,
      "ices": 350,
      "ON": 351,
      "row": 352,
      "ann": 353,
      "lead": 354,
      "sc": 355,
      "ens": 356,
      "co": 357,
      "ations": 358,
      "ase": 359,
      "uc": 360,
      "resident": 361,
      "again": 362,
      "more": 363,
      "fin": 364,
      "ates": 365,
      "urs": 366,
      "ins": 367,
      "ary": 368,
      "oll": 369,
      "bo": 370,
      "iday": 371,
      "ash": 372,
      "Monday": 373,
      "ect": 374,
      "Wed": 375,
      "toc": 376,
      "Tu": 377,
      "Wedn": 378,
      "Wednesday": 379,
      "inv": 380,
      "...": 381,
      "ext": 382,
      "Sh": 383,
      "Tuesday": 384,
      "ov": 385,
      "ret": 386,
      "ets": 387,
      "rit": 388,
      "und": 389,
      "Thurs": 390,
      "Thursday": 391,
      "not": 392,
      "ory": 393,
      "iz": 394,
      "ank": 395,
      "lect": 396,
      "company": 397,
      "ich": 398,
      "als": 399,
      "dis": 400,
      "ite": 401,
      "this": 402,
      "ough": 403,
      "Inc": 404,
      "than": 405,
      "li": 406,
      "ester": 407,
      "work": 408,
      "hel": 409,
      "ence": 410,
      "back": 411,
      "ush": 412,
      "ade": 413,
      "mon": 414,
      "Friday": 415,
      "Sun": 416,
      "ated": 417,
      "iss": 418,
      "exp": 419,
      "arter": 420,
      "land": 421,
      "ull": 422,
      "int": 423,
      "rec": 424,
      "ous": 425,
      "Micro": 426,
      "ict": 427,
      "Pr": 428,
      "last": 429,
      "go": 430,
      "earch": 431,
      "ven": 432,
      "ance": 433,
      "Ind": 434,
      "play": 435,
      "ational": 436,
      "who": 437,
      "week": 438,
      "top": 439,
      "acc": 440,
      "ited": 441,
      "against": 442,
      "OR": 443,
      "Is": 444,
      "ure": 445,
      "into": 446,
      ";/": 447,
      "line": 448,
      "ef": 449,
      "Com": 450,
      "ople": 451,
      "oup": 452,
      "anc": 453,
      "urn": 454,
      "soft": 455,
      "ican": 456,
      "pos": 457,
      "po": 458,
      "air": 459,
      "win": 460,
      "ason": 461,
      "uro": 462,
      "cont": 463,
      "Af": 464,
      "ss": 465,
      "high": 466,
      "ally": 467,
      "mark": 468,
      "esterday": 469,
      "Cor": 470,
      "about": 471,
      "med": 472,
      "down": 473,
      "yesterday": 474,
      "mak": 475,
      "Le": 476,
      "million": 477,
      "Microsoft": 478,
      "overn": 479,
      "AN": 480,
      "other": 481,
      "me": 482,
      "offic": 483,
      "were": 484,
      "ina": 485,
      "bu": 486,
      "ress": 487,
      "invest": 488,
      "ton": 489,
      "they": 490,
      "Intern": 491,
      "set": 492,
      "inist": 493,
      "yst": 494,
      "quarter": 495,
      "En": 496,
      "NE": 497,
      "Sp": 498,
      "ang": 499,
      "world": 500,
      "ote": 501,
      "been": 502,
      "had": 503,
      "kill": 504,
      "war": 505,
      "serv": 506,
      "ting": 507,
      "ble": 508,
      "ition": 509,
      "Amer": 510,
      "vel": 511,
      "Ex": 512,
      "coun": 513,
      "fo": 514,
      "fl": 515,
      "Al": 516,
      "head": 517,
      "able": 518,
      "br": 519,
      "tal": 520,
      "str": 521,
      "time": 522,
      "Wor": 523,
      "ird": 524,
      "ating": 525,
      "three": 526,
      "Corp": 527,
      "atur": 528,
      "sl": 529,
      "Euro": 530,
      "oil": 531,
      "10": 532,
      "overnment": 533,
      "AS": 534,
      "eral": 535,
      "ounc": 536,
      "ral": 537,
      "Qu": 538,
      "ower": 539,
      "For": 540,
      "atch": 541,
      "ilit": 542,
      "ased": 543,
      "month": 544,
      "ise": 545,
      "vi": 546,
      "stoc": 547,
      "miss": 548,
      "AF": 549,
      "oy": 550,
      "Sunday": 551,
      "United": 552,
      "dec": 553,
      "ected": 554,
      "cr": 555,
      "urity": 556,
      "uss": 557,
      "way": 558,
      "ped": 559,
      "team": 560,
      "riv": 561,
      "would": 562,
      "reat": 563,
      "ines": 564,
      "Ar": 565,
      "pol": 566,
      "Europe": 567,
      "official": 568,
      "enc": 569,
      "part": 570,
      "four": 571,
      "elect": 572,
      "ball": 573,
      "could": 574,
      "season": 575,
      "No": 576,
      "government": 577,
      "use": 578,
      "ff": 579,
      "sur": 580,
      "prov": 581,
      "Con": 582,
      "IN": 583,
      "ely": 584,
      "ports": 585,
      "second": 586,
      "pu": 587,
      "olog": 588,
      "rem": 589,
      "ical": 590,
      "ix": 591,
      "which": 592,
      "bus": 593,
      "def": 594,
      "years": 595,
      "game": 596,
      "AFP": 597,
      "We": 598,
      "Co": 599,
      "sup": 600,
      "tware": 601,
      "iness": 602,
      "ales": 603,
      "do": 604,
      "ics": 605,
      "people": 606,
      "par": 607,
      "pt": 608,
      "reg": 609,
      "chn": 610,
      "today": 611,
      "des": 612,
      "ww": 613,
      "cre": 614,
      "try": 615,
      "President": 616,
      "leg": 617,
      "De": 618,
      "run": 619,
      "percent": 620,
      "ows": 621,
      "night": 622,
      "Brit": 623,
      "ms": 624,
      "prices": 625,
      "ft": 626,
      "ran": 627,
      "ement": 628,
      "Ser": 629,
      "most": 630,
      "AT": 631,
      "fore": 632,
      "NEW": 633,
      "Jo": 634,
      "ital": 635,
      "when": 636,
      "cap": 637,
      "ck": 638,
      "World": 639,
      "ath": 640,
      "unch": 641,
      "az": 642,
      "says": 643,
      "rel": 644,
      "next": 645,
      "eng": 646,
      "Satur": 647,
      "Saturday": 648,
      "Mar": 649,
      "less": 650,
      "third": 651,
      "ystem": 652,
      "plan": 653,
      "ub": 654,
      "market": 655,
      "Aust": 656,
      "prod": 657,
      "cons": 658,
      "ings": 659,
      "China": 660,
      "bec": 661,
      "Jap": 662,
      "clo": 663,
      "ief": 664,
      "ns": 665,
      "Japan": 666,
      "ron": 667,
      "tri": 668,
      "lear": 669,
      "uct": 670,
      "Se": 671,
      "vict": 672,
      "announc": 673,
      "ild": 674,
      "Go": 675,
      "prof": 676,
      "Pl": 677,
      "record": 678,
      "rug": 679,
      "aj": 680,
      "ists": 681,
      "can": 682,
      "bel": 683,
      "ents": 684,
      "tt": 685,
      "As": 686,
      "inister": 687,
      "bet": 688,
      "ty": 689,
      "ORK": 690,
      "Gr": 691,
      "ort": 692,
      "some": 693,
      "may": 694,
      "oper": 695,
      "ug": 696,
      "YORK": 697,
      "chnolog": 698,
      "law": 699,
      "software": 700,
      "Te": 701,
      "billion": 702,
      "mo": 703,
      "no": 704,
      "open": 705,
      "Pal": 706,
      "Bush": 707,
      "Russ": 708,
      "milit": 709,
      "under": 710,
      "car": 711,
      "Can": 712,
      "cer": 713,
      "led": 714,
      "Internet": 715,
      "vis": 716,
      "uring": 717,
      "Or": 718,
      "put": 719,
      "Air": 720,
      "form": 721,
      "cess": 722,
      "Austral": 723,
      "=\"": 724,
      "Res": 725,
      "2004": 726,
      "omb": 727,
      "rael": 728,
      "io": 729,
      "Israel": 730,
      "ied": 731,
      "so": 732,
      "ames": 733,
      "Up": 734,
      "rest": 735,
      "mp": 736,
      "inter": 737,
      "business": 738,
      "ah": 739,
      "big": 740,
      "aw": 741,
      "rele": 742,
      "early": 743,
      "Wh": 744,
      "ult": 745,
      "Pro": 746,
      "get": 747,
      "agre": 748,
      "eld": 749,
      "ship": 750,
      "announced": 751,
      "deal": 752,
      "call": 753,
      "group": 754,
      "RE": 755,
      "used": 756,
      "ourt": 757,
      "stocks": 758,
      "ported": 759,
      "ones": 760,
      "publ": 761,
      "Net": 762,
      "app": 763,
      "000": 764,
      "Sec": 765,
      "now": 766,
      "au": 767,
      "Quote": 768,
      "onom": 769,
      "security": 770,
      "pre": 771,
      "urr": 772,
      "take": 773,
      "ner": 774,
      "test": 775,
      "outh": 776,
      "fer": 777,
      "president": 778,
      "say": 779,
      "Ph": 780,
      "istan": 781,
      "ica": 782,
      "Be": 783,
      "ple": 784,
      "Pe": 785,
      "start": 786,
      "Red": 787,
      "grow": 788,
      "vers": 789,
      "les": 790,
      "ier": 791,
      "net": 792,
      "inu": 793,
      "targ": 794,
      "Nor": 795,
      "econom": 796,
      "ague": 797,
      "larg": 798,
      "maker": 799,
      "sign": 800,
      "uch": 801,
      "chnology": 802,
      "dem": 803,
      "red": 804,
      "acks": 805,
      "killed": 806,
      "tle": 807,
      "shar": 808,
      "help": 809,
      "enter": 810,
      "AL": 811,
      "ince": 812,
      "victory": 813,
      "It": 814,
      "post": 815,
      "key": 816,
      "European": 817,
      "19": 818,
      "Ap": 819,
      "cut": 820,
      "ards": 821,
      "officials": 822,
      "ollar": 823,
      "American": 824,
      "Op": 825,
      "reported": 826,
      "ives": 827,
      "He": 828,
      "15": 829,
      "fe": 830,
      "system": 831,
      "ER": 832,
      "ib": 833,
      "ev": 834,
      "comm": 835,
      "sales": 836,
      "ield": 837,
      "ajor": 838,
      "ampion": 839,
      "ered": 840,
      "ris": 841,
      "ual": 842,
      "just": 843,
      "tain": 844,
      "expected": 845,
      "launch": 846,
      "ants": 847,
      "Canad": 848,
      "rough": 849,
      "Joh": 850,
      "gy": 851,
      "long": 852,
      "ING": 853,
      "add": 854,
      "Cup": 855,
      "Oly": 856,
      "Olymp": 857,
      "hold": 858,
      "inian": 859,
      "So": 860,
      "look": 861,
      "bro": 862,
      "country": 863,
      "Oil": 864,
      "tak": 865,
      "BM": 866,
      "ecut": 867,
      "ending": 868,
      "home": 869,
      "read": 870,
      "nings": 871,
      "ient": 872,
      "lin": 873,
      "Col": 874,
      "laim": 875,
      "target": 876,
      "20": 877,
      "plans": 878,
      "lat": 879,
      "ony": 880,
      "ork": 881,
      "UN": 882,
      "ities": 883,
      "Man": 884,
      "Palest": 885,
      "ands": 886,
      "ago": 887,
      "full": 888,
      "manag": 889,
      "ons": 890,
      "ams": 891,
      "rol": 892,
      "ces": 893,
      "gest": 894,
      "British": 895,
      "ese": 896,
      "min": 897,
      "before": 898,
      "ror": 899,
      "usp": 900,
      "usic": 901,
      "largest": 902,
      "ave": 903,
      "final": 904,
      "buy": 905,
      "gan": 906,
      "Palestinian": 907,
      "gian": 908,
      "show": 909,
      "ogle": 910,
      "gen": 911,
      "India": 912,
      "ency": 913,
      "ium": 914,
      "many": 915,
      "wo": 916,
      "Minister": 917,
      "States": 918,
      "tom": 919,
      "ederal": 920,
      "AR": 921,
      "ington": 922,
      "Bl": 923,
      "Eng": 924,
      "arm": 925,
      "Google": 926,
      "ember": 927,
      "IBM": 928,
      "her": 929,
      "hit": 930,
      "Web": 931,
      "host": 932,
      "ged": 933,
      "report": 934,
      "tra": 935,
      "York": 936,
      "Cl": 937,
      "Ad": 938,
      "IS": 939,
      "former": 940,
      "Sof": 941,
      ";...": 942,
      "ording": 943,
      ";...&": 944,
      "sch": 945,
      "bank": 946,
      "On": 947,
      "Tr": 948,
      "Iraqi": 949,
      "bid": 950,
      "\"&": 951,
      "ury": 952,
      "ax": 953,
      "11": 954,
      "ering": 955,
      "Shar": 956,
      "you": 957,
      "incl": 958,
      "obile": 959,
      "icker": 960,
      "rop": 961,
      "velop": 962,
      "TON": 963,
      "him": 964,
      "lif": 965,
      "five": 966,
      "raw": 967,
      "hal": 968,
      "BA": 969,
      "made": 970,
      "job": 971,
      "anies": 972,
      "reak": 973,
      "ision": 974,
      "66": 975,
      "won": 976,
      "technology": 977,
      "through": 978,
      "mission": 979,
      ".,": 980,
      "pres": 981,
      "ful": 982,
      "Prof": 983,
      "major": 984,
      "least": 985,
      "ger": 986,
      "thern": 987,
      "Bo": 988,
      "phone": 989,
      "ata": 990,
      "indust": 991,
      "South": 992,
      "ular": 993,
      "ense": 994,
      "With": 995,
      "ears": 996,
      "bomb": 997,
      "Off": 998,
      "ween": 999,
      "pay": 1000,
      "ause": 1001,
      "50": 1002,
      "claim": 1003,
      "ned": 1004,
      "profit": 1005,
      "ious": 1006,
      "coach": 1007,
      "TO": 1008,
      "make": 1009,
      "ended": 1010,
      "fil": 1011,
      "Fl": 1012,
      "Ger": 1013,
      "chief": 1014,
      "hop": 1015,
      "Cal": 1016,
      "quick": 1017,
      "ever": 1018,
      "12": 1019,
      "execut": 1020,
      "AM": 1021,
      "them": 1022,
      "SE": 1023,
      "Sep": 1024,
      "To": 1025,
      "bal": 1026,
      "between": 1027,
      "ops": 1028,
      "incre": 1029,
      "news": 1030,
      "ures": 1031,
      "round": 1032,
      "ouse": 1033,
      "els": 1034,
      "Sc": 1035,
      "gu": 1036,
      "ock": 1037,
      "state": 1038,
      "service": 1039,
      "strong": 1040,
      "during": 1041,
      "//": 1042,
      "IT": 1043,
      "beat": 1044,
      "ask": 1045,
      "power": 1046,
      "companies": 1047,
      "://": 1048,
      "htt": 1049,
      "http": 1050,
      "ots": 1051,
      "search": 1052,
      "talks": 1053,
      "what": 1054,
      "sm": 1055,
      "ley": 1056,
      "ling": 1057,
      "according": 1058,
      "Stoc": 1059,
      "cost": 1060,
      "CO": 1061,
      "pass": 1062,
      "trad": 1063,
      "dollar": 1064,
      "stri": 1065,
      "poin": 1066,
      "ages": 1067,
      "leader": 1068,
      "susp": 1069,
      "loss": 1070,
      "Int": 1071,
      "gain": 1072,
      "uter": 1073,
      "eks": 1074,
      "gin": 1075,
      "fur": 1076,
      "PC": 1077,
      "Ara": 1078,
      "www": 1079,
      "ale": 1080,
      "another": 1081,
      "includ": 1082,
      "date": 1083,
      "ivers": 1084,
      "Car": 1085,
      "held": 1086,
      "public": 1087,
      "Pak": 1088,
      "ange": 1089,
      "ireless": 1090,
      "der": 1091,
      "based": 1092,
      "stor": 1093,
      "computer": 1094,
      "intern": 1095,
      "CE": 1096,
      "pers": 1097,
      "inj": 1098,
      "Open": 1099,
      "bar": 1100,
      "six": 1101,
      "develop": 1102,
      "uclear": 1103,
      "Sept": 1104,
      "News": 1105,
      "giant": 1106,
      "League": 1107,
      "produc": 1108,
      "del": 1109,
      "hand": 1110,
      "sell": 1111,
      "At": 1112,
      "info": 1113,
      "reach": 1114,
      "tele": 1115,
      "ik": 1116,
      "John": 1117,
      "acle": 1118,
      "meet": 1119,
      "rup": 1120,
      "REF": 1121,
      "view": 1122,
      "election": 1123,
      "Kore": 1124,
      "aid": 1125,
      "left": 1126,
      "right": 1127,
      "ility": 1128,
      "expl": 1129,
      "sub": 1130,
      "while": 1131,
      "found": 1132,
      "alth": 1133,
      "Group": 1134,
      "ications": 1135,
      "ticker": 1136,
      "col": 1137,
      "EN": 1138,
      "threat": 1139,
      "enn": 1140,
      "attack": 1141,
      "reuters": 1142,
      "HREF": 1143,
      "terror": 1144,
      "cor": 1145,
      "Will": 1146,
      "14": 1147,
      "reen": 1148,
      "Australia": 1149,
      "Pakistan": 1150,
      "owing": 1151,
      "Gen": 1152,
      "attle": 1153,
      "court": 1154,
      "rew": 1155,
      "still": 1156,
      "come": 1157,
      "jo": 1158,
      "spec": 1159,
      "Bank": 1160,
      "sen": 1161,
      "charg": 1162,
      "ves": 1163,
      "investor": 1164,
      "itch": 1165,
      "30": 1166,
      "since": 1167,
      "ping": 1168,
      "Afgh": 1169,
      "OS": 1170,
      "After": 1171,
      "North": 1172,
      "mov": 1173,
      "cus": 1174,
      "Iran": 1175,
      "tow": 1176,
      "share": 1177,
      "industry": 1178,
      "asp": 1179,
      "ised": 1180,
      "being": 1181,
      "International": 1182,
      "ai": 1183,
      "men": 1184,
      "face": 1185,
      "move": 1186,
      "camp": 1187,
      "ban": 1188,
      "Prime": 1189,
      "music": 1190,
      "let": 1191,
      "ments": 1192,
      "erry": 1193,
      "police": 1194,
      "ploy": 1195,
      "ys": 1196,
      "tract": 1197,
      "ured": 1198,
      "ution": 1199,
      "Apple": 1200,
      "dead": 1201,
      "bers": 1202,
      "Sox": 1203,
      "ights": 1204,
      "return": 1205,
      "ench": 1206,
      "field": 1207,
      "agreed": 1208,
      "ool": 1209,
      "got": 1210,
      "even": 1211,
      "progr": 1212,
      "fall": 1213,
      "Wind": 1214,
      "aster": 1215,
      "Afghan": 1216,
      "chip": 1217,
      "nor": 1218,
      "War": 1219,
      "military": 1220,
      "sing": 1221,
      "uel": 1222,
      "Oracle": 1223,
      "NAS": 1224,
      "Dav": 1225,
      "ink": 1226,
      "People": 1227,
      "Full": 1228,
      "tro": 1229,
      "sour": 1230,
      "keep": 1231,
      "ific": 1232,
      "only": 1233,
      "Mo": 1234,
      "iver": 1235,
      "acqu": 1236,
      "ator": 1237,
      "like": 1238,
      "firm": 1239,
      "months": 1240,
      "rul": 1241,
      "half": 1242,
      "ats": 1243,
      "Israeli": 1244,
      "rupt": 1245,
      "nation": 1246,
      "lobal": 1247,
      "mar": 1248,
      "days": 1249,
      "One": 1250,
      "growth": 1251,
      "Afr": 1252,
      "aza": 1253,
      "Bar": 1254,
      "nuclear": 1255,
      "sold": 1256,
      "change": 1257,
      "ects": 1258,
      "quote": 1259,
      "INGTON": 1260,
      "blo": 1261,
      "Russian": 1262,
      "Mc": 1263,
      "stand": 1264,
      "because": 1265,
      "Olympic": 1266,
      "=/": 1267,
      "fullquote": 1268,
      "quickinfo": 1269,
      "aspx": 1270,
      "FullQuote": 1271,
      "Intel": 1272,
      "San": 1273,
      "turn": 1274,
      "ply": 1275,
      "UK": 1276,
      "num": 1277,
      "State": 1278,
      "Wash": 1279,
      "drug": 1280,
      "Soft": 1281,
      "hom": 1282,
      "ible": 1283,
      "England": 1284,
      "ose": 1285,
      "ism": 1286,
      "oss": 1287,
      "fact": 1288,
      "oci": 1289,
      "Russia": 1290,
      "champion": 1291,
      "Windows": 1292,
      "ought": 1293,
      "cal": 1294,
      "vent": 1295,
      "ste": 1296,
      "ross": 1297,
      "reet": 1298,
      "scor": 1299,
      "mobile": 1300,
      "ASH": 1301,
      "online": 1302,
      "Fall": 1303,
      "quest": 1304,
      "By": 1305,
      "points": 1306,
      "star": 1307,
      "ators": 1308,
      "ison": 1309,
      "ood": 1310,
      "Ass": 1311,
      "West": 1312,
      "36": 1313,
      "And": 1314,
      "Bag": 1315,
      "irect": 1316,
      "biggest": 1317,
      "ey": 1318,
      "otball": 1319,
      "services": 1320,
      "research": 1321,
      "thing": 1322,
      "But": 1323,
      "urrican": 1324,
      "including": 1325,
      "pite": 1326,
      "foll": 1327,
      "vice": 1328,
      "iers": 1329,
      "DA": 1330,
      "ASHINGTON": 1331,
      "stud": 1332,
      "WASHINGTON": 1333,
      "Canadian": 1334,
      "Indian": 1335,
      "EL": 1336,
      "where": 1337,
      "Washington": 1338,
      "cy": 1339,
      "National": 1340,
      "issu": 1341,
      "fight": 1342,
      "consum": 1343,
      "ney": 1344,
      "Sup": 1345,
      "tit": 1346,
      "there": 1347,
      "sw": 1348,
      "should": 1349,
      "dou": 1350,
      "amil": 1351,
      "remain": 1352,
      "ham": 1353,
      "wom": 1354,
      "product": 1355,
      "higher": 1356,
      "EU": 1357,
      "earnings": 1358,
      "space": 1359,
      "players": 1360,
      "lim": 1361,
      "free": 1362,
      "Sch": 1363,
      "ater": 1364,
      "latest": 1365,
      "compet": 1366,
      "hd": 1367,
      "uk": 1368,
      "18": 1369,
      "16": 1370,
      "low": 1371,
      "draw": 1372,
      "place": 1373,
      "city": 1374,
      "seven": 1375,
      "insur": 1376,
      "stra": 1377,
      "Gu": 1378,
      "using": 1379,
      "Dis": 1380,
      "need": 1381,
      "released": 1382,
      "near": 1383,
      "retail": 1384,
      "idn": 1385,
      "stock": 1386,
      "fut": 1387,
      "rose": 1388,
      "mem": 1389,
      "PeopleSoft": 1390,
      "Sports": 1391,
      "disc": 1392,
      "Del": 1393,
      "Ear": 1394,
      "Gaza": 1395,
      "hard": 1396,
      "Ro": 1397,
      "ends": 1398,
      "Baghd": 1399,
      "17": 1400,
      "point": 1401,
      "Baghdad": 1402,
      "ES": 1403,
      "ahead": 1404,
      "Research": 1405,
      "BC": 1406,
      "fac": 1407,
      "shares": 1408,
      "vir": 1409,
      "Yan": 1410,
      "ren": 1411,
      "Dec": 1412,
      "13": 1413,
      "iting": 1414,
      "ideo": 1415,
      "spe": 1416,
      "fell": 1417,
      "process": 1418,
      "ready": 1419,
      "Aug": 1420,
      "data": 1421,
      "games": 1422,
      "viol": 1423,
      "Network": 1424,
      "Bost": 1425,
      "Mart": 1426,
      "2005": 1427,
      "Am": 1428,
      "Boston": 1429,
      "much": 1430,
      "lines": 1431,
      "ative": 1432,
      "peace": 1433,
      "Stocks": 1434,
      "Dar": 1435,
      "Nov": 1436,
      "Sud": 1437,
      "kn": 1438,
      "raft": 1439,
      "offer": 1440,
      "imes": 1441,
      "Br": 1442,
      "polit": 1443,
      "match": 1444,
      "recent": 1445,
      "25": 1446,
      "Fin": 1447,
      "drop": 1448,
      "OND": 1449,
      "ize": 1450,
      "gold": 1451,
      "ze": 1452,
      ";&": 1453,
      "troops": 1454,
      "arge": 1455,
      "sure": 1456,
      "prom": 1457,
      "poss": 1458,
      "hist": 1459,
      "suc": 1460,
      "fat": 1461,
      "my": 1462,
      "mit": 1463,
      "onal": 1464,
      "ising": 1465,
      "Sudan": 1466,
      "oo": 1467,
      "break": 1468,
      "users": 1469,
      "step": 1470,
      "French": 1471,
      "Australian": 1472,
      "Out": 1473,
      "rival": 1474,
      "program": 1475,
      "ump": 1476,
      "demand": 1477,
      "oney": 1478,
      "Phil": 1479,
      "fail": 1480,
      "Ge": 1481,
      "inux": 1482,
      "build": 1483,
      "past": 1484,
      "Linux": 1485,
      "sum": 1486,
      "atic": 1487,
      "MS": 1488,
      "CA": 1489,
      "Two": 1490,
      "position": 1491,
      "ament": 1492,
      "effor": 1493,
      "main": 1494,
      "concer": 1495,
      "fourth": 1496,
      "good": 1497,
      "continu": 1498,
      "High": 1499,
      "acy": 1500,
      "aim": 1501,
      "ises": 1502,
      "Security": 1503,
      "minist": 1504,
      "price": 1505,
      "ancial": 1506,
      "LOND": 1507,
      "Ital": 1508,
      "press": 1509,
      "ref": 1510,
      "America": 1511,
      "around": 1512,
      "Ed": 1513,
      "aign": 1514,
      "LONDON": 1515,
      "Bu": 1516,
      "son": 1517,
      "release": 1518,
      "how": 1519,
      "contract": 1520,
      "ID": 1521,
      "May": 1522,
      "direct": 1523,
      "ior": 1524,
      "region": 1525,
      "Korea": 1526,
      "100": 1527,
      "trade": 1528,
      "inn": 1529,
      "economy": 1530,
      "iving": 1531,
      "international": 1532,
      "Kerry": 1533,
      "unt": 1534,
      "thor": 1535,
      "weeks": 1536,
      "ference": 1537,
      "Flor": 1538,
      "leaders": 1539,
      "called": 1540,
      "ized": 1541,
      "ocr": 1542,
      "forces": 1543,
      "Sy": 1544,
      "Wall": 1545,
      "support": 1546,
      "Ac": 1547,
      "ways": 1548,
      "boost": 1549,
      "executive": 1550,
      "iger": 1551,
      "igital": 1552,
      "Yanke": 1553,
      "rebel": 1554,
      "lik": 1555,
      "Update": 1556,
      "presidential": 1557,
      "Sw": 1558,
      "reports": 1559,
      "hol": 1560,
      "outs": 1561,
      "TV": 1562,
      "hip": 1563,
      "isco": 1564,
      "ases": 1565,
      "dom": 1566,
      "leading": 1567,
      "sol": 1568,
      "Fir": 1569,
      "Ag": 1570,
      "CH": 1571,
      "ida": 1572,
      "dri": 1573,
      "ults": 1574,
      "Street": 1575,
      "economic": 1576,
      "Associ": 1577,
      "bit": 1578,
      "ject": 1579,
      "cru": 1580,
      "Elect": 1581,
      "mail": 1582,
      "NASA": 1583,
      "sk": 1584,
      "level": 1585,
      "Pol": 1586,
      "lower": 1587,
      "care": 1588,
      "Not": 1589,
      "ruct": 1590,
      "your": 1591,
      "close": 1592,
      "Mot": 1593,
      "Per": 1594,
      "federal": 1595,
      "pop": 1596,
      "ecast": 1597,
      "fund": 1598,
      "elf": 1599,
      "Dem": 1600,
      "Par": 1601,
      "Press": 1602,
      "sent": 1603,
      "Union": 1604,
      "took": 1605,
      "Ang": 1606,
      "well": 1607,
      "ientists": 1608,
      "number": 1609,
      "ider": 1610,
      "eck": 1611,
      "investig": 1612,
      "den": 1613,
      "Florida": 1614,
      "Bra": 1615,
      "Mark": 1616,
      "Play": 1617,
      "Bay": 1618,
      "urricane": 1619,
      "Dep": 1620,
      "ging": 1621,
      "rece": 1622,
      "series": 1623,
      "see": 1624,
      "death": 1625,
      "title": 1626,
      "jobs": 1627,
      "ness": 1628,
      "Mac": 1629,
      "City": 1630,
      "investors": 1631,
      "Oc": 1632,
      "find": 1633,
      "Darfur": 1634,
      "interest": 1635,
      "Court": 1636,
      "ved": 1637,
      "fire": 1638,
      "nearly": 1639,
      "Arafat": 1640,
      "site": 1641,
      "Wal": 1642,
      "ided": 1643,
      "agreement": 1644,
      "ike": 1645,
      "sever": 1646,
      "wan": 1647,
      "veil": 1648,
      "school": 1649,
      "alleg": 1650,
      "Game": 1651,
      "mid": 1652,
      "away": 1653,
      "aff": 1654,
      "eff": 1655,
      "IP": 1656,
      "attacks": 1657,
      "deb": 1658,
      "Octo": 1659,
      "lit": 1660,
      "works": 1661,
      "ather": 1662,
      "case": 1663,
      "exper": 1664,
      "bod": 1665,
      "late": 1666,
      "All": 1667,
      "October": 1668,
      "global": 1669,
      "unications": 1670,
      "Japanese": 1671,
      "employ": 1672,
      "killing": 1673,
      "Yankees": 1674,
      "iam": 1675,
      "ration": 1676,
      "France": 1677,
      "campaign": 1678,
      "control": 1679,
      "mod": 1680,
      "pur": 1681,
      "September": 1682,
      "Ab": 1683,
      "workers": 1684,
      "road": 1685,
      "24": 1686,
      "network": 1687,
      "More": 1688,
      "curr": 1689,
      "cell": 1690,
      "Britain": 1691,
      "success": 1692,
      "ensive": 1693,
      "Lead": 1694,
      "Over": 1695,
      "touch": 1696,
      "ker": 1697,
      "source": 1698,
      "order": 1699,
      "Big": 1700,
      "Rec": 1701,
      "tax": 1702,
      "version": 1703,
      "nia": 1704,
      "best": 1705,
      "van": 1706,
      "life": 1707,
      "board": 1708,
      "Ham": 1709,
      "due": 1710,
      "legal": 1711,
      "Des": 1712,
      "det": 1713,
      "Federal": 1714,
      "Says": 1715,
      "small": 1716,
      "abor": 1717,
      "ene": 1718,
      "action": 1719,
      "ifor": 1720,
      "might": 1721,
      "ergy": 1722,
      "likely": 1723,
      "opt": 1724,
      "despite": 1725,
      "udge": 1726,
      "custom": 1727,
      "inc": 1728,
      "Ste": 1729,
      "Fed": 1730,
      "organ": 1731,
      "cast": 1732,
      "hum": 1733,
      "oto": 1734,
      "here": 1735,
      "push": 1736,
      "broad": 1737,
      "resp": 1738,
      "Sing": 1739,
      "ished": 1740,
      "akes": 1741,
      "Def": 1742,
      "SP": 1743,
      "Vir": 1744,
      "Commission": 1745,
      "Geor": 1746,
      "appl": 1747,
      "also": 1748,
      "anal": 1749,
      "Vi": 1750,
      "video": 1751,
      "idence": 1752,
      "Califor": 1753,
      "ades": 1754,
      "Sony": 1755,
      "rate": 1756,
      "rise": 1757,
      "arrest": 1758,
      "adr": 1759,
      "rap": 1760,
      "following": 1761,
      "wide": 1762,
      "adv": 1763,
      "Space": 1764,
      "coming": 1765,
      "oust": 1766,
      "ify": 1767,
      "vices": 1768,
      "outhern": 1769,
      "ides": 1770,
      "ired": 1771,
      "design": 1772,
      "General": 1773,
      "eas": 1774,
      "mor": 1775,
      "ills": 1776,
      "rip": 1777,
      "stop": 1778,
      "ung": 1779,
      "TH": 1780,
      "dist": 1781,
      "list": 1782,
      "lam": 1783,
      "ait": 1784,
      "TA": 1785,
      "amed": 1786,
      "making": 1787,
      "Bus": 1788,
      "bur": 1789,
      "wins": 1790,
      "force": 1791,
      "short": 1792,
      "capital": 1793,
      "famil": 1794,
      "La": 1795,
      "suit": 1796,
      "equ": 1797,
      "ened": 1798,
      "Tex": 1799,
      "imin": 1800,
      "trans": 1801,
      "Har": 1802,
      "Mer": 1803,
      "Su": 1804,
      "thers": 1805,
      "conf": 1806,
      "watch": 1807,
      "products": 1808,
      "hour": 1809,
      "race": 1810,
      "real": 1811,
      "ampions": 1812,
      "prot": 1813,
      "pat": 1814,
      "rock": 1815,
      "give": 1816,
      "ners": 1817,
      "whe": 1818,
      "orn": 1819,
      "Canada": 1820,
      "ca": 1821,
      "rad": 1822,
      "propos": 1823,
      "vision": 1824,
      "player": 1825,
      "California": 1826,
      "ites": 1827,
      "ving": 1828,
      "crit": 1829,
      "both": 1830,
      "Compu": 1831,
      "Green": 1832,
      "CEO": 1833,
      "clear": 1834,
      "mber": 1835,
      "customers": 1836,
      "band": 1837,
      "uj": 1838,
      "begin": 1839,
      "minister": 1840,
      "Nove": 1841,
      "regul": 1842,
      "GH": 1843,
      "SAN": 1844,
      "bed": 1845,
      "battle": 1846,
      "owed": 1847,
      "Pa": 1848,
      "shot": 1849,
      "football": 1850,
      "November": 1851,
      "ster": 1852,
      "),": 1853,
      "Tal": 1854,
      "charges": 1855,
      "Ne": 1856,
      "approv": 1857,
      "wireless": 1858,
      "Univers": 1859,
      "vo": 1860,
      "future": 1861,
      "Med": 1862,
      "El": 1863,
      "Ma": 1864,
      "Test": 1865,
      "decision": 1866,
      "gra": 1867,
      "ward": 1868,
      "Champion": 1869,
      "aseball": 1870,
      "fr": 1871,
      "sem": 1872,
      "rist": 1873,
      "engine": 1874,
      "ktop": 1875,
      "forecast": 1876,
      "met": 1877,
      "she": 1878,
      "ten": 1879,
      "author": 1880,
      "such": 1881,
      "Pat": 1882,
      "ined": 1883,
      "Comm": 1884,
      "ances": 1885,
      "national": 1886,
      "meeting": 1887,
      "Ber": 1888,
      "gas": 1889,
      "Computer": 1890,
      "Hol": 1891,
      "Micha": 1892,
      "foreign": 1893,
      "Sen": 1894,
      "This": 1895,
      "manager": 1896,
      "vol": 1897,
      "running": 1898,
      "winning": 1899,
      "RAN": 1900,
      "plac": 1901,
      "formation": 1902,
      "Profit": 1903,
      "Michael": 1904,
      "pitch": 1905,
      "systems": 1906,
      "clos": 1907,
      "iams": 1908,
      "financial": 1909,
      "Williams": 1910,
      "scored": 1911,
      "Sm": 1912,
      "ds": 1913,
      "div": 1914,
      "ension": 1915,
      "aud": 1916,
      "told": 1917,
      "Series": 1918,
      "taking": 1919,
      "stro": 1920,
      "Mus": 1921,
      "21": 1922,
      "que": 1923,
      "Gold": 1924,
      "digital": 1925,
      "few": 1926,
      "ians": 1927,
      "political": 1928,
      "anti": 1929,
      "Post": 1930,
      "pri": 1931,
      "side": 1932,
      "FL": 1933,
      "bled": 1934,
      "IA": 1935,
      "pull": 1936,
      "without": 1937,
      "airman": 1938,
      "ges": 1939,
      "rich": 1940,
      "GO": 1941,
      "proble": 1942,
      "gun": 1943,
      "reven": 1944,
      "results": 1945,
      "How": 1946,
      "unveil": 1947,
      "ona": 1948,
      "prise": 1949,
      "media": 1950,
      "Profile": 1951,
      "several": 1952,
      "whether": 1953,
      "IL": 1954,
      "load": 1955,
      "Shares": 1956,
      "straight": 1957,
      "inese": 1958,
      "every": 1959,
      "uge": 1960,
      "prove": 1961,
      "Comp": 1962,
      "tries": 1963,
      "System": 1964,
      "costs": 1965,
      "ric": 1966,
      "trial": 1967,
      "Texas": 1968,
      "urt": 1969,
      "going": 1970,
      "ming": 1971,
      "ware": 1972,
      "saying": 1973,
      "Hurricane": 1974,
      "hind": 1975,
      "light": 1976,
      "uck": 1977,
      "Do": 1978,
      "too": 1979,
      "strike": 1980,
      "Chinese": 1981,
      "elections": 1982,
      "settle": 1983,
      "launched": 1984,
      "Search": 1985,
      "gets": 1986,
      "ries": 1987,
      "defe": 1988,
      "lock": 1989,
      "expect": 1990,
      "eight": 1991,
      "Tur": 1992,
      "estern": 1993,
      "Inv": 1994,
      "Championship": 1995,
      "ta": 1996,
      "great": 1997,
      "ounce": 1998,
      "become": 1999,
      "Cong": 2000,
      "Ret": 2001,
      "oting": 2002,
      "gener": 2003,
      "far": 2004,
      "little": 2005,
      "rugg": 2006,
      "German": 2007,
      "appear": 2008,
      "Wireless": 2009,
      "erve": 2010,
      "term": 2011,
      "polic": 2012,
      "oks": 2013,
      "artment": 2014,
      "retary": 2015,
      "iP": 2016,
      "uce": 2017,
      "uts": 2018,
      "Germany": 2019,
      "Lo": 2020,
      "house": 2021,
      "comple": 2022,
      "ability": 2023,
      "iff": 2024,
      "bankrupt": 2025,
      "Democr": 2026,
      "better": 2027,
      "qual": 2028,
      "House": 2029,
      "cop": 2030,
      "atter": 2031,
      "agency": 2032,
      "weekend": 2033,
      "across": 2034,
      "Stor": 2035,
      "does": 2036,
      "cond": 2037,
      "lost": 2038,
      "osp": 2039,
      "phones": 2040,
      "hot": 2041,
      "accoun": 2042,
      "Oct": 2043,
      "vote": 2044,
      "chang": 2045,
      "secut": 2046,
      "management": 2047,
      "increase": 2048,
      "Tro": 2049,
      "Islam": 2050,
      "quarterly": 2051,
      "Gian": 2052,
      "anned": 2053,
      "speed": 2054,
      "rank": 2055,
      "ining": 2056,
      "rown": 2057,
      "ugh": 2058,
      "stat": 2059,
      "Fo": 2060,
      "Chief": 2061,
      "avy": 2062,
      "possible": 2063,
      "resh": 2064,
      "ahoo": 2065,
      "analyst": 2066,
      "Att": 2067,
      "wound": 2068,
      "dr": 2069,
      "priv": 2070,
      "barrel": 2071,
      "women": 2072,
      "Just": 2073,
      "etro": 2074,
      "Yahoo": 2075,
      "icket": 2076,
      "history": 2077,
      "health": 2078,
      "ession": 2079,
      "ection": 2080,
      "belie": 2081,
      "Afghanistan": 2082,
      "ified": 2083,
      "iPod": 2084,
      "consumer": 2085,
      "perfor": 2086,
      "child": 2087,
      "aper": 2088,
      "500": 2089,
      "ana": 2090,
      "Me": 2091,
      "prison": 2092,
      "chall": 2093,
      "Bla": 2094,
      "rod": 2095,
      "club": 2096,
      "makers": 2097,
      "OL": 2098,
      "poll": 2099,
      "hostage": 2100,
      "era": 2101,
      "morning": 2102,
      "came": 2103,
      "ived": 2104,
      "lier": 2105,
      "August": 2106,
      "icans": 2107,
      "Indones": 2108,
      "then": 2109,
      "David": 2110,
      "Part": 2111,
      "\\\\": 2112,
      "euro": 2113,
      "rates": 2114,
      "Bill": 2115,
      "EM": 2116,
      "AD": 2117,
      "inst": 2118,
      "hopes": 2119,
      "ll": 2120,
      "attem": 2121,
      "Tech": 2122,
      "ips": 2123,
      "ousands": 2124,
      "East": 2125,
      "fans": 2126,
      "foc": 2127,
      "king": 2128,
      "same": 2129,
      "warned": 2130,
      "iles": 2131,
      "Department": 2132,
      "members": 2133,
      "operating": 2134,
      "cash": 2135,
      "ufact": 2136,
      "corpor": 2137,
      "Pri": 2138,
      "adium": 2139,
      "ience": 2140,
      "Lond": 2141,
      "Nations": 2142,
      "Pack": 2143,
      "asser": 2144,
      "accused": 2145,
      "showed": 2146,
      "London": 2147,
      "Cr": 2148,
      "LE": 2149,
      "ino": 2150,
      "Cent": 2151,
      "uses": 2152,
      "Chic": 2153,
      "ape": 2154,
      "touchdown": 2155,
      "td": 2156,
      "among": 2157,
      "Deal": 2158,
      "goti": 2159,
      "IR": 2160,
      "Miss": 2161,
      "medal": 2162,
      "party": 2163,
      "When": 2164,
      "NFL": 2165,
      "seek": 2166,
      "Real": 2167,
      "amid": 2168,
      "Africa": 2169,
      "Ari": 2170,
      "Paul": 2171,
      "fuel": 2172,
      "aged": 2173,
      "Jan": 2174,
      "did": 2175,
      "oid": 2176,
      "Char": 2177,
      "access": 2178,
      "super": 2179,
      "posted": 2180,
      "ially": 2181,
      "Falluj": 2182,
      "cial": 2183,
      "trading": 2184,
      "thens": 2185,
      "fra": 2186,
      "Atl": 2187,
      "explos": 2188,
      "human": 2189,
      "Arsen": 2190,
      "Cub": 2191,
      "ety": 2192,
      "behind": 2193,
      "22": 2194,
      "Report": 2195,
      "owl": 2196,
      "Black": 2197,
      "University": 2198,
      "Former": 2199,
      "takes": 2200,
      "bab": 2201,
      "activ": 2202,
      "ization": 2203,
      "Online": 2204,
      "gress": 2205,
      "infl": 2206,
      "Bel": 2207,
      "reas": 2208,
      "Virgin": 2209,
      "performan": 2210,
      "violence": 2211,
      "itive": 2212,
      "militants": 2213,
      "vey": 2214,
      "visit": 2215,
      "prepar": 2216,
      "Braz": 2217,
      "dle": 2218,
      "emer": 2219,
      "print": 2220,
      "Spain": 2221,
      "Ry": 2222,
      "information": 2223,
      "claims": 2224,
      "First": 2225,
      "ground": 2226,
      "Athens": 2227,
      "Jones": 2228,
      "Muslim": 2229,
      "Top": 2230,
      "yo": 2231,
      "strugg": 2232,
      "signed": 2233,
      "BS": 2234,
      "ties": 2235,
      "init": 2236,
      "popular": 2237,
      "NBA": 2238,
      "UP": 2239,
      "ced": 2240,
      "40": 2241,
      "Ken": 2242,
      "Business": 2243,
      "minut": 2244,
      "Invest": 2245,
      "tool": 2246,
      "ota": 2247,
      "bring": 2248,
      "Chicago": 2249,
      "Lou": 2250,
      "ared": 2251,
      "23": 2252,
      "Atlant": 2253,
      "Brazil": 2254,
      "Next": 2255,
      "yn": 2256,
      "ately": 2257,
      "Sales": 2258,
      "Win": 2259,
      "sim": 2260,
      "ena": 2261,
      "ication": 2262,
      "ribut": 2263,
      "contin": 2264,
      "IM": 2265,
      "injured": 2266,
      "FRAN": 2267,
      "PM": 2268,
      "mass": 2269,
      "mir": 2270,
      "mess": 2271,
      "ories": 2272,
      "ama": 2273,
      "Olympics": 2274,
      "opening": 2275,
      "Ver": 2276,
      "val": 2277,
      "Americans": 2278,
      "study": 2279,
      "NY": 2280,
      "ij": 2281,
      "ONT": 2282,
      "television": 2283,
      "almost": 2284,
      "began": 2285,
      "crude": 2286,
      "pot": 2287,
      "appe": 2288,
      "African": 2289,
      "earlier": 2290,
      "scientists": 2291,
      "ENS": 2292,
      "ATH": 2293,
      "28": 2294,
      "ees": 2295,
      "rac": 2296,
      "takeover": 2297,
      "Houst": 2298,
      "zer": 2299,
      "crash": 2300,
      "Blair": 2301,
      "kidn": 2302,
      "Houston": 2303,
      "helped": 2304,
      "bankruptcy": 2305,
      "Giants": 2306,
      "27": 2307,
      "Ltd": 2308,
      "unit": 2309,
      "Star": 2310,
      "DV": 2311,
      "fast": 2312,
      "profits": 2313,
      "UR": 2314,
      "andid": 2315,
      "town": 2316,
      "soldiers": 2317,
      "HP": 2318,
      "ivil": 2319,
      "Los": 2320,
      "Inter": 2321,
      "nine": 2322,
      "199": 2323,
      "ove": 2324,
      "ford": 2325,
      "ourn": 2326,
      "Champions": 2327,
      "Che": 2328,
      "rain": 2329,
      "growing": 2330,
      "offering": 2331,
      "weak": 2332,
      "ption": 2333,
      "energy": 2334,
      "eles": 2335,
      "6666": 2336,
      "senior": 2337,
      "ministration": 2338,
      "gl": 2339,
      "blast": 2340,
      "weap": 2341,
      "Set": 2342,
      "gent": 2343,
      "introd": 2344,
      "double": 2345,
      "ott": 2346,
      "those": 2347,
      "soon": 2348,
      "carri": 2349,
      "Ann": 2350,
      "performance": 2351,
      "Pac": 2352,
      "fre": 2353,
      "aps": 2354,
      "production": 2355,
      "Ter": 2356,
      "aver": 2357,
      "died": 2358,
      "Secretary": 2359,
      "alleged": 2360,
      "Card": 2361,
      "unity": 2362,
      "known": 2363,
      "Down": 2364,
      "judge": 2365,
      "Mid": 2366,
      "must": 2367,
      "che": 2368,
      "suff": 2369,
      "present": 2370,
      "money": 2371,
      "oods": 2372,
      "Games": 2373,
      "Li": 2374,
      "Grand": 2375,
      "sid": 2376,
      "negoti": 2377,
      "Asia": 2378,
      "ked": 2379,
      "heart": 2380,
      "ho": 2381,
      "yet": 2382,
      "apped": 2383,
      "MP": 2384,
      "cuts": 2385,
      "wood": 2386,
      "Niger": 2387,
      "bound": 2388,
      "northern": 2389,
      "career": 2390,
      "Egy": 2391,
      "Ke": 2392,
      "YO": 2393,
      "icks": 2394,
      "DVD": 2395,
      "went": 2396,
      "Arab": 2397,
      "eing": 2398,
      "league": 2399,
      "Egypt": 2400,
      "vious": 2401,
      "uction": 2402,
      "ece": 2403,
      "conference": 2404,
      "aled": 2405,
      "manufact": 2406,
      "general": 2407,
      "di": 2408,
      "icide": 2409,
      "ential": 2410,
      "ife": 2411,
      "okes": 2412,
      "revenue": 2413,
      "clim": 2414,
      "defense": 2415,
      "Airways": 2416,
      "asing": 2417,
      "goal": 2418,
      "southern": 2419,
      "ipp": 2420,
      "If": 2421,
      "vil": 2422,
      "writ": 2423,
      "err": 2424,
      "Service": 2425,
      "utch": 2426,
      "size": 2427,
      "hours": 2428,
      "computers": 2429,
      "electron": 2430,
      "CP": 2431,
      "Hal": 2432,
      "dam": 2433,
      "corporate": 2434,
      "pack": 2435,
      "personal": 2436,
      "Three": 2437,
      "spam": 2438,
      "ATHENS": 2439,
      "ler": 2440,
      "else": 2441,
      "Franc": 2442,
      "sched": 2443,
      "Sharon": 2444,
      "efforts": 2445,
      "overs": 2446,
      "George": 2447,
      "Back": 2448,
      "already": 2449,
      "struct": 2450,
      "capt": 2451,
      "mult": 2452,
      "union": 2453,
      "firms": 2454,
      "announce": 2455,
      "Kar": 2456,
      "markets": 2457,
      "Rad": 2458,
      "aging": 2459,
      "Mal": 2460,
      "ST": 2461,
      "ues": 2462,
      "raised": 2463,
      "Tok": 2464,
      "undred": 2465,
      "151": 2466,
      "web": 2467,
      "CIS": 2468,
      "inals": 2469,
      "ospital": 2470,
      "Im": 2471,
      "They": 2472,
      "concerns": 2473,
      "Put": 2474,
      "emb": 2475,
      "chester": 2476,
      "book": 2477,
      "withdraw": 2478,
      "worth": 2479,
      "parent": 2480,
      "current": 2481,
      "Au": 2482,
      "Fire": 2483,
      "gave": 2484,
      "seem": 2485,
      "calls": 2486,
      "asket": 2487,
      "Hold": 2488,
      "onto": 2489,
      "box": 2490,
      "countries": 2491,
      "Reserve": 2492,
      "26": 2493,
      "lex": 2494,
      "Association": 2495,
      "itor": 2496,
      "recover": 2497,
      "makes": 2498,
      "Italian": 2499,
      "store": 2500,
      "Louis": 2501,
      "civil": 2502,
      "west": 2503,
      "reme": 2504,
      "shop": 2505,
      "enger": 2506,
      "Systems": 2507,
      "CISCO": 2508,
      "Bomb": 2509,
      "NA": 2510,
      "yards": 2511,
      "une": 2512,
      "imp": 2513,
      "taken": 2514,
      "atell": 2515,
      "cred": 2516,
      "Communications": 2517,
      "80": 2518,
      "Sl": 2519,
      "da": 2520,
      "ream": 2521,
      "trying": 2522,
      "block": 2523,
      "FRANCISCO": 2524,
      "Kill": 2525,
      "avail": 2526,
      "KYO": 2527,
      "ening": 2528,
      "reached": 2529,
      "enough": 2530,
      "iance": 2531,
      "expand": 2532,
      "Software": 2533,
      "Tokyo": 2534,
      "TOKYO": 2535,
      "charged": 2536,
      "Earth": 2537,
      "sale": 2538,
      "35": 2539,
      "Counc": 2540,
      "ED": 2541,
      "sug": 2542,
      "anced": 2543,
      "continue": 2544,
      "swe": 2545,
      "within": 2546,
      "Council": 2547,
      "EC": 2548,
      "Sur": 2549,
      "Airlines": 2550,
      "outside": 2551,
      "Dell": 2552,
      "GA": 2553,
      "Ivan": 2554,
      "olf": 2555,
      "allow": 2556,
      "Arsenal": 2557,
      "FT": 2558,
      "resol": 2559,
      "desktop": 2560,
      "astern": 2561,
      "cover": 2562,
      "card": 2563,
      "don": 2564,
      "White": 2565,
      "weapons": 2566,
      "Tit": 2567,
      "Val": 2568,
      "candid": 2569,
      "arrested": 2570,
      "Cisco": 2571,
      ").": 2572,
      "flo": 2573,
      "wind": 2574,
      "teams": 2575,
      "file": 2576,
      "stake": 2577,
      "ily": 2578,
      "anger": 2579,
      "Cont": 2580,
      "aimed": 2581,
      "looking": 2582,
      "Law": 2583,
      "Center": 2584,
      "giving": 2585,
      "leav": 2586,
      "occer": 2587,
      "Tor": 2588,
      "opposition": 2589,
      "ains": 2590,
      "rebels": 2591,
      "ually": 2592,
      "local": 2593,
      "domin": 2594,
      "Mos": 2595,
      "reve": 2596,
      "airline": 2597,
      "until": 2598,
      "Tra": 2599,
      "Vo": 2600,
      "others": 2601,
      "aring": 2602,
      "trou": 2603,
      "range": 2604,
      "continued": 2605,
      "pract": 2606,
      "rong": 2607,
      "very": 2608,
      "slow": 2609,
      "ert": 2610,
      "itions": 2611,
      "selling": 2612,
      "THE": 2613,
      "bes": 2614,
      "dep": 2615,
      "rally": 2616,
      "analysts": 2617,
      "From": 2618,
      "fav": 2619,
      "ender": 2620,
      "office": 2621,
      "competition": 2622,
      "Time": 2623,
      "coll": 2624,
      "lege": 2625,
      "Dollar": 2626,
      "FONT": 2627,
      "starting": 2628,
      "Gre": 2629,
      "Miam": 2630,
      "enge": 2631,
      "rial": 2632,
      "suppl": 2633,
      "deliver": 2634,
      "Madr": 2635,
      "Power": 2636,
      "Yasser": 2637,
      "self": 2638,
      "enef": 2639,
      "Stud": 2640,
      "question": 2641,
      "drive": 2642,
      "rian": 2643,
      "ulation": 2644,
      "resign": 2645,
      "invol": 2646,
      "stead": 2647,
      "effort": 2648,
      "Miami": 2649,
      "Music": 2650,
      "fig": 2651,
      "failed": 2652,
      "Hew": 2653,
      "Plan": 2654,
      "Manchester": 2655,
      "Rock": 2656,
      "though": 2657,
      "spot": 2658,
      "spokes": 2659,
      "track": 2660,
      "Blue": 2661,
      "body": 2662,
      "hail": 2663,
      "central": 2664,
      "previous": 2665,
      "Tai": 2666,
      "download": 2667,
      "Army": 2668,
      "championship": 2669,
      "authorities": 2670,
      "tor": 2671,
      "once": 2672,
      "oung": 2673,
      "Hel": 2674,
      "fresh": 2675,
      "inch": 2676,
      "delay": 2677,
      "Now": 2678,
      "wants": 2679,
      "ront": 2680,
      "Palestinians": 2681,
      "asketball": 2682,
      "Again": 2683,
      "Cap": 2684,
      "each": 2685,
      "finance": 2686,
      "retailer": 2687,
      "rej": 2688,
      "center": 2689,
      "charge": 2690,
      "iven": 2691,
      "event": 2692,
      "Davis": 2693,
      "My": 2694,
      "XP": 2695,
      "uly": 2696,
      "There": 2697,
      "Asian": 2698,
      "disput": 2699,
      "cris": 2700,
      "Christ": 2701,
      "spending": 2702,
      "strate": 2703,
      "29": 2704,
      "finally": 2705,
      "seen": 2706,
      "firmed": 2707,
      "400": 2708,
      "comes": 2709,
      "quarterback": 2710,
      "suggest": 2711,
      "thousands": 2712,
      "stay": 2713,
      "further": 2714,
      "policy": 2715,
      "RO": 2716,
      "Madrid": 2717,
      "Em": 2718,
      "cour": 2719,
      "name": 2720,
      "rights": 2721,
      "investment": 2722,
      "rising": 2723,
      "filed": 2724,
      "bird": 2725,
      "room": 2726,
      "ift": 2727,
      "Expl": 2728,
      "gers": 2729,
      "ude": 2730,
      "vert": 2731,
      "Mobile": 2732,
      "named": 2733,
      "icip": 2734,
      "pred": 2735,
      "certain": 2736,
      "cri": 2737,
      "Day": 2738,
      "UL": 2739,
      "bill": 2740,
      "brow": 2741,
      "DAD": 2742,
      "Je": 2743,
      "Sol": 2744,
      "executives": 2745,
      "toward": 2746,
      "pan": 2747,
      "BAGH": 2748,
      "pressure": 2749,
      "woman": 2750,
      "ournal": 2751,
      "flight": 2752,
      "family": 2753,
      "Francisco": 2754,
      "crisis": 2755,
      "2006": 2756,
      "travel": 2757,
      "BAGHDAD": 2758,
      "fighting": 2759,
      "Drug": 2760,
      "ee": 2761,
      "chairman": 2762,
      "special": 2763,
      "pon": 2764,
      "Enter": 2765,
      "gains": 2766,
      "atellite": 2767,
      "Pay": 2768,
      "Tom": 2769,
      "fired": 2770,
      "rivals": 2771,
      "operations": 2772,
      "designed": 2773,
      "Prem": 2774,
      "ico": 2775,
      "shut": 2776,
      "onds": 2777,
      "ims": 2778,
      "Stadium": 2779,
      "Prices": 2780,
      "fraud": 2781,
      "hits": 2782,
      "Calif": 2783,
      "That": 2784,
      "Trade": 2785,
      "children": 2786,
      "sho": 2787,
      "injury": 2788,
      "large": 2789,
      "rovers": 2790,
      "wash": 2791,
      "Dow": 2792,
      "pil": 2793,
      "Mil": 2794,
      "cle": 2795,
      "Nok": 2796,
      "commer": 2797,
      "getting": 2798,
      "Bowl": 2799,
      "unes": 2800,
      "AMD": 2801,
      "icted": 2802,
      "comb": 2803,
      "commit": 2804,
      "Motor": 2805,
      "sn": 2806,
      "risk": 2807,
      "AC": 2808,
      "tee": 2809,
      ".'": 2810,
      "ander": 2811,
      "ruling": 2812,
      "ATE": 2813,
      "Congress": 2814,
      "Astro": 2815,
      "Park": 2816,
      "insurance": 2817,
      "equip": 2818,
      "bad": 2819,
      "liament": 2820,
      "powerful": 2821,
      "closed": 2822,
      "Central": 2823,
      "Nokia": 2824,
      "HL": 2825,
      "IC": 2826,
      "western": 2827,
      "Coast": 2828,
      "bas": 2829,
      "acce": 2830,
      "elt": 2831,
      "dollars": 2832,
      "undreds": 2833,
      "Dutch": 2834,
      "know": 2835,
      "dog": 2836,
      "estim": 2837,
      "working": 2838,
      "holiday": 2839,
      "Rod": 2840,
      "urities": 2841,
      "ails": 2842,
      "Job": 2843,
      "supply": 2844,
      "CBS": 2845,
      "Sil": 2846,
      "Stock": 2847,
      "Ir": 2848,
      "Exchange": 2849,
      "Bal": 2850,
      "pled": 2851,
      "protest": 2852,
      "tour": 2853,
      "heavy": 2854,
      "Mex": 2855,
      "Nas": 2856,
      "canc": 2857,
      "times": 2858,
      "planned": 2859,
      "Boeing": 2860,
      "Fact": 2861,
      "IE": 2862,
      "Some": 2863,
      "benef": 2864,
      "sy": 2865,
      "Buy": 2866,
      "TS": 2867,
      "fri": 2868,
      "pick": 2869,
      "rob": 2870,
      "never": 2871,
      "Offic": 2872,
      "craft": 2873,
      "want": 2874,
      "porters": 2875,
      "phy": 2876,
      "discuss": 2877,
      "Italy": 2878,
      "Ire": 2879,
      "driv": 2880,
      "Milit": 2881,
      "arra": 2882,
      "iding": 2883,
      "annual": 2884,
      "Ryder": 2885,
      "happ": 2886,
      "prime": 2887,
      "Singh": 2888,
      "compl": 2889,
      "conv": 2890,
      "spect": 2891,
      "Delta": 2892,
      "49": 2893,
      "ANG": 2894,
      "investigation": 2895,
      "problems": 2896,
      "inning": 2897,
      "review": 2898,
      "icit": 2899,
      "fears": 2900,
      "lebr": 2901,
      "missing": 2902,
      "operation": 2903,
      "businesses": 2904,
      "available": 2905,
      "Ireland": 2906,
      "BE": 2907,
      "sites": 2908,
      "ount": 2909,
      "area": 2910,
      "Talks": 2911,
      "60": 2912,
      "provide": 2913,
      "food": 2914,
      "turned": 2915,
      "Uk": 2916,
      "import": 2917,
      "terrorism": 2918,
      "expectations": 2919,
      "Islamic": 2920,
      "Astros": 2921,
      "Hen": 2922,
      "LA": 2923,
      "Exp": 2924,
      "Tenn": 2925,
      "Tony": 2926,
      "cu": 2927,
      "asked": 2928,
      "issue": 2929,
      "han": 2930,
      "itness": 2931,
      "log": 2932,
      "survey": 2933,
      "Angeles": 2934,
      "Pan": 2935,
      "think": 2936,
      "uced": 2937,
      "playoff": 2938,
      "chips": 2939,
      "Paris": 2940,
      "water": 2941,
      "chance": 2942,
      "rief": 2943,
      "ula": 2944,
      "appro": 2945,
      "consid": 2946,
      "Ukra": 2947,
      "army": 2948,
      "attempt": 2949,
      "UPD": 2950,
      "ceed": 2951,
      "Johns": 2952,
      "illa": 2953,
      "hope": 2954,
      "stores": 2955,
      "Super": 2956,
      "Four": 2957,
      "GM": 2958,
      "pair": 2959,
      "cho": 2960,
      "iffer": 2961,
      "Cru": 2962,
      "backs": 2963,
      "treat": 2964,
      "confirmed": 2965,
      "Span": 2966,
      "decided": 2967,
      "runs": 2968,
      "Police": 2969,
      "End": 2970,
      "statement": 2971,
      "private": 2972,
      "Taiwan": 2973,
      "UPDATE": 2974,
      "Po": 2975,
      "ria": 2976,
      "streng": 2977,
      "Team": 2978,
      "Minn": 2979,
      "Yuk": 2980,
      "counter": 2981,
      "bor": 2982,
      "conn": 2983,
      "claimed": 2984,
      "development": 2985,
      "consumers": 2986,
      "crow": 2987,
      "rules": 2988,
      "approved": 2989,
      "focus": 2990,
      "Tour": 2991,
      "baseball": 2992,
      "Call": 2993,
      "LS": 2994,
      "Wins": 2995,
      "Johnson": 2996,
      ";,": 2997,
      "vot": 2998,
      "viron": 2999,
      "December": 3000,
      "tell": 3001,
      "wal": 3002,
      "ini": 3003,
      "ifth": 3004,
      "improve": 3005,
      "ctions": 3006,
      "discover": 3007,
      "Yukos": 3008,
      "Fore": 3009,
      "hospital": 3010,
      "radio": 3011,
      "Football": 3012,
      "FA": 3013,
      "ery": 3014,
      "Treas": 3015,
      "ya": 3016,
      "station": 3017,
      "server": 3018,
      "Seattle": 3019,
      "Sha": 3020,
      "chnologies": 3021,
      "You": 3022,
      "above": 3023,
      "unveiled": 3024,
      "Look": 3025,
      "oming": 3026,
      "seed": 3027,
      "daq": 3028,
      "Rob": 3029,
      "inf": 3030,
      "ature": 3031,
      "Disney": 3032,
      "Rich": 3033,
      "Mich": 3034,
      "ixed": 3035,
      "eric": 3036,
      "tech": 3037,
      "color": 3038,
      "mort": 3039,
      "vet": 3040,
      "agu": 3041,
      "plant": 3042,
      "ume": 3043,
      "warning": 3044,
      "Putin": 3045,
      "Foreign": 3046,
      "Cam": 3047,
      "LAN": 3048,
      "ease": 3049,
      "mag": 3050,
      "anium": 3051,
      "leave": 3052,
      "AG": 3053,
      "ction": 3054,
      "class": 3055,
      "holders": 3056,
      "arriv": 3057,
      "Ant": 3058,
      "Hait": 3059,
      "stit": 3060,
      "separ": 3061,
      "suicide": 3062,
      "regulators": 3063,
      "front": 3064,
      "tur": 3065,
      "los": 3066,
      "2003": 3067,
      "controvers": 3068,
      "captain": 3069,
      "Kash": 3070,
      "ention": 3071,
      "medi": 3072,
      "Fallujah": 3073,
      "BR": 3074,
      "Woods": 3075,
      "bn": 3076,
      "wid": 3077,
      "Wi": 3078,
      "kes": 3079,
      "shows": 3080,
      "clash": 3081,
      "opened": 3082,
      "Kashmir": 3083,
      "tough": 3084,
      "given": 3085,
      "ari": 3086,
      "suspected": 3087,
      "Record": 3088,
      "Year": 3089,
      "tourn": 3090,
      "purch": 3091,
      "defeat": 3092,
      "Bang": 3093,
      "Brown": 3094,
      "gents": 3095,
      "Indust": 3096,
      "atures": 3097,
      "ring": 3098,
      "atives": 3099,
      "probe": 3100,
      "OK": 3101,
      "cos": 3102,
      "lose": 3103,
      "groups": 3104,
      "Fi": 3105,
      "olph": 3106,
      "building": 3107,
      "Roy": 3108,
      "lawsuit": 3109,
      "Launch": 3110,
      "Ty": 3111,
      "Tim": 3112,
      "ern": 3113,
      "saf": 3114,
      "debt": 3115,
      "generation": 3116,
      "played": 3117,
      "equipment": 3118,
      "uments": 3119,
      "employees": 3120,
      "celebr": 3121,
      "offers": 3122,
      "effect": 3123,
      "ranked": 3124,
      "pen": 3125,
      "ilt": 3126,
      "aking": 3127,
      "Strip": 3128,
      "merger": 3129,
      "awa": 3130,
      "Data": 3131,
      "OT": 3132,
      "Sk": 3133,
      "dest": 3134,
      "raise": 3135,
      "losing": 3136,
      "Mont": 3137,
      "lands": 3138,
      "servers": 3139,
      "later": 3140,
      "issues": 3141,
      "Pit": 3142,
      "ockey": 3143,
      "critic": 3144,
      "BER": 3145,
      "lish": 3146,
      "ars": 3147,
      "augh": 3148,
      "vention": 3149,
      "Mike": 3150,
      "newsp": 3151,
      "Health": 3152,
      "Feder": 3153,
      "Global": 3154,
      "bi": 3155,
      "debut": 3156,
      "roll": 3157,
      "increased": 3158,
      "acquis": 3159,
      "faces": 3160,
      "depend": 3161,
      "ained": 3162,
      "blood": 3163,
      "Minnes": 3164,
      "arch": 3165,
      "closer": 3166,
      "moved": 3167,
      "CHI": 3168,
      ".\"": 3169,
      "AB": 3170,
      "NHL": 3171,
      "OP": 3172,
      "asters": 3173,
      "added": 3174,
      "Minnesota": 3175,
      "Econ": 3176,
      "Its": 3177,
      "inks": 3178,
      "administration": 3179,
      "She": 3180,
      "jail": 3181,
      "ively": 3182,
      "Indonesia": 3183,
      "Detro": 3184,
      "hic": 3185,
      "andal": 3186,
      "Rom": 3187,
      "Sprint": 3188,
      "ifying": 3189,
      "Pow": 3190,
      "along": 3191,
      "sex": 3192,
      "kept": 3193,
      "losses": 3194,
      "Steve": 3195,
      "Greece": 3196,
      "vironment": 3197,
      "Detroit": 3198,
      "slight": 3199,
      "Ford": 3200,
      "ource": 3201,
      "Consum": 3202,
      "spokesman": 3203,
      "check": 3204,
      "urged": 3205,
      "project": 3206,
      "north": 3207,
      "photo": 3208,
      "Port": 3209,
      "iracy": 3210,
      "devices": 3211,
      "outlook": 3212,
      "Democratic": 3213,
      "mas": 3214,
      "70": 3215,
      "uary": 3216,
      "elph": 3217,
      "itional": 3218,
      "ilities": 3219,
      "Tele": 3220,
      "ibility": 3221,
      "onald": 3222,
      "received": 3223,
      "Econom": 3224,
      "Rise": 3225,
      "upgr": 3226,
      "guard": 3227,
      "Market": 3228,
      "elphia": 3229,
      "rout": 3230,
      "earth": 3231,
      "division": 3232,
      "Field": 3233,
      "Grow": 3234,
      "ane": 3235,
      "looks": 3236,
      "Shi": 3237,
      "winter": 3238,
      "plom": 3239,
      "umb": 3240,
      "avoid": 3241,
      "Ze": 3242,
      "itors": 3243,
      "mal": 3244,
      "communications": 3245,
      "washington": 3246,
      "Bob": 3247,
      "cat": 3248,
      "ded": 3249,
      "yle": 3250,
      "uled": 3251,
      "umped": 3252,
      "serious": 3253,
      "playing": 3254,
      "posed": 3255,
      "washingtonpost": 3256,
      "Ow": 3257,
      "san": 3258,
      "tim": 3259,
      "rev": 3260,
      "role": 3261,
      "improv": 3262,
      "wanted": 3263,
      "rocket": 3264,
      "July": 3265,
      "Labor": 3266,
      "ilty": 3267,
      "lywood": 3268,
      "weight": 3269,
      "militant": 3270,
      "applications": 3271,
      "illing": 3272,
      "holding": 3273,
      "zz": 3274,
      "forward": 3275,
      "Patri": 3276,
      "Virginia": 3277,
      "MC": 3278,
      "sets": 3279,
      "staff": 3280,
      "Chelse": 3281,
      "create": 3282,
      "tournament": 3283,
      "Major": 3284,
      "Server": 3285,
      "Atlanta": 3286,
      "Rog": 3287,
      "cam": 3288,
      "wa": 3289,
      "uries": 3290,
      "proper": 3291,
      "partners": 3292,
      "researchers": 3293,
      "Saf": 3294,
      "didn": 3295,
      "mis": 3296,
      "forced": 3297,
      "missed": 3298,
      "browser": 3299,
      "Home": 3300,
      "fly": 3301,
      "wild": 3302,
      "atory": 3303,
      "aland": 3304,
      "Sign": 3305,
      "batt": 3306,
      "fifth": 3307,
      "ma": 3308,
      "Cardinals": 3309,
      "Chelsea": 3310,
      "Naj": 3311,
      "bles": 3312,
      "differ": 3313,
      "gage": 3314,
      "reason": 3315,
      "ett": 3316,
      "Technology": 3317,
      "carry": 3318,
      "Factor": 3319,
      "Coun": 3320,
      "anks": 3321,
      "appoint": 3322,
      "related": 3323,
      "wounded": 3324,
      "January": 3325,
      "rebound": 3326,
      "quir": 3327,
      "loc": 3328,
      "Korean": 3329,
      "drugs": 3330,
      "Hall": 3331,
      "storage": 3332,
      "Get": 3333,
      "pool": 3334,
      "meas": 3335,
      "MW": 3336,
      "fort": 3337,
      "single": 3338,
      "Nasdaq": 3339,
      "mach": 3340,
      "oon": 3341,
      "tegr": 3342,
      "Form": 3343,
      "ences": 3344,
      "ruled": 3345,
      "Philipp": 3346,
      "Najaf": 3347,
      "Mass": 3348,
      "hy": 3349,
      "Office": 3350,
      "Spanish": 3351,
      "tight": 3352,
      "finish": 3353,
      "Adv": 3354,
      "Howard": 3355,
      "Nextel": 3356,
      "Crude": 3357,
      "rust": 3358,
      "joint": 3359,
      "enez": 3360,
      "tainment": 3361,
      "SEC": 3362,
      "31": 3363,
      "Oh": 3364,
      "hands": 3365,
      "jump": 3366,
      "ids": 3367,
      "advert": 3368,
      "networks": 3369,
      "distribut": 3370,
      "Don": 3371,
      "Low": 3372,
      "decl": 3373,
      "Karz": 3374,
      "ova": 3375,
      "What": 3376,
      "NewsFactor": 3377,
      "inger": 3378,
      "Station": 3379,
      "signs": 3380,
      "Toronto": 3381,
      "Baseball": 3382,
      "pound": 3383,
      "south": 3384,
      "spac": 3385,
      "Class": 3386,
      "Hollywood": 3387,
      "ville": 3388,
      "GE": 3389,
      "mur": 3390,
      "pace": 3391,
      "Beij": 3392,
      "Scientists": 3393,
      "Company": 3394,
      "Irish": 3395,
      "vehic": 3396,
      "sources": 3397,
      "Electron": 3398,
      "experts": 3399,
      "Senate": 3400,
      "NL": 3401,
      "ored": 3402,
      "streak": 3403,
      "Mars": 3404,
      "CAGO": 3405,
      "commercial": 3406,
      "Karzai": 3407,
      "Beijing": 3408,
      "Tiger": 3409,
      "surv": 3410,
      "Networks": 3411,
      "Carol": 3412,
      "successful": 3413,
      "CHICAGO": 3414,
      "Hop": 3415,
      "igan": 3416,
      "Powell": 3417,
      "Zealand": 3418,
      "ellig": 3419,
      "Cy": 3420,
      "fun": 3421,
      "Insur": 3422,
      "Quarter": 3423,
      "started": 3424,
      "Turkey": 3425,
      "Eag": 3426,
      "basketball": 3427,
      "changes": 3428,
      "Lu": 3429,
      "verd": 3430,
      "sett": 3431,
      "plane": 3432,
      "increasing": 3433,
      "cow": 3434,
      "fox": 3435,
      "Work": 3436,
      "Host": 3437,
      "bs": 3438,
      "Supreme": 3439,
      "cel": 3440,
      "citing": 3441,
      "iet": 3442,
      "ival": 3443,
      "suits": 3444,
      "proposed": 3445,
      "minutes": 3446,
      "gency": 3447,
      "ady": 3448,
      "join": 3449,
      "debate": 3450,
      "protect": 3451,
      "mom": 3452,
      "offensive": 3453,
      "Div": 3454,
      "lic": 3455,
      "tem": 3456,
      "Warner": 3457,
      "har": 3458,
      "acquire": 3459,
      "Mexico": 3460,
      "boss": 3461,
      "angers": 3462,
      "Fe": 3463,
      "Spe": 3464,
      "ps": 3465,
      "whose": 3466,
      "average": 3467,
      "sit": 3468,
      "eda": 3469,
      "Philad": 3470,
      ".\\": 3471,
      "Qa": 3472,
      "gins": 3473,
      "Stew": 3474,
      "iox": 3475,
      "evidence": 3476,
      "ruck": 3477,
      "Philadelphia": 3478,
      "Sum": 3479,
      "lot": 3480,
      "oric": 3481,
      "iment": 3482,
      "crimin": 3483,
      "threatened": 3484,
      "300": 3485,
      "homes": 3486,
      "Fund": 3487,
      "PT": 3488,
      "stage": 3489,
      "officer": 3490,
      "Election": 3491,
      "accounting": 3492,
      "AOL": 3493,
      "Abu": 3494,
      "Iv": 3495,
      "ko": 3496,
      "finals": 3497,
      "winner": 3498,
      "45": 3499,
      "Ko": 3500,
      "witness": 3501,
      "Stewart": 3502,
      "Dod": 3503,
      "die": 3504,
      "fear": 3505,
      "agree": 3506,
      "Week": 3507,
      "iT": 3508,
      "offered": 3509,
      "75": 3510,
      "Den": 3511,
      "huge": 3512,
      "hundreds": 3513,
      "spr": 3514,
      "assa": 3515,
      "irl": 3516,
      "screen": 3517,
      "kick": 3518,
      "apparent": 3519,
      "device": 3520,
      "code": 3521,
      "storm": 3522,
      "kidnapped": 3523,
      "cur": 3524,
      "patch": 3525,
      "squ": 3526,
      "beating": 3527,
      "content": 3528,
      "processor": 3529,
      "audi": 3530,
      "doesn": 3531,
      "leaving": 3532,
      "doc": 3533,
      "vast": 3534,
      "recall": 3535,
      "goes": 3536,
      "remains": 3537,
      "seeking": 3538,
      "potential": 3539,
      "64": 3540,
      "Mor": 3541,
      "having": 3542,
      "leads": 3543,
      "became": 3544,
      "suspended": 3545,
      "returned": 3546,
      "appeal": 3547,
      "Ukraine": 3548,
      "Found": 3549,
      "bol": 3550,
      "rict": 3551,
      "aming": 3552,
      "film": 3553,
      "confidence": 3554,
      "Qaeda": 3555,
      "Donald": 3556,
      "LO": 3557,
      "Sadr": 3558,
      "headed": 3559,
      "Party": 3560,
      "LOS": 3561,
      "Mem": 3562,
      "icon": 3563,
      "Palm": 3564,
      "Hit": 3565,
      "ada": 3566,
      "noon": 3567,
      "Firefox": 3568,
      "rejected": 3569,
      "Dan": 3570,
      "Masters": 3571,
      "Reg": 3572,
      "medical": 3573,
      "consider": 3574,
      "helps": 3575,
      "Patriots": 3576,
      ";.": 3577,
      "Alex": 3578,
      "Bonds": 3579,
      "Cut": 3580,
      "James": 3581,
      "Rel": 3582,
      "Sal": 3583,
      "non": 3584,
      "ager": 3585,
      "cleric": 3586,
      "boy": 3587,
      "parliament": 3588,
      "dropped": 3589,
      "placed": 3590,
      "acquisition": 3591,
      "border": 3592,
      "ado": 3593,
      "spy": 3594,
      "course": 3595,
      "approach": 3596,
      "iTunes": 3597,
      "rig": 3598,
      "ials": 3599,
      "safety": 3600,
      "Carolina": 3601,
      "Sir": 3602,
      "Times": 3603,
      "lad": 3604,
      "thought": 3605,
      "total": 3606,
      "illegal": 3607,
      "provider": 3608,
      "electronics": 3609,
      "Bry": 3610,
      "Tri": 3611,
      "iny": 3612,
      "itt": 3613,
      "acts": 3614,
      "flu": 3615,
      "summer": 3616,
      "Ariz": 3617,
      "Nigeria": 3618,
      "vend": 3619,
      "person": 3620,
      "supplies": 3621,
      ";-": 3622,
      "His": 3623,
      "ule": 3624,
      "wel": 3625,
      "ati": 3626,
      "retire": 3627,
      "terrorist": 3628,
      "Ohio": 3629,
      "Million": 3630,
      "member": 3631,
      "Defense": 3632,
      "carrier": 3633,
      "pain": 3634,
      "rush": 3635,
      "assy": 3636,
      "laws": 3637,
      "send": 3638,
      "Execut": 3639,
      "doz": 3640,
      "interim": 3641,
      "Media": 3642,
      "Oak": 3643,
      "owners": 3644,
      "millions": 3645,
      "signific": 3646,
      "hostages": 3647,
      "director": 3648,
      "challenge": 3649,
      "Pen": 3650,
      "bt": 3651,
      "soccer": 3652,
      "scandal": 3653,
      "parts": 3654,
      "Christmas": 3655,
      "FC": 3656,
      "Gree": 3657,
      "amb": 3658,
      "confl": 3659,
      "ansas": 3660,
      "lined": 3661,
      "MSN": 3662,
      "aut": 3663,
      "plat": 3664,
      "expects": 3665,
      "continues": 3666,
      "Despite": 3667,
      "dispute": 3668,
      ",\\": 3669,
      "Jets": 3670,
      "Ram": 3671,
      "decline": 3672,
      "copy": 3673,
      "diplom": 3674,
      "elligence": 3675,
      ".&": 3676,
      "CD": 3677,
      "ination": 3678,
      "saw": 3679,
      "save": 3680,
      "uster": 3681,
      "Eagles": 3682,
      "AK": 3683,
      "result": 3684,
      "defin": 3685,
      "Enron": 3686,
      "gery": 3687,
      "olphins": 3688,
      "65": 3689,
      "Camp": 3690,
      "Hot": 3691,
      "ech": 3692,
      "nations": 3693,
      "wait": 3694,
      "ically": 3695,
      "highest": 3696,
      "Services": 3697,
      "Michigan": 3698,
      "ients": 3699,
      "ny": 3700,
      "Charg": 3701,
      "deficit": 3702,
      "internet": 3703,
      "explosion": 3704,
      "Die": 3705,
      "NN": 3706,
      "TOR": 3707,
      "bre": 3708,
      "young": 3709,
      "edge": 3710,
      "astron": 3711,
      "Organ": 3712,
      "PCs": 3713,
      "futures": 3714,
      "Haiti": 3715,
      "Gar": 3716,
      "Last": 3717,
      "Ut": 3718,
      "states": 3719,
      "oles": 3720,
      "ecraft": 3721,
      "Study": 3722,
      "important": 3723,
      "SA": 3724,
      "Way": 3725,
      "bey": 3726,
      "endo": 3727,
      "built": 3728,
      "ELES": 3729,
      "initial": 3730,
      "55": 3731,
      "CAR": 3732,
      "oul": 3733,
      "gether": 3734,
      "brought": 3735,
      "secutive": 3736,
      "90": 3737,
      "bert": 3738,
      "Conference": 3739,
      "Peace": 3740,
      "Merck": 3741,
      "ANGELES": 3742,
      "Free": 3743,
      "Susp": 3744,
      "Source": 3745,
      "Thail": 3746,
      "chain": 3747,
      "ATO": 3748,
      "auto": 3749,
      "proposal": 3750,
      "scheduled": 3751,
      "Are": 3752,
      "Ben": 3753,
      "sil": 3754,
      "orders": 3755,
      "scri": 3756,
      "recently": 3757,
      "rating": 3758,
      "award": 3759,
      "Cit": 3760,
      "Cost": 3761,
      "iar": 3762,
      "oud": 3763,
      "moon": 3764,
      "slightly": 3765,
      "consecutive": 3766,
      "Higher": 3767,
      "Thailand": 3768,
      "Hus": 3769,
      "bell": 3770,
      "ongh": 3771,
      "Agency": 3772,
      "iring": 3773,
      "ples": 3774,
      "Corpor": 3775,
      "application": 3776,
      "Government": 3777,
      "orney": 3778,
      "Republic": 3779,
      "coal": 3780,
      "aircraft": 3781,
      "Hamas": 3782,
      "Nik": 3783,
      "PH": 3784,
      "Ur": 3785,
      "Good": 3786,
      "Steel": 3787,
      "graph": 3788,
      "problem": 3789,
      "Against": 3790,
      "base": 3791,
      "sto": 3792,
      "immedi": 3793,
      "uting": 3794,
      "commission": 3795,
      "note": 3796,
      "memory": 3797,
      "appeared": 3798,
      "Ariel": 3799,
      "Radio": 3800,
      "Lab": 3801,
      "lawy": 3802,
      "custo": 3803,
      "Bur": 3804,
      "Mets": 3805,
      "sending": 3806,
      "ute": 3807,
      "Rebel": 3808,
      "sharply": 3809,
      "issued": 3810,
      ",\"": 3811,
      "ority": 3812,
      "izon": 3813,
      "Force": 3814,
      "Angels": 3815,
      "Singap": 3816,
      "easy": 3817,
      "Smith": 3818,
      "Jean": 3819,
      "newspaper": 3820,
      "significant": 3821,
      "coup": 3822,
      "arian": 3823,
      "invent": 3824,
      "longer": 3825,
      "Swed": 3826,
      "Jeff": 3827,
      "Life": 3828,
      "Venez": 3829,
      "fix": 3830,
      "elves": 3831,
      "onduct": 3832,
      "below": 3833,
      "buying": 3834,
      "hostile": 3835,
      "guilty": 3836,
      "needed": 3837,
      "Prix": 3838,
      "flood": 3839,
      "Singapore": 3840,
      "Venezuel": 3841,
      "hun": 3842,
      "estic": 3843,
      "sector": 3844,
      "settlement": 3845,
      "Stores": 3846,
      "Take": 3847,
      "cas": 3848,
      "cir": 3849,
      "tie": 3850,
      "udget": 3851,
      "type": 3852,
      "beaten": 3853,
      "favor": 3854,
      "Case": 3855,
      "Jav": 3856,
      "Ok": 3857,
      "Sans": 3858,
      "Saudi": 3859,
      "bling": 3860,
      "virus": 3861,
      "Novell": 3862,
      "Cell": 3863,
      "yard": 3864,
      "aker": 3865,
      "poor": 3866,
      "itzer": 3867,
      "igning": 3868,
      "acked": 3869,
      "blow": 3870,
      "encies": 3871,
      "passed": 3872,
      "striker": 3873,
      "developed": 3874,
      "concern": 3875,
      "friend": 3876,
      "labor": 3877,
      "ading": 3878,
      "update": 3879,
      "afternoon": 3880,
      "DS": 3881,
      "hor": 3882,
      "hurt": 3883,
      "forms": 3884,
      "Jose": 3885,
      "Securities": 3886,
      "needs": 3887,
      "FOR": 3888,
      "Us": 3889,
      "iod": 3890,
      "emic": 3891,
      "ashed": 3892,
      "izing": 3893,
      "Dead": 3894,
      "Cubs": 3895,
      "sanctions": 3896,
      "Act": 3897,
      "Mush": 3898,
      "lay": 3899,
      "threw": 3900,
      "arial": 3901,
      "together": 3902,
      "istic": 3903,
      "Coach": 3904,
      "himself": 3905,
      "credit": 3906,
      "Lar": 3907,
      "Ra": 3908,
      "talk": 3909,
      "Marsh": 3910,
      "While": 3911,
      "ification": 3912,
      "fair": 3913,
      "inet": 3914,
      "integr": 3915,
      "chen": 3916,
      "Airbus": 3917,
      "inflation": 3918,
      "Ivory": 3919,
      "Loss": 3920,
      "session": 3921,
      "sharing": 3922,
      "features": 3923,
      "theast": 3924,
      "roy": 3925,
      "prosecut": 3926,
      "weather": 3927,
      "helvet": 3928,
      "enced": 3929,
      "Serif": 3930,
      "=\"#": 3931,
      "=\"-": 3932,
      "Prod": 3933,
      "Pakistani": 3934,
      "Motors": 3935,
      "tools": 3936,
      "666666": 3937,
      "candidate": 3938,
      "verdana": 3939,
      "helvetica": 3940,
      "vs": 3941,
      "broadband": 3942,
      "manufactur": 3943,
      "OPEC": 3944,
      "Classic": 3945,
      "Targ": 3946,
      "sports": 3947,
      "Martin": 3948,
      "IPO": 3949,
      "38": 3950,
      "Dolphins": 3951,
      "Fla": 3952,
      "Of": 3953,
      "lab": 3954,
      "request": 3955,
      "aces": 3956,
      "tonight": 3957,
      "foot": 3958,
      "democr": 3959,
      "Viox": 3960,
      "journal": 3961,
      "song": 3962,
      "struck": 3963,
      "Step": 3964,
      "ressed": 3965,
      "Photo": 3966,
      "figures": 3967,
      "Vioxx": 3968,
      "Dou": 3969,
      "PS": 3970,
      "kne": 3971,
      "island": 3972,
      "idge": 3973,
      "unk": 3974,
      "ipped": 3975,
      "kills": 3976,
      "Jobs": 3977,
      "cing": 3978,
      "rule": 3979,
      "publican": 3980,
      "broker": 3981,
      "caused": 3982,
      "Greek": 3983,
      "Ky": 3984,
      "these": 3985,
      "omber": 3986,
      "sees": 3987,
      "published": 3988,
      "pointed": 3989,
      "voters": 3990,
      "Drop": 3991,
      "Gra": 3992,
      "VI": 3993,
      "armed": 3994,
      "ansion": 3995,
      "Argent": 3996,
      "funds": 3997,
      "practice": 3998,
      "Federer": 3999,
      "Oakland": 4000,
      "innings": 4001,
      "represent": 4002,
      "Stri": 4003,
      "hai": 4004,
      "aily": 4005,
      "sweep": 4006,
      "Formula": 4007,
      "King": 4008,
      "Southern": 4009,
      "catch": 4010,
      "deploy": 4011,
      "Thom": 4012,
      "negotiations": 4013,
      "arraf": 4014,
      "Musharraf": 4015,
      "Bro": 4016,
      "Bell": 4017,
      "PGA": 4018,
      "hur": 4019,
      "toll": 4020,
      "eline": 4021,
      "period": 4022,
      "extra": 4023,
      "Conn": 4024,
      "Moz": 4025,
      "pilots": 4026,
      "Nint": 4027,
      "green": 4028,
      "mind": 4029,
      "arms": 4030,
      "missile": 4031,
      "explod": 4032,
      "Financial": 4033,
      "Middle": 4034,
      "revealed": 4035,
      "Arizona": 4036,
      "gives": 4037,
      "jects": 4038,
      "mn": 4039,
      "wards": 4040,
      "Republican": 4041,
      "span": 4042,
      "count": 4043,
      "planning": 4044,
      "NYSE": 4045,
      "environment": 4046,
      "ONTO": 4047,
      "linked": 4048,
      "spacecraft": 4049,
      "Sat": 4050,
      "Ve": 4051,
      "WA": 4052,
      "uranium": 4053,
      "apping": 4054,
      "bombing": 4055,
      "moves": 4056,
      "TORONTO": 4057,
      "Nintendo": 4058,
      "Cing": 4059,
      "paid": 4060,
      "seeks": 4061,
      "training": 4062,
      "Acc": 4063,
      "respons": 4064,
      "Bron": 4065,
      "Dall": 4066,
      "Old": 4067,
      "Sadd": 4068,
      "mers": 4069,
      "itz": 4070,
      "rees": 4071,
      "iller": 4072,
      "Leban": 4073,
      "banks": 4074,
      "bably": 4075,
      "Cingular": 4076,
      "SBC": 4077,
      "anim": 4078,
      "worst": 4079,
      "assault": 4080,
      "HO": 4081,
      "Liver": 4082,
      "ulf": 4083,
      "doct": 4084,
      "reduce": 4085,
      "enterprise": 4086,
      "Pacific": 4087,
      "Malays": 4088,
      "shopping": 4089,
      "Pu": 4090,
      "PAR": 4091,
      "ALL": 4092,
      "passes": 4093,
      "insurgents": 4094,
      "33": 4095,
      "sal": 4096,
      "uan": 4097,
      "Northern": 4098,
      "Engine": 4099,
      "lift": 4100,
      "knock": 4101,
      "UT": 4102,
      "Vict": 4103,
      "batter": 4104,
      "uation": 4105,
      "quake": 4106,
      "secure": 4107,
      "decades": 4108,
      "launches": 4109,
      "freed": 4110,
      "different": 4111,
      "Saddam": 4112,
      "dro": 4113,
      "itself": 4114,
      "kei": 4115,
      "programs": 4116,
      "adesh": 4117,
      "Nikkei": 4118,
      "throw": 4119,
      "orrow": 4120,
      "techn": 4121,
      "2000": 4122,
      "movie": 4123,
      "fect": 4124,
      "lett": 4125,
      "earing": 4126,
      "operator": 4127,
      "files": 4128,
      "subsid": 4129,
      "shareholders": 4130,
      "Explor": 4131,
      "controversial": 4132,
      "Bid": 4133,
      "Brow": 4134,
      "Kansas": 4135,
      "interview": 4136,
      "Trans": 4137,
      "pulled": 4138,
      "conflict": 4139,
      "Gets": 4140,
      "Mag": 4141,
      "Minist": 4142,
      "Sam": 4143,
      "jet": 4144,
      "Start": 4145,
      "decade": 4146,
      "collect": 4147,
      "refuge": 4148,
      "protection": 4149,
      "Terror": 4150,
      "Cle": 4151,
      "Vol": 4152,
      "fine": 4153,
      "inal": 4154,
      "ires": 4155,
      "teen": 4156,
      "coast": 4157,
      "Ext": 4158,
      "introduced": 4159,
      "41": 4160,
      "Sant": 4161,
      "Video": 4162,
      "Expos": 4163,
      "Scott": 4164,
      "Rangers": 4165,
      "ram": 4166,
      "Chairman": 4167,
      "backed": 4168,
      "setting": 4169,
      "regular": 4170,
      "brok": 4171,
      "Earnings": 4172,
      "strategy": 4173,
      "onductor": 4174,
      "Dallas": 4175,
      "Si": 4176,
      "independ": 4177,
      "raising": 4178,
      "helping": 4179,
      "ennis": 4180,
      "venture": 4181,
      "About": 4182,
      "challeng": 4183,
      "48": 4184,
      "Fann": 4185,
      "VER": 4186,
      "planes": 4187,
      "Moscow": 4188,
      "Clevel": 4189,
      "Hu": 4190,
      "Kong": 4191,
      "Watch": 4192,
      "things": 4193,
      "icated": 4194,
      "Sea": 4195,
      "questions": 4196,
      "Fannie": 4197,
      "Cleveland": 4198,
      "(\\$": 4199,
      "BI": 4200,
      "Western": 4201,
      "bot": 4202,
      "tack": 4203,
      "imir": 4204,
      "progress": 4205,
      "crew": 4206,
      "calling": 4207,
      "Amaz": 4208,
      "historic": 4209,
      "mitted": 4210,
      "Justice": 4211,
      "Celt": 4212,
      "Dame": 4213,
      "satellite": 4214,
      "iscal": 4215,
      "Notre": 4216,
      "complete": 4217,
      "touchdowns": 4218,
      "Blast": 4219,
      "Food": 4220,
      "pose": 4221,
      "massive": 4222,
      "worries": 4223,
      "spent": 4224,
      "extended": 4225,
      "ORE": 4226,
      "Plans": 4227,
      "):": 4228,
      "Jim": 4229,
      "quar": 4230,
      "depart": 4231,
      "owner": 4232,
      "ancing": 4233,
      "Head": 4234,
      "minute": 4235,
      "Okla": 4236,
      "CS": 4237,
      "Fer": 4238,
      "Vlad": 4239,
      "auction": 4240,
      "sport": 4241,
      "termin": 4242,
      "Energy": 4243,
      "brand": 4244,
      "surpr": 4245,
      "showing": 4246,
      "Verizon": 4247,
      "recovery": 4248,
      "Hong": 4249,
      "Jer": 4250,
      "Kills": 4251,
      "ele": 4252,
      "gather": 4253,
      "ordered": 4254,
      "urricanes": 4255,
      "Iraqis": 4256,
      "goals": 4257,
      "damage": 4258,
      "Roger": 4259,
      "Utah": 4260,
      "PA": 4261,
      "Pent": 4262,
      "prec": 4263,
      "isn": 4264,
      "Into": 4265,
      "sue": 4266,
      "marketing": 4267,
      "sym": 4268,
      "Liverpool": 4269,
      "probably": 4270,
      "okie": 4271,
      "producer": 4272,
      "breaking": 4273,
      "Bryant": 4274,
      "CR": 4275,
      "enrich": 4276,
      "surgery": 4277,
      "trip": 4278,
      "cutting": 4279,
      "Tosh": 4280,
      "domestic": 4281,
      "Desktop": 4282,
      "arrived": 4283,
      "Bangl": 4284,
      "Division": 4285,
      "Jason": 4286,
      "Nep": 4287,
      "terms": 4288,
      "shr": 4289,
      "computing": 4290,
      "warns": 4291,
      "something": 4292,
      "Consumer": 4293,
      "Broad": 4294,
      "MOS": 4295,
      "girl": 4296,
      "mos": 4297,
      "ulner": 4298,
      "deep": 4299,
      "Stand": 4300,
      "Under": 4301,
      "tests": 4302,
      "targets": 4303,
      "burgh": 4304,
      "approval": 4305,
      "Amazon": 4306,
      "Vladimir": 4307,
      "Find": 4308,
      "orig": 4309,
      "why": 4310,
      "ensions": 4311,
      "publish": 4312,
      "subscri": 4313,
      "fielder": 4314,
      "Bangladesh": 4315,
      "Beck": 4316,
      "II": 4317,
      "ional": 4318,
      "Frank": 4319,
      "blue": 4320,
      "appers": 4321,
      "remained": 4322,
      "conduct": 4323,
      "believe": 4324,
      "wrong": 4325,
      "orts": 4326,
      "omer": 4327,
      "plays": 4328,
      "words": 4329,
      "legis": 4330,
      "prevent": 4331,
      "renew": 4332,
      "Dodgers": 4333,
      "Long": 4334,
      "core": 4335,
      "mic": 4336,
      "common": 4337,
      "black": 4338,
      "books": 4339,
      "positive": 4340,
      "broke": 4341,
      "Growth": 4342,
      "34": 4343,
      "BO": 4344,
      "shock": 4345,
      "aves": 4346,
      "disappoint": 4347,
      "commun": 4348,
      "English": 4349,
      "Prize": 4350,
      "Annan": 4351,
      "Fight": 4352,
      "gia": 4353,
      "pict": 4354,
      "yen": 4355,
      "anticip": 4356,
      "phoon": 4357,
      "Price": 4358,
      "ffic": 4359,
      "seconds": 4360,
      "impact": 4361,
      "advertising": 4362,
      "Gun": 4363,
      "bing": 4364,
      "cross": 4365,
      "danger": 4366,
      "ios": 4367,
      "Microsystems": 4368,
      "surprise": 4369,
      "Color": 4370,
      "Club": 4371,
      "DAY": 4372,
      "beginning": 4373,
      "Bet": 4374,
      "Her": 4375,
      "Lat": 4376,
      "Six": 4377,
      "Sams": 4378,
      "replace": 4379,
      "icult": 4380,
      "cricket": 4381,
      "Hewlett": 4382,
      "murder": 4383,
      "Ath": 4384,
      "done": 4385,
      "mut": 4386,
      "Technologies": 4387,
      "College": 4388,
      "Roman": 4389,
      "moment": 4390,
      "Ball": 4391,
      "Mary": 4392,
      "ola": 4393,
      "allowed": 4394,
      "relief": 4395,
      "Phill": 4396,
      "train": 4397,
      "standard": 4398,
      "panel": 4399,
      "Mozilla": 4400,
      "Hum": 4401,
      "ding": 4402,
      "hon": 4403,
      "ype": 4404,
      "surge": 4405,
      "Retail": 4406,
      "Pitts": 4407,
      "June": 4408,
      "Toy": 4409,
      "Ship": 4410,
      "Scot": 4411,
      "moving": 4412,
      "ACE": 4413,
      "Cra": 4414,
      "Cuts": 4415,
      "fiscal": 4416,
      "va": 4417,
      "Express": 4418,
      "Indonesian": 4419,
      "Packard": 4420,
      "purchase": 4421,
      "Samsung": 4422,
      "AU": 4423,
      "Nob": 4424,
      "pts": 4425,
      "Death": 4426,
      "appears": 4427,
      "hoping": 4428,
      "Greenspan": 4429,
      "initi": 4430,
      "akers": 4431,
      "facing": 4432,
      "critical": 4433,
      "Digital": 4434,
      "bury": 4435,
      "Still": 4436,
      "output": 4437,
      "cool": 4438,
      "Sees": 4439,
      "sharp": 4440,
      "Colin": 4441,
      "steps": 4442,
      "struction": 4443,
      "troubled": 4444,
      "discovered": 4445,
      "knee": 4446,
      "Hits": 4447,
      "Jacks": 4448,
      "oppon": 4449,
      "abinet": 4450,
      "Board": 4451,
      "Dom": 4452,
      "Gl": 4453,
      "dick": 4454,
      "hous": 4455,
      "clinch": 4456,
      "intelligence": 4457,
      "iba": 4458,
      "mortgage": 4459,
      "Executive": 4460,
      "Jackson": 4461,
      "Zim": 4462,
      "moun": 4463,
      "heim": 4464,
      "ucks": 4465,
      "lawsuits": 4466,
      "feel": 4467,
      "Georgia": 4468,
      "accept": 4469,
      "cause": 4470,
      "ray": 4471,
      "deadline": 4472,
      "delayed": 4473,
      "Lank": 4474,
      "mine": 4475,
      "igers": 4476,
      "Chip": 4477,
      "2002": 4478,
      "Sudanese": 4479,
      "Toshiba": 4480,
      "Pittsburgh": 4481,
      "DE": 4482,
      "Has": 4483,
      "Most": 4484,
      "mart": 4485,
      "voting": 4486,
      "income": 4487,
      "oping": 4488,
      "Rele": 4489,
      "Chris": 4490,
      "wounding": 4491,
      "struggling": 4492,
      "Industry": 4493,
      "Vik": 4494,
      "arrow": 4495,
      "highs": 4496,
      "worldwide": 4497,
      "heading": 4498,
      "tried": 4499,
      "falling": 4500,
      "keeping": 4501,
      "Treasury": 4502,
      "exploded": 4503,
      "Vote": 4504,
      "story": 4505,
      "veter": 4506,
      "isted": 4507,
      "flat": 4508,
      "Hewitt": 4509,
      "Java": 4510,
      "Gulf": 4511,
      "Rises": 4512,
      "image": 4513,
      "athon": 4514,
      "Manning": 4515,
      "Hard": 4516,
      "ont": 4517,
      "demands": 4518,
      "Braves": 4519,
      "Lower": 4520,
      "ni": 4521,
      "zone": 4522,
      "heating": 4523,
      "Another": 4524,
      "ATI": 4525,
      "autom": 4526,
      "college": 4527,
      "broadcast": 4528,
      "Mae": 4529,
      "Bern": 4530,
      "hole": 4531,
      "Os": 4532,
      "Turn": 4533,
      "cable": 4534,
      "dy": 4535,
      "ml": 4536,
      "inth": 4537,
      "watchdog": 4538,
      "Posts": 4539,
      "changed": 4540,
      "Saturn": 4541,
      "Explorer": 4542,
      "fle": 4543,
      "joy": 4544,
      "pension": 4545,
      "spark": 4546,
      "score": 4547,
      "Percent": 4548,
      "optim": 4549,
      "announcement": 4550,
      "47": 4551,
      "Ey": 4552,
      "TE": 4553,
      "pted": 4554,
      "crack": 4555,
      "developing": 4556,
      "soldier": 4557,
      "benefits": 4558,
      "Oklahom": 4559,
      "600": 4560,
      "sound": 4561,
      "wall": 4562,
      "2001": 4563,
      "Spam": 4564,
      "descri": 4565,
      "install": 4566,
      "suffered": 4567,
      "Roddick": 4568,
      "Wom": 4569,
      "budget": 4570,
      "apt": 4571,
      "hase": 4572,
      "Chen": 4573,
      "neigh": 4574,
      "deadly": 4575,
      "details": 4576,
      "message": 4577,
      "Colorado": 4578,
      "Oklahoma": 4579,
      "Hat": 4580,
      "Judge": 4581,
      "Near": 4582,
      "Sell": 4583,
      "UE": 4584,
      "spl": 4585,
      "plot": 4586,
      "ighth": 4587,
      "izer": 4588,
      "flag": 4589,
      "handed": 4590,
      "telephone": 4591,
      "volution": 4592,
      "resolution": 4593,
      "Premier": 4594,
      "criminal": 4595,
      "platform": 4596,
      "700": 4597,
      "LI": 4598,
      "Ly": 4599,
      "ki": 4600,
      "lack": 4601,
      "quit": 4602,
      "ried": 4603,
      "spread": 4604,
      "answ": 4605,
      "filing": 4606,
      "Zimbab": 4607,
      "Rem": 4608,
      "miles": 4609,
      "ural": 4610,
      "ument": 4611,
      "string": 4612,
      "familiar": 4613,
      "Auto": 4614,
      "PARIS": 4615,
      "Sri": 4616,
      "names": 4617,
      "tha": 4618,
      "acing": 4619,
      "Threat": 4620,
      "levels": 4621,
      "pitcher": 4622,
      "Zimbabwe": 4623,
      "Five": 4624,
      "bul": 4625,
      "igr": 4626,
      "agement": 4627,
      "Chall": 4628,
      "century": 4629,
      "Outlook": 4630,
      "skins": 4631,
      "Baltim": 4632,
      "Baltimore": 4633,
      "Poll": 4634,
      "burn": 4635,
      "phis": 4636,
      "ashes": 4637,
      "COW": 4638,
      "School": 4639,
      "Tennes": 4640,
      "stem": 4641,
      "illed": 4642,
      "ocial": 4643,
      "species": 4644,
      "NASCAR": 4645,
      "patent": 4646,
      "Il": 4647,
      "Mov": 4648,
      "NT": 4649,
      "Pre": 4650,
      "twice": 4651,
      "assist": 4652,
      "flights": 4653,
      "mselves": 4654,
      "restruct": 4655,
      "looked": 4656,
      "allegations": 4657,
      "qualifying": 4658,
      "value": 4659,
      "Anti": 4660,
      "Corporation": 4661,
      "quarters": 4662,
      "FO": 4663,
      "pi": 4664,
      "omet": 4665,
      "mant": 4666,
      "scient": 4667,
      "inside": 4668,
      "victims": 4669,
      "standing": 4670,
      "numbers": 4671,
      "MOSCOW": 4672,
      "hi": 4673,
      "mot": 4674,
      "themselves": 4675,
      "requ": 4676,
      "grand": 4677,
      "enses": 4678,
      "becoming": 4679,
      "option": 4680,
      "voted": 4681,
      "32": 4682,
      "ht": 4683,
      "atab": 4684,
      "boys": 4685,
      "Colomb": 4686,
      "traders": 4687,
      "switch": 4688,
      "Keep": 4689,
      "Diego": 4690,
      "Tennessee": 4691,
      "prem": 4692,
      "antit": 4693,
      "angu": 4694,
      "threats": 4695,
      "Cass": 4696,
      "cities": 4697,
      "jury": 4698,
      "vulner": 4699,
      "champions": 4700,
      "ministers": 4701,
      "Falluja": 4702,
      "Dam": 4703,
      "Rul": 4704,
      "Tigers": 4705,
      "gs": 4706,
      "kins": 4707,
      "aries": 4708,
      "char": 4709,
      "univers": 4710,
      "ums": 4711,
      "secret": 4712,
      "Develop": 4713,
      "opener": 4714,
      "community": 4715,
      "eye": 4716,
      "virt": 4717,
      "advanced": 4718,
      "multi": 4719,
      "Richard": 4720,
      "fit": 4721,
      "iders": 4722,
      "abilities": 4723,
      "Chile": 4724,
      "March": 4725,
      "reportedly": 4726,
      "bombs": 4727,
      "Swiss": 4728,
      "model": 4729,
      "Trophy": 4730,
      "Pacers": 4731,
      "54": 4732,
      "CNN": 4733,
      "ao": 4734,
      "cit": 4735,
      "nam": 4736,
      "etary": 4737,
      "eman": 4738,
      "assets": 4739,
      "driver": 4740,
      "prepared": 4741,
      "agent": 4742,
      "exchange": 4743,
      "areas": 4744,
      "word": 4745,
      "seventh": 4746,
      "brief": 4747,
      "pped": 4748,
      "rall": 4749,
      "offense": 4750,
      "expansion": 4751,
      "Allaw": 4752,
      "sixth": 4753,
      "Investors": 4754,
      "Atlantic": 4755,
      "estimates": 4756,
      "Allawi": 4757,
      "800": 4758,
      "Could": 4759,
      "Nort": 4760,
      "ius": 4761,
      "hear": 4762,
      "owers": 4763,
      "Syria": 4764,
      "Turk": 4765,
      "fastest": 4766,
      "strength": 4767,
      "Shiite": 4768,
      "Philippines": 4769,
      "Nortel": 4770,
      "via": 4771,
      "ither": 4772,
      "appointed": 4773,
      "weigh": 4774,
      "avens": 4775,
      "finished": 4776,
      "stars": 4777,
      "Holdings": 4778,
      "Min": 4779,
      "figh": 4780,
      "matter": 4781,
      "testing": 4782,
      "Before": 4783,
      "summit": 4784,
      "Associates": 4785,
      "FI": 4786,
      "eth": 4787,
      "rang": 4788,
      "sun": 4789,
      "instead": 4790,
      "heat": 4791,
      "erson": 4792,
      "mean": 4793,
      "warming": 4794,
      "province": 4795,
      "Seven": 4796,
      "Second": 4797,
      "polls": 4798,
      "grew": 4799,
      "kind": 4800,
      "live": 4801,
      "uff": 4802,
      "iced": 4803,
      "andon": 4804,
      "lets": 4805,
      "ources": 4806,
      "veloper": 4807,
      "Martha": 4808,
      "Leader": 4809,
      ".-": 4810,
      "Lad": 4811,
      "Ped": 4812,
      "Wales": 4813,
      "upd": 4814,
      "Frances": 4815,
      "airport": 4816,
      "tomorrow": 4817,
      "hotel": 4818,
      "Killed": 4819,
      "considering": 4820,
      "cue": 4821,
      "mater": 4822,
      "tennis": 4823,
      "replac": 4824,
      "begins": 4825,
      "ickets": 4826,
      "acher": 4827,
      "Commit": 4828,
      "atural": 4829,
      "format": 4830,
      "solid": 4831,
      "Associated": 4832,
      "middle": 4833,
      "defeated": 4834,
      "Cuba": 4835,
      "3G": 4836,
      "43": 4837,
      "Bears": 4838,
      "cup": 4839,
      "aling": 4840,
      "unexpected": 4841,
      "clus": 4842,
      "Leg": 4843,
      "cars": 4844,
      "demon": 4845,
      "ruption": 4846,
      "Royal": 4847,
      "upgrade": 4848,
      "Ministry": 4849,
      "Claim": 4850,
      "Jord": 4851,
      "index": 4852,
      "display": 4853,
      "address": 4854,
      "completed": 4855,
      "seems": 4856,
      "awaited": 4857,
      "Er": 4858,
      "Jew": 4859,
      "mates": 4860,
      "ulls": 4861,
      "industrial": 4862,
      "diff": 4863,
      "gam": 4864,
      "anda": 4865,
      "exports": 4866,
      "elled": 4867,
      "Commer": 4868,
      "Redskins": 4869,
      "Falls": 4870,
      "currency": 4871,
      "forecasts": 4872,
      "stroke": 4873,
      "climate": 4874,
      "Titan": 4875,
      "treatment": 4876,
      "enrichment": 4877,
      "Raid": 4878,
      "often": 4879,
      "really": 4880,
      "spir": 4881,
      "defensive": 4882,
      "ranch": 4883,
      "joined": 4884,
      "Charles": 4885,
      "lon": 4886,
      "ninth": 4887,
      "ctic": 4888,
      "slide": 4889,
      "handheld": 4890,
      "Storm": 4891,
      "Attack": 4892,
      "Liber": 4893,
      "package": 4894,
      "previously": 4895,
      "Ever": 4896,
      "MAN": 4897,
      "Run": 4898,
      "Twins": 4899,
      "eastern": 4900,
      "golf": 4901,
      "stun": 4902,
      "repe": 4903,
      "advis": 4904,
      "records": 4905,
      "students": 4906,
      "Guard": 4907,
      "SPACE": 4908,
      "Valley": 4909,
      "crowd": 4910,
      "penal": 4911,
      "antitrust": 4912,
      "Gates": 4913,
      "Kn": 4914,
      "SH": 4915,
      "hurricane": 4916,
      "allows": 4917,
      "opport": 4918,
      "promp": 4919,
      "closing": 4920,
      "homer": 4921,
      "promised": 4922,
      "Speed": 4923,
      "Gla": 4924,
      "Great": 4925,
      "Ku": 4926,
      "entire": 4927,
      "peer": 4928,
      "ogn": 4929,
      "doing": 4930,
      "regist": 4931,
      "Committee": 4932,
      "Say": 4933,
      "jud": 4934,
      "jumped": 4935,
      "zy": 4936,
      "ental": 4937,
      "azine": 4938,
      "Seen": 4939,
      "holds": 4940,
      "ITY": 4941,
      "crucial": 4942,
      "employment": 4943,
      "Hamm": 4944,
      "Beckham": 4945,
      "Jordan": 4946,
      "99": 4947,
      "Golf": 4948,
      "govern": 4949,
      "icop": 4950,
      "iling": 4951,
      "ione": 4952,
      "safe": 4953,
      "bless": 4954,
      "slug": 4955,
      "manufacturing": 4956,
      "Husse": 4957,
      "customer": 4958,
      "Lines": 4959,
      "upset": 4960,
      "aining": 4961,
      "ordin": 4962,
      "nothing": 4963,
      "Indiana": 4964,
      "Player": 4965,
      "SP2": 4966,
      "dram": 4967,
      "influ": 4968,
      "Rand": 4969,
      "Wil": 4970,
      "rick": 4971,
      "ami": 4972,
      "created": 4973,
      "profession": 4974,
      "Phone": 4975,
      "Schilling": 4976,
      "semif": 4977,
      "electronic": 4978,
      "witnesses": 4979,
      "CL": 4980,
      "OM": 4981,
      "bra": 4982,
      "utions": 4983,
      "bean": 4984,
      "options": 4985,
      "declared": 4986,
      "Publ": 4987,
      "Mur": 4988,
      "PR": 4989,
      "Tel": 4990,
      "bought": 4991,
      "sens": 4992,
      "acity": 4993,
      "user": 4994,
      "aval": 4995,
      "science": 4996,
      "Spec": 4997,
      "banking": 4998,
      "Target": 4999,
      "86": 5000,
      "IJ": 5001,
      "Pad": 5002,
      "Well": 5003,
      "cards": 5004,
      "faster": 5005,
      "aris": 5006,
      "cents": 5007,
      "include": 5008,
      "Andy": 5009,
      "denied": 5010,
      "conditions": 5011,
      "partnership": 5012,
      "76": 5013,
      "HD": 5014,
      "Wrap": 5015,
      "owned": 5016,
      "Alan": 5017,
      "Talib": 5018,
      "Eli": 5019,
      "gone": 5020,
      "ched": 5021,
      "ope": 5022,
      "residents": 5023,
      "ously": 5024,
      "ALEM": 5025,
      "halt": 5026,
      "quickly": 5027,
      "smart": 5028,
      "Barry": 5029,
      "eyes": 5030,
      "retailers": 5031,
      "maintain": 5032,
      "bringing": 5033,
      "schedule": 5034,
      "documents": 5035,
      "Craig": 5036,
      "dramatic": 5037,
      "Taliban": 5038,
      "fish": 5039,
      "jay": 5040,
      "tum": 5041,
      "resume": 5042,
      "inez": 5043,
      "athlet": 5044,
      "Mel": 5045,
      "Nuclear": 5046,
      "Pres": 5047,
      "Sim": 5048,
      "Satellite": 5049,
      "ias": 5050,
      "yl": 5051,
      "tout": 5052,
      "agon": 5053,
      "aks": 5054,
      "antage": 5055,
      "thanks": 5056,
      "Martinez": 5057,
      "Hamid": 5058,
      "Nigerian": 5059,
      "Electronics": 5060,
      "democracy": 5061,
      "HI": 5062,
      "Ray": 5063,
      "Ravens": 5064,
      "sought": 5065,
      "olis": 5066,
      "Reports": 5067,
      "evin": 5068,
      "strikes": 5069,
      "Congo": 5070,
      "Militants": 5071,
      "stitution": 5072,
      "Dr": 5073,
      "hack": 5074,
      "ivid": 5075,
      "disease": 5076,
      "traffic": 5077,
      "speech": 5078,
      "Players": 5079,
      "spyware": 5080,
      "Organization": 5081,
      "Vod": 5082,
      "mixed": 5083,
      "USA": 5084,
      "extend": 5085,
      "adding": 5086,
      "aught": 5087,
      "copyright": 5088,
      "Ticker": 5089,
      "iled": 5090,
      "ador": 5091,
      "kee": 5092,
      "scape": 5093,
      "izes": 5094,
      "castle": 5095,
      "cancer": 5096,
      "Cassini": 5097,
      "Billion": 5098,
      "Lew": 5099,
      "hib": 5100,
      "urch": 5101,
      "deals": 5102,
      "ivity": 5103,
      "Probe": 5104,
      "fully": 5105,
      "Today": 5106,
      "doubt": 5107,
      "MSFT": 5108,
      "bodies": 5109,
      "Cricket": 5110,
      "JER": 5111,
      "jan": 5112,
      "eway": 5113,
      "decide": 5114,
      "Return": 5115,
      "Citigr": 5116,
      "Lanka": 5117,
      "Pedro": 5118,
      "Hussein": 5119,
      "Citigroup": 5120,
      "eighth": 5121,
      "voy": 5122,
      "USATO": 5123,
      "wasn": 5124,
      "eful": 5125,
      "Prot": 5126,
      "Colts": 5127,
      "activity": 5128,
      "emergency": 5129,
      "Vodaf": 5130,
      "USATODAY": 5131,
      "Key": 5132,
      "Kevin": 5133,
      "Phelps": 5134,
      "emy": 5135,
      "relimin": 5136,
      "Rooney": 5137,
      "turning": 5138,
      "Argentina": 5139,
      "Vodafone": 5140,
      "Hom": 5141,
      "Oper": 5142,
      "Tax": 5143,
      "imate": 5144,
      "apolis": 5145,
      "USALEM": 5146,
      "majority": 5147,
      "Bigley": 5148,
      "Liby": 5149,
      "Steelers": 5150,
      "html": 5151,
      "atabase": 5152,
      "Laden": 5153,
      "JERUSALEM": 5154,
      "UM": 5155,
      "wave": 5156,
      "za": 5157,
      "raises": 5158,
      "haw": 5159,
      "Anal": 5160,
      "holder": 5161,
      "terrorists": 5162,
      "respond": 5163,
      "account": 5164,
      "preparing": 5165,
      "structure": 5166,
      "BEIJ": 5167,
      "Scotland": 5168,
      "difficult": 5169,
      "BEIJING": 5170,
      "46": 5171,
      "Mess": 5172,
      "Nets": 5173,
      "Rally": 5174,
      "Vis": 5175,
      "mist": 5176,
      "estab": 5177,
      "Chir": 5178,
      "returns": 5179,
      "believed": 5180,
      "crashed": 5181,
      "candidates": 5182,
      "Turkish": 5183,
      "AI": 5184,
      "Make": 5185,
      "Takes": 5186,
      "thr": 5187,
      "elimin": 5188,
      "cept": 5189,
      "devast": 5190,
      "Chry": 5191,
      "trig": 5192,
      "Prince": 5193,
      "boosted": 5194,
      "involved": 5195,
      "predict": 5196,
      "connect": 5197,
      "independent": 5198,
      "Dist": 5199,
      "Gov": 5200,
      "PN": 5201,
      "plead": 5202,
      "rare": 5203,
      "ented": 5204,
      "Beat": 5205,
      "scoring": 5206,
      "Robert": 5207,
      "goods": 5208,
      "Update1": 5209,
      "priority": 5210,
      "believes": 5211,
      "carrying": 5212,
      "51": 5213,
      "Cow": 5214,
      "Kod": 5215,
      "nic": 5216,
      "reform": 5217,
      "porter": 5218,
      "active": 5219,
      "actions": 5220,
      "ONG": 5221,
      "scores": 5222,
      "receiver": 5223,
      "advance": 5224,
      "apparently": 5225,
      "doctors": 5226,
      "Aid": 5227,
      "Your": 5228,
      "Ziff": 5229,
      "lan": 5230,
      "upcoming": 5231,
      "Ana": 5232,
      "Administration": 5233,
      "coalition": 5234,
      "Athlet": 5235,
      "Lewis": 5236,
      "Pass": 5237,
      "Sou": 5238,
      "bin": 5239,
      "dig": 5240,
      "iro": 5241,
      "lins": 5242,
      "ole": 5243,
      "ilar": 5244,
      "clud": 5245,
      "partner": 5246,
      "Carlos": 5247,
      "movies": 5248,
      "promise": 5249,
      "Meet": 5250,
      "Aub": 5251,
      "DC": 5252,
      "Jagu": 5253,
      "Morgan": 5254,
      "iation": 5255,
      "abuse": 5256,
      "Stan": 5257,
      "Store": 5258,
      "sued": 5259,
      "Newcastle": 5260,
      "ailed": 5261,
      "retirement": 5262,
      "44": 5263,
      "eBay": 5264,
      "always": 5265,
      "refer": 5266,
      "loy": 5267,
      "Strong": 5268,
      "Fred": 5269,
      "ampa": 5270,
      "Show": 5271,
      "tops": 5272,
      "ibly": 5273,
      "includes": 5274,
      "Packers": 5275,
      "Venezuela": 5276,
      "05": 5277,
      "Jack": 5278,
      "Lions": 5279,
      "draft": 5280,
      "aret": 5281,
      "atom": 5282,
      "iter": 5283,
      "hearing": 5284,
      "begun": 5285,
      "entered": 5286,
      "speculation": 5287,
      "activities": 5288,
      "Motorola": 5289,
      "quiry": 5290,
      "Strike": 5291,
      "Auburn": 5292,
      "Soccer": 5293,
      "Zar": 5294,
      "ux": 5295,
      "wife": 5296,
      "stre": 5297,
      "apse": 5298,
      "isting": 5299,
      "haul": 5300,
      "sler": 5301,
      "starts": 5302,
      "faced": 5303,
      "allegedly": 5304,
      "Rebels": 5305,
      "demonstr": 5306,
      "Holl": 5307,
      "Jaz": 5308,
      "Jacqu": 5309,
      "Que": 5310,
      "ique": 5311,
      "vill": 5312,
      "iners": 5313,
      "rive": 5314,
      "ierce": 5315,
      "managers": 5316,
      "although": 5317,
      "smaller": 5318,
      "Chrysler": 5319,
      "250": 5320,
      "Block": 5321,
      "DEL": 5322,
      "Mr": 5323,
      "flaw": 5324,
      "text": 5325,
      "reed": 5326,
      "sues": 5327,
      "Third": 5328,
      "ocks": 5329,
      "fring": 5330,
      "shooting": 5331,
      "Va": 5332,
      "born": 5333,
      "living": 5334,
      "esis": 5335,
      "select": 5336,
      "osen": 5337,
      "Joe": 5338,
      "putting": 5339,
      "awi": 5340,
      "processors": 5341,
      "aims": 5342,
      "Troops": 5343,
      "MP3": 5344,
      "strateg": 5345,
      "Anaheim": 5346,
      "fa": 5347,
      "fol": 5348,
      "hing": 5349,
      "piracy": 5350,
      "Reach": 5351,
      "aceut": 5352,
      "tocol": 5353,
      "helicop": 5354,
      "surged": 5355,
      "entertainment": 5356,
      "armaceut": 5357,
      "regional": 5358,
      "confident": 5359,
      "prisoners": 5360,
      "micro": 5361,
      "Nobel": 5362,
      "CITY": 5363,
      "Journal": 5364,
      "Tampa": 5365,
      "bian": 5366,
      "lation": 5367,
      "narrow": 5368,
      "style": 5369,
      "Info": 5370,
      "umn": 5371,
      "spend": 5372,
      "ogra": 5373,
      "150": 5374,
      "Boost": 5375,
      "Move": 5376,
      "iership": 5377,
      "organization": 5378,
      "seeded": 5379,
      "immediately": 5380,
      "53": 5381,
      "Break": 5382,
      "Eric": 5383,
      "Haw": 5384,
      "myst": 5385,
      "ero": 5386,
      "admitted": 5387,
      "irth": 5388,
      "unions": 5389,
      "abd": 5390,
      "puts": 5391,
      "EST": 5392,
      "withdrawal": 5393,
      "Montreal": 5394,
      "improved": 5395,
      "broken": 5396,
      "Bas": 5397,
      "BOS": 5398,
      "Brief": 5399,
      "Ron": 5400,
      "Sub": 5401,
      "sides": 5402,
      "onse": 5403,
      "ara": 5404,
      "quiet": 5405,
      "ody": 5406,
      "capacity": 5407,
      "buys": 5408,
      "finding": 5409,
      "pushed": 5410,
      ")--": 5411,
      "Gat": 5412,
      "mig": 5413,
      "opens": 5414,
      "developer": 5415,
      "Final": 5416,
      "voice": 5417,
      "Half": 5418,
      "anticipated": 5419,
      "42": 5420,
      "Gri": 5421,
      "Pist": 5422,
      "Wenger": 5423,
      "rd": 5424,
      "sle": 5425,
      "enh": 5426,
      "contr": 5427,
      "flash": 5428,
      "rawl": 5429,
      "steel": 5430,
      "response": 5431,
      "votes": 5432,
      "machines": 5433,
      "BUR": 5434,
      "Hear": 5435,
      "Mach": 5436,
      "River": 5437,
      "overtime": 5438,
      "link": 5439,
      "stronger": 5440,
      "Build": 5441,
      "Egyptian": 5442,
      "mutual": 5443,
      "reliminary": 5444,
      "Ado": 5445,
      "SY": 5446,
      "individ": 5447,
      "serve": 5448,
      "parties": 5449,
      "defending": 5450,
      "remaining": 5451,
      "sky": 5452,
      "qualif": 5453,
      "resigned": 5454,
      "vehicle": 5455,
      "Pistons": 5456,
      "85": 5457,
      "Gas": 5458,
      "Pers": 5459,
      "Sold": 5460,
      "ga": 5461,
      "uke": 5462,
      "aters": 5463,
      "Premiership": 5464,
      "Malaysia": 5465,
      "Adobe": 5466,
      "stadium": 5467,
      "perfect": 5468,
      "venue": 5469,
      "remote": 5470,
      "similar": 5471,
      "mnast": 5472,
      "veteran": 5473,
      "Carter": 5474,
      "Dun": 5475,
      "Hy": 5476,
      "Sears": 5477,
      "edged": 5478,
      "theastern": 5479,
      "Shell": 5480,
      "officers": 5481,
      "standards": 5482,
      "Andre": 5483,
      "Viet": 5484,
      "advantage": 5485,
      "embassy": 5486,
      "Cinc": 5487,
      "KE": 5488,
      "Kmart": 5489,
      "SM": 5490,
      "ads": 5491,
      "argo": 5492,
      "Teh": 5493,
      "hardware": 5494,
      "innati": 5495,
      "investigating": 5496,
      "Halo": 5497,
      "trouble": 5498,
      "Capital": 5499,
      "Cincinnati": 5500,
      "Di": 5501,
      "Gord": 5502,
      "Hand": 5503,
      "Hockey": 5504,
      "Jr": 5505,
      "LC": 5506,
      "Miller": 5507,
      "Rick": 5508,
      "Young": 5509,
      "anmar": 5510,
      "escap": 5511,
      "aced": 5512,
      "aint": 5513,
      "iple": 5514,
      "Than": 5515,
      "declined": 5516,
      "planet": 5517,
      "ysis": 5518,
      "Myanmar": 5519,
      "shuttle": 5520,
      "lives": 5521,
      "reser": 5522,
      "umping": 5523,
      "attention": 5524,
      "crimes": 5525,
      "reaching": 5526,
      "matches": 5527,
      "Attorney": 5528,
      "increasingly": 5529,
      "FCC": 5530,
      "DR": 5531,
      "OC": 5532,
      "pet": 5533,
      "disaster": 5534,
      "overnight": 5535,
      "Iranian": 5536,
      "Els": 5537,
      "Chechen": 5538,
      "widely": 5539,
      "Launches": 5540,
      "Economic": 5541,
      "situation": 5542,
      "renewed": 5543,
      "04": 5544,
      "fan": 5545,
      "enters": 5546,
      "sters": 5547,
      "impress": 5548,
      "assi": 5549,
      "annel": 5550,
      "monitor": 5551,
      "Lee": 5552,
      "heads": 5553,
      "lifted": 5554,
      "Edwards": 5555,
      "Silicon": 5556,
      "Jewish": 5557,
      "Ali": 5558,
      "Blo": 5559,
      "dual": 5560,
      "lers": 5561,
      "tre": 5562,
      "recomm": 5563,
      "territ": 5564,
      "Forecast": 5565,
      "minent": 5566,
      "claiming": 5567,
      "threatening": 5568,
      "acquired": 5569,
      "driven": 5570,
      "Leaders": 5571,
      "Viol": 5572,
      "leaves": 5573,
      "Help": 5574,
      "According": 5575,
      "Nepal": 5576,
      "bru": 5577,
      "franch": 5578,
      "mate": 5579,
      "unbeaten": 5580,
      "vez": 5581,
      "construction": 5582,
      "abul": 5583,
      "white": 5584,
      "Sharap": 5585,
      "leadership": 5586,
      "Author": 5587,
      "clean": 5588,
      "magazine": 5589,
      "Wayne": 5590,
      "disappointing": 5591,
      "Illin": 5592,
      "Kodak": 5593,
      "Tehran": 5594,
      "KAB": 5595,
      "bly": 5596,
      "rum": 5597,
      "raid": 5598,
      "lying": 5599,
      "ably": 5600,
      "assass": 5601,
      "contest": 5602,
      "falls": 5603,
      "finds": 5604,
      "grab": 5605,
      "semi": 5606,
      "unveils": 5607,
      "separate": 5608,
      "Gary": 5609,
      "Lenn": 5610,
      "bon": 5611,
      "buster": 5612,
      "pare": 5613,
      "tent": 5614,
      "wond": 5615,
      "wrap": 5616,
      "edia": 5617,
      "Thousands": 5618,
      "remov": 5619,
      "iversary": 5620,
      "telecommunications": 5621,
      "Fox": 5622,
      "happy": 5623,
      "Kobe": 5624,
      "beyond": 5625,
      "Zarq": 5626,
      "Sharapova": 5627,
      "Kim": 5628,
      "Money": 5629,
      "Mount": 5630,
      "hood": 5631,
      "natural": 5632,
      "vowed": 5633,
      "aded": 5634,
      "defence": 5635,
      "adds": 5636,
      "traditional": 5637,
      "website": 5638,
      "cription": 5639,
      "Milan": 5640,
      "camera": 5641,
      "Larry": 5642,
      "KABUL": 5643,
      "Brian": 5644,
      "bench": 5645,
      "dies": 5646,
      "py": 5647,
      "rav": 5648,
      "rier": 5649,
      "encour": 5650,
      "continuing": 5651,
      "directors": 5652,
      "deaths": 5653,
      "prize": 5654,
      "supercomputer": 5655,
      "VoIP": 5656,
      "Vietnam": 5657,
      "Bi": 5658,
      "SING": 5659,
      "mond": 5660,
      "sat": 5661,
      "stret": 5662,
      "ersey": 5663,
      "exam": 5664,
      "worm": 5665,
      "means": 5666,
      "feature": 5667,
      "Barcel": 5668,
      "destroy": 5669,
      "earthquake": 5670,
      "Lebanon": 5671,
      "Women": 5672,
      "Zarqawi": 5673,
      ".;": 5674,
      "Direct": 5675,
      "Lim": 5676,
      "Makes": 5677,
      "TR": 5678,
      "eve": 5679,
      "iber": 5680,
      "pun": 5681,
      "otype": 5682,
      "images": 5683,
      "rather": 5684,
      "allowing": 5685,
      "abs": 5686,
      "Chart": 5687,
      "contribut": 5688,
      "Spitzer": 5689,
      "nationwide": 5690,
      "violent": 5691,
      "failure": 5692,
      "Symant": 5693,
      "Ferg": 5694,
      "Symantec": 5695,
      "37": 5696,
      "FDA": 5697,
      "PE": 5698,
      "bour": 5699,
      "atist": 5700,
      "eme": 5701,
      "officially": 5702,
      "Quest": 5703,
      "bombings": 5704,
      "Agassi": 5705,
      "Smart": 5706,
      "cuit": 5707,
      "choice": 5708,
      "Jeanne": 5709,
      "Jacques": 5710,
      "52": 5711,
      "Hass": 5712,
      "Mour": 5713,
      "Pf": 5714,
      "jhtml": 5715,
      "oring": 5716,
      "reject": 5717,
      "arta": 5718,
      "phere": 5719,
      "Season": 5720,
      "rises": 5721,
      "increases": 5722,
      "Indianapolis": 5723,
      "succeed": 5724,
      "instant": 5725,
      "appeals": 5726,
      "Denver": 5727,
      "tackle": 5728,
      "citiz": 5729,
      "rallied": 5730,
      "JO": 5731,
      "Longh": 5732,
      "Wild": 5733,
      "feld": 5734,
      "hat": 5735,
      "tar": 5736,
      "tiny": 5737,
      "ofi": 5738,
      "igious": 5739,
      "usual": 5740,
      "alliance": 5741,
      "shots": 5742,
      "oca": 5743,
      "indic": 5744,
      "achie": 5745,
      "Entertainment": 5746,
      "67": 5747,
      "BBC": 5748,
      "ky": 5749,
      "qcat": 5750,
      "qtype": 5751,
      "trust": 5752,
      "Island": 5753,
      "slam": 5754,
      "Seeks": 5755,
      "QuoteLook": 5756,
      "command": 5757,
      "Management": 5758,
      "reporting": 5759,
      "suspects": 5760,
      "founder": 5761,
      "attacked": 5762,
      "Vijay": 5763,
      "financeQuoteLook": 5764,
      "infotype": 5765,
      "financeQuoteLookup": 5766,
      "MO": 5767,
      "Met": 5768,
      "iary": 5769,
      "ano": 5770,
      "acted": 5771,
      "entry": 5772,
      "apolog": 5773,
      "anny": 5774,
      "Mariners": 5775,
      "compete": 5776,
      "captured": 5777,
      "rebounds": 5778,
      "dozens": 5779,
      "Gordon": 5780,
      "69": 5781,
      "Kidn": 5782,
      "Rw": 5783,
      "eased": 5784,
      "arily": 5785,
      "rookie": 5786,
      "shift": 5787,
      "launching": 5788,
      "Offer": 5789,
      "umps": 5790,
      "vehicles": 5791,
      "ratings": 5792,
      "Thomas": 5793,
      "Barcelona": 5794,
      "Pfizer": 5795,
      "JA": 5796,
      "Pil": 5797,
      "bat": 5798,
      "lap": 5799,
      "mad": 5800,
      "eds": 5801,
      "estone": 5802,
      "apers": 5803,
      "occup": 5804,
      "extension": 5805,
      "supporters": 5806,
      "turns": 5807,
      "sentenced": 5808,
      "Emb": 5809,
      "Officials": 5810,
      "stitute": 5811,
      "Commerce": 5812,
      "Have": 5813,
      "ME": 5814,
      "caught": 5815,
      "ambit": 5816,
      "seat": 5817,
      "abandon": 5818,
      "associ": 5819,
      "accine": 5820,
      "lineup": 5821,
      "evening": 5822,
      "rapid": 5823,
      "Ferr": 5824,
      "Mun": 5825,
      "Mut": 5826,
      "database": 5827,
      "lie": 5828,
      "mary": 5829,
      "yad": 5830,
      "street": 5831,
      "icious": 5832,
      "unless": 5833,
      "aggress": 5834,
      "overall": 5835,
      "recogn": 5836,
      "ibur": 5837,
      "keeps": 5838,
      "solution": 5839,
      "Walt": 5840,
      "Democrats": 5841,
      "Brazilian": 5842,
      "potent": 5843,
      "walk": 5844,
      "tempor": 5845,
      "songs": 5846,
      "restructuring": 5847,
      "82": 5848,
      "DO": 5849,
      "NCA": 5850,
      "SS": 5851,
      "drew": 5852,
      "dream": 5853,
      "mand": 5854,
      "ox": 5855,
      "preliminary": 5856,
      "wake": 5857,
      "infring": 5858,
      "technologies": 5859,
      "berg": 5860,
      "Share": 5861,
      "vised": 5862,
      "posts": 5863,
      "property": 5864,
      "Hallibur": 5865,
      "Halliburton": 5866,
      "Equ": 5867,
      "Matt": 5868,
      "hman": 5869,
      "oing": 5870,
      "seized": 5871,
      "truck": 5872,
      "Unit": 5873,
      "attend": 5874,
      "ucation": 5875,
      "providers": 5876,
      "Pervez": 5877,
      "organiz": 5878,
      "semic": 5879,
      "prosecutors": 5880,
      "Far": 5881,
      "TLE": 5882,
      "gear": 5883,
      "hang": 5884,
      "chances": 5885,
      "unlikely": 5886,
      "comments": 5887,
      "gry": 5888,
      "expressed": 5889,
      "Genesis": 5890,
      "GB": 5891,
      "Jam": 5892,
      "Mah": 5893,
      "langu": 5894,
      "ued": 5895,
      "eras": 5896,
      "revers": 5897,
      "agencies": 5898,
      "plun": 5899,
      "aving": 5900,
      "poised": 5901,
      "Forbes": 5902,
      "Heat": 5903,
      "telecom": 5904,
      "comeback": 5905,
      "Enterprise": 5906,
      "88": 5907,
      "Mad": 5908,
      "Opt": 5909,
      "Trial": 5910,
      "Wis": 5911,
      "mens": 5912,
      "pret": 5913,
      "ints": 5914,
      "thod": 5915,
      "icing": 5916,
      "ifts": 5917,
      "iege": 5918,
      "Arctic": 5919,
      "engers": 5920,
      "giants": 5921,
      "towards": 5922,
      "burg": 5923,
      "emerged": 5924,
      "drives": 5925,
      "Browns": 5926,
      "NCAA": 5927,
      "cann": 5928,
      "arth": 5929,
      "enjoy": 5930,
      "convention": 5931,
      "cerem": 5932,
      "Economy": 5933,
      "drove": 5934,
      "Claims": 5935,
      "Apr": 5936,
      "Ju": 5937,
      "Kabul": 5938,
      "NO": 5939,
      "Son": 5940,
      "bomber": 5941,
      "birth": 5942,
      "haps": 5943,
      "mouth": 5944,
      "formed": 5945,
      "enders": 5946,
      "Unveil": 5947,
      "counting": 5948,
      "Forces": 5949,
      "partic": 5950,
      "events": 5951,
      "failing": 5952,
      "blasts": 5953,
      "vendor": 5954,
      "Challenge": 5955,
      "Fut": 5956,
      "ders": 5957,
      "gap": 5958,
      "table": 5959,
      "altern": 5960,
      "asks": 5961,
      "ecess": 5962,
      "abo": 5963,
      "sule": 5964,
      "portable": 5965,
      "liqu": 5966,
      "elected": 5967,
      "creating": 5968,
      "traded": 5969,
      "Leads": 5970,
      "picked": 5971,
      "considered": 5972,
      "waiting": 5973,
      "vendors": 5974,
      "ShipOne": 5975,
      "InfoWorld": 5976,
      "Clear": 5977,
      "Jays": 5978,
      "cold": 5979,
      "ois": 5980,
      "wire": 5981,
      "anch": 5982,
      "urning": 5983,
      "love": 5984,
      "umph": 5985,
      "APORE": 5986,
      "fees": 5987,
      "elson": 5988,
      "condition": 5989,
      "ranking": 5990,
      "Rockets": 5991,
      "streets": 5992,
      "SINGAPORE": 5993,
      "April": 5994,
      "Even": 5995,
      "Ti": 5996,
      "Ten": 5997,
      "Wood": 5998,
      "nd": 5999,
      "nom": 6000,
      "pip": 6001,
      "page": 6002,
      "vac": 6003,
      "cher": 6004,
      "ags": 6005,
      "spons": 6006,
      "Thanks": 6007,
      "ritis": 6008,
      "announces": 6009,
      "shipping": 6010,
      "passenger": 6011,
      "doubled": 6012,
      "Titans": 6013,
      "involving": 6014,
      "Solaris": 6015,
      "machine": 6016,
      "Salv": 6017,
      "Garc": 6018,
      "78": 6019,
      "Pet": 6020,
      "Thai": 6021,
      "barg": 6022,
      "hill": 6023,
      "ables": 6024,
      "iana": 6025,
      "governments": 6026,
      "surround": 6027,
      "SpaceShipOne": 6028,
      "driving": 6029,
      "criticism": 6030,
      "Workers": 6031,
      "manufacturer": 6032,
      "Chirac": 6033,
      "Battle": 6034,
      "Vs": 6035,
      "lights": 6036,
      "usion": 6037,
      "earn": 6038,
      "conserv": 6039,
      "condem": 6040,
      "aine": 6041,
      "worker": 6042,
      "legally": 6043,
      "Plc": 6044,
      "rolled": 6045,
      "delays": 6046,
      "subst": 6047,
      "breaks": 6048,
      "refused": 6049,
      "steroid": 6050,
      "Connect": 6051,
      "technical": 6052,
      "Av": 6053,
      "MI": 6054,
      "aur": 6055,
      "nel": 6056,
      "torn": 6057,
      "eland": 6058,
      "agers": 6059,
      "resum": 6060,
      "aints": 6061,
      "anniversary": 6062,
      "Progr": 6063,
      "winds": 6064,
      "hawks": 6065,
      "Buc": 6066,
      "Jak": 6067,
      "Let": 6068,
      "Many": 6069,
      "Site": 6070,
      "banned": 6071,
      "cks": 6072,
      "dial": 6073,
      "fam": 6074,
      "signing": 6075,
      "erup": 6076,
      "alive": 6077,
      "quite": 6078,
      "newly": 6079,
      "securities": 6080,
      "accident": 6081,
      "crush": 6082,
      "electric": 6083,
      "door": 6084,
      "aida": 6085,
      "Bobby": 6086,
      "Users": 6087,
      "Kyoto": 6088,
      "fighters": 6089,
      "Cred": 6090,
      "Fil": 6091,
      "Kofi": 6092,
      "Qaida": 6093,
      "abe": 6094,
      "gro": 6095,
      "etts": 6096,
      "alled": 6097,
      "Anton": 6098,
      "scar": 6099,
      "NEY": 6100,
      "barr": 6101,
      "explo": 6102,
      "dominated": 6103,
      "Typhoon": 6104,
      "Colombia": 6105,
      "89": 6106,
      "hurricanes": 6107,
      "vide": 6108,
      "insp": 6109,
      "oning": 6110,
      "INT": 6111,
      "Serena": 6112,
      "ATA": 6113,
      "Plus": 6114,
      "soaring": 6115,
      "hitting": 6116,
      "possibly": 6117,
      "Settle": 6118,
      "favour": 6119,
      "collapse": 6120,
      "Advanced": 6121,
      "Hostage": 6122,
      "lows": 6123,
      "aren": 6124,
      "ongoing": 6125,
      "fined": 6126,
      "Alital": 6127,
      "Arrest": 6128,
      "announcing": 6129,
      "Columb": 6130,
      "Indians": 6131,
      "patients": 6132,
      "messages": 6133,
      "Henman": 6134,
      "measures": 6135,
      "surprising": 6136,
      "franchise": 6137,
      "Illinois": 6138,
      "Alitalia": 6139,
      "Ahead": 6140,
      "Dream": 6141,
      "Daily": 6142,
      "Fal": 6143,
      "Len": 6144,
      "Won": 6145,
      "cul": 6146,
      "either": 6147,
      "amount": 6148,
      "usetts": 6149,
      "uncertain": 6150,
      "Inj": 6151,
      "grade": 6152,
      "idea": 6153,
      "achusetts": 6154,
      "attled": 6155,
      "inton": 6156,
      "fled": 6157,
      "seasons": 6158,
      "Appl": 6159,
      "injuring": 6160,
      "Edge": 6161,
      "Firm": 6162,
      "Ryan": 6163,
      "messaging": 6164,
      "figure": 6165,
      "Tennis": 6166,
      "improving": 6167,
      "flying": 6168,
      "Massachusetts": 6169,
      "lawyers": 6170,
      "Toyota": 6171,
      "Hub": 6172,
      "Jersey": 6173,
      "eason": 6174,
      "father": 6175,
      "master": 6176,
      "oth": 6177,
      "tada": 6178,
      "inquiry": 6179,
      "stations": 6180,
      "emen": 6181,
      "aked": 6182,
      "cling": 6183,
      "Marlins": 6184,
      "Seek": 6185,
      "postseason": 6186,
      "pushing": 6187,
      "status": 6188,
      "civilians": 6189,
      "Summary": 6190,
      "dozen": 6191,
      "Libya": 6192,
      "contracts": 6193,
      "Cos": 6194,
      "Coll": 6195,
      "RF": 6196,
      "Water": 6197,
      "farm": 6198,
      "arks": 6199,
      "irates": 6200,
      "scale": 6201,
      "dismissed": 6202,
      "liest": 6203,
      "relations": 6204,
      "hero": 6205,
      "ESPN": 6206,
      "holy": 6207,
      "schools": 6208,
      "Neal": 6209,
      "explosives": 6210,
      "convicted": 6211,
      "Standard": 6212,
      "Columbia": 6213,
      "3Q": 6214,
      "Curt": 6215,
      "Push": 6216,
      "ying": 6217,
      "isions": 6218,
      "units": 6219,
      "insisted": 6220,
      "bridge": 6221,
      "developers": 6222,
      "limited": 6223,
      "Peru": 6224,
      "radical": 6225,
      "greater": 6226,
      "clashes": 6227,
      "dangerous": 6228,
      "Cowboys": 6229,
      "77": 6230,
      "MA": 6231,
      "Ru": 6232,
      "hen": 6233,
      "inters": 6234,
      "stone": 6235,
      "idel": 6236,
      "identified": 6237,
      "Carib": 6238,
      "Delhi": 6239,
      "County": 6240,
      "refugee": 6241,
      "bottom": 6242,
      "\"\\": 6243,
      "Bol": 6244,
      "hockey": 6245,
      "pact": 6246,
      "aran": 6247,
      "sav": 6248,
      "Chang": 6249,
      "Shop": 6250,
      "ounces": 6251,
      "paying": 6252,
      "marathon": 6253,
      "everything": 6254,
      "Chiefs": 6255,
      "practices": 6256,
      "committee": 6257,
      "lawyer": 6258,
      "friendly": 6259,
      "environmental": 6260,
      "Maryland": 6261,
      "Human": 6262,
      "Crit": 6263,
      "DI": 6264,
      "DNEY": 6265,
      "GP": 6266,
      "LIN": 6267,
      "rated": 6268,
      "icts": 6269,
      "rescue": 6270,
      "Month": 6271,
      "ucing": 6272,
      "Sunni": 6273,
      "meter": 6274,
      "Forest": 6275,
      "SELS": 6276,
      "gained": 6277,
      "corner": 6278,
      "holes": 6279,
      "Nether": 6280,
      "racing": 6281,
      "Treasuries": 6282,
      "squad": 6283,
      "legislation": 6284,
      "UEFA": 6285,
      "opportunity": 6286,
      "SYDNEY": 6287,
      "Caribbean": 6288,
      "Lind": 6289,
      "Past": 6290,
      "Tot": 6291,
      "heard": 6292,
      "extrem": 6293,
      "beta": 6294,
      "managed": 6295,
      "beats": 6296,
      "Brad": 6297,
      "promises": 6298,
      "receive": 6299,
      "elescop": 6300,
      "Arabia": 6301,
      "atomic": 6302,
      "Jakarta": 6303,
      "Netherlands": 6304,
      "AA": 6305,
      "LD": 6306,
      "Land": 6307,
      "Loc": 6308,
      "Lik": 6309,
      "Lyn": 6310,
      "sequ": 6311,
      "lob": 6312,
      "Lehman": 6313,
      "NEC": 6314,
      "slip": 6315,
      "particip": 6316,
      "Conf": 6317,
      "Peter": 6318,
      "Offers": 6319,
      "Science": 6320,
      "Small": 6321,
      "subscribers": 6322,
      "Berry": 6323,
      "Gil": 6324,
      "isation": 6325,
      "determin": 6326,
      "endum": 6327,
      "Art": 6328,
      "Reds": 6329,
      "joining": 6330,
      "Warns": 6331,
      "viruses": 6332,
      "solar": 6333,
      "struggle": 6334,
      "notebook": 6335,
      "84": 6336,
      "Ban": 6337,
      "Line": 6338,
      "email": 6339,
      "spin": 6340,
      "Spy": 6341,
      "atcher": 6342,
      "provided": 6343,
      "formal": 6344,
      "evac": 6345,
      "Flight": 6346,
      "AMA": 6347,
      "McLenn": 6348,
      "Polit": 6349,
      "taxes": 6350,
      "transfer": 6351,
      "sembly": 6352,
      "steady": 6353,
      "Official": 6354,
      "Vikings": 6355,
      "Public": 6356,
      "Fergus": 6357,
      "McLennan": 6358,
      "Stern": 6359,
      "aire": 6360,
      "bow": 6361,
      "anted": 6362,
      "attract": 6363,
      "stal": 6364,
      "itect": 6365,
      "allies": 6366,
      "USC": 6367,
      "sud": 6368,
      "phys": 6369,
      "ashion": 6370,
      "Airport": 6371,
      "plement": 6372,
      "passengers": 6373,
      "corruption": 6374,
      "fellow": 6375,
      "MacCentral": 6376,
      "cells": 6377,
      "Fields": 6378,
      "Labour": 6379,
      "Hollinger": 6380,
      "Fle": 6381,
      "Fav": 6382,
      "HE": 6383,
      "Navy": 6384,
      "Pur": 6385,
      "cases": 6386,
      "paper": 6387,
      "stands": 6388,
      "deput": 6389,
      "USSELS": 6390,
      "ailing": 6391,
      "relie": 6392,
      "awn": 6393,
      "releases": 6394,
      "additional": 6395,
      "Book": 6396,
      "Sym": 6397,
      "Busch": 6398,
      "predicted": 6399,
      "spring": 6400,
      "split": 6401,
      "semiconductor": 6402,
      "Blog": 6403,
      "Eri": 6404,
      "File": 6405,
      "Men": 6406,
      "Match": 6407,
      "TD": 6408,
      "esters": 6409,
      "alert": 6410,
      "libr": 6411,
      "highly": 6412,
      "regard": 6413,
      "plants": 6414,
      "Early": 6415,
      "Buff": 6416,
      "bitter": 6417,
      "frust": 6418,
      "combat": 6419,
      "playoffs": 6420,
      "connection": 6421,
      "BRUSSELS": 6422,
      "licens": 6423,
      "aptors": 6424,
      "Az": 6425,
      "CI": 6426,
      "DNA": 6427,
      "hunt": 6428,
      "iest": 6429,
      "asion": 6430,
      "Concer": 6431,
      "throughout": 6432,
      "McN": 6433,
      "iamond": 6434,
      "stopped": 6435,
      "watched": 6436,
      "Muslims": 6437,
      "resolve": 6438,
      "Telecom": 6439,
      "HOUS": 6440,
      "Knicks": 6441,
      "Longhorn": 6442,
      "Det": 6443,
      "Max": 6444,
      "Sto": 6445,
      "Squ": 6446,
      "WOR": 6447,
      "mus": 6448,
      "tied": 6449,
      "oral": 6450,
      "leans": 6451,
      "enty": 6452,
      "cha": 6453,
      "Review": 6454,
      "complet": 6455,
      "Short": 6456,
      "crime": 6457,
      "Who": 6458,
      "ERS": 6459,
      "Schum": 6460,
      "Maures": 6461,
      "pitched": 6462,
      "Travel": 6463,
      "Cheney": 6464,
      "Basketball": 6465,
      "aside": 6466,
      "deleg": 6467,
      "Chave": 6468,
      "mony": 6469,
      "serving": 6470,
      "proved": 6471,
      "Devil": 6472,
      "Austria": 6473,
      "bigger": 6474,
      "sells": 6475,
      "introduce": 6476,
      "climbed": 6477,
      "Charges": 6478,
      "Ferguson": 6479,
      "Mauresmo": 6480,
      "Chavez": 6481,
      "Canc": 6482,
      "Roll": 6483,
      "bowl": 6484,
      "lor": 6485,
      "stream": 6486,
      "heav": 6487,
      "loom": 6488,
      "injuries": 6489,
      "Hassan": 6490,
      "63": 6491,
      "Coca": 6492,
      "Flat": 6493,
      "Gard": 6494,
      "Mult": 6495,
      "Social": 6496,
      "WTO": 6497,
      "eat": 6498,
      "mil": 6499,
      "mits": 6500,
      "esp": 6501,
      "cean": 6502,
      "cease": 6503,
      "offset": 6504,
      "identity": 6505,
      "suspect": 6506,
      "resignation": 6507,
      "estimated": 6508,
      "pledged": 6509,
      "benefit": 6510,
      "Sweden": 6511,
      "semifinals": 6512,
      "Cir": 6513,
      "Cast": 6514,
      "Gro": 6515,
      "Here": 6516,
      "Kaza": 6517,
      "SAP": 6518,
      "fought": 6519,
      "gate": 6520,
      "pal": 6521,
      "emens": 6522,
      "elling": 6523,
      "ovo": 6524,
      "backing": 6525,
      "airlines": 6526,
      "Exper": 6527,
      "Devices": 6528,
      "produced": 6529,
      "politic": 6530,
      "stepped": 6531,
      "models": 6532,
      "Electronic": 6533,
      "opponents": 6534,
      "Antonio": 6535,
      "sudden": 6536,
      "Kazaa": 6537,
      "62": 6538,
      "Fish": 6539,
      "dict": 6540,
      "doping": 6541,
      "iel": 6542,
      "sust": 6543,
      "utsch": 6544,
      "enda": 6545,
      "iffe": 6546,
      "anything": 6547,
      "recru": 6548,
      "CoMo": 6549,
      "triumph": 6550,
      "nowled": 6551,
      "prepare": 6552,
      "Appe": 6553,
      "suspension": 6554,
      "competitive": 6555,
      "Researchers": 6556,
      "Edition": 6557,
      "DoCoMo": 6558,
      "frastructure": 6559,
      "carried": 6560,
      "Point": 6561,
      "loses": 6562,
      "journalists": 6563,
      "Clemens": 6564,
      "Siemens": 6565,
      "housing": 6566,
      "Foods": 6567,
      "Marg": 6568,
      "Raptors": 6569,
      "dles": 6570,
      "knew": 6571,
      "amo": 6572,
      "porn": 6573,
      "artner": 6574,
      "Anth": 6575,
      "Deutsch": 6576,
      "militia": 6577,
      "Adrian": 6578,
      "Tool": 6579,
      "joins": 6580,
      "suffering": 6581,
      "seemed": 6582,
      "expanding": 6583,
      "responsible": 6584,
      "ATION": 6585,
      "pleaded": 6586,
      "potentially": 6587,
      "Best": 6588,
      "Hond": 6589,
      "Sor": 6590,
      "Slo": 6591,
      "VIL": 6592,
      "pione": 6593,
      "qtada": 6594,
      "eler": 6595,
      "ups": 6596,
      "antas": 6597,
      "ASE": 6598,
      "Orleans": 6599,
      "modest": 6600,
      "quality": 6601,
      "accounts": 6602,
      "preced": 6603,
      "Osama": 6604,
      "described": 6605,
      "Athletics": 6606,
      "ceremony": 6607,
      "Bills": 6608,
      "DU": 6609,
      "Nation": 6610,
      "VE": 6611,
      "Xbox": 6612,
      "ZA": 6613,
      "brawl": 6614,
      "ito": 6615,
      "erc": 6616,
      "eling": 6617,
      "oline": 6618,
      "rett": 6619,
      "landmark": 6620,
      "reck": 6621,
      "lawmakers": 6622,
      "links": 6623,
      "showdown": 6624,
      "bids": 6625,
      "outsour": 6626,
      "experiment": 6627,
      "incident": 6628,
      "cleared": 6629,
      "Companies": 6630,
      "BlackBerry": 6631,
      "successfully": 6632,
      "virtual": 6633,
      "arthritis": 6634,
      "BT": 6635,
      "Bird": 6636,
      "Lock": 6637,
      "Link": 6638,
      "RA": 6639,
      "Tre": 6640,
      "hab": 6641,
      "pes": 6642,
      "rein": 6643,
      "ecks": 6644,
      "ationship": 6645,
      "plus": 6646,
      "Their": 6647,
      "prim": 6648,
      "compens": 6649,
      "trick": 6650,
      "financing": 6651,
      "ashing": 6652,
      "ankle": 6653,
      "ORTS": 6654,
      "defend": 6655,
      "produce": 6656,
      "Ask": 6657,
      "visiting": 6658,
      "Israelis": 6659,
      "agrees": 6660,
      "ropical": 6661,
      "SEO": 6662,
      "Moon": 6663,
      "Amid": 6664,
      "Update2": 6665,
      "Motion": 6666,
      "closely": 6667,
      "Insurance": 6668,
      "Raises": 6669,
      "Embassy": 6670,
      "cannot": 6671,
      "Bos": 6672,
      "EA": 6673,
      "Gh": 6674,
      "Las": 6675,
      "Spr": 6676,
      "Ven": 6677,
      "auts": 6678,
      "east": 6679,
      "ien": 6680,
      "marg": 6681,
      "vic": 6682,
      "ensure": 6683,
      "willing": 6684,
      "gren": 6685,
      "medals": 6686,
      "slipped": 6687,
      "mohan": 6688,
      "Cola": 6689,
      "Control": 6690,
      "friends": 6691,
      "Calls": 6692,
      "onghold": 6693,
      "mountain": 6694,
      "HOUSTON": 6695,
      "Chase": 6696,
      "GD": 6697,
      "Gartner": 6698,
      "Sn": 6699,
      "eb": 6700,
      "len": 6701,
      "park": 6702,
      "tap": 6703,
      "itude": 6704,
      "ille": 6705,
      "sea": 6706,
      "empt": 6707,
      "apter": 6708,
      "offices": 6709,
      "uces": 6710,
      "marked": 6711,
      "headquarters": 6712,
      "stronghold": 6713,
      "ounced": 6714,
      "networking": 6715,
      "TAWA": 6716,
      "appearance": 6717,
      "Charley": 6718,
      "Mosul": 6719,
      "OTTAWA": 6720,
      "picture": 6721,
      "LINE": 6722,
      "qualifier": 6723,
      "Bes": 6724,
      "Face": 6725,
      "Ross": 6726,
      "Van": 6727,
      "WM": 6728,
      "gish": 6729,
      "orbit": 6730,
      "idend": 6731,
      "eled": 6732,
      "agents": 6733,
      "owa": 6734,
      "cliffe": 6735,
      "pole": 6736,
      "couldn": 6737,
      "reduced": 6738,
      "Trust": 6739,
      "presence": 6740,
      "Philips": 6741,
      "PlayStation": 6742,
      "Harry": 6743,
      "Cambod": 6744,
      "inventories": 6745,
      "Glazer": 6746,
      "Deutsche": 6747,
      ".\\\\": 6748,
      "Close": 6749,
      "Foll": 6750,
      "Kel": 6751,
      "powers": 6752,
      "raud": 6753,
      "Theft": 6754,
      "confirm": 6755,
      "Stra": 6756,
      "poses": 6757,
      "aware": 6758,
      "largely": 6759,
      "McC": 6760,
      "Andrew": 6761,
      "successor": 6762,
      "causing": 6763,
      "Contin": 6764,
      "rejects": 6765,
      "measure": 6766,
      "Celtic": 6767,
      "require": 6768,
      "Rules": 6769,
      "BOSTON": 6770,
      "Boy": 6771,
      "Eight": 6772,
      "Hamil": 6773,
      "Nap": 6774,
      "Rest": 6775,
      "UAL": 6776,
      "tank": 6777,
      "rif": 6778,
      "projects": 6779,
      "Child": 6780,
      "worry": 6781,
      "manned": 6782,
      "centre": 6783,
      "Deb": 6784,
      "profile": 6785,
      "gymnast": 6786,
      "Manmohan": 6787,
      "BAD": 6788,
      "guerr": 6789,
      "letter": 6790,
      "blog": 6791,
      "easier": 6792,
      "delivered": 6793,
      "suggests": 6794,
      "Pentagon": 6795,
      "assistant": 6796,
      "Bor": 6797,
      "Cross": 6798,
      "Diamond": 6799,
      "F1": 6800,
      "Petro": 6801,
      "Tay": 6802,
      "UC": 6803,
      "rat": 6804,
      "acco": 6805,
      "omes": 6806,
      "urges": 6807,
      "earned": 6808,
      "consp": 6809,
      "constitution": 6810,
      "anyone": 6811,
      "lando": 6812,
      "capable": 6813,
      "Clinton": 6814,
      "160": 6815,
      "Disc": 6816,
      "Demand": 6817,
      "focused": 6818,
      "Helens": 6819,
      "challenges": 6820,
      "Hamilton": 6821,
      "OF": 6822,
      "cott": 6823,
      "daily": 6824,
      "eera": 6825,
      "fold": 6826,
      "smo": 6827,
      "ently": 6828,
      "iant": 6829,
      "ample": 6830,
      "ANA": 6831,
      "providing": 6832,
      "Convention": 6833,
      "Sever": 6834,
      "Netscape": 6835,
      "SEAT": 6836,
      "Guine": 6837,
      "promot": 6838,
      "Electric": 6839,
      "critics": 6840,
      "locked": 6841,
      "Attacks": 6842,
      "writes": 6843,
      "Title": 6844,
      "cameras": 6845,
      "couple": 6846,
      "manufacturers": 6847,
      "Seahawks": 6848,
      "strategic": 6849,
      "Hung": 6850,
      "Hugh": 6851,
      "Mu": 6852,
      "Pict": 6853,
      "Raf": 6854,
      "Race": 6855,
      "Round": 6856,
      "gar": 6857,
      "hike": 6858,
      "Ready": 6859,
      "umble": 6860,
      "Thatcher": 6861,
      "assess": 6862,
      "rub": 6863,
      "obtain": 6864,
      "izards": 6865,
      "missions": 6866,
      "passing": 6867,
      "spects": 6868,
      "marine": 6869,
      "possibility": 6870,
      "expert": 6871,
      "weaker": 6872,
      "Campaign": 6873,
      "Violence": 6874,
      "language": 6875,
      "Schumacher": 6876,
      "56": 6877,
      "Ca": 6878,
      "Dick": 6879,
      "Jun": 6880,
      "Links": 6881,
      "Sem": 6882,
      "aide": 6883,
      "implement": 6884,
      "Staff": 6885,
      "click": 6886,
      "positions": 6887,
      "talking": 6888,
      "Qual": 6889,
      "Orlando": 6890,
      "larger": 6891,
      "insurgent": 6892,
      "Harmony": 6893,
      "Universal": 6894,
      "kidnappers": 6895,
      "heavyweight": 6896,
      "convoy": 6897,
      "Cyber": 6898,
      "feared": 6899,
      "Raiders": 6900,
      "RFID": 6901,
      "Guinea": 6902,
      "Caval": 6903,
      "Lakers": 6904,
      "Por": 6905,
      "Semic": 6906,
      "fashion": 6907,
      "iMac": 6908,
      "sized": 6909,
      "waves": 6910,
      "repair": 6911,
      "isk": 6912,
      "illy": 6913,
      "quakes": 6914,
      "proceed": 6915,
      "laugh": 6916,
      "intens": 6917,
      "killer": 6918,
      "remember": 6919,
      "recording": 6920,
      "lowest": 6921,
      "Syd": 6922,
      "ucky": 6923,
      "IMF": 6924,
      "expanded": 6925,
      "graphics": 6926,
      "subsidiary": 6927,
      "Celtics": 6928,
      "neighbor": 6929,
      "abduct": 6930,
      "72": 6931,
      "Auss": 6932,
      "Fen": 6933,
      "NC": 6934,
      "Nick": 6935,
      "Viv": 6936,
      "brain": 6937,
      "map": 6938,
      "infrastructure": 6939,
      "illegally": 6940,
      "usal": 6941,
      "uty": 6942,
      "comed": 6943,
      "icken": 6944,
      "2007": 6945,
      "angered": 6946,
      "10th": 6947,
      "Weigh": 6948,
      "Peters": 6949,
      "versions": 6950,
      "brother": 6951,
      "keepers": 6952,
      "ossil": 6953,
      "Parliament": 6954,
      "affect": 6955,
      "Abd": 6956,
      "SPORTS": 6957,
      "ousted": 6958,
      "suggested": 6959,
      "Henry": 6960,
      "answer": 6961,
      "helicopter": 6962,
      "Honda": 6963,
      "Sydney": 6964,
      "95": 6965,
      "Bul": 6966,
      "Eis": 6967,
      "Mat": 6968,
      "bull": 6969,
      "mes": 6970,
      "wich": 6971,
      "inion": 6972,
      "atively": 6973,
      "ittle": 6974,
      "reforms": 6975,
      "ache": 6976,
      "resist": 6977,
      "abled": 6978,
      "secretary": 6979,
      "blamed": 6980,
      "2008": 6981,
      "disrupt": 6982,
      "worlds": 6983,
      "rell": 6984,
      "Box": 6985,
      "tradition": 6986,
      "demanding": 6987,
      "euros": 6988,
      "Military": 6989,
      "Owen": 6990,
      "Sirius": 6991,
      "Victory": 6992,
      "Ballmer": 6993,
      "Lycos": 6994,
      "piece": 6995,
      "DELHI": 6996,
      "stretch": 6997,
      "Credit": 6998,
      "Every": 6999,
      "Nearly": 7000,
      "Years": 7001,
      "fate": 7002,
      "inspect": 7003,
      "enson": 7004,
      "inaug": 7005,
      "warnings": 7006,
      "proves": 7007,
      "remlin": 7008,
      "postpon": 7009,
      "targeting": 7010,
      "sentiment": 7011,
      "controlled": 7012,
      "Partners": 7013,
      "overseas": 7014,
      "covered": 7015,
      "collabor": 7016,
      "downloads": 7017,
      "VIEN": 7018,
      "CRM": 7019,
      "deputy": 7020,
      "Anthony": 7021,
      "Eisner": 7022,
      "Bru": 7023,
      "Fans": 7024,
      "Gains": 7025,
      "Mort": 7026,
      "Rums": 7027,
      "Since": 7028,
      "VP": 7029,
      "Wants": 7030,
      "dark": 7031,
      "hired": 7032,
      "mother": 7033,
      "rington": 7034,
      "agging": 7035,
      "sect": 7036,
      "returning": 7037,
      "parents": 7038,
      "Why": 7039,
      "Itanium": 7040,
      "arming": 7041,
      "factory": 7042,
      "Abbey": 7043,
      "Explos": 7044,
      "LAND": 7045,
      "jailed": 7046,
      "reasons": 7047,
      "distribution": 7048,
      "favorite": 7049,
      "infringement": 7050,
      "Unveils": 7051,
      "Rumsfeld": 7052,
      "Cze": 7053,
      "Kremlin": 7054,
      "LCD": 7055,
      "Zone": 7056,
      "lies": 7057,
      "inho": 7058,
      "perform": 7059,
      "oking": 7060,
      "attorney": 7061,
      "boom": 7062,
      "surface": 7063,
      "Maria": 7064,
      "Protocol": 7065,
      "evol": 7066,
      "roundup": 7067,
      "reflect": 7068,
      "distance": 7069,
      "everyone": 7070,
      "lockout": 7071,
      "complex": 7072,
      "EMBER": 7073,
      "instit": 7074,
      "1990": 7075,
      "effective": 7076,
      "diplomats": 7077,
      "silver": 7078,
      "professional": 7079,
      "VILLE": 7080,
      "Czech": 7081,
      "CBC": 7082,
      "Famil": 7083,
      "Gam": 7084,
      "TI": 7085,
      "neck": 7086,
      "vin": 7087,
      "thin": 7088,
      "ores": 7089,
      "rect": 7090,
      "leum": 7091,
      "otic": 7092,
      "compared": 7093,
      "Although": 7094,
      "capsule": 7095,
      "Supply": 7096,
      "titles": 7097,
      "programme": 7098,
      "experience": 7099,
      "emerging": 7100,
      "particular": 7101,
      "Cabinet": 7102,
      "Rain": 7103,
      "Snow": 7104,
      "Wizards": 7105,
      "var": 7106,
      "icle": 7107,
      "adow": 7108,
      "perhaps": 7109,
      "anson": 7110,
      "client": 7111,
      "Ends": 7112,
      "bron": 7113,
      "Marines": 7114,
      "ortium": 7115,
      "formally": 7116,
      "Soon": 7117,
      "Blu": 7118,
      "meetings": 7119,
      "Merc": 7120,
      "Chechn": 7121,
      "GAZA": 7122,
      "Signs": 7123,
      "astronauts": 7124,
      "department": 7125,
      "famous": 7126,
      "Semiconductor": 7127,
      "3rd": 7128,
      "Prom": 7129,
      "wart": 7130,
      "tering": 7131,
      "Institute": 7132,
      "ipse": 7133,
      "invasion": 7134,
      "desert": 7135,
      "Briton": 7136,
      "ATLAN": 7137,
      "relationship": 7138,
      "inking": 7139,
      "stein": 7140,
      "follow": 7141,
      "Support": 7142,
      "BCS": 7143,
      "Championships": 7144,
      "Storage": 7145,
      "spammers": 7146,
      "commissioner": 7147,
      "territory": 7148,
      "outsourcing": 7149,
      "Chechnya": 7150,
      "Bud": 7151,
      "Cur": 7152,
      "Priv": 7153,
      "Sand": 7154,
      "nie": 7155,
      "rid": 7156,
      "alone": 7157,
      "adop": 7158,
      "worried": 7159,
      "compon": 7160,
      "firing": 7161,
      "Spurs": 7162,
      "monthly": 7163,
      "mostly": 7164,
      "payments": 7165,
      "followed": 7166,
      "accepted": 7167,
      "Silver": 7168,
      "drivers": 7169,
      "Philippine": 7170,
      "Republicans": 7171,
      "Stephen": 7172,
      "District": 7173,
      "referendum": 7174,
      "Jazeera": 7175,
      "Program": 7176,
      "Margaret": 7177,
      "SEATTLE": 7178,
      "Mail": 7179,
      "cult": 7180,
      "dra": 7181,
      "felt": 7182,
      "eder": 7183,
      "enport": 7184,
      "exec": 7185,
      "exact": 7186,
      "lah": 7187,
      "neg": 7188,
      "express": 7189,
      "Davenport": 7190,
      "shoulder": 7191,
      "offerings": 7192,
      "politics": 7193,
      "Finance": 7194,
      "Democrat": 7195,
      "BEA": 7196,
      "architect": 7197,
      "Foundation": 7198,
      "mosque": 7199,
      "establish": 7200,
      "precedented": 7201,
      "Cavaliers": 7202,
      "Little": 7203,
      "MAR": 7204,
      "cats": 7205,
      "cabinet": 7206,
      "ez": 7207,
      "mob": 7208,
      "siege": 7209,
      "tos": 7210,
      "icy": 7211,
      "abil": 7212,
      "UNIT": 7213,
      "preseason": 7214,
      "ikes": 7215,
      "ministr": 7216,
      "Allen": 7217,
      "watching": 7218,
      "engineers": 7219,
      "Justin": 7220,
      "struggled": 7221,
      "Traf": 7222,
      "Swedish": 7223,
      "Vegas": 7224,
      "Garcia": 7225,
      "elescope": 7226,
      "68": 7227,
      "Eastern": 7228,
      "Ho": 7229,
      "SO": 7230,
      "bts": 7231,
      "vaccine": 7232,
      "alo": 7233,
      "prop": 7234,
      "acknowled": 7235,
      "scram": 7236,
      "landing": 7237,
      "Debut": 7238,
      "Serb": 7239,
      "reading": 7240,
      "targeted": 7241,
      "rolling": 7242,
      "payment": 7243,
      "powered": 7244,
      "competitors": 7245,
      "Abbas": 7246,
      "places": 7247,
      "capture": 7248,
      "rushed": 7249,
      "Broncos": 7250,
      "clusive": 7251,
      "Jaguar": 7252,
      "Ha": 7253,
      "Jet": 7254,
      "Jama": 7255,
      "Ob": 7256,
      "RI": 7257,
      "Sab": 7258,
      "Wake": 7259,
      "vard": 7260,
      "envoy": 7261,
      "itas": 7262,
      "prospect": 7263,
      "aste": 7264,
      "offs": 7265,
      "portation": 7266,
      "scrap": 7267,
      "lining": 7268,
      "aska": 7269,
      "View": 7270,
      "Golden": 7271,
      "gunmen": 7272,
      "Radcliffe": 7273,
      "currently": 7274,
      "supplier": 7275,
      "Hopes": 7276,
      "Urges": 7277,
      "Pentium": 7278,
      "scientific": 7279,
      "updates": 7280,
      "79": 7281,
      "Astr": 7282,
      "Cat": 7283,
      "Hills": 7284,
      "Hundreds": 7285,
      "UA": 7286,
      "Vill": 7287,
      "brew": 7288,
      "kil": 7289,
      "pm": 7290,
      "incent": 7291,
      "unprecedented": 7292,
      "ulate": 7293,
      "approve": 7294,
      "prospects": 7295,
      "ONLINE": 7296,
      "accusing": 7297,
      "provides": 7298,
      "busy": 7299,
      "consol": 7300,
      "ISL": 7301,
      "shareholder": 7302,
      "Mayor": 7303,
      "vania": 7304,
      "respect": 7305,
      "attempts": 7306,
      "multiple": 7307,
      "controversy": 7308,
      "shrine": 7309,
      "individual": 7310,
      "bronze": 7311,
      "UNITED": 7312,
      "Ev": 7313,
      "ML": 7314,
      "Use": 7315,
      "Vice": 7316,
      "waters": 7317,
      "itarian": 7318,
      "imming": 7319,
      "emale": 7320,
      "reaches": 7321,
      "swing": 7322,
      "Merr": 7323,
      "Commun": 7324,
      "Holiday": 7325,
      "ippi": 7326,
      "Panel": 7327,
      "Safin": 7328,
      "awarded": 7329,
      "AMABAD": 7330,
      "Trafford": 7331,
      "ISLAMABAD": 7332,
      "92": 7333,
      "Bad": 7334,
      "Govern": 7335,
      "Hun": 7336,
      "Hospital": 7337,
      "Lay": 7338,
      "Mod": 7339,
      "OG": 7340,
      "Pct": 7341,
      "Winter": 7342,
      "hu": 7343,
      "necess": 7344,
      "wag": 7345,
      "ingham": 7346,
      "ello": 7347,
      "eless": 7348,
      "acceler": 7349,
      "sson": 7350,
      "bright": 7351,
      "included": 7352,
      "internal": 7353,
      "subject": 7354,
      "limit": 7355,
      "sentence": 7356,
      "equity": 7357,
      "Suicide": 7358,
      "Meg": 7359,
      "EMC": 7360,
      "tells": 7361,
      "Release": 7362,
      "sluggish": 7363,
      "SEOUL": 7364,
      "ATLANTA": 7365,
      "Ba": 7366,
      "Brew": 7367,
      "SCO": 7368,
      "enix": 7369,
      "aly": 7370,
      "oft": 7371,
      "vement": 7372,
      "conclud": 7373,
      "ifies": 7374,
      "blame": 7375,
      "achi": 7376,
      "cooperation": 7377,
      "AND": 7378,
      "operators": 7379,
      "producing": 7380,
      "greatest": 7381,
      "ADEL": 7382,
      "membership": 7383,
      "function": 7384,
      "Insurgents": 7385,
      "Memphis": 7386,
      "Everton": 7387,
      "Jay": 7388,
      "Like": 7389,
      "Soy": 7390,
      "ticket": 7391,
      "revolution": 7392,
      "umber": 7393,
      "grad": 7394,
      "scr": 7395,
      "inson": 7396,
      "Shang": 7397,
      "disk": 7398,
      "Works": 7399,
      "Contract": 7400,
      "knows": 7401,
      "boosting": 7402,
      "Alliance": 7403,
      "employee": 7404,
      "Harris": 7405,
      "patents": 7406,
      "privately": 7407,
      "magn": 7408,
      "separatist": 7409,
      "photos": 7410,
      "pounds": 7411,
      "optimistic": 7412,
      "Southeast": 7413,
      "NATION": 7414,
      "Rose": 7415,
      "Tops": 7416,
      "icut": 7417,
      "forest": 7418,
      "beef": 7419,
      "Revenue": 7420,
      "shake": 7421,
      "overhaul": 7422,
      "hasn": 7423,
      "spo": 7424,
      "backer": 7425,
      "whole": 7426,
      "supposed": 7427,
      "Pho": 7428,
      "freeze": 7429,
      "Road": 7430,
      "copies": 7431,
      "Survey": 7432,
      "committed": 7433,
      "photograph": 7434,
      "immediate": 7435,
      "university": 7436,
      "Murdo": 7437,
      "hackers": 7438,
      "trigg": 7439,
      "loyal": 7440,
      "Gateway": 7441,
      "Connecticut": 7442,
      "VIENNA": 7443,
      "Du": 7444,
      "Ori": 7445,
      "WE": 7446,
      "ka": 7447,
      "comfort": 7448,
      "shown": 7449,
      "ours": 7450,
      "shipments": 7451,
      "atorial": 7452,
      "march": 7453,
      "homered": 7454,
      "concerned": 7455,
      "frequ": 7456,
      "embattled": 7457,
      "protests": 7458,
      "Expected": 7459,
      "rolls": 7460,
      "responsibility": 7461,
      "penalty": 7462,
      "governor": 7463,
      "2nd": 7464,
      "Rams": 7465,
      "Racing": 7466,
      "Sets": 7467,
      "U2": 7468,
      "bun": 7469,
      "tun": 7470,
      "ayed": 7471,
      "reserve": 7472,
      "compat": 7473,
      "true": 7474,
      "manage": 7475,
      "suing": 7476,
      "blew": 7477,
      "religious": 7478,
      "tested": 7479,
      "Clar": 7480,
      "McDonald": 7481,
      "destruct": 7482,
      "Phillies": 7483,
      "armaceutical": 7484,
      "Thanksgiving": 7485,
      "WORLD": 7486,
      "Napster": 7487,
      "Shanghai": 7488,
      "Murdoch": 7489,
      "57": 7490,
      "HAR": 7491,
      "Jul": 7492,
      "Sven": 7493,
      "pting": 7494,
      "wides": 7495,
      "inated": 7496,
      "education": 7497,
      "ecially": 7498,
      "alls": 7499,
      "determ": 7500,
      "shire": 7501,
      "concess": 7502,
      "grid": 7503,
      "neth": 7504,
      "meters": 7505,
      "brings": 7506,
      "oya": 7507,
      "clothing": 7508,
      "Norway": 7509,
      "feet": 7510,
      "producers": 7511,
      "Guant": 7512,
      "skip": 7513,
      "regulatory": 7514,
      "Medical": 7515,
      "Kenya": 7516,
      "pilot": 7517,
      "ernand": 7518,
      "Sky": 7519,
      "license": 7520,
      "aboard": 7521,
      "Buffalo": 7522,
      "especially": 7523,
      "350": 7524,
      "Faces": 7525,
      "Log": 7526,
      "Lley": 7527,
      "Must": 7528,
      "Nic": 7529,
      "bag": 7530,
      "gaming": 7531,
      "wear": 7532,
      "wage": 7533,
      "wickets": 7534,
      "zen": 7535,
      "enforce": 7536,
      "chet": 7537,
      "olves": 7538,
      "exhib": 7539,
      "endi": 7540,
      "wealth": 7541,
      "trend": 7542,
      "ocide": 7543,
      "amped": 7544,
      "commander": 7545,
      "hopeful": 7546,
      "COL": 7547,
      "storms": 7548,
      "threatens": 7549,
      "denies": 7550,
      "revenues": 7551,
      "Does": 7552,
      "Veritas": 7553,
      "shoppers": 7554,
      "PalmOne": 7555,
      "welcome": 7556,
      "Chargers": 7557,
      "brokerage": 7558,
      "sweeping": 7559,
      "gathered": 7560,
      "crackdown": 7561,
      "alternative": 7562,
      "Lleyton": 7563,
      "81": 7564,
      "Kl": 7565,
      "NZ": 7566,
      "Suc": 7567,
      "fli": 7568,
      "ipl": 7569,
      "forcing": 7570,
      "unar": 7571,
      "conver": 7572,
      "prises": 7573,
      "merge": 7574,
      "lav": 7575,
      "worked": 7576,
      "Also": 7577,
      "ologists": 7578,
      "mining": 7579,
      "studios": 7580,
      "facility": 7581,
      "families": 7582,
      "reality": 7583,
      "Kenneth": 7584,
      "races": 7585,
      "EDS": 7586,
      "Fighting": 7587,
      "flagship": 7588,
      "Development": 7589,
      "Eriks": 7590,
      "96": 7591,
      "Fuel": 7592,
      "filled": 7593,
      "na": 7594,
      "ride": 7595,
      "wing": 7596,
      "ston": 7597,
      "aka": 7598,
      "exerc": 7599,
      "dee": 7600,
      "abad": 7601,
      "oco": 7602,
      "retired": 7603,
      "ships": 7604,
      "genet": 7605,
      "Clim": 7606,
      "coaching": 7607,
      "promising": 7608,
      "population": 7609,
      "Depot": 7610,
      "audio": 7611,
      "slowdown": 7612,
      "floods": 7613,
      "Broadband": 7614,
      "Latest": 7615,
      "material": 7616,
      "Ferrari": 7617,
      "liquid": 7618,
      "Beng": 7619,
      "Cas": 7620,
      "Hill": 7621,
      "Iowa": 7622,
      "Kent": 7623,
      "oes": 7624,
      "sense": 7625,
      "reporters": 7626,
      "agues": 7627,
      "imately": 7628,
      "rail": 7629,
      "whel": 7630,
      "ords": 7631,
      "igned": 7632,
      "meets": 7633,
      "slowing": 7634,
      "restore": 7635,
      "Project": 7636,
      "pread": 7637,
      "calm": 7638,
      "drops": 7639,
      "lowered": 7640,
      "effects": 7641,
      "modern": 7642,
      "Suit": 7643,
      "gasoline": 7644,
      "policies": 7645,
      "delivery": 7646,
      "Consumers": 7647,
      "pictures": 7648,
      "initiative": 7649,
      "ometimes": 7650,
      "Phoenix": 7651,
      "Sav": 7652,
      "UJA": 7653,
      "VIE": 7654,
      "Zo": 7655,
      "fierce": 7656,
      "ono": 7657,
      "orb": 7658,
      "acom": 7659,
      "chem": 7660,
      "imposed": 7661,
      "utility": 7662,
      "fires": 7663,
      "posing": 7664,
      "setback": 7665,
      "deser": 7666,
      "capabilities": 7667,
      "ventus": 7668,
      "Laur": 7669,
      "Berlin": 7670,
      "Officer": 7671,
      "crowded": 7672,
      "settled": 7673,
      "Febru": 7674,
      "Juventus": 7675,
      "Future": 7676,
      "Eriksson": 7677,
      "February": 7678,
      "List": 7679,
      "Py": 7680,
      "SI": 7681,
      "Sach": 7682,
      "Vent": 7683,
      "grip": 7684,
      "mour": 7685,
      "tape": 7686,
      "estate": 7687,
      "apart": 7688,
      "ancient": 7689,
      "teammates": 7690,
      "NEWS": 7691,
      "console": 7692,
      "visions": 7693,
      "Buys": 7694,
      "IRO": 7695,
      "carriers": 7696,
      "disputed": 7697,
      "Panthers": 7698,
      "handsets": 7699,
      "document": 7700,
      "horse": 7701,
      "origin": 7702,
      "sparked": 7703,
      "Kuwait": 7704,
      "74": 7705,
      "Bull": 7706,
      "Cath": 7707,
      "Cards": 7708,
      "Jon": 7709,
      "Rays": 7710,
      "Stop": 7711,
      "Xin": 7712,
      "cart": 7713,
      "path": 7714,
      "imports": 7715,
      "ems": 7716,
      "Chad": 7717,
      "Prison": 7718,
      "Least": 7719,
      "Guid": 7720,
      "IDC": 7721,
      "RealNetworks": 7722,
      "battered": 7723,
      "compensation": 7724,
      "widespread": 7725,
      "determine": 7726,
      "Daim": 7727,
      "Gain": 7728,
      "Hurricanes": 7729,
      "Pino": 7730,
      "Right": 7731,
      "crown": 7732,
      "tail": 7733,
      "plenty": 7734,
      "Check": 7735,
      "odd": 7736,
      "expensive": 7737,
      "medic": 7738,
      "branch": 7739,
      "ength": 7740,
      "consin": 7741,
      "Palace": 7742,
      "Results": 7743,
      "specific": 7744,
      "Bankrupt": 7745,
      "strained": 7746,
      "innov": 7747,
      "funding": 7748,
      "battles": 7749,
      "original": 7750,
      "scientist": 7751,
      "organizations": 7752,
      "Wisconsin": 7753,
      "pipeline": 7754,
      "Diamondbacks": 7755,
      "Several": 7756,
      "Daimler": 7757,
      "Pinochet": 7758,
      "Cash": 7759,
      "Flo": 7760,
      "Fresh": 7761,
      "WN": 7762,
      "ja": 7763,
      "lus": 7764,
      "syn": 7765,
      "uate": 7766,
      "theft": 7767,
      "usto": 7768,
      "shore": 7769,
      "icking": 7770,
      "Shows": 7771,
      "legend": 7772,
      "trials": 7773,
      "victim": 7774,
      "risks": 7775,
      "justice": 7776,
      "suspend": 7777,
      "handset": 7778,
      "processing": 7779,
      "humans": 7780,
      "Milose": 7781,
      "momentum": 7782,
      "unexpectedly": 7783,
      "TiVo": 7784,
      "Beslan": 7785,
      "Bec": 7786,
      "Writ": 7787,
      "cil": 7788,
      "creat": 7789,
      "female": 7790,
      "uz": 7791,
      "anamo": 7792,
      "verage": 7793,
      "clin": 7794,
      "clients": 7795,
      "ORCL": 7796,
      "ancy": 7797,
      "slides": 7798,
      "useum": 7799,
      "creation": 7800,
      "ALI": 7801,
      "Scient": 7802,
      "easily": 7803,
      "dividend": 7804,
      "sidel": 7805,
      "Lawy": 7806,
      "dominant": 7807,
      "LSU": 7808,
      "Montg": 7809,
      "Owens": 7810,
      "Safety": 7811,
      "Daniel": 7812,
      "breath": 7813,
      "publisher": 7814,
      "opponent": 7815,
      "influence": 7816,
      "Briefly": 7817,
      "Pilots": 7818,
      "Hughes": 7819,
      "Milosevic": 7820,
      "71": 7821,
      "Cro": 7822,
      "MAD": 7823,
      "Pop": 7824,
      "bills": 7825,
      "cry": 7826,
      "orse": 7827,
      "ception": 7828,
      "ulting": 7829,
      "existing": 7830,
      "acking": 7831,
      "ellor": 7832,
      "Shut": 7833,
      "backup": 7834,
      "Index": 7835,
      "AST": 7836,
      "ological": 7837,
      "featur": 7838,
      "views": 7839,
      "marks": 7840,
      "explosions": 7841,
      "Investig": 7842,
      "1999": 7843,
      "civilian": 7844,
      "PHIL": 7845,
      "Ricky": 7846,
      "Guantanamo": 7847,
      "G5": 7848,
      "Ga": 7849,
      "Kaz": 7850,
      "Mits": 7851,
      "fill": 7852,
      "sight": 7853,
      "aser": 7854,
      "ecl": 7855,
      "exc": 7856,
      "loans": 7857,
      "Change": 7858,
      "ivors": 7859,
      "scene": 7860,
      "extending": 7861,
      "Cons": 7862,
      "desper": 7863,
      "learned": 7864,
      "victories": 7865,
      "Andreas": 7866,
      "Mississ": 7867,
      "welcomed": 7868,
      "PSFT": 7869,
      "Lebanese": 7870,
      "knocked": 7871,
      "Gunmen": 7872,
      "BU": 7873,
      "Burn": 7874,
      "Foc": 7875,
      "Wel": 7876,
      "iate": 7877,
      "lux": 7878,
      "sand": 7879,
      "vy": 7880,
      "iga": 7881,
      "beach": 7882,
      "export": 7883,
      "restaur": 7884,
      "trail": 7885,
      "coaches": 7886,
      "searching": 7887,
      "movement": 7888,
      "Switzer": 7889,
      "moder": 7890,
      "rocked": 7891,
      "write": 7892,
      "sexual": 7893,
      "tentative": 7894,
      "Lenovo": 7895,
      "CK": 7896,
      "Care": 7897,
      "Gives": 7898,
      "Kid": 7899,
      "fal": 7900,
      "fixed": 7901,
      "rot": 7902,
      "illas": 7903,
      "utious": 7904,
      "emp": 7905,
      "perman": 7906,
      "struments": 7907,
      "encing": 7908,
      "operate": 7909,
      "Prov": 7910,
      "Bln": 7911,
      "12th": 7912,
      "barely": 7913,
      "146": 7914,
      "Acqu": 7915,
      "cautious": 7916,
      "simple": 7917,
      "ICC": 7918,
      "thinking": 7919,
      "casual": 7920,
      "chenko": 7921,
      "legislat": 7922,
      "Analyst": 7923,
      "Munich": 7924,
      "Orioles": 7925,
      "59": 7926,
      "Da": 7927,
      "Horn": 7928,
      "Imp": 7929,
      "Night": 7930,
      "Note": 7931,
      "font": 7932,
      "punch": 7933,
      "revised": 7934,
      "improper": 7935,
      "shed": 7936,
      "ister": 7937,
      "overwhel": 7938,
      "haz": 7939,
      "granted": 7940,
      "igns": 7941,
      "Incre": 7942,
      "poison": 7943,
      "Environment": 7944,
      "engines": 7945,
      "Goes": 7946,
      "Beats": 7947,
      "Suz": 7948,
      "regulator": 7949,
      "pitching": 7950,
      "GOP": 7951,
      "attered": 7952,
      "prepares": 7953,
      "replacement": 7954,
      "citizens": 7955,
      "Equatorial": 7956,
      "licensing": 7957,
      "Taylor": 7958,
      "Vivendi": 7959,
      "Mississippi": 7960,
      "Fast": 7961,
      "Khan": 7962,
      "Lef": 7963,
      "Mol": 7964,
      "eers": 7965,
      "mud": 7966,
      "nets": 7967,
      "acter": 7968,
      "unemployment": 7969,
      "agenda": 7970,
      "ulk": 7971,
      "phic": 7972,
      "intended": 7973,
      "Indies": 7974,
      "nsyl": 7975,
      "2012": 7976,
      "column": 7977,
      "Earn": 7978,
      "Virus": 7979,
      "listed": 7980,
      "Kenned": 7981,
      "combined": 7982,
      "arrives": 7983,
      "Pennsyl": 7984,
      "astronom": 7985,
      "Blockbuster": 7986,
      "Authority": 7987,
      "consolid": 7988,
      "Merrill": 7989,
      "Suzuk": 7990,
      "1st": 7991,
      "Gor": 7992,
      "Give": 7993,
      "Gaz": 7994,
      "Names": 7995,
      "Pirates": 7996,
      "Rice": 7997,
      "ael": 7998,
      "orious": 7999
    },
    "merges": [
      [
        "i",
        "n"
      ],
      [
        "e",
        "r"
      ],
      [
        "t",
        "h"
      ],
      [
        "a",
        "n"
      ],
      [
        "o",
        "n"
      ],
      [
        "e",
        "s"
      ],
      [
        "o",
        "r"
      ],
      [
        "a",
        "r"
      ],
      [
        "e",
        "d"
      ],
      [
        "th",
        "e"
      ],
      [
        "e",
        "n"
      ],
      [
        "a",
        "t"
      ],
      [
        "a",
        "l"
      ],
      [
        "t",
        "o"
      ],
      [
        "s",
        "t"
      ],
      [
        "in",
        "g"
      ],
      [
        "i",
        "t"
      ],
      [
        "o",
        "f"
      ],
      [
        "r",
        "e"
      ],
      [
        "i",
        "c"
      ],
      [
        "a",
        "s"
      ],
      [
        "o",
        "u"
      ],
      [
        "i",
        "s"
      ],
      [
        "a",
        "y"
      ],
      [
        "i",
        "l"
      ],
      [
        "r",
        "o"
      ],
      [
        "an",
        "d"
      ],
      [
        "i",
        "on"
      ],
      [
        "l",
        "e"
      ],
      [
        "t",
        "er"
      ],
      [
        "i",
        "d"
      ],
      [
        "a",
        "c"
      ],
      [
        "e",
        "l"
      ],
      [
        "o",
        "m"
      ],
      [
        "f",
        "or"
      ],
      [
        "en",
        "t"
      ],
      [
        "a",
        "d"
      ],
      [
        "c",
        "h"
      ],
      [
        "e",
        "t"
      ],
      [
        "u",
        "r"
      ],
      [
        "a",
        "m"
      ],
      [
        "o",
        "l"
      ],
      [
        "d",
        "ay"
      ],
      [
        "i",
        "g"
      ],
      [
        "e",
        "c"
      ],
      [
        "i",
        "r"
      ],
      [
        "h",
        "e"
      ],
      [
        "er",
        "s"
      ],
      [
        "o",
        "t"
      ],
      [
        "u",
        "s"
      ],
      [
        "u",
        "n"
      ],
      [
        "3",
        "9"
      ],
      [
        "a",
        "g"
      ],
      [
        "v",
        "e"
      ],
      [
        "il",
        "l"
      ],
      [
        "o",
        "w"
      ],
      [
        "es",
        "t"
      ],
      [
        "i",
        "m"
      ],
      [
        "r",
        "a"
      ],
      [
        "u",
        "t"
      ],
      [
        "v",
        "er"
      ],
      [
        "e",
        "ar"
      ],
      [
        "at",
        "ion"
      ],
      [
        "c",
        "om"
      ],
      [
        "al",
        "l"
      ],
      [
        "s",
        "e"
      ],
      [
        "p",
        "l"
      ],
      [
        "b",
        "e"
      ],
      [
        "q",
        "u"
      ],
      [
        "o",
        "p"
      ],
      [
        "i",
        "th"
      ],
      [
        "I",
        "n"
      ],
      [
        "e",
        "w"
      ],
      [
        "r",
        "i"
      ],
      [
        "c",
        "e"
      ],
      [
        "e",
        "m"
      ],
      [
        "a",
        "k"
      ],
      [
        "ig",
        "h"
      ],
      [
        "u",
        "l"
      ],
      [
        "t",
        "s"
      ],
      [
        "a",
        "p"
      ],
      [
        "w",
        "ith"
      ],
      [
        "th",
        "at"
      ],
      [
        "it",
        "s"
      ],
      [
        "T",
        "he"
      ],
      [
        "e",
        "x"
      ],
      [
        "r",
        "es"
      ],
      [
        "ou",
        "n"
      ],
      [
        "u",
        "p"
      ],
      [
        "p",
        "ro"
      ],
      [
        "d",
        "e"
      ],
      [
        "R",
        "e"
      ],
      [
        "ter",
        "s"
      ],
      [
        "l",
        "y"
      ],
      [
        "s",
        "h"
      ],
      [
        "i",
        "st"
      ],
      [
        "c",
        "on"
      ],
      [
        "s",
        "a"
      ],
      [
        "l",
        "o"
      ],
      [
        "a",
        "st"
      ],
      [
        "a",
        "in"
      ],
      [
        "l",
        "d"
      ],
      [
        "a",
        "b"
      ],
      [
        "w",
        "h"
      ],
      [
        "k",
        "s"
      ],
      [
        "o",
        "ver"
      ],
      [
        "ar",
        "e"
      ],
      [
        "i",
        "an"
      ],
      [
        "b",
        "y"
      ],
      [
        "0",
        "0"
      ],
      [
        "at",
        "e"
      ],
      [
        "u",
        "ters"
      ],
      [
        "sa",
        "id"
      ],
      [
        "u",
        "m"
      ],
      [
        "p",
        "or"
      ],
      [
        "ou",
        "r"
      ],
      [
        "S",
        "t"
      ],
      [
        "h",
        "as"
      ],
      [
        "ou",
        "t"
      ],
      [
        "i",
        "es"
      ],
      [
        "en",
        "d"
      ],
      [
        "es",
        "s"
      ],
      [
        "i",
        "a"
      ],
      [
        "ro",
        "m"
      ],
      [
        "c",
        "t"
      ],
      [
        "o",
        "st"
      ],
      [
        "igh",
        "t"
      ],
      [
        "C",
        "h"
      ],
      [
        "p",
        "r"
      ],
      [
        "ac",
        "k"
      ],
      [
        "A",
        "P"
      ],
      [
        "w",
        "or"
      ],
      [
        "of",
        "f"
      ],
      [
        "Re",
        "uters"
      ],
      [
        "com",
        "p"
      ],
      [
        "f",
        "rom"
      ],
      [
        "a",
        "f"
      ],
      [
        "o",
        "s"
      ],
      [
        "m",
        "ent"
      ],
      [
        "w",
        "e"
      ],
      [
        "p",
        "e"
      ],
      [
        "it",
        "y"
      ],
      [
        "ar",
        "t"
      ],
      [
        "t",
        "r"
      ],
      [
        "ar",
        "d"
      ],
      [
        "h",
        "is"
      ],
      [
        "or",
        "e"
      ],
      [
        "h",
        "a"
      ],
      [
        "i",
        "f"
      ],
      [
        "u",
        "st"
      ],
      [
        "m",
        "an"
      ],
      [
        ".",
        "."
      ],
      [
        "U",
        "S"
      ],
      [
        "es",
        "day"
      ],
      [
        "in",
        "e"
      ],
      [
        "o",
        "d"
      ],
      [
        "on",
        "e"
      ],
      [
        "i",
        "v"
      ],
      [
        "i",
        "al"
      ],
      [
        "el",
        "l"
      ],
      [
        "i",
        "ve"
      ],
      [
        "th",
        "er"
      ],
      [
        "w",
        "as"
      ],
      [
        "t",
        "e"
      ],
      [
        "k",
        "e"
      ],
      [
        "t",
        "ed"
      ],
      [
        "w",
        "ill"
      ],
      [
        "n",
        "ew"
      ],
      [
        "s",
        "p"
      ],
      [
        "i",
        "p"
      ],
      [
        "t",
        "w"
      ],
      [
        "y",
        "ear"
      ],
      [
        "s",
        "u"
      ],
      [
        "l",
        "t"
      ],
      [
        "f",
        "ir"
      ],
      [
        "g",
        "t"
      ],
      [
        "g",
        "e"
      ],
      [
        "T",
        "h"
      ],
      [
        "af",
        "ter"
      ],
      [
        "ic",
        "e"
      ],
      [
        "m",
        "er"
      ],
      [
        "l",
        "a"
      ],
      [
        "p",
        "er"
      ],
      [
        "u",
        "d"
      ],
      [
        "F",
        "r"
      ],
      [
        "ac",
        "e"
      ],
      [
        "ou",
        "ld"
      ],
      [
        "g",
        "h"
      ],
      [
        "qu",
        "ot"
      ],
      [
        "ol",
        "d"
      ],
      [
        "an",
        "s"
      ],
      [
        "i",
        "e"
      ],
      [
        "or",
        "d"
      ],
      [
        "o",
        "c"
      ],
      [
        "s",
        "ec"
      ],
      [
        "ha",
        "ve"
      ],
      [
        "\\",
        "$"
      ],
      [
        "n",
        "ing"
      ],
      [
        "on",
        "g"
      ],
      [
        "an",
        "t"
      ],
      [
        "in",
        "d"
      ],
      [
        "oun",
        "d"
      ],
      [
        "ic",
        "k"
      ],
      [
        "er",
        "e"
      ],
      [
        "s",
        "er"
      ],
      [
        "ill",
        "ion"
      ],
      [
        "ar",
        "g"
      ],
      [
        "ow",
        "n"
      ],
      [
        "o",
        "g"
      ],
      [
        "the",
        "ir"
      ],
      [
        "am",
        "p"
      ],
      [
        "g",
        "r"
      ],
      [
        "ac",
        "t"
      ],
      [
        "e",
        "p"
      ],
      [
        "b",
        "er"
      ],
      [
        "am",
        "e"
      ],
      [
        "s",
        "of"
      ],
      [
        "an",
        "y"
      ],
      [
        "N",
        "ew"
      ],
      [
        "o",
        "k"
      ],
      [
        "is",
        "h"
      ],
      [
        "ig",
        "n"
      ],
      [
        "id",
        "ent"
      ],
      [
        "c",
        "l"
      ],
      [
        "U",
        "n"
      ],
      [
        "id",
        "e"
      ],
      [
        "re",
        "e"
      ],
      [
        "il",
        "e"
      ],
      [
        "b",
        "l"
      ],
      [
        "ac",
        "h"
      ],
      [
        "ter",
        "n"
      ],
      [
        "as",
        "s"
      ],
      [
        "b",
        "ut"
      ],
      [
        "om",
        "e"
      ],
      [
        "n",
        "e"
      ],
      [
        "ar",
        "k"
      ],
      [
        "r",
        "u"
      ],
      [
        "ion",
        "s"
      ],
      [
        "im",
        "e"
      ],
      [
        "i",
        "re"
      ],
      [
        "u",
        "e"
      ],
      [
        "I",
        "ra"
      ],
      [
        "Ira",
        "q"
      ],
      [
        "on",
        "d"
      ],
      [
        "ag",
        "e"
      ],
      [
        "ay",
        "s"
      ],
      [
        "a",
        "v"
      ],
      [
        "o",
        "b"
      ],
      [
        "a",
        "il"
      ],
      [
        "M",
        "on"
      ],
      [
        "r",
        "y"
      ],
      [
        "c",
        "ent"
      ],
      [
        "ak",
        "e"
      ],
      [
        "fir",
        "st"
      ],
      [
        "at",
        "t"
      ],
      [
        "-",
        "-"
      ],
      [
        "p",
        "h"
      ],
      [
        "por",
        "t"
      ],
      [
        "or",
        "s"
      ],
      [
        "2",
        "00"
      ],
      [
        "A",
        "n"
      ],
      [
        "tw",
        "o"
      ],
      [
        "M",
        "ic"
      ],
      [
        "e",
        "k"
      ],
      [
        "ic",
        "es"
      ],
      [
        "O",
        "N"
      ],
      [
        "ro",
        "w"
      ],
      [
        "an",
        "n"
      ],
      [
        "le",
        "ad"
      ],
      [
        "s",
        "c"
      ],
      [
        "en",
        "s"
      ],
      [
        "c",
        "o"
      ],
      [
        "ation",
        "s"
      ],
      [
        "as",
        "e"
      ],
      [
        "u",
        "c"
      ],
      [
        "res",
        "ident"
      ],
      [
        "ag",
        "ain"
      ],
      [
        "m",
        "ore"
      ],
      [
        "f",
        "in"
      ],
      [
        "at",
        "es"
      ],
      [
        "ur",
        "s"
      ],
      [
        "in",
        "s"
      ],
      [
        "ar",
        "y"
      ],
      [
        "ol",
        "l"
      ],
      [
        "b",
        "o"
      ],
      [
        "id",
        "ay"
      ],
      [
        "as",
        "h"
      ],
      [
        "Mon",
        "day"
      ],
      [
        "ec",
        "t"
      ],
      [
        "W",
        "ed"
      ],
      [
        "to",
        "c"
      ],
      [
        "T",
        "u"
      ],
      [
        "Wed",
        "n"
      ],
      [
        "Wedn",
        "esday"
      ],
      [
        "in",
        "v"
      ],
      [
        "..",
        "."
      ],
      [
        "ex",
        "t"
      ],
      [
        "S",
        "h"
      ],
      [
        "Tu",
        "esday"
      ],
      [
        "o",
        "v"
      ],
      [
        "re",
        "t"
      ],
      [
        "et",
        "s"
      ],
      [
        "r",
        "it"
      ],
      [
        "un",
        "d"
      ],
      [
        "Th",
        "urs"
      ],
      [
        "Thurs",
        "day"
      ],
      [
        "n",
        "ot"
      ],
      [
        "or",
        "y"
      ],
      [
        "i",
        "z"
      ],
      [
        "an",
        "k"
      ],
      [
        "le",
        "ct"
      ],
      [
        "comp",
        "any"
      ],
      [
        "ic",
        "h"
      ],
      [
        "al",
        "s"
      ],
      [
        "d",
        "is"
      ],
      [
        "it",
        "e"
      ],
      [
        "th",
        "is"
      ],
      [
        "ou",
        "gh"
      ],
      [
        "In",
        "c"
      ],
      [
        "th",
        "an"
      ],
      [
        "l",
        "i"
      ],
      [
        "es",
        "ter"
      ],
      [
        "wor",
        "k"
      ],
      [
        "h",
        "el"
      ],
      [
        "en",
        "ce"
      ],
      [
        "b",
        "ack"
      ],
      [
        "us",
        "h"
      ],
      [
        "ad",
        "e"
      ],
      [
        "m",
        "on"
      ],
      [
        "Fr",
        "iday"
      ],
      [
        "S",
        "un"
      ],
      [
        "at",
        "ed"
      ],
      [
        "is",
        "s"
      ],
      [
        "ex",
        "p"
      ],
      [
        "ar",
        "ter"
      ],
      [
        "l",
        "and"
      ],
      [
        "ul",
        "l"
      ],
      [
        "in",
        "t"
      ],
      [
        "re",
        "c"
      ],
      [
        "ou",
        "s"
      ],
      [
        "Mic",
        "ro"
      ],
      [
        "ic",
        "t"
      ],
      [
        "P",
        "r"
      ],
      [
        "l",
        "ast"
      ],
      [
        "g",
        "o"
      ],
      [
        "ear",
        "ch"
      ],
      [
        "v",
        "en"
      ],
      [
        "an",
        "ce"
      ],
      [
        "In",
        "d"
      ],
      [
        "pl",
        "ay"
      ],
      [
        "ation",
        "al"
      ],
      [
        "wh",
        "o"
      ],
      [
        "we",
        "ek"
      ],
      [
        "to",
        "p"
      ],
      [
        "ac",
        "c"
      ],
      [
        "it",
        "ed"
      ],
      [
        "again",
        "st"
      ],
      [
        "O",
        "R"
      ],
      [
        "I",
        "s"
      ],
      [
        "u",
        "re"
      ],
      [
        "in",
        "to"
      ],
      [
        ";",
        "/"
      ],
      [
        "l",
        "ine"
      ],
      [
        "e",
        "f"
      ],
      [
        "C",
        "om"
      ],
      [
        "op",
        "le"
      ],
      [
        "ou",
        "p"
      ],
      [
        "an",
        "c"
      ],
      [
        "ur",
        "n"
      ],
      [
        "sof",
        "t"
      ],
      [
        "ic",
        "an"
      ],
      [
        "p",
        "os"
      ],
      [
        "p",
        "o"
      ],
      [
        "a",
        "ir"
      ],
      [
        "w",
        "in"
      ],
      [
        "as",
        "on"
      ],
      [
        "u",
        "ro"
      ],
      [
        "con",
        "t"
      ],
      [
        "A",
        "f"
      ],
      [
        "s",
        "s"
      ],
      [
        "h",
        "igh"
      ],
      [
        "all",
        "y"
      ],
      [
        "m",
        "ark"
      ],
      [
        "ester",
        "day"
      ],
      [
        "C",
        "or"
      ],
      [
        "ab",
        "out"
      ],
      [
        "m",
        "ed"
      ],
      [
        "d",
        "own"
      ],
      [
        "y",
        "esterday"
      ],
      [
        "m",
        "ak"
      ],
      [
        "L",
        "e"
      ],
      [
        "m",
        "illion"
      ],
      [
        "Micro",
        "soft"
      ],
      [
        "over",
        "n"
      ],
      [
        "A",
        "N"
      ],
      [
        "o",
        "ther"
      ],
      [
        "m",
        "e"
      ],
      [
        "off",
        "ic"
      ],
      [
        "w",
        "ere"
      ],
      [
        "in",
        "a"
      ],
      [
        "b",
        "u"
      ],
      [
        "res",
        "s"
      ],
      [
        "inv",
        "est"
      ],
      [
        "t",
        "on"
      ],
      [
        "the",
        "y"
      ],
      [
        "In",
        "tern"
      ],
      [
        "s",
        "et"
      ],
      [
        "in",
        "ist"
      ],
      [
        "y",
        "st"
      ],
      [
        "qu",
        "arter"
      ],
      [
        "E",
        "n"
      ],
      [
        "N",
        "E"
      ],
      [
        "S",
        "p"
      ],
      [
        "an",
        "g"
      ],
      [
        "wor",
        "ld"
      ],
      [
        "ot",
        "e"
      ],
      [
        "be",
        "en"
      ],
      [
        "h",
        "ad"
      ],
      [
        "k",
        "ill"
      ],
      [
        "w",
        "ar"
      ],
      [
        "ser",
        "v"
      ],
      [
        "t",
        "ing"
      ],
      [
        "b",
        "le"
      ],
      [
        "it",
        "ion"
      ],
      [
        "A",
        "mer"
      ],
      [
        "v",
        "el"
      ],
      [
        "E",
        "x"
      ],
      [
        "c",
        "oun"
      ],
      [
        "f",
        "o"
      ],
      [
        "f",
        "l"
      ],
      [
        "A",
        "l"
      ],
      [
        "he",
        "ad"
      ],
      [
        "ab",
        "le"
      ],
      [
        "b",
        "r"
      ],
      [
        "t",
        "al"
      ],
      [
        "st",
        "r"
      ],
      [
        "t",
        "ime"
      ],
      [
        "W",
        "or"
      ],
      [
        "ir",
        "d"
      ],
      [
        "at",
        "ing"
      ],
      [
        "th",
        "ree"
      ],
      [
        "Cor",
        "p"
      ],
      [
        "at",
        "ur"
      ],
      [
        "s",
        "l"
      ],
      [
        "E",
        "uro"
      ],
      [
        "o",
        "il"
      ],
      [
        "1",
        "0"
      ],
      [
        "overn",
        "ment"
      ],
      [
        "A",
        "S"
      ],
      [
        "er",
        "al"
      ],
      [
        "oun",
        "c"
      ],
      [
        "r",
        "al"
      ],
      [
        "Q",
        "u"
      ],
      [
        "ow",
        "er"
      ],
      [
        "F",
        "or"
      ],
      [
        "at",
        "ch"
      ],
      [
        "il",
        "it"
      ],
      [
        "as",
        "ed"
      ],
      [
        "mon",
        "th"
      ],
      [
        "is",
        "e"
      ],
      [
        "v",
        "i"
      ],
      [
        "s",
        "toc"
      ],
      [
        "m",
        "iss"
      ],
      [
        "A",
        "F"
      ],
      [
        "o",
        "y"
      ],
      [
        "Sun",
        "day"
      ],
      [
        "Un",
        "ited"
      ],
      [
        "d",
        "ec"
      ],
      [
        "ec",
        "ted"
      ],
      [
        "c",
        "r"
      ],
      [
        "ur",
        "ity"
      ],
      [
        "us",
        "s"
      ],
      [
        "w",
        "ay"
      ],
      [
        "p",
        "ed"
      ],
      [
        "te",
        "am"
      ],
      [
        "ri",
        "v"
      ],
      [
        "w",
        "ould"
      ],
      [
        "re",
        "at"
      ],
      [
        "in",
        "es"
      ],
      [
        "A",
        "r"
      ],
      [
        "p",
        "ol"
      ],
      [
        "Euro",
        "pe"
      ],
      [
        "offic",
        "ial"
      ],
      [
        "en",
        "c"
      ],
      [
        "p",
        "art"
      ],
      [
        "f",
        "our"
      ],
      [
        "e",
        "lect"
      ],
      [
        "b",
        "all"
      ],
      [
        "c",
        "ould"
      ],
      [
        "se",
        "ason"
      ],
      [
        "N",
        "o"
      ],
      [
        "g",
        "overnment"
      ],
      [
        "us",
        "e"
      ],
      [
        "f",
        "f"
      ],
      [
        "s",
        "ur"
      ],
      [
        "pro",
        "v"
      ],
      [
        "C",
        "on"
      ],
      [
        "I",
        "N"
      ],
      [
        "el",
        "y"
      ],
      [
        "por",
        "ts"
      ],
      [
        "sec",
        "ond"
      ],
      [
        "p",
        "u"
      ],
      [
        "ol",
        "og"
      ],
      [
        "re",
        "m"
      ],
      [
        "ic",
        "al"
      ],
      [
        "i",
        "x"
      ],
      [
        "wh",
        "ich"
      ],
      [
        "b",
        "us"
      ],
      [
        "de",
        "f"
      ],
      [
        "year",
        "s"
      ],
      [
        "g",
        "ame"
      ],
      [
        "AF",
        "P"
      ],
      [
        "W",
        "e"
      ],
      [
        "C",
        "o"
      ],
      [
        "s",
        "up"
      ],
      [
        "tw",
        "are"
      ],
      [
        "in",
        "ess"
      ],
      [
        "al",
        "es"
      ],
      [
        "d",
        "o"
      ],
      [
        "ic",
        "s"
      ],
      [
        "pe",
        "ople"
      ],
      [
        "p",
        "ar"
      ],
      [
        "p",
        "t"
      ],
      [
        "re",
        "g"
      ],
      [
        "ch",
        "n"
      ],
      [
        "to",
        "day"
      ],
      [
        "d",
        "es"
      ],
      [
        "w",
        "w"
      ],
      [
        "c",
        "re"
      ],
      [
        "tr",
        "y"
      ],
      [
        "P",
        "resident"
      ],
      [
        "le",
        "g"
      ],
      [
        "D",
        "e"
      ],
      [
        "r",
        "un"
      ],
      [
        "per",
        "cent"
      ],
      [
        "ow",
        "s"
      ],
      [
        "n",
        "ight"
      ],
      [
        "B",
        "rit"
      ],
      [
        "m",
        "s"
      ],
      [
        "pr",
        "ices"
      ],
      [
        "f",
        "t"
      ],
      [
        "r",
        "an"
      ],
      [
        "em",
        "ent"
      ],
      [
        "S",
        "er"
      ],
      [
        "m",
        "ost"
      ],
      [
        "A",
        "T"
      ],
      [
        "for",
        "e"
      ],
      [
        "NE",
        "W"
      ],
      [
        "J",
        "o"
      ],
      [
        "it",
        "al"
      ],
      [
        "wh",
        "en"
      ],
      [
        "c",
        "ap"
      ],
      [
        "c",
        "k"
      ],
      [
        "Wor",
        "ld"
      ],
      [
        "a",
        "th"
      ],
      [
        "un",
        "ch"
      ],
      [
        "a",
        "z"
      ],
      [
        "s",
        "ays"
      ],
      [
        "re",
        "l"
      ],
      [
        "n",
        "ext"
      ],
      [
        "en",
        "g"
      ],
      [
        "S",
        "atur"
      ],
      [
        "Satur",
        "day"
      ],
      [
        "M",
        "ar"
      ],
      [
        "l",
        "ess"
      ],
      [
        "th",
        "ird"
      ],
      [
        "yst",
        "em"
      ],
      [
        "pl",
        "an"
      ],
      [
        "u",
        "b"
      ],
      [
        "mark",
        "et"
      ],
      [
        "A",
        "ust"
      ],
      [
        "pro",
        "d"
      ],
      [
        "con",
        "s"
      ],
      [
        "ing",
        "s"
      ],
      [
        "Ch",
        "ina"
      ],
      [
        "b",
        "ec"
      ],
      [
        "J",
        "ap"
      ],
      [
        "c",
        "lo"
      ],
      [
        "ie",
        "f"
      ],
      [
        "n",
        "s"
      ],
      [
        "Jap",
        "an"
      ],
      [
        "r",
        "on"
      ],
      [
        "t",
        "ri"
      ],
      [
        "le",
        "ar"
      ],
      [
        "u",
        "ct"
      ],
      [
        "S",
        "e"
      ],
      [
        "v",
        "ict"
      ],
      [
        "ann",
        "ounc"
      ],
      [
        "il",
        "d"
      ],
      [
        "G",
        "o"
      ],
      [
        "pr",
        "of"
      ],
      [
        "P",
        "l"
      ],
      [
        "rec",
        "ord"
      ],
      [
        "ru",
        "g"
      ],
      [
        "a",
        "j"
      ],
      [
        "ist",
        "s"
      ],
      [
        "c",
        "an"
      ],
      [
        "b",
        "el"
      ],
      [
        "ent",
        "s"
      ],
      [
        "t",
        "t"
      ],
      [
        "A",
        "s"
      ],
      [
        "inist",
        "er"
      ],
      [
        "b",
        "et"
      ],
      [
        "t",
        "y"
      ],
      [
        "OR",
        "K"
      ],
      [
        "G",
        "r"
      ],
      [
        "or",
        "t"
      ],
      [
        "s",
        "ome"
      ],
      [
        "m",
        "ay"
      ],
      [
        "op",
        "er"
      ],
      [
        "u",
        "g"
      ],
      [
        "Y",
        "ORK"
      ],
      [
        "chn",
        "olog"
      ],
      [
        "la",
        "w"
      ],
      [
        "sof",
        "tware"
      ],
      [
        "T",
        "e"
      ],
      [
        "b",
        "illion"
      ],
      [
        "m",
        "o"
      ],
      [
        "n",
        "o"
      ],
      [
        "op",
        "en"
      ],
      [
        "P",
        "al"
      ],
      [
        "B",
        "ush"
      ],
      [
        "R",
        "uss"
      ],
      [
        "m",
        "ilit"
      ],
      [
        "und",
        "er"
      ],
      [
        "c",
        "ar"
      ],
      [
        "C",
        "an"
      ],
      [
        "c",
        "er"
      ],
      [
        "l",
        "ed"
      ],
      [
        "Intern",
        "et"
      ],
      [
        "v",
        "is"
      ],
      [
        "ur",
        "ing"
      ],
      [
        "O",
        "r"
      ],
      [
        "p",
        "ut"
      ],
      [
        "A",
        "ir"
      ],
      [
        "for",
        "m"
      ],
      [
        "c",
        "ess"
      ],
      [
        "Aust",
        "ral"
      ],
      [
        "=",
        "\""
      ],
      [
        "R",
        "es"
      ],
      [
        "200",
        "4"
      ],
      [
        "om",
        "b"
      ],
      [
        "ra",
        "el"
      ],
      [
        "i",
        "o"
      ],
      [
        "Is",
        "rael"
      ],
      [
        "i",
        "ed"
      ],
      [
        "s",
        "o"
      ],
      [
        "am",
        "es"
      ],
      [
        "U",
        "p"
      ],
      [
        "r",
        "est"
      ],
      [
        "m",
        "p"
      ],
      [
        "in",
        "ter"
      ],
      [
        "bus",
        "iness"
      ],
      [
        "a",
        "h"
      ],
      [
        "b",
        "ig"
      ],
      [
        "a",
        "w"
      ],
      [
        "re",
        "le"
      ],
      [
        "ear",
        "ly"
      ],
      [
        "W",
        "h"
      ],
      [
        "ul",
        "t"
      ],
      [
        "P",
        "ro"
      ],
      [
        "g",
        "et"
      ],
      [
        "ag",
        "re"
      ],
      [
        "el",
        "d"
      ],
      [
        "sh",
        "ip"
      ],
      [
        "announc",
        "ed"
      ],
      [
        "de",
        "al"
      ],
      [
        "c",
        "all"
      ],
      [
        "gr",
        "oup"
      ],
      [
        "R",
        "E"
      ],
      [
        "us",
        "ed"
      ],
      [
        "our",
        "t"
      ],
      [
        "stoc",
        "ks"
      ],
      [
        "por",
        "ted"
      ],
      [
        "on",
        "es"
      ],
      [
        "pu",
        "bl"
      ],
      [
        "N",
        "et"
      ],
      [
        "ap",
        "p"
      ],
      [
        "00",
        "0"
      ],
      [
        "S",
        "ec"
      ],
      [
        "n",
        "ow"
      ],
      [
        "a",
        "u"
      ],
      [
        "Qu",
        "ote"
      ],
      [
        "on",
        "om"
      ],
      [
        "sec",
        "urity"
      ],
      [
        "p",
        "re"
      ],
      [
        "ur",
        "r"
      ],
      [
        "t",
        "ake"
      ],
      [
        "n",
        "er"
      ],
      [
        "t",
        "est"
      ],
      [
        "ou",
        "th"
      ],
      [
        "f",
        "er"
      ],
      [
        "p",
        "resident"
      ],
      [
        "s",
        "ay"
      ],
      [
        "P",
        "h"
      ],
      [
        "ist",
        "an"
      ],
      [
        "ic",
        "a"
      ],
      [
        "B",
        "e"
      ],
      [
        "p",
        "le"
      ],
      [
        "P",
        "e"
      ],
      [
        "st",
        "art"
      ],
      [
        "R",
        "ed"
      ],
      [
        "g",
        "row"
      ],
      [
        "v",
        "ers"
      ],
      [
        "l",
        "es"
      ],
      [
        "i",
        "er"
      ],
      [
        "n",
        "et"
      ],
      [
        "in",
        "u"
      ],
[...]
