{
  "version": "1.0",
  "truncation": null,
  "padding": null,
  "added_tokens": [
    {
      "id": 0,
      "content": "[UNK]",
      "single_word": false,
      "lstrip": false,
      "rstrip": false,
      "normalized": false,
      "special": true
    },
    {
      "id": 1,
      "content": "[PAD]",
      "single_word": false,
      "lstrip": false,
      "rstrip": false,
      "normalized": false,
      "special": true
    },
    {
      "id": 2,
      "content": "[CLS]",
      "single_word": false,
      "lstrip": false,
      "rstrip": false,
      "normalized": false,
      "special": true
    },
    {
      "id": 3,
      "content": "[SEP]",
      "single_word": false,
      "lstrip": false,
      "rstrip": false,
      "normalized": false,
      "special": true
    },
    {
      "id": 4,
      "content": "[MASK]",
      "single_word": false,
      "lstrip": false,
      "rstrip": false,
      "normalized": false,
      "special": true
    }
  ],
  "normalizer": {
    "type": "Sequence",
    "normalizers": [
      {
        "type": "NFD"
      },
      {
        "type": "Lowercase"
      },
      {
        "type": "StripAccents"
      }
    ]
  },
  "pre_tokenizer": {
    "type": "Whitespace"
  },
  "post_processor": {
    "type": "TemplateProcessing",
    "single": [
      {
        "SpecialToken": {
          "id": "[CLS]",
          "type_id": 0
        }
      },
      {
        "Sequence": {
          "id": "A",
          "type_id": 0
        }
      },
      {
        "SpecialToken": {
          "id": "[SEP]",
          "type_id": 0
        }
      }
    ],
    "pair": [
      {
        "SpecialToken": {
          "id": "[CLS]",
          "type_id": 0
        }
      },
      {
        "Sequence": {
          "id": "A",
          "type_id": 0
        }
      },
      {
        "SpecialToken": {
          "id": "[SEP]",
          "type_id": 0
        }
      },
      {
        "Sequence": {
          "id": "B",
          "type_id": 1
        }
      },
      {
        "SpecialToken": {
          "id": "[SEP]",
          "type_id": 1
        }
      }
    ],
    "special_tokens": {
      "[CLS]": {
        "id": "[CLS]",
        "ids": [
          2
        ],
        "tokens": [
          "[CLS]"
        ]
      },
      "[SEP]": {
        "id": "[SEP]",
        "ids": [
          3
        ],
        "tokens": [
          "[SEP]"
        ]
      }
    }
  },
  "decoder": null,
  "model": {
    "type": "BPE",
    "dropout": null,
    "unk_token": "[UNK]",
    "continuing_subword_prefix": null,
    "end_of_word_suffix": null,
    "fuse_unk": false,
    "byte_fallback": false,
    "ignore_merges": false,
    "vocab": {
      "[UNK]": 0,
      "[PAD]": 1,
      "[CLS]": 2,
      "[SEP]": 3,
      "[MASK]": 4,
      "!": 5,
      "\"": 6,
      "#": 7,
      "$": 8,
      "&": 9,
      "'": 10,
      "(": 11,
      ")": 12,
      "*": 13,
      ",": 14,
      "-": 15,
      ".": 16,
      "/": 17,
      "0": 18,
      "1": 19,
      "2": 20,
      "3": 21,
      "4": 22,
      "5": 23,
      "6": 24,
      "7": 25,
      "8": 26,
      "9": 27,
      ":": 28,
      ";": 29,
      "=": 30,
      "?": 31,
      "\\": 32,
      "_": 33,
      "a": 34,
      "b": 35,
      "c": 36,
      "d": 37,
      "e": 38,
      "f": 39,
      "g": 40,
      "h": 41,
      "i": 42,
      "j": 43,
      "k": 44,
      "l": 45,
      "m": 46,
      "n": 47,
      "o": 48,
      "p": 49,
      "q": 50,
      "r": 51,
      "s": 52,
      "t": 53,
      "u": 54,
      "v": 55,
      "w": 56,
      "x": 57,
      "y": 58,
      "z": 59,
      "in": 60,
      "th": 61,
      "er": 62,
      "an": 63,
      "on": 64,
      "re": 65,
      "st": 66,
      "the": 67,
      "or": 68,
      "at": 69,
      "en": 70,
      "ed": 71,
      "ar": 72,
      "al": 73,
      "es": 74,
      "to": 75,
      "ing": 76,
      "it": 77,
      "of": 78,
      "as": 79,
      "ic": 80,
      "is": 81,
      "ro": 82,
      "le": 83,
      "ay": 84,
      "ou": 85,
      "and": 86,
      "il": 87,
      "ion": 88,
      "ch": 89,
      "se": 90,
      "id": 91,
      "ter": 92,
      "co": 93,
      "ad": 94,
      "for": 95,
      "el": 96,
      "ac": 97,
      "am": 98,
      "ent": 99,
      "ir": 100,
      "un": 101,
      "ne": 102,
      "ur": 103,
      "day": 104,
      "ig": 105,
      "us": 106,
      "ol": 107,
      "ve": 108,
      "ap": 109,
      "ag": 110,
      "ers": 111,
      "de": 112,
      "be": 113,
      "ot": 114,
      "39": 115,
      "ill": 116,
      "lo": 117,
      "com": 118,
      "im": 119,
      "ts": 120,
      "ver": 121,
      "con": 122,
      "qu": 123,
      "up": 124,
      "pe": 125,
      "res": 126,
      "wi": 127,
      "ut": 128,
      "ation": 129,
      "est": 130,
      "ke": 131,
      "ho": 132,
      "all": 133,
      "ce": 134,
      "pl": 135,
      "af": 136,
      "mo": 137,
      "ct": 138,
      "ri": 139,
      "with": 140,
      "pro": 141,
      "ul": 142,
      "igh": 143,
      "op": 144,
      "new": 145,
      "that": 146,
      "ex": 147,
      "its": 148,
      "are": 149,
      "ab": 150,
      "sh": 151,
      "ain": 152,
      "ear": 153,
      "ast": 154,
      "ow": 155,
      "em": 156,
      "sa": 157,
      "ters": 158,
      "ist": 159,
      "ge": 160,
      "pr": 161,
      "om": 162,
      "ld": 163,
      "ks": 164,
      "wor": 165,
      "by": 166,
      "oun": 167,
      "tr": 168,
      "ly": 169,
      "he": 170,
      "ian": 171,
      "su": 172,
      "we": 173,
      "sp": 174,
      "over": 175,
      "ate": 176,
      "te": 177,
      "00": 178,
      "man": 179,
      "uters": 180,
      "said": 181,
      "ak": 182,
      "out": 183,
      "po": 184,
      "has": 185,
      "off": 186,
      "ia": 187,
      "wh": 188,
      "reuters": 189,
      "our": 190,
      "end": 191,
      "ies": 192,
      "ess": 193,
      "rom": 194,
      "ment": 195,
      "mon": 196,
      "was": 197,
      "por": 198,
      "from": 199,
      "ight": 200,
      "cl": 201,
      "comp": 202,
      "ust": 203,
      "ack": 204,
      "mar": 205,
      "ind": 206,
      "ity": 207,
      "if": 208,
      "ra": 209,
      "will": 210,
      "ha": 211,
      "ard": 212,
      "tw": 213,
      "cor": 214,
      "ie": 215,
      "iv": 216,
      "ther": 217,
      "oc": 218,
      "one": 219,
      "his": 220,
      "bo": 221,
      "ine": 222,
      "ip": 223,
      "..": 224,
      "after": 225,
      "quot": 226,
      "esday": 227,
      "ser": 228,
      "ial": 229,
      "ive": 230,
      "year": 231,
      "fo": 232,
      "lt": 233,
      "um": 234,
      "red": 235,
      "fir": 236,
      "art": 237,
      "per": 238,
      "fr": 239,
      "pres": 240,
      "gt": 241,
      "ice": 242,
      "bl": 243,
      "ug": 244,
      "cr": 245,
      "br": 246,
      "ant": 247,
      "inter": 248,
      "ace": 249,
      "me": 250,
      "ree": 251,
      "no": 252,
      "ber": 253,
      "go": 254,
      "ell": 255,
      "port": 256,
      "ould": 257,
      "ta": 258,
      "old": 259,
      "la": 260,
      "ans": 261,
      "und": 262,
      "have": 263,
      "inc": 264,
      "ma": 265,
      "but": 266,
      "sof": 267,
      "ning": 268,
      "act": 269,
      "\\$": 270,
      "gro": 271,
      "ud": 272,
      "air": 273,
      "illion": 274,
      "their": 275,
      "low": 276,
      "ong": 277,
      "amp": 278,
      "net": 279,
      "mer": 280,
      "ph": 281,
      "compan": 282,
      "ame": 283,
      "two": 284,
      "own": 285,
      "av": 286,
      "nation": 287,
      "jo": 288,
      "aq": 289,
      "att": 290,
      "tim": 291,
      "ass": 292,
      "ide": 293,
      "tu": 294,
      "ere": 295,
      "first": 296,
      "cent": 297,
      "ile": 298,
      "ident": 299,
      "ish": 300,
      "lead": 301,
      "mic": 302,
      "min": 303,
      "world": 304,
      "bus": 305,
      "fin": 306,
      "sec": 307,
      "ions": 308,
      "ick": 309,
      "ign": 310,
      "wed": 311,
      "ue": 312,
      "int": 313,
      "more": 314,
      "iraq": 315,
      "od": 316,
      "wee": 317,
      "ann": 318,
      "age": 319,
      "ry": 320,
      "ays": 321,
      "og": 322,
      "--": 323,
      "not": 324,
      "dis": 325,
      "ok": 326,
      "200": 327,
      "again": 328,
      "so": 329,
      "ors": 330,
      "fl": 331,
      "uc": 332,
      "ins": 333,
      "fe": 334,
      "ach": 335,
      "can": 336,
      "ices": 337,
      "ase": 338,
      "gr": 339,
      "ton": 340,
      "str": 341,
      "ban": 342,
      "this": 343,
      "ting": 344,
      "ens": 345,
      "ester": 346,
      "fi": 347,
      "li": 348,
      "eu": 349,
      "ates": 350,
      "urs": 351,
      "play": 352,
      "ss": 353,
      "oil": 354,
      "coun": 355,
      "company": 356,
      "back": 357,
      "ite": 358,
      "than": 359,
      "work": 360,
      "iday": 361,
      "hel": 362,
      "mis": 363,
      "high": 364,
      "monday": 365,
      "war": 366,
      "president": 367,
      "sun": 368,
      "wedn": 369,
      "wednesday": 370,
      "...": 371,
      "tuesday": 372,
      "pol": 373,
      "ful": 374,
      "arch": 375,
      "au": 376,
      "ven": 377,
      "tro": 378,
      "rel": 379,
      "pt": 380,
      "thurs": 381,
      "thursday": 382,
      "ory": 383,
      "ound": 384,
      "lar": 385,
      "ich": 386,
      "stoc": 387,
      "cord": 388,
      "iz": 389,
      "ger": 390,
      "ib": 391,
      "ary": 392,
      "lect": 393,
      "med": 394,
      "set": 395,
      "week": 396,
      "bu": 397,
      "micro": 398,
      "ade": 399,
      "who": 400,
      "ence": 401,
      "car": 402,
      "against": 403,
      "serv": 404,
      "ket": 405,
      "friday": 406,
      "down": 407,
      "get": 408,
      "ated": 409,
      "sy": 410,
      "into": 411,
      "ren": 412,
      "ited": 413,
      "land": 414,
      "sho": 415,
      "last": 416,
      "vest": 417,
      "fore": 418,
      "ations": 419,
      "part": 420,
      "search": 421,
      "ance": 422,
      "win": 423,
      "kill": 424,
      "invest": 425,
      "mak": 426,
      "quar": 427,
      "gh": 428,
      "report": 429,
      "ous": 430,
      "they": 431,
      "ret": 432,
      "eric": 433,
      "soft": 434,
      "million": 435,
      "about": 436,
      "offic": 437,
      "sc": 438,
      "yor": 439,
      "sal": 440,
      ";/": 441,
      "national": 442,
      "lin": 443,
      "york": 444,
      "urn": 445,
      "anc": 446,
      "prof": 447,
      "ason": 448,
      "pect": 449,
      "line": 450,
      "sup": 451,
      "ally": 452,
      "quarter": 453,
      "euro": 454,
      "time": 455,
      "yester": 456,
      "yesterday": 457,
      "ict": 458,
      "ll": 459,
      "elect": 460,
      "top": 461,
      "cond": 462,
      "three": 463,
      "app": 464,
      "ang": 465,
      "ash": 466,
      "ck": 467,
      "microsoft": 468,
      "overn": 469,
      "game": 470,
      "bro": 471,
      "miss": 472,
      "ina": 473,
      "open": 474,
      "were": 475,
      "des": 476,
      "pre": 477,
      "head": 478,
      "ital": 479,
      "mil": 480,
      "ste": 481,
      "other": 482,
      "way": 483,
      "minist": 484,
      "tech": 485,
      "als": 486,
      "secur": 487,
      "govern": 488,
      "had": 489,
      "team": 490,
      "sat": 491,
      "par": 492,
      "do": 493,
      "je": 494,
      "ms": 495,
      "been": 496,
      "ition": 497,
      "ty": 498,
      "group": 499,
      "cut": 500,
      "nor": 501,
      "ail": 502,
      "gest": 503,
      "ome": 504,
      "corp": 505,
      "able": 506,
      "americ": 507,
      "four": 508,
      "tal": 509,
      "eng": 510,
      "says": 511,
      "ral": 512,
      "gen": 513,
      "der": 514,
      "ure": 515,
      "ird": 516,
      "may": 517,
      "month": 518,
      "ating": 519,
      "official": 520,
      "cap": 521,
      "riv": 522,
      "season": 523,
      "ced": 524,
      "united": 525,
      "ball": 526,
      "10": 527,
      "ugh": 528,
      "government": 529,
      "bs": 530,
      "tri": 531,
      "when": 532,
      "ris": 533,
      "bel": 534,
      "could": 535,
      "eral": 536,
      "ased": 537,
      "nex": 538,
      "ore": 539,
      "sur": 540,
      "second": 541,
      "stocks": 542,
      "sunday": 543,
      "prov": 544,
      "would": 545,
      "sou": 546,
      "sl": 547,
      "next": 548,
      "security": 549,
      "quote": 550,
      "prices": 551,
      "cy": 552,
      "atch": 553,
      "reat": 554,
      "announ": 555,
      "uss": 556,
      "dev": 557,
      "ond": 558,
      "europe": 559,
      "reg": 560,
      "hing": 561,
      "uct": 562,
      "big": 563,
      "ire": 564,
      "test": 565,
      "char": 566,
      "cess": 567,
      "fer": 568,
      "dr": 569,
      "plan": 570,
      "today": 571,
      "ric": 572,
      "years": 573,
      "some": 574,
      "ople": 575,
      "people": 576,
      "ns": 577,
      "call": 578,
      "az": 579,
      "percent": 580,
      "bank": 581,
      "which": 582,
      "full": 583,
      "los": 584,
      "leg": 585,
      "news": 586,
      "olog": 587,
      "most": 588,
      "del": 589,
      "vi": 590,
      "tware": 591,
      "afp": 592,
      "aim": 593,
      "record": 594,
      "try": 595,
      "iness": 596,
      "cour": 597,
      "software": 598,
      "stem": 599,
      "ical": 600,
      "prod": 601,
      "cal": 602,
      "bar": 603,
      "ww": 604,
      "business": 605,
      "night": 606,
      "ics": 607,
      "pu": 608,
      "mus": 609,
      "run": 610,
      "spe": 611,
      "pos": 612,
      "pal": 613,
      "milit": 614,
      "gu": 615,
      "brit": 616,
      "deal": 617,
      "champ": 618,
      "third": 619,
      "cer": 620,
      "def": 621,
      "ef": 622,
      "col": 623,
      "cont": 624,
      "comm": 625,
      "now": 626,
      "ped": 627,
      "ement": 628,
      "tar": 629,
      "ely": 630,
      "put": 631,
      "expect": 632,
      "ath": 633,
      "state": 634,
      "form": 635,
      "ix": 636,
      "sch": 637,
      "under": 638,
      "os": 639,
      "aust": 640,
      "unch": 641,
      "et": 642,
      "internet": 643,
      "fed": 644,
      "post": 645,
      "satur": 646,
      "saturday": 647,
      "techn": 648,
      "exp": 649,
      "market": 650,
      "dec": 651,
      "system": 652,
      "law": 653,
      "oper": 654,
      "washing": 655,
      "tt": 656,
      "china": 657,
      "vict": 658,
      "jap": 659,
      "washington": 660,
      "vis": 661,
      "japan": 662,
      "billion": 663,
      "ief": 664,
      "just": 665,
      "ward": 666,
      "bet": 667,
      "uk": 668,
      "rele": 669,
      "led": 670,
      "hold": 671,
      "ists": 672,
      "sales": 673,
      "bush": 674,
      "mp": 675,
      "sco": 676,
      "ces": 677,
      "minister": 678,
      "pow": 679,
      "fall": 680,
      "ings": 681,
      "take": 682,
      "ref": 683,
      "san": 684,
      "lear": 685,
      "grow": 686,
      "ble": 687,
      "agre": 688,
      "econ": 689,
      "uring": 690,
      "gian": 691,
      "enter": 692,
      "russ": 693,
      "econom": 694,
      "austral": 695,
      "start": 696,
      "publ": 697,
      "ship": 698,
      "near": 699,
      "technolog": 700,
      "ild": 701,
      "fullquote": 702,
      "ort": 703,
      "ames": 704,
      "=\"": 705,
      "rael": 706,
      "israel": 707,
      "2004": 708,
      "space": 709,
      "sign": 710,
      "say": 711,
      "sen": 712,
      "ft": 713,
      "vers": 714,
      "main": 715,
      "former": 716,
      "long": 717,
      "dol": 718,
      "buy": 719,
      "uter": 720,
      "profit": 721,
      "international": 722,
      "hal": 723,
      "launch": 724,
      "bom": 725,
      "announced": 726,
      "ged": 727,
      "my": 728,
      "ep": 729,
      "used": 730,
      "thro": 731,
      "son": 732,
      "ones": 733,
      "home": 734,
      "key": 735,
      "her": 736,
      "ied": 737,
      "vent": 738,
      "mi": 739,
      "computer": 740,
      "ted": 741,
      "killed": 742,
      "vie": 743,
      "research": 744,
      "see": 745,
      "sha": 746,
      "ner": 747,
      "000": 748,
      "les": 749,
      "jor": 750,
      "ese": 751,
      "chief": 752,
      "ough": 753,
      "dan": 754,
      "ago": 755,
      "court": 756,
      "istan": 757,
      "oly": 758,
      "ime": 759,
      "tak": 760,
      "ities": 761,
      "ham": 762,
      "tain": 763,
      "ient": 764,
      "city": 765,
      "clo": 766,
      "press": 767,
      "io": 768,
      "manag": 769,
      "stri": 770,
      "victory": 771,
      "you": 772,
      "come": 773,
      "officials": 774,
      "leag": 775,
      "offer": 776,
      "maker": 777,
      "cup": 778,
      "hou": 779,
      "service": 780,
      "bre": 781,
      "help": 782,
      "bal": 783,
      "look": 784,
      "host": 785,
      "king": 786,
      "add": 787,
      "hit": 788,
      "ince": 789,
      "lif": 790,
      "plans": 791,
      "ky": 792,
      "exe": 793,
      "ron": 794,
      "acks": 795,
      "read": 796,
      "states": 797,
      "ker": 798,
      "uch": 799,
      "reported": 800,
      "tle": 801,
      "expected": 802,
      "pay": 803,
      "show": 804,
      "ston": 805,
      "european": 806,
      "ca": 807,
      "eld": 808,
      "web": 809,
      "gy": 810,
      "before": 811,
      "19": 812,
      "wa": 813,
      "american": 814,
      "joh": 815,
      "indust": 816,
      "power": 817,
      "cu": 818,
      "ives": 819,
      "bid": 820,
      "ran": 821,
      "final": 822,
      "rest": 823,
      "technology": 824,
      "15": 825,
      "lat": 826,
      "south": 827,
      "tit": 828,
      "won": 829,
      "major": 830,
      "league": 831,
      "dollar": 832,
      "hand": 833,
      "country": 834,
      "champion": 835,
      "shar": 836,
      "beg": 837,
      "cast": 838,
      "ise": 839,
      "canad": 840,
      "talks": 841,
      "network": 842,
      "many": 843,
      "olymp": 844,
      "hu": 845,
      "target": 846,
      "sus": 847,
      "date": 848,
      "star": 849,
      "ants": 850,
      "ult": 851,
      "online": 852,
      "what": 853,
      "tail": 854,
      "wal": 855,
      "ending": 856,
      "vir": 857,
      "five": 858,
      "ked": 859,
      "mob": 860,
      "mem": 861,
      "wn": 862,
      "hur": 863,
      "fil": 864,
      "terr": 865,
      "goog": 866,
      "public": 867,
      "execut": 868,
      "devel": 869,
      "coach": 870,
      "claim": 871,
      "nings": 872,
      "ves": 873,
      "ual": 874,
      "strong": 875,
      "20": 876,
      "palest": 877,
      "british": 878,
      "tele": 879,
      "largest": 880,
      "bomb": 881,
      "nas": 882,
      "inian": 883,
      "phone": 884,
      "beat": 885,
      "cost": 886,
      "blo": 887,
      "ata": 888,
      "palestinian": 889,
      "shares": 890,
      "contin": 891,
      "them": 892,
      "india": 893,
      "che": 894,
      "wind": 895,
      "music": 896,
      "hd": 897,
      "accord": 898,
      "bag": 899,
      "make": 900,
      "gold": 901,
      "ments": 902,
      "ling": 903,
      "loss": 904,
      "ports": 905,
      "federal": 906,
      "mot": 907,
      "prime": 908,
      "mor": 909,
      "google": 910,
      "very": 911,
      "rican": 912,
      "use": 913,
      "him": 914,
      "ps": 915,
      "west": 916,
      "ibm": 917,
      "hol": 918,
      "incl": 919,
      "sell": 920,
      "through": 921,
      "police": 922,
      "least": 923,
      "har": 924,
      ";...": 925,
      "mission": 926,
      "ury": 927,
      ";...&": 928,
      "dem": 929,
      "dro": 930,
      "iraqi": 931,
      "found": 932,
      "election": 933,
      "appe": 934,
      "\"&": 935,
      "ium": 936,
      "another": 937,
      "icker": 938,
      "11": 939,
      "ping": 940,
      "leader": 941,
      "made": 942,
      "round": 943,
      "acc": 944,
      "ey": 945,
      "sing": 946,
      "north": 947,
      "six": 948,
      "while": 949,
      "enn": 950,
      "mobile": 951,
      "sw": 952,
      "according": 953,
      "bec": 954,
      "trad": 955,
      "drug": 956,
      "ba": 957,
      "spor": 958,
      "incre": 959,
      "ext": 960,
      "vot": 961,
      "develop": 962,
      "ges": 963,
      "update": 964,
      "camp": 965,
      "companies": 966,
      "ier": 967,
      "ons": 968,
      "vo": 969,
      "terror": 970,
      "66": 971,
      "fact": 972,
      "ures": 973,
      ".,": 974,
      "games": 975,
      "cons": 976,
      "stud": 977,
      "ision": 978,
      "quick": 979,
      "stand": 980,
      "ween": 981,
      "there": 982,
      "mart": 983,
      "lond": 984,
      "series": 985,
      "during": 986,
      "pass": 987,
      "london": 988,
      "move": 989,
      "thern": 990,
      "threat": 991,
      "still": 992,
      "pat": 993,
      "pers": 994,
      "ular": 995,
      "ause": 996,
      "fur": 997,
      "chip": 998,
      "attack": 999,
      "ley": 1000,
      "wr": 1001,
      "vol": 1002,
      "50": 1003,
      "dead": 1004,
      "share": 1005,
      "between": 1006,
      "industry": 1007,
      "inj": 1008,
      "ious": 1009,
      "men": 1010,
      "stock": 1011,
      "ended": 1012,
      "ticker": 1013,
      "sum": 1014,
      "ows": 1015,
      "glo": 1016,
      "field": 1017,
      "12": 1018,
      "sports": 1019,
      "foot": 1020,
      "baghd": 1021,
      "baghdad": 1022,
      "cre": 1023,
      "produc": 1024,
      "ttp": 1025,
      "//": 1026,
      "http": 1027,
      "sour": 1028,
      "ange": 1029,
      "loy": 1030,
      "pa": 1031,
      "els": 1032,
      "giant": 1033,
      "ress": 1034,
      "cur": 1035,
      "ams": 1036,
      "view": 1037,
      "://": 1038,
      "wo": 1039,
      "held": 1040,
      "ga": 1041,
      "let": 1042,
      "sept": 1043,
      "point": 1044,
      "boo": 1045,
      "reach": 1046,
      "commun": 1047,
      "return": 1048,
      "alth": 1049,
      "ction": 1050,
      "spec": 1051,
      "based": 1052,
      "sel": 1053,
      "row": 1054,
      "attle": 1055,
      "includ": 1056,
      "ages": 1057,
      "keep": 1058,
      "fol": 1059,
      "growth": 1060,
      "rul": 1061,
      "ned": 1062,
      "isco": 1063,
      "real": 1064,
      "ots": 1065,
      "ense": 1066,
      "ster": 1067,
      "reless": 1068,
      "services": 1069,
      "since": 1070,
      "pak": 1071,
      "www": 1072,
      "oft": 1073,
      "gre": 1074,
      "rup": 1075,
      "ared": 1076,
      "early": 1077,
      "face": 1078,
      "nuc": 1079,
      "info": 1080,
      "data": 1081,
      "sm": 1082,
      "left": 1083,
      "any": 1084,
      "ents": 1085,
      "pc": 1086,
      "wireless": 1087,
      "contro": 1088,
      "union": 1089,
      "insur": 1090,
      "progr": 1091,
      "ards": 1092,
      "mid": 1093,
      "free": 1094,
      "john": 1095,
      "ze": 1096,
      "investor": 1097,
      "trade": 1098,
      "nuclear": 1099,
      "half": 1100,
      "href": 1101,
      "higher": 1102,
      "ub": 1103,
      "dou": 1104,
      "demand": 1105,
      "firm": 1106,
      "sold": 1107,
      "ush": 1108,
      "acle": 1109,
      "kore": 1110,
      "turn": 1111,
      "acqu": 1112,
      "ved": 1113,
      "ops": 1114,
      "military": 1115,
      "ility": 1116,
      "stor": 1117,
      "australia": 1118,
      "less": 1119,
      "ications": 1120,
      "gain": 1121,
      "sol": 1122,
      "earnings": 1123,
      "tract": 1124,
      "pakistan": 1125,
      "even": 1126,
      "ude": 1127,
      "fight": 1128,
      "dav": 1129,
      "fire": 1130,
      "like": 1131,
      "14": 1132,
      "ney": 1133,
      "wom": 1134,
      "being": 1135,
      "pri": 1136,
      "peace": 1137,
      "house": 1138,
      "gaz": 1139,
      "ya": 1140,
      "only": 1141,
      "iran": 1142,
      "bur": 1143,
      "got": 1144,
      "ples": 1145,
      "afgh": 1146,
      "itch": 1147,
      "quest": 1148,
      "30": 1149,
      "ivers": 1150,
      "hear": 1151,
      "emp": 1152,
      "retail": 1153,
      "general": 1154,
      "bill": 1155,
      "don": 1156,
      "ah": 1157,
      "change": 1158,
      "asp": 1159,
      "ints": 1160,
      "cts": 1161,
      "apple": 1162,
      "intel": 1163,
      "ider": 1164,
      "rad": 1165,
      "players": 1166,
      "mc": 1167,
      "seven": 1168,
      "sox": 1169,
      "ution": 1170,
      "mat": 1171,
      "right": 1172,
      "hard": 1173,
      "lower": 1174,
      "ights": 1175,
      "num": 1176,
      "cust": 1177,
      "good": 1178,
      "den": 1179,
      "ux": 1180,
      "uel": 1181,
      "fac": 1182,
      "agreed": 1183,
      "raw": 1184,
      "months": 1185,
      "issu": 1186,
      "gets": 1187,
      "ject": 1188,
      "product": 1189,
      "days": 1190,
      "afghan": 1191,
      "nov": 1192,
      "financ": 1193,
      "close": 1194,
      "lowing": 1195,
      "ines": 1196,
      "ific": 1197,
      "agen": 1198,
      "bas": 1199,
      "stree": 1200,
      "bor": 1201,
      "oracle": 1202,
      "aster": 1203,
      "because": 1204,
      "gan": 1205,
      "lim": 1206,
      "dar": 1207,
      "rebel": 1208,
      "ator": 1209,
      "adv": 1210,
      "mber": 1211,
      "fut": 1212,
      "franc": 1213,
      "global": 1214,
      "israeli": 1215,
      "price": 1216,
      "where": 1217,
      "well": 1218,
      "yan": 1219,
      "systems": 1220,
      "match": 1221,
      "windows": 1222,
      "need": 1223,
      "viol": 1224,
      "bers": 1225,
      "scient": 1226,
      "ross": 1227,
      "ahead": 1228,
      "fund": 1229,
      "tor": 1230,
      "latest": 1231,
      "val": 1232,
      "england": 1233,
      "ont": 1234,
      "russian": 1235,
      "dire": 1236,
      "olympic": 1237,
      "rupt": 1238,
      "cle": 1239,
      "dig": 1240,
      "troops": 1241,
      "=/": 1242,
      "quickinfo": 1243,
      "aspx": 1244,
      "should": 1245,
      "ply": 1246,
      "cell": 1247,
      "vide": 1248,
      "points": 1249,
      "compe": 1250,
      "gaza": 1251,
      "lab": 1252,
      "russia": 1253,
      "rose": 1254,
      "ible": 1255,
      "biggest": 1256,
      "football": 1257,
      "remain": 1258,
      "executive": 1259,
      "ready": 1260,
      "boston": 1261,
      "polit": 1262,
      "using": 1263,
      "wall": 1264,
      "thing": 1265,
      "ison": 1266,
      "users": 1267,
      "indian": 1268,
      "kn": 1269,
      "lines": 1270,
      "place": 1271,
      "ators": 1272,
      "desp": 1273,
      "ake": 1274,
      "jobs": 1275,
      "rise": 1276,
      "ving": 1277,
      "ends": 1278,
      "36": 1279,
      "life": 1280,
      "feat": 1281,
      "championship": 1282,
      "dom": 1283,
      "including": 1284,
      "aly": 1285,
      "how": 1286,
      "sub": 1287,
      "athe": 1288,
      "ds": 1289,
      "hurrican": 1290,
      "tur": 1291,
      "kyo": 1292,
      "case": 1293,
      "support": 1294,
      "past": 1295,
      "reports": 1296,
      "peo": 1297,
      "mark": 1298,
      "peoples": 1299,
      "phil": 1300,
      "base": 1301,
      "canadian": 1302,
      "fam": 1303,
      "released": 1304,
      "find": 1305,
      "death": 1306,
      "custom": 1307,
      "leaders": 1308,
      "despite": 1309,
      "program": 1310,
      "ised": 1311,
      "concer": 1312,
      "pack": 1313,
      "iting": 1314,
      "suc": 1315,
      "economy": 1316,
      "hip": 1317,
      "ism": 1318,
      "ida": 1319,
      "process": 1320,
      "foreign": 1321,
      "coming": 1322,
      "build": 1323,
      "kets": 1324,
      "peoplesoft": 1325,
      "wood": 1326,
      "ool": 1327,
      "fail": 1328,
      "forces": 1329,
      "much": 1330,
      "boost": 1331,
      "your": 1332,
      "drop": 1333,
      "athens": 1334,
      "hist": 1335,
      "na": 1336,
      "commission": 1337,
      "poss": 1338,
      "investors": 1339,
      "aug": 1340,
      "economic": 1341,
      "18": 1342,
      "16": 1343,
      "deb": 1344,
      "oci": 1345,
      "rival": 1346,
      "pur": 1347,
      "school": 1348,
      "release": 1349,
      "idn": 1350,
      "contract": 1351,
      "fect": 1352,
      "associ": 1353,
      "street": 1354,
      "sure": 1355,
      "called": 1356,
      "div": 1357,
      "decl": 1358,
      "mee": 1359,
      "direct": 1360,
      "recent": 1361,
      "17": 1362,
      "continu": 1363,
      "force": 1364,
      "rench": 1365,
      "care": 1366,
      "effor": 1367,
      "lik": 1368,
      "video": 1369,
      "board": 1370,
      "card": 1371,
      "aft": 1372,
      "13": 1373,
      "cover": 1374,
      "mail": 1375,
      "sk": 1376,
      "2005": 1377,
      "broad": 1378,
      "dri": 1379,
      "here": 1380,
      "green": 1381,
      "around": 1382,
      "jud": 1383,
      "ative": 1384,
      "ben": 1385,
      "best": 1386,
      "rich": 1387,
      "source": 1388,
      "tax": 1389,
      "pho": 1390,
      "position": 1391,
      "fourth": 1392,
      "region": 1393,
      "bc": 1394,
      "ull": 1395,
      "thor": 1396,
      "ily": 1397,
      "25": 1398,
      "arm": 1399,
      "campa": 1400,
      "ize": 1401,
      "australian": 1402,
      "pop": 1403,
      "gl": 1404,
      "she": 1405,
      ";&": 1406,
      "nations": 1407,
      "presidential": 1408,
      "health": 1409,
      "sudan": 1410,
      "french": 1411,
      "ny": 1412,
      "title": 1413,
      "gress": 1414,
      "media": 1415,
      "mal": 1416,
      "leading": 1417,
      "ars": 1418,
      "break": 1419,
      "weeks": 1420,
      "sever": 1421,
      "bay": 1422,
      "investig": 1423,
      "engine": 1424,
      "nearly": 1425,
      "watch": 1426,
      "dep": 1427,
      "ands": 1428,
      "ford": 1429,
      "linux": 1430,
      "workers": 1431,
      "hi": 1432,
      "wins": 1433,
      "demo": 1434,
      "exper": 1435,
      "ways": 1436,
      "tokyo": 1437,
      "ament": 1438,
      "ging": 1439,
      "acy": 1440,
      "sent": 1441,
      "bit": 1442,
      "attacks": 1443,
      "america": 1444,
      "ko": 1445,
      "financial": 1446,
      "ured": 1447,
      "works": 1448,
      "gas": 1449,
      "saf": 1450,
      "short": 1451,
      "outs": 1452,
      "sto": 1453,
      "hot": 1454,
      "campaign": 1455,
      "dy": 1456,
      "dist": 1457,
      "ipo": 1458,
      "lit": 1459,
      "capital": 1460,
      "korea": 1461,
      "ai": 1462,
      "rod": 1463,
      "iger": 1464,
      "nasa": 1465,
      "ank": 1466,
      "analy": 1467,
      "interest": 1468,
      "100": 1469,
      "anti": 1470,
      "player": 1471,
      "kerry": 1472,
      "rece": 1473,
      "super": 1474,
      "ference": 1475,
      "vel": 1476,
      "chic": 1477,
      "pes": 1478,
      "spr": 1479,
      "appl": 1480,
      "agency": 1481,
      "ose": 1482,
      "isl": 1483,
      "bra": 1484,
      "iers": 1485,
      "ized": 1486,
      "aff": 1487,
      "tre": 1488,
      "center": 1489,
      "yanke": 1490,
      "francisco": 1491,
      "digital": 1492,
      "democr": 1493,
      "ior": 1494,
      "arrest": 1495,
      "secret": 1496,
      "giv": 1497,
      "va": 1498,
      "alleg": 1499,
      "employ": 1500,
      "agreement": 1501,
      "number": 1502,
      "person": 1503,
      "fell": 1504,
      "late": 1505,
      "stop": 1506,
      "flor": 1507,
      "success": 1508,
      "ults": 1509,
      "rain": 1510,
      "equ": 1511,
      "unt": 1512,
      "race": 1513,
      "octo": 1514,
      "ys": 1515,
      "ember": 1516,
      "corpor": 1517,
      "meeting": 1518,
      "party": 1519,
      "october": 1520,
      "ple": 1521,
      "small": 1522,
      "september": 1523,
      "away": 1524,
      "forecast": 1525,
      "chicago": 1526,
      "crude": 1527,
      "allow": 1528,
      "took": 1529,
      "central": 1530,
      "ites": 1531,
      "legal": 1532,
      "also": 1533,
      "battle": 1534,
      "susp": 1535,
      "pan": 1536,
      "que": 1537,
      "ink": 1538,
      "stra": 1539,
      "scientists": 1540,
      "list": 1541,
      "afat": 1542,
      "tv": 1543,
      "arafat": 1544,
      "aid": 1545,
      "going": 1546,
      "killing": 1547,
      "florida": 1548,
      "organ": 1549,
      "crit": 1550,
      "consu": 1551,
      "likely": 1552,
      "version": 1553,
      "author": 1554,
      "job": 1555,
      "hurricane": 1556,
      "univers": 1557,
      "depart": 1558,
      "following": 1559,
      "want": 1560,
      "great": 1561,
      "consumer": 1562,
      "human": 1563,
      "adr": 1564,
      "aren": 1565,
      "ugg": 1566,
      "nam": 1567,
      "action": 1568,
      "darfur": 1569,
      "charges": 1570,
      "army": 1571,
      "disc": 1572,
      "whe": 1573,
      "suit": 1574,
      "approv": 1575,
      "uj": 1576,
      "ener": 1577,
      "ided": 1578,
      "strike": 1579,
      "touch": 1580,
      "bi": 1581,
      "veil": 1582,
      "vote": 1583,
      "wat": 1584,
      "jan": 1585,
      "mit": 1586,
      "bow": 1587,
      "due": 1588,
      "ration": 1589,
      "give": 1590,
      "ware": 1591,
      "study": 1592,
      "making": 1593,
      "france": 1594,
      "ever": 1595,
      "ness": 1596,
      "chall": 1597,
      "japanese": 1598,
      "speed": 1599,
      "design": 1600,
      "both": 1601,
      "might": 1602,
      "unveil": 1603,
      "electron": 1604,
      "yankees": 1605,
      "soc": 1606,
      "communications": 1607,
      "trial": 1608,
      "ming": 1609,
      "future": 1610,
      "britain": 1611,
      "wide": 1612,
      "reven": 1613,
      "black": 1614,
      "regul": 1615,
      "eles": 1616,
      "site": 1617,
      "fa": 1618,
      "sets": 1619,
      "prote": 1620,
      "24": 1621,
      "nia": 1622,
      "tour": 1623,
      "times": 1624,
      "ev": 1625,
      "ob": 1626,
      "tic": 1627,
      "chin": 1628,
      "step": 1629,
      "ff": 1630,
      "ensive": 1631,
      "begin": 1632,
      "dam": 1633,
      "geor": 1634,
      "products": 1635,
      "ifor": 1636,
      "settle": 1637,
      "sim": 1638,
      "shot": 1639,
      "trans": 1640,
      "self": 1641,
      "profile": 1642,
      "gree": 1643,
      "defense": 1644,
      "apped": 1645,
      "conference": 1646,
      "earth": 1647,
      "every": 1648,
      "manager": 1649,
      "willi": 1650,
      "curren": 1651,
      "draw": 1652,
      "management": 1653,
      "band": 1654,
      "east": 1655,
      "women": 1656,
      "office": 1657,
      "auto": 1658,
      "ising": 1659,
      "idence": 1660,
      "califor": 1661,
      "customers": 1662,
      "tex": 1663,
      "results": 1664,
      "iver": 1665,
      "ished": 1666,
      "cing": 1667,
      "roc": 1668,
      "chair": 1669,
      "ave": 1670,
      "decision": 1671,
      "poll": 1672,
      "eas": 1673,
      "order": 1674,
      "reser": 1675,
      "nove": 1676,
      "push": 1677,
      "energy": 1678,
      "several": 1679,
      "november": 1680,
      "bed": 1681,
      "eight": 1682,
      "little": 1683,
      "blast": 1684,
      "pitch": 1685,
      "stat": 1686,
      "club": 1687,
      "proble": 1688,
      "food": 1689,
      "mac": 1690,
      "northern": 1691,
      "hour": 1692,
      "imin": 1693,
      "sony": 1694,
      "southern": 1695,
      "bat": 1696,
      "few": 1697,
      "taking": 1698,
      "costs": 1699,
      "grand": 1700,
      "chang": 1701,
      "qual": 1702,
      "without": 1703,
      "political": 1704,
      "ify": 1705,
      "takes": 1706,
      "militants": 1707,
      "ners": 1708,
      "vision": 1709,
      "hostage": 1710,
      "ino": 1711,
      "rate": 1712,
      "conf": 1713,
      "running": 1714,
      "desk": 1715,
      "ump": 1716,
      "struct": 1717,
      "thers": 1718,
      "ened": 1719,
      "roll": 1720,
      "elections": 1721,
      "control": 1722,
      "ades": 1723,
      "inst": 1724,
      "too": 1725,
      "baseball": 1726,
      "onto": 1727,
      "california": 1728,
      "does": 1729,
      "ides": 1730,
      "atic": 1731,
      "bankrupt": 1732,
      "champions": 1733,
      "cuts": 1734,
      "uce": 1735,
      "islam": 1736,
      "winning": 1737,
      "far": 1738,
      "judge": 1739,
      "child": 1740,
      "polic": 1741,
      "canada": 1742,
      "uck": 1743,
      "straight": 1744,
      "accoun": 1745,
      "spam": 1746,
      "cam": 1747,
      "ik": 1748,
      "gun": 1749,
      "mess": 1750,
      "clear": 1751,
      "station": 1752,
      "such": 1753,
      "plac": 1754,
      "priv": 1755,
      "sea": 1756,
      "phones": 1757,
      "fear": 1758,
      "mass": 1759,
      "),": 1760,
      "pon": 1761,
      "rac": 1762,
      "ami": 1763,
      "quarterly": 1764,
      "analyst": 1765,
      "claims": 1766,
      "fans": 1767,
      "fre": 1768,
      "hopes": 1769,
      "light": 1770,
      "told": 1771,
      "micha": 1772,
      "prison": 1773,
      "department": 1774,
      "though": 1775,
      "tries": 1776,
      "consider": 1777,
      "slow": 1778,
      "atl": 1779,
      "join": 1780,
      "ceo": 1781,
      "gin": 1782,
      "desktop": 1783,
      "lou": 1784,
      "hind": 1785,
      "michael": 1786,
      "bri": 1787,
      "die": 1788,
      "amid": 1789,
      "ians": 1790,
      "better": 1791,
      "unit": 1792,
      "craft": 1793,
      "whether": 1794,
      "load": 1795,
      "inform": 1796,
      "ord": 1797,
      "barrel": 1798,
      "ken": 1799,
      "bled": 1800,
      "posed": 1801,
      "kidn": 1802,
      "cash": 1803,
      "dif": 1804,
      "sil": 1805,
      "class": 1806,
      "nat": 1807,
      "rates": 1808,
      "foc": 1809,
      "road": 1810,
      "calls": 1811,
      "explos": 1812,
      "ension": 1813,
      "giants": 1814,
      "wound": 1815,
      "roy": 1816,
      "flo": 1817,
      "scored": 1818,
      "blue": 1819,
      "increase": 1820,
      "term": 1821,
      "access": 1822,
      "hoo": 1823,
      "prove": 1824,
      "launched": 1825,
      "possible": 1826,
      "violence": 1827,
      "21": 1828,
      "across": 1829,
      "nal": 1830,
      "atlant": 1831,
      "fuel": 1832,
      "comple": 1833,
      "august": 1834,
      "university": 1835,
      "hy": 1836,
      "money": 1837,
      "brow": 1838,
      "lost": 1839,
      "prise": 1840,
      "server": 1841,
      "angeles": 1842,
      "tool": 1843,
      "saying": 1844,
      "zer": 1845,
      "chairman": 1846,
      "become": 1847,
      "clim": 1848,
      "texas": 1849,
      "side": 1850,
      "fast": 1851,
      "hor": 1852,
      "history": 1853,
      "williams": 1854,
      "stad": 1855,
      "ale": 1856,
      "trav": 1857,
      "members": 1858,
      "jer": 1859,
      "kar": 1860,
      "crash": 1861,
      "cept": 1862,
      "thous": 1863,
      "then": 1864,
      "coast": 1865,
      "safe": 1866,
      "stores": 1867,
      "chinese": 1868,
      "trading": 1869,
      "houston": 1870,
      "activ": 1871,
      "ases": 1872,
      "german": 1873,
      "town": 1874,
      "wester": 1875,
      "morning": 1876,
      "weekend": 1877,
      "radio": 1878,
      "clos": 1879,
      "among": 1880,
      "span": 1881,
      "makers": 1882,
      "perfor": 1883,
      "hits": 1884,
      "cel": 1885,
      "uses": 1886,
      "germany": 1887,
      "block": 1888,
      "promis": 1889,
      "white": 1890,
      "store": 1891,
      "opt": 1892,
      "iti": 1893,
      "rob": 1894,
      "networks": 1895,
      "mb": 1896,
      "rap": 1897,
      "secretary": 1898,
      "information": 1899,
      "ability": 1900,
      "medal": 1901,
      "train": 1902,
      "book": 1903,
      "strugg": 1904,
      "belie": 1905,
      "toward": 1906,
      "rew": 1907,
      "same": 1908,
      "administ": 1909,
      "makes": 1910,
      "oct": 1911,
      "pen": 1912,
      "rally": 1913,
      "seen": 1914,
      "weak": 1915,
      "mas": 1916,
      "emer": 1917,
      "soon": 1918,
      "ij": 1919,
      "gener": 1920,
      "rebels": 1921,
      "behind": 1922,
      "bab": 1923,
      "heav": 1924,
      "ats": 1925,
      "wit": 1926,
      "western": 1927,
      "secut": 1928,
      "operating": 1929,
      "hom": 1930,
      "accused": 1931,
      "ipod": 1932,
      "arsen": 1933,
      "falluj": 1934,
      "must": 1935,
      "ona": 1936,
      "ground": 1937,
      "aper": 1938,
      "david": 1939,
      "event": 1940,
      "sn": 1941,
      "injured": 1942,
      "yahoo": 1943,
      "did": 1944,
      "pac": 1945,
      "anned": 1946,
      "soldiers": 1947,
      "profits": 1948,
      "protest": 1949,
      "carri": 1950,
      "ties": 1951,
      "infl": 1952,
      "mag": 1953,
      "commit": 1954,
      "afghanistan": 1955,
      "nine": 1956,
      "meet": 1957,
      "oid": 1958,
      "pil": 1959,
      "visit": 1960,
      "ten": 1961,
      "da": 1962,
      "py": 1963,
      "commer": 1964,
      "afric": 1965,
      "pm": 1966,
      "empt": 1967,
      "ute": 1968,
      "500": 1969,
      "exchange": 1970,
      "manu": 1971,
      "senior": 1972,
      "photo": 1973,
      "came": 1974,
      "earli": 1975,
      "box": 1976,
      "suspect": 1977,
      "labor": 1978,
      "jun": 1979,
      "indones": 1980,
      "revenue": 1981,
      "almost": 1982,
      "era": 1983,
      "abo": 1984,
      "ru": 1985,
      "ived": 1986,
      "bring": 1987,
      "qa": 1988,
      "warned": 1989,
      "shop": 1990,
      "double": 1991,
      "bankruptcy": 1992,
      "pot": 1993,
      "paris": 1994,
      "\\\\": 1995,
      "republic": 1996,
      "rist": 1997,
      "ana": 1998,
      "color": 1999,
      "thousands": 2000,
      "cand": 2001,
      "airlines": 2002,
      "file": 2003,
      "performan": 2004,
      "tenn": 2005,
      "coll": 2006,
      "gers": 2007,
      "popular": 2008,
      "ught": 2009,
      "takeover": 2010,
      "stadium": 2011,
      "manufact": 2012,
      "introd": 2013,
      "opening": 2014,
      "posted": 2015,
      "fav": 2016,
      "touchdown": 2017,
      "ience": 2018,
      "ama": 2019,
      "signed": 2020,
      "reserve": 2021,
      "markets": 2022,
      "mir": 2023,
      "ony": 2024,
      "showed": 2025,
      "negot": 2026,
      "negoti": 2027,
      "comes": 2028,
      "production": 2029,
      "yet": 2030,
      "virgin": 2031,
      "personal": 2032,
      "organiz": 2033,
      "africa": 2034,
      "weap": 2035,
      "ession": 2036,
      "nfl": 2037,
      "resh": 2038,
      "paul": 2039,
      "domin": 2040,
      "division": 2041,
      "braz": 2042,
      "aver": 2043,
      "those": 2044,
      "delay": 2045,
      "water": 2046,
      "television": 2047,
      "cil": 2048,
      "heart": 2049,
      "toronto": 2050,
      "ring": 2051,
      "civ": 2052,
      "earlier": 2053,
      "jones": 2054,
      "pic": 2055,
      "vic": 2056,
      "ture": 2057,
      "gains": 2058,
      "22": 2059,
      "stre": 2060,
      "cred": 2061,
      "ired": 2062,
      "aged": 2063,
      "hope": 2064,
      "firms": 2065,
      "ari": 2066,
      "ises": 2067,
      "pects": 2068,
      "spain": 2069,
      "know": 2070,
      "premi": 2071,
      "growing": 2072,
      "tition": 2073,
      "surve": 2074,
      "ded": 2075,
      "offering": 2076,
      "mur": 2077,
      "dle": 2078,
      "asser": 2079,
      "sale": 2080,
      "wants": 2081,
      "ille": 2082,
      "ified": 2083,
      "flight": 2084,
      "alleged": 2085,
      "body": 2086,
      "muslim": 2087,
      "opposition": 2088,
      "bird": 2089,
      "consum": 2090,
      "sug": 2091,
      "outlook": 2092,
      "corporate": 2093,
      "motor": 2094,
      "gol": 2095,
      "40": 2096,
      "fra": 2097,
      "track": 2098,
      "finance": 2099,
      "stake": 2100,
      "brazil": 2101,
      "performance": 2102,
      "helped": 2103,
      "louis": 2104,
      "dip": 2105,
      "olympics": 2106,
      "23": 2107,
      "leav": 2108,
      "local": 2109,
      "reds": 2110,
      "iss": 2111,
      "font": 2112,
      "jour": 2113,
      "oks": 2114,
      "ries": 2115,
      "association": 2116,
      "bowl": 2117,
      "sam": 2118,
      "probe": 2119,
      "blair": 2120,
      "ota": 2121,
      "lock": 2122,
      "hosp": 2123,
      "lad": 2124,
      "americans": 2125,
      "expl": 2126,
      "asia": 2127,
      "african": 2128,
      "began": 2129,
      "conne": 2130,
      "spot": 2131,
      "ately": 2132,
      "worth": 2133,
      "concerns": 2134,
      "gent": 2135,
      "ltd": 2136,
      "rock": 2137,
      "died": 2138,
      "island": 2139,
      "28": 2140,
      "dell": 2141,
      "fresh": 2142,
      "aps": 2143,
      "computers": 2144,
      "hospital": 2145,
      "madr": 2146,
      "insurance": 2147,
      "tom": 2148,
      "appoint": 2149,
      "goal": 2150,
      "looking": 2151,
      "philip": 2152,
      "bes": 2153,
      "27": 2154,
      "bell": 2155,
      "ram": 2156,
      "fox": 2157,
      "guard": 2158,
      "present": 2159,
      "council": 2160,
      "civil": 2161,
      "expand": 2162,
      "candid": 2163,
      "hun": 2164,
      "ories": 2165,
      "fighting": 2166,
      "ially": 2167,
      "199": 2168,
      "efforts": 2169,
      "dv": 2170,
      "dut": 2171,
      "travel": 2172,
      "once": 2173,
      "chester": 2174,
      "countries": 2175,
      "trou": 2176,
      "known": 2177,
      "career": 2178,
      "rising": 2179,
      "6666": 2180,
      "challen": 2181,
      "administration": 2182,
      "hp": 2183,
      "youn": 2184,
      "bad": 2185,
      "already": 2186,
      "airline": 2187,
      "investment": 2188,
      "cho": 2189,
      "drive": 2190,
      "arrested": 2191,
      "charged": 2192,
      "asing": 2193,
      "announce": 2194,
      "ask": 2195,
      "shut": 2196,
      "supply": 2197,
      "george": 2198,
      "analysts": 2199,
      "sched": 2200,
      "wan": 2201,
      "inf": 2202,
      "dest": 2203,
      "nets": 2204,
      "download": 2205,
      "ros": 2206,
      "miami": 2207,
      "spending": 2208,
      "continue": 2209,
      "holiday": 2210,
      "special": 2211,
      "size": 2212,
      "trying": 2213,
      "hours": 2214,
      "niger": 2215,
      "resp": 2216,
      "cris": 2217,
      "weapons": 2218,
      "arab": 2219,
      "explo": 2220,
      "fraud": 2221,
      "bound": 2222,
      "within": 2223,
      "met": 2224,
      "competition": 2225,
      "madrid": 2226,
      "batt": 2227,
      "teams": 2228,
      "burn": 2229,
      "strate": 2230,
      "family": 2231,
      "arsenal": 2232,
      "moun": 2233,
      "ivan": 2234,
      "charge": 2235,
      "cri": 2236,
      "egy": 2237,
      "front": 2238,
      "mult": 2239,
      "ox": 2240,
      "resol": 2241,
      "current": 2242,
      "ez": 2243,
      "stay": 2244,
      "egypt": 2245,
      "rights": 2246,
      "airways": 2247,
      "vious": 2248,
      "question": 2249,
      "others": 2250,
      "defeat": 2251,
      "fig": 2252,
      "ctions": 2253,
      "rules": 2254,
      "employe": 2255,
      "pract": 2256,
      "aled": 2257,
      "fri": 2258,
      "suic": 2259,
      "cele": 2260,
      "disput": 2261,
      "selling": 2262,
      "reve": 2263,
      "grap": 2264,
      "avail": 2265,
      "advanc": 2266,
      "kills": 2267,
      "stead": 2268,
      "starting": 2269,
      "cat": 2270,
      "beij": 2271,
      "sees": 2272,
      "nba": 2273,
      "beijing": 2274,
      "adel": 2275,
      "congress": 2276,
      "outside": 2277,
      "policy": 2278,
      "hic": 2279,
      "taken": 2280,
      "storm": 2281,
      "arent": 2282,
      "spok": 2283,
      "fif": 2284,
      "chen": 2285,
      "sharon": 2286,
      "until": 2287,
      "fle": 2288,
      "survey": 2289,
      "inch": 2290,
      "van": 2291,
      "pressure": 2292,
      "children": 2293,
      "offers": 2294,
      "park": 2295,
      "crisis": 2296,
      "pit": 2297,
      "ication": 2298,
      "seem": 2299,
      "development": 2300,
      "gave": 2301,
      "giving": 2302,
      "authorities": 2303,
      "enough": 2304,
      "icket": 2305,
      "seattle": 2306,
      "suppl": 2307,
      "basket": 2308,
      "hund": 2309,
      "pir": 2310,
      "went": 2311,
      "sport": 2312,
      "151": 2313,
      "ler": 2314,
      "tai": 2315,
      "strip": 2316,
      "bond": 2317,
      "yards": 2318,
      "inals": 2319,
      "edge": 2320,
      "express": 2321,
      "consumers": 2322,
      "pact": 2323,
      "rivals": 2324,
      "italian": 2325,
      "effort": 2326,
      "plane": 2327,
      "ening": 2328,
      "manchester": 2329,
      "finally": 2330,
      "reached": 2331,
      "aging": 2332,
      "quarterback": 2333,
      "ruling": 2334,
      "26": 2335,
      "name": 2336,
      "cos": 2337,
      "executives": 2338,
      "estim": 2339,
      "woman": 2340,
      "electronics": 2341,
      "suicide": 2342,
      "award": 2343,
      "reme": 2344,
      "injury": 2345,
      "fears": 2346,
      "gam": 2347,
      "ential": 2348,
      "each": 2349,
      "80": 2350,
      "named": 2351,
      "aud": 2352,
      "eing": 2353,
      "yuk": 2354,
      "ado": 2355,
      "iance": 2356,
      "satell": 2357,
      "christ": 2358,
      "tra": 2359,
      "getting": 2360,
      "colle": 2361,
      "scre": 2362,
      "retailer": 2363,
      "vs": 2364,
      "35": 2365,
      "cou": 2366,
      "gar": 2367,
      "plant": 2368,
      "devices": 2369,
      "cisco": 2370,
      "driv": 2371,
      "squ": 2372,
      "dog": 2373,
      "vert": 2374,
      "akes": 2375,
      "astern": 2376,
      "backs": 2377,
      "continued": 2378,
      "mach": 2379,
      "aimed": 2380,
      "mex": 2381,
      "suggest": 2382,
      "fun": 2383,
      "clash": 2384,
      "soccer": 2385,
      "wild": 2386,
      "sex": 2387,
      "large": 2388,
      "missing": 2389,
      "cit": 2390,
      "hill": 2391,
      "tel": 2392,
      "failed": 2393,
      ").": 2394,
      "cp": 2395,
      "attempt": 2396,
      "mont": 2397,
      "reco": 2398,
      "shows": 2399,
      "further": 2400,
      "heavy": 2401,
      "invol": 2402,
      "dies": 2403,
      "han": 2404,
      "yukos": 2405,
      "operations": 2406,
      "college": 2407,
      "project": 2408,
      "researchers": 2409,
      "focus": 2410,
      "credit": 2411,
      "asian": 2412,
      "problems": 2413,
      "private": 2414,
      "spokes": 2415,
      "level": 2416,
      "playoff": 2417,
      "faces": 2418,
      "ffer": 2419,
      "previous": 2420,
      "import": 2421,
      "nes": 2422,
      "issue": 2423,
      "ander": 2424,
      "scow": 2425,
      "basketball": 2426,
      "ville": 2427,
      "reject": 2428,
      "powerful": 2429,
      "chips": 2430,
      "middle": 2431,
      "fired": 2432,
      "ined": 2433,
      "staff": 2434,
      "send": 2435,
      "yasser": 2436,
      "ico": 2437,
      "benef": 2438,
      "discuss": 2439,
      "pred": 2440,
      "moscow": 2441,
      "terrorism": 2442,
      "ml": 2443,
      "area": 2444,
      "working": 2445,
      "risk": 2446,
      "certain": 2447,
      "jail": 2448,
      "tough": 2449,
      "operation": 2450,
      "member": 2451,
      "wel": 2452,
      "partners": 2453,
      "young": 2454,
      "pick": 2455,
      "ria": 2456,
      "ax": 2457,
      "winter": 2458,
      "review": 2459,
      "leads": 2460,
      "dow": 2461,
      "utes": 2462,
      "raised": 2463,
      "palestinians": 2464,
      "check": 2465,
      "filed": 2466,
      "davis": 2467,
      "uary": 2468,
      "itions": 2469,
      "steel": 2470,
      "inv": 2471,
      "raid": 2472,
      "calif": 2473,
      "bud": 2474,
      "doc": 2475,
      "scr": 2476,
      "moved": 2477,
      "uly": 2478,
      "nok": 2479,
      "merger": 2480,
      "atlanta": 2481,
      "suspected": 2482,
      "above": 2483,
      "storage": 2484,
      "kes": 2485,
      "ape": 2486,
      "ulation": 2487,
      "29": 2488,
      "pull": 2489,
      "ues": 2490,
      "never": 2491,
      "chase": 2492,
      "pec": 2493,
      "firmed": 2494,
      "hen": 2495,
      "warning": 2496,
      "signs": 2497,
      "400": 2498,
      "leave": 2499,
      "eag": 2500,
      "rang": 2501,
      "treat": 2502,
      "happ": 2503,
      "fix": 2504,
      "challenge": 2505,
      "debt": 2506,
      "wid": 2507,
      "icip": 2508,
      "planned": 2509,
      "phia": 2510,
      "slip": 2511,
      "equip": 2512,
      "journal": 2513,
      "looks": 2514,
      "adelphia": 2515,
      "annual": 2516,
      "designed": 2517,
      "unes": 2518,
      "compl": 2519,
      "propo": 2520,
      "dece": 2521,
      "awa": 2522,
      "pul": 2523,
      "suffer": 2524,
      "2006": 2525,
      "dvd": 2526,
      "shi": 2527,
      "building": 2528,
      "chance": 2529,
      "appro": 2530,
      "businesses": 2531,
      "satellite": 2532,
      "ech": 2533,
      "investigation": 2534,
      "tee": 2535,
      "xp": 2536,
      "issues": 2537,
      "lan": 2538,
      "spy": 2539,
      "covered": 2540,
      "ease": 2541,
      "wer": 2542,
      "wart": 2543,
      "bass": 2544,
      "groups": 2545,
      "swee": 2546,
      "stren": 2547,
      "critic": 2548,
      "dollars": 2549,
      "delta": 2550,
      "ctor": 2551,
      "captain": 2552,
      "expectations": 2553,
      "controvers": 2554,
      "ray": 2555,
      "amd": 2556,
      "available": 2557,
      "streng": 2558,
      "content": 2559,
      "sharehold": 2560,
      "itor": 2561,
      "cricket": 2562,
      "lawsuit": 2563,
      "singap": 2564,
      "nasd": 2565,
      "treas": 2566,
      "iff": 2567,
      "tony": 2568,
      "singapore": 2569,
      "tell": 2570,
      "thr": 2571,
      "parli": 2572,
      ".'": 2573,
      "ained": 2574,
      "nokia": 2575,
      "counter": 2576,
      "cro": 2577,
      "inde": 2578,
      "fort": 2579,
      "fly": 2580,
      "detro": 2581,
      "provide": 2582,
      "dutch": 2583,
      "parliament": 2584,
      "jaf": 2585,
      "launches": 2586,
      "tourn": 2587,
      "sett": 2588,
      "johns": 2589,
      "democratic": 2590,
      "detroit": 2591,
      "decided": 2592,
      "hundreds": 2593,
      "december": 2594,
      "runs": 2595,
      "hl": 2596,
      "ert": 2597,
      "anium": 2598,
      "securities": 2599,
      "inning": 2600,
      "improve": 2601,
      "lic": 2602,
      "advert": 2603,
      "cbs": 2604,
      "sites": 2605,
      "itive": 2606,
      "officer": 2607,
      "seeks": 2608,
      "ald": 2609,
      "shr": 2610,
      "statement": 2611,
      "cas": 2612,
      "du": 2613,
      "arriv": 2614,
      "iding": 2615,
      "italy": 2616,
      "debate": 2617,
      "cir": 2618,
      "newsp": 2619,
      "experts": 2620,
      "regulators": 2621,
      "proposal": 2622,
      "di": 2623,
      "room": 2624,
      "moon": 2625,
      "proper": 2626,
      "boeing": 2627,
      "claimed": 2628,
      "enger": 2629,
      "ryder": 2630,
      "feder": 2631,
      "najaf": 2632,
      "separ": 2633,
      "singh": 2634,
      "turned": 2635,
      "sprint": 2636,
      "browser": 2637,
      "boss": 2638,
      "enterprise": 2639,
      "approved": 2640,
      "irel": 2641,
      "jum": 2642,
      "seed": 2643,
      "ption": 2644,
      "holding": 2645,
      "blood": 2646,
      "wis": 2647,
      "medical": 2648,
      "drugs": 2649,
      "changes": 2650,
      "hall": 2651,
      "ula": 2652,
      "boy": 2653,
      "goes": 2654,
      "49": 2655,
      "porters": 2656,
      "golf": 2657,
      "crow": 2658,
      "icit": 2659,
      "militant": 2660,
      "given": 2661,
      "introduc": 2662,
      "employees": 2663,
      "celebr": 2664,
      "servers": 2665,
      "losses": 2666,
      "philadelphia": 2667,
      "protect": 2668,
      "fallujah": 2669,
      "60": 2670,
      "astros": 2671,
      "surv": 2672,
      "bn": 2673,
      "range": 2674,
      "islamic": 2675,
      "asked": 2676,
      "confirmed": 2677,
      "closer": 2678,
      "astron": 2679,
      "dre": 2680,
      "ural": 2681,
      "log": 2682,
      "resign": 2683,
      "acquis": 2684,
      "safety": 2685,
      "blow": 2686,
      "resum": 2687,
      "ukrain": 2688,
      "ireland": 2689,
      "rem": 2690,
      "johnson": 2691,
      "prize": 2692,
      "aks": 2693,
      "ather": 2694,
      "nasdaq": 2695,
      "illa": 2696,
      "ceed": 2697,
      "taiwan": 2698,
      "mel": 2699,
      "effect": 2700,
      "factor": 2701,
      "raf": 2702,
      "rav": 2703,
      "playing": 2704,
      "forward": 2705,
      "code": 2706,
      "brown": 2707,
      "prep": 2708,
      "pair": 2709,
      "ually": 2710,
      "iving": 2711,
      "medi": 2712,
      "losing": 2713,
      "envir": 2714,
      "spir": 2715,
      "avoid": 2716,
      "unveiled": 2717,
      "chel": 2718,
      "slight": 2719,
      "note": 2720,
      "rocket": 2721,
      "role": 2722,
      "lu": 2723,
      "mut": 2724,
      "pound": 2725,
      "upgr": 2726,
      "environ": 2727,
      "scand": 2728,
      "generation": 2729,
      ";,": 2730,
      "rebound": 2731,
      "fifth": 2732,
      "tournament": 2733,
      "urged": 2734,
      "appear": 2735,
      "hat": 2736,
      "cleric": 2737,
      "disney": 2738,
      "ranked": 2739,
      "improv": 2740,
      "technologies": 2741,
      "brief": 2742,
      "tight": 2743,
      "agree": 2744,
      "hostages": 2745,
      "mary": 2746,
      "woods": 2747,
      "debut": 2748,
      "jects": 2749,
      "ribut": 2750,
      "seek": 2751,
      "think": 2752,
      "mos": 2753,
      "applications": 2754,
      "oh": 2755,
      "equipment": 2756,
      "finish": 2757,
      "putin": 2758,
      "lawy": 2759,
      "later": 2760,
      "zen": 2761,
      "along": 2762,
      "rev": 2763,
      "detail": 2764,
      "create": 2765,
      "ien": 2766,
      "mich": 2767,
      "rises": 2768,
      "deliver": 2769,
      "fel": 2770,
      "uge": 2771,
      "assin": 2772,
      "mw": 2773,
      "commerc": 2774,
      "mill": 2775,
      "bron": 2776,
      "brid": 2777,
      "kash": 2778,
      "weight": 2779,
      "opened": 2780,
      "differ": 2781,
      "witness": 2782,
      "ered": 2783,
      "ering": 2784,
      "warns": 2785,
      "jets": 2786,
      "added": 2787,
      "serious": 2788,
      "2003": 2789,
      "flu": 2790,
      "posts": 2791,
      "vention": 2792,
      "film": 2793,
      "lot": 2794,
      "meas": 2795,
      "wanted": 2796,
      "average": 2797,
      "appeal": 2798,
      "kashmir": 2799,
      "ni": 2800,
      "rum": 2801,
      "offensive": 2802,
      "standard": 2803,
      "accounting": 2804,
      "mort": 2805,
      "model": 2806,
      "athlet": 2807,
      "broadband": 2808,
      "kidnapped": 2809,
      "played": 2810,
      "summer": 2811,
      "retire": 2812,
      "mike": 2813,
      "victim": 2814,
      "err": 2815,
      "marke": 2816,
      "gents": 2817,
      "increased": 2818,
      "lish": 2819,
      "pool": 2820,
      "bol": 2821,
      "rick": 2822,
      "streak": 2823,
      "iro": 2824,
      "pled": 2825,
      "joint": 2826,
      "bonds": 2827,
      "commercial": 2828,
      "falls": 2829,
      "sources": 2830,
      "director": 2831,
      "bul": 2832,
      "spar": 2833,
      "course": 2834,
      "insurgents": 2835,
      "organization": 2836,
      "via": 2837,
      "hurt": 2838,
      "acquire": 2839,
      "patri": 2840,
      "pace": 2841,
      "patch": 2842,
      "icks": 2843,
      "entertain": 2844,
      "chain": 2845,
      "millions": 2846,
      "depend": 2847,
      "itional": 2848,
      "greece": 2849,
      "mix": 2850,
      "minnes": 2851,
      "assa": 2852,
      "jet": 2853,
      "wounded": 2854,
      "pilots": 2855,
      "spokesman": 2856,
      "apping": 2857,
      "indonesia": 2858,
      "minnesota": 2859,
      "vin": 2860,
      "why": 2861,
      "border": 2862,
      "gives": 2863,
      "kept": 2864,
      "tegr": 2865,
      "colum": 2866,
      "follow": 2867,
      "flood": 2868,
      "mortg": 2869,
      ".\"": 2870,
      "non": 2871,
      "nhl": 2872,
      "moves": 2873,
      "asters": 2874,
      "stage": 2875,
      "accept": 2876,
      "flat": 2877,
      "steve": 2878,
      "guil": 2879,
      "hus": 2880,
      "ively": 2881,
      "confidence": 2882,
      "turkey": 2883,
      "environment": 2884,
      "cross": 2885,
      "citing": 2886,
      "pain": 2887,
      "virus": 2888,
      "ifying": 2889,
      "prosecut": 2890,
      "march": 2891,
      "crimin": 2892,
      "buil": 2893,
      "dra": 2894,
      "single": 2895,
      "famil": 2896,
      "received": 2897,
      "virginia": 2898,
      "talk": 2899,
      "hoc": 2900,
      "save": 2901,
      "dod": 2902,
      "forced": 2903,
      "evidence": 2904,
      "gri": 2905,
      "ena": 2906,
      "airport": 2907,
      "missed": 2908,
      "advanced": 2909,
      "didn": 2910,
      "ilities": 2911,
      "suits": 2912,
      "finals": 2913,
      "huge": 2914,
      "doub": 2915,
      "funds": 2916,
      "suspended": 2917,
      "70": 2918,
      "rating": 2919,
      "plat": 2920,
      "having": 2921,
      "ibility": 2922,
      "chelsea": 2923,
      "lay": 2924,
      "toll": 2925,
      "uting": 2926,
      "bert": 2927,
      "jose": 2928,
      "explor": 2929,
      "dick": 2930,
      "copy": 2931,
      "lywood": 2932,
      "related": 2933,
      "carry": 2934,
      "competit": 2935,
      "decline": 2936,
      "distribut": 2937,
      "successful": 2938,
      "fla": 2939,
      "vehic": 2940,
      "coal": 2941,
      "memory": 2942,
      "voters": 2943,
      "continues": 2944,
      "sit": 2945,
      "seeking": 2946,
      "diplo": 2947,
      "total": 2948,
      "washingtonpost": 2949,
      "justice": 2950,
      "doesn": 2951,
      "remains": 2952,
      "homes": 2953,
      "tennis": 2954,
      "gm": 2955,
      "july": 2956,
      "illing": 2957,
      "device": 2958,
      "winner": 2959,
      "guilty": 2960,
      "stone": 2961,
      "ances": 2962,
      "files": 2963,
      "closed": 2964,
      "tiger": 2965,
      "aland": 2966,
      "raise": 2967,
      "banks": 2968,
      "bin": 2969,
      "panel": 2970,
      "oak": 2971,
      "anim": 2972,
      "uled": 2973,
      "bles": 2974,
      "ruled": 2975,
      "cardinals": 2976,
      "murder": 2977,
      "dispute": 2978,
      "yen": 2979,
      "supreme": 2980,
      "nn": 2981,
      "zone": 2982,
      "uries": 2983,
      "homer": 2984,
      "settlement": 2985,
      "jump": 2986,
      "ought": 2987,
      "january": 2988,
      "thanks": 2989,
      "nextel": 2990,
      "explosion": 2991,
      "orney": 2992,
      "sem": 2993,
      "aces": 2994,
      "owners": 2995,
      "attorney": 2996,
      "sharing": 2997,
      "korean": 2998,
      "protection": 2999,
      "kick": 3000,
      "anch": 3001,
      "reason": 3002,
      "bey": 3003,
      "howard": 3004,
      "missile": 3005,
      "deficit": 3006,
      "processor": 3007,
      "mexico": 3008,
      "cher": 3009,
      "expects": 3010,
      "futures": 3011,
      "acquisition": 3012,
      "started": 3013,
      "electronic": 3014,
      "spanish": 3015,
      "philipp": 3016,
      "spect": 3017,
      "proposed": 3018,
      "minutes": 3019,
      "crew": 3020,
      "itunes": 3021,
      "ctic": 3022,
      "disappoint": 3023,
      "committee": 3024,
      "scandal": 3025,
      "kans": 3026,
      "zz": 3027,
      "core": 3028,
      "electric": 3029,
      "broker": 3030,
      "increasing": 3031,
      "atives": 3032,
      "mars": 3033,
      "below": 3034,
      "hollywood": 3035,
      "uts": 3036,
      "brand": 3037,
      "bot": 3038,
      "worries": 3039,
      "holds": 3040,
      "senate": 3041,
      "approach": 3042,
      "fic": 3043,
      "vend": 3044,
      "integr": 3045,
      "apparent": 3046,
      "sanctions": 3047,
      "docu": 3048,
      "31": 3049,
      "ju": 3050,
      "smart": 3051,
      "represent": 3052,
      "teen": 3053,
      "secure": 3054,
      "intell": 3055,
      "solar": 3056,
      "entertainment": 3057,
      "bry": 3058,
      "newsfactor": 3059,
      "karz": 3060,
      "leaving": 3061,
      "science": 3062,
      "deploy": 3063,
      "freed": 3064,
      "weather": 3065,
      "struction": 3066,
      "fis": 3067,
      "tered": 3068,
      "irish": 3069,
      "poor": 3070,
      "calling": 3071,
      "lev": 3072,
      "interim": 3073,
      "easy": 3074,
      "eda": 3075,
      "ushing": 3076,
      "these": 3077,
      "igan": 3078,
      "beating": 3079,
      "loc": 3080,
      "abul": 3081,
      "classic": 3082,
      "karzai": 3083,
      "weigh": 3084,
      "powell": 3085,
      "threatened": 3086,
      "zealand": 3087,
      "movie": 3088,
      "crack": 3089,
      "headed": 3090,
      "potential": 3091,
      "screen": 3092,
      "gor": 3093,
      "sir": 3094,
      "diplomat": 3095,
      "intellig": 3096,
      "catch": 3097,
      "carol": 3098,
      "supplies": 3099,
      "kansas": 3100,
      "concern": 3101,
      "masters": 3102,
      "irl": 3103,
      "tran": 3104,
      "shopping": 3105,
      "kong": 3106,
      "song": 3107,
      "illegal": 3108,
      "ada": 3109,
      "parts": 3110,
      "venture": 3111,
      "rule": 3112,
      "thin": 3113,
      "idents": 3114,
      "cab": 3115,
      "mun": 3116,
      "alex": 3117,
      "gency": 3118,
      "tem": 3119,
      "warner": 3120,
      "offered": 3121,
      "fish": 3122,
      "init": 3123,
      "aircraft": 3124,
      "firefox": 3125,
      "aring": 3126,
      "buying": 3127,
      "needs": 3128,
      "application": 3129,
      "orders": 3130,
      "hong": 3131,
      "invent": 3132,
      "whose": 3133,
      "thought": 3134,
      "rust": 3135,
      "infr": 3136,
      "armed": 3137,
      "confl": 3138,
      "replac": 3139,
      "colo": 3140,
      "embass": 3141,
      "scri": 3142,
      "hamas": 3143,
      "slightly": 3144,
      "aol": 3145,
      "andy": 3146,
      "heat": 3147,
      "inflation": 3148,
      ".\\": 3149,
      "atory": 3150,
      "kei": 3151,
      "sharply": 3152,
      "eye": 3153,
      "terrorist": 3154,
      "newspaper": 3155,
      "fair": 3156,
      "ention": 3157,
      "donald": 3158,
      "rejected": 3159,
      "mad": 3160,
      "iment": 3161,
      "progress": 3162,
      "targets": 3163,
      "questions": 3164,
      "broadcast": 3165,
      "300": 3166,
      "cable": 3167,
      "icon": 3168,
      "carrier": 3169,
      "names": 3170,
      "dream": 3171,
      "buc": 3172,
      "sky": 3173,
      "kee": 3174,
      "stewart": 3175,
      "formula": 3176,
      "dropped": 3177,
      "initial": 3178,
      "stro": 3179,
      "45": 3180,
      "nl": 3181,
      "arms": 3182,
      "sector": 3183,
      "noon": 3184,
      "tests": 3185,
      "friend": 3186,
      "ariz": 3187,
      "returned": 3188,
      "eastern": 3189,
      "flaw": 3190,
      "common": 3191,
      "75": 3192,
      "kabul": 3193,
      "abu": 3194,
      "became": 3195,
      "jay": 3196,
      "james": 3197,
      "opec": 3198,
      "independ": 3199,
      "descri": 3200,
      "provider": 3201,
      "dolph": 3202,
      "mortgage": 3203,
      "iter": 3204,
      "refuge": 3205,
      "ukraine": 3206,
      "dall": 3207,
      "qaeda": 3208,
      "64": 3209,
      "si": 3210,
      "oul": 3211,
      "pcs": 3212,
      "favor": 3213,
      "patriots": 3214,
      "ki": 3215,
      "ift": 3216,
      "prix": 3217,
      "histor": 3218,
      "sadr": 3219,
      "ender": 3220,
      "nigeria": 3221,
      "oakland": 3222,
      "quake": 3223,
      "udi": 3224,
      "nyse": 3225,
      "eagles": 3226,
      "hockey": 3227,
      "moving": 3228,
      "tonight": 3229,
      "highest": 3230,
      "voting": 3231,
      "important": 3232,
      "predict": 3233,
      "var": 3234,
      "ically": 3235,
      ";.": 3236,
      "hack": 3237,
      "sty": 3238,
      "usal": 3239,
      "mets": 3240,
      "ali": 3241,
      "elder": 3242,
      "result": 3243,
      "problem": 3244,
      "shareholders": 3245,
      "assault": 3246,
      "carolina": 3247,
      "jack": 3248,
      "lose": 3249,
      "saw": 3250,
      "prior": 3251,
      "needed": 3252,
      "ohio": 3253,
      "nik": 3254,
      "bob": 3255,
      "phy": 3256,
      "signific": 3257,
      "kings": 3258,
      "initi": 3259,
      "lift": 3260,
      "knoc": 3261,
      "challeng": 3262,
      "built": 3263,
      "nic": 3264,
      "nav": 3265,
      "amaz": 3266,
      "passes": 3267,
      "recently": 3268,
      "index": 3269,
      ";-": 3270,
      "iring": 3271,
      "rian": 3272,
      "cru": 3273,
      "count": 3274,
      "auction": 3275,
      "oney": 3276,
      "msn": 3277,
      "ients": 3278,
      "premier": 3279,
      "kne": 3280,
      "subs": 3281,
      "wait": 3282,
      "candidate": 3283,
      "uranium": 3284,
      "bull": 3285,
      "ivory": 3286,
      "frank": 3287,
      "relief": 3288,
      "practice": 3289,
      "christmas": 3290,
      "fc": 3291,
      "ova": 3292,
      "agu": 3293,
      "withdraw": 3294,
      "trust": 3295,
      "haiti": 3296,
      "ministry": 3297,
      "bombing": 3298,
      "tools": 3299,
      "dolphins": 3300,
      "mou": 3301,
      "phis": 3302,
      "wing": 3303,
      "ads": 3304,
      "rial": 3305,
      "prepar": 3306,
      "mith": 3307,
      "apol": 3308,
      "although": 3309,
      ",\\": 3310,
      "cards": 3311,
      "sending": 3312,
      "iders": 3313,
      "scheduled": 3314,
      "intelligence": 3315,
      "embassy": 3316,
      ".&": 3317,
      "ku": 3318,
      "live": 3319,
      "pension": 3320,
      "vill": 3321,
      "enron": 3322,
      "optim": 3323,
      "bombs": 3324,
      "michigan": 3325,
      "gal": 3326,
      "iny": 3327,
      "gery": 3328,
      "longer": 3329,
      "65": 3330,
      "aa": 3331,
      "mine": 3332,
      "sans": 3333,
      "tie": 3334,
      "promot": 3335,
      "haw": 3336,
      "liver": 3337,
      "type": 3338,
      "volution": 3339,
      "dallas": 3340,
      "mour": 3341,
      "sbc": 3342,
      "thail": 3343,
      "ane": 3344,
      "hoping": 3345,
      "brought": 3346,
      "cape": 3347,
      "royal": 3348,
      "request": 3349,
      "linked": 3350,
      "breaking": 3351,
      "negotiations": 3352,
      "marketing": 3353,
      "toge": 3354,
      "impact": 3355,
      "surge": 3356,
      "spacecraft": 3357,
      "aut": 3358,
      "bour": 3359,
      "cies": 3360,
      "merck": 3361,
      "together": 3362,
      "55": 3363,
      "deep": 3364,
      "immedi": 3365,
      "consecut": 3366,
      "sharp": 3367,
      "telecom": 3368,
      "thailand": 3369,
      "consecutive": 3370,
      "90": 3371,
      "jean": 3372,
      "surgery": 3373,
      "features": 3374,
      "oles": 3375,
      "shock": 3376,
      "burgh": 3377,
      "kid": 3378,
      "defe": 3379,
      "oting": 3380,
      "abd": 3381,
      "stars": 3382,
      "tack": 3383,
      "liber": 3384,
      "developed": 3385,
      "issued": 3386,
      "training": 3387,
      "cia": 3388,
      "eth": 3389,
      "girl": 3390,
      "sant": 3391,
      "yard": 3392,
      "intend": 3393,
      "publish": 3394,
      "begins": 3395,
      "programs": 3396,
      "strategy": 3397,
      "hon": 3398,
      "ii": 3399,
      "uster": 3400,
      "worldwide": 3401,
      "planning": 3402,
      "striker": 3403,
      "jav": 3404,
      "innings": 3405,
      "marsh": 3406,
      "jeff": 3407,
      "trip": 3408,
      "beaten": 3409,
      "hostile": 3410,
      "ariel": 3411,
      "figures": 3412,
      "significant": 3413,
      "iar": 3414,
      "mind": 3415,
      "requ": 3416,
      "idel": 3417,
      "ains": 3418,
      "spyware": 3419,
      "vice": 3420,
      "bling": 3421,
      "danger": 3422,
      "eyes": 3423,
      "different": 3424,
      "swed": 3425,
      "cool": 3426,
      "angels": 3427,
      "appeared": 3428,
      "passed": 3429,
      "deadline": 3430,
      "manufactur": 3431,
      "spl": 3432,
      "veter": 3433,
      "interview": 3434,
      "virtu": 3435,
      "bir": 3436,
      "gary": 3437,
      "stun": 3438,
      "isn": 3439,
      "venez": 3440,
      "izon": 3441,
      "dana": 3442,
      "unveils": 3443,
      "controversial": 3444,
      "venezuel": 3445,
      ",\"": 3446,
      "ebay": 3447,
      "fit": 3448,
      "mig": 3449,
      "himself": 3450,
      "hous": 3451,
      "forms": 3452,
      "output": 3453,
      "computing": 3454,
      "lands": 3455,
      "planes": 3456,
      "lawsuits": 3457,
      "cubs": 3458,
      "gul": 3459,
      "voy": 3460,
      "saudi": 3461,
      "afternoon": 3462,
      "steps": 3463,
      "martin": 3464,
      "novell": 3465,
      "pitts": 3466,
      "mixed": 3467,
      "ding": 3468,
      "andre": 3469,
      "mean": 3470,
      "patent": 3471,
      "graph": 3472,
      "words": 3473,
      "hew": 3474,
      "raises": 3475,
      "session": 3476,
      "things": 3477,
      "ery": 3478,
      "itzer": 3479,
      "acts": 3480,
      "igning": 3481,
      "plays": 3482,
      "reduce": 3483,
      "cyber": 3484,
      "books": 3485,
      "soldier": 3486,
      "facing": 3487,
      "clevel": 3488,
      "recovery": 3489,
      "cleveland": 3490,
      "aw": 3491,
      "ee": 3492,
      "paid": 3493,
      "gn": 3494,
      "sey": 3495,
      "ctors": 3496,
      "heim": 3497,
      "airbus": 3498,
      "buys": 3499,
      "budget": 3500,
      "sadd": 3501,
      "thom": 3502,
      "threw": 3503,
      "semic": 3504,
      "const": 3505,
      "worst": 3506,
      "onduct": 3507,
      "published": 3508,
      "hotel": 3509,
      "advertising": 3510,
      "semiconduct": 3511,
      "gate": 3512,
      "lack": 3513,
      "alter": 3514,
      "istic": 3515,
      "struck": 3516,
      "caused": 3517,
      "blog": 3518,
      "struggling": 3519,
      "pacific": 3520,
      "arial": 3521,
      "plot": 3522,
      "flash": 3523,
      "damage": 3524,
      "subsid": 3525,
      "iod": 3526,
      "enrich": 3527,
      "convention": 3528,
      "indic": 3529,
      "collect": 3530,
      "wrong": 3531,
      "ification": 3532,
      "approval": 3533,
      "instead": 3534,
      "orig": 3535,
      "roger": 3536,
      "pakistani": 3537,
      "cra": 3538,
      "expos": 3539,
      "rent": 3540,
      "revealed": 3541,
      "pittsburgh": 3542,
      "theast": 3543,
      "vetic": 3544,
      "verdana": 3545,
      "plus": 3546,
      "serif": 3547,
      "period": 3548,
      "helvetic": 3549,
      "=\"#": 3550,
      "=\"-": 3551,
      "producer": 3552,
      "complete": 3553,
      "climate": 3554,
      "666666": 3555,
      "helvetica": 3556,
      "argent": 3557,
      "termin": 3558,
      "goals": 3559,
      "image": 3560,
      "prince": 3561,
      "surprise": 3562,
      "38": 3563,
      "dail": 3564,
      "tig": 3565,
      "eli": 3566,
      "viox": 3567,
      "respons": 3568,
      "vioxx": 3569,
      "bing": 3570,
      "smith": 3571,
      "estic": 3572,
      "backed": 3573,
      "industrial": 3574,
      "greek": 3575,
      "massive": 3576,
      "jerusal": 3577,
      "manufacturing": 3578,
      "delayed": 3579,
      "jerusalem": 3580,
      "nar": 3581,
      "smo": 3582,
      "wish": 3583,
      "wake": 3584,
      "apolis": 3585,
      "daily": 3586,
      "sound": 3587,
      "beck": 3588,
      "alliance": 3589,
      "moz": 3590,
      "opens": 3591,
      "word": 3592,
      "warming": 3593,
      "cutting": 3594,
      "summit": 3595,
      "retailers": 3596,
      "critical": 3597,
      "republican": 3598,
      "federer": 3599,
      "atom": 3600,
      "withdra": 3601,
      "advance": 3602,
      "troubled": 3603,
      "knee": 3604,
      "ires": 3605,
      "traff": 3606,
      "ansion": 3607,
      "subscri": 3608,
      "ordered": 3609,
      "cks": 3610,
      "opport": 3611,
      "mushar": 3612,
      "gra": 3613,
      "nintend": 3614,
      "itself": 3615,
      "unity": 3616,
      "musharraf": 3617,
      "pent": 3618,
      "pga": 3619,
      "cars": 3620,
      "decades": 3621,
      "helping": 3622,
      "details": 3623,
      "arizona": 3624,
      "defin": 3625,
      "tops": 3626,
      "extended": 3627,
      "estimates": 3628,
      "nintendo": 3629,
      "jacks": 3630,
      "vul": 3631,
      "owner": 3632,
      "cul": 3633,
      "terms": 3634,
      "setting": 3635,
      "prevent": 3636,
      "positive": 3637,
      "decade": 3638,
      "operator": 3639,
      "mers": 3640,
      "story": 3641,
      "leban": 3642,
      "bears": 3643,
      "surpr": 3644,
      "cd": 3645,
      "fan": 3646,
      "jim": 3647,
      "mr": 3648,
      "lee": 3649,
      "delhi": 3650,
      "victims": 3651,
      "historic": 3652,
      "cause": 3653,
      "minute": 3654,
      "feel": 3655,
      "ashed": 3656,
      "ministers": 3657,
      "malays": 3658,
      "cingular": 3659,
      "bably": 3660,
      "stan": 3661,
      "roman": 3662,
      "probably": 3663,
      "extra": 3664,
      "link": 3665,
      "heads": 3666,
      "scott": 3667,
      "gather": 3668,
      "domestic": 3669,
      "machines": 3670,
      "pulled": 3671,
      "dney": 3672,
      "ov": 3673,
      "uation": 3674,
      "sydney": 3675,
      "miles": 3676,
      "rangers": 3677,
      "ook": 3678,
      "ero": 3679,
      "trophy": 3680,
      "racing": 3681,
      "platform": 3682,
      "saddam": 3683,
      "33": 3684,
      "income": 3685,
      "erson": 3686,
      "moment": 3687,
      "something": 3688,
      "puts": 3689,
      "showing": 3690,
      "introduced": 3691,
      "done": 3692,
      "rare": 3693,
      "spread": 3694,
      "clinch": 3695,
      "sung": 3696,
      "planet": 3697,
      "score": 3698,
      "switch": 3699,
      "replace": 3700,
      "itution": 3701,
      "finds": 3702,
      "nikkei": 3703,
      "erial": 3704,
      "laho": 3705,
      "2000": 3706,
      "community": 3707,
      "itz": 3708,
      "convict": 3709,
      "testing": 3710,
      "species": 3711,
      "keeping": 3712,
      "wil": 3713,
      "hole": 3714,
      "raising": 3715,
      "cancer": 3716,
      "highs": 3717,
      "regular": 3718,
      "walk": 3719,
      "deadly": 3720,
      "demands": 3721,
      "numbers": 3722,
      "liverpool": 3723,
      "pie": 3724,
      "penn": 3725,
      "upd": 3726,
      "clip": 3727,
      "flights": 3728,
      "option": 3729,
      "criminal": 3730,
      "heating": 3731,
      "typho": 3732,
      "falling": 3733,
      "piracy": 3734,
      "41": 3735,
      "ung": 3736,
      "arta": 3737,
      "inside": 3738,
      "opener": 3739,
      "returns": 3740,
      "conflict": 3741,
      "semiconductor": 3742,
      "jackson": 3743,
      "fann": 3744,
      "renew": 3745,
      "toy": 3746,
      "rook": 3747,
      "lett": 3748,
      "imir": 3749,
      "owed": 3750,
      "pitcher": 3751,
      "touchdowns": 3752,
      "bury": 3753,
      "dame": 3754,
      "mand": 3755,
      "antit": 3756,
      "48": 3757,
      "vlad": 3758,
      "advis": 3759,
      "spent": 3760,
      "notre": 3761,
      "profession": 3762,
      "benefits": 3763,
      "admit": 3764,
      "iet": 3765,
      "century": 3766,
      "links": 3767,
      "expansion": 3768,
      "developing": 3769,
      "beginning": 3770,
      "believe": 3771,
      "fannie": 3772,
      "(\\$": 3773,
      "plc": 3774,
      "berg": 3775,
      "flag": 3776,
      "tribut": 3777,
      "purchase": 3778,
      "oppon": 3779,
      "teh": 3780,
      "pose": 3781,
      "forest": 3782,
      "broke": 3783,
      "jak": 3784,
      "anticip": 3785,
      "conduct": 3786,
      "richard": 3787,
      "ci": 3788,
      "fill": 3789,
      "tosh": 3790,
      "discovered": 3791,
      "hands": 3792,
      "appears": 3793,
      "watchdog": 3794,
      "message": 3795,
      "arrived": 3796,
      "):": 3797,
      "anger": 3798,
      "ato": 3799,
      "verizon": 3800,
      "utah": 3801,
      "abs": 3802,
      "strikes": 3803,
      "commerce": 3804,
      "demon": 3805,
      "heading": 3806,
      "diego": 3807,
      "scor": 3808,
      "ences": 3809,
      "hurricanes": 3810,
      "skins": 3811,
      "tehran": 3812,
      "cs": 3813,
      "jason": 3814,
      "rout": 3815,
      "inet": 3816,
      "lows": 3817,
      "assist": 3818,
      "iraqis": 3819,
      "appers": 3820,
      "adds": 3821,
      "extend": 3822,
      "glades": 3823,
      "gia": 3824,
      "alla": 3825,
      "slide": 3826,
      "aims": 3827,
      "wrap": 3828,
      "associated": 3829,
      "bryant": 3830,
      "vladimir": 3831,
      "ele": 3832,
      "joy": 3833,
      "banglades": 3834,
      "english": 3835,
      "handheld": 3836,
      "value": 3837,
      "resolution": 3838,
      "dat": 3839,
      "records": 3840,
      "scot": 3841,
      "morrow": 3842,
      "distr": 3843,
      "polls": 3844,
      "fiscal": 3845,
      "kaz": 3846,
      "cow": 3847,
      "webs": 3848,
      "bridge": 3849,
      "bon": 3850,
      "inal": 3851,
      "shell": 3852,
      "ensions": 3853,
      "fielder": 3854,
      "izing": 3855,
      "dram": 3856,
      "threats": 3857,
      "vulner": 3858,
      "annan": 3859,
      "filing": 3860,
      "students": 3861,
      "remained": 3862,
      "dodgers": 3863,
      "amazon": 3864,
      "pip": 3865,
      "tomorrow": 3866,
      "announces": 3867,
      "penal": 3868,
      "moder": 3869,
      "seconds": 3870,
      "witt": 3871,
      "living": 3872,
      "zim": 3873,
      "unions": 3874,
      "cruc": 3875,
      "timore": 3876,
      "capt": 3877,
      "slam": 3878,
      "baltimore": 3879,
      "falluja": 3880,
      "typhoon": 3881,
      "34": 3882,
      "nast": 3883,
      "ultim": 3884,
      "sue": 3885,
      "phill": 3886,
      "corporation": 3887,
      "nin": 3888,
      "tum": 3889,
      "agent": 3890,
      "detain": 3891,
      "iba": 3892,
      "assets": 3893,
      "neigh": 3894,
      "quit": 3895,
      "boys": 3896,
      "microsystems": 3897,
      "starts": 3898,
      "options": 3899,
      "hewlett": 3900,
      "iled": 3901,
      "colin": 3902,
      "urges": 3903,
      "nothing": 3904,
      "viet": 3905,
      "votes": 3906,
      "voice": 3907,
      "install": 3908,
      "silver": 3909,
      "indonesian": 3910,
      "mozilla": 3911,
      "eigh": 3912,
      "kind": 3913,
      "oust": 3914,
      "ador": 3915,
      "portable": 3916,
      "format": 3917,
      "telephone": 3918,
      "montreal": 3919,
      "witnesses": 3920,
      "tha": 3921,
      "amed": 3922,
      "tried": 3923,
      "beats": 3924,
      "traders": 3925,
      "forecasts": 3926,
      "silicon": 3927,
      "june": 3928,
      "antitrust": 3929,
      "banking": 3930,
      "defence": 3931,
      "holdings": 3932,
      "rush": 3933,
      "spur": 3934,
      "offense": 3935,
      "gov": 3936,
      "doctors": 3937,
      "burg": 3938,
      "packard": 3939,
      "greenspan": 3940,
      "shuttle": 3941,
      "gates": 3942,
      "wol": 3943,
      "restruct": 3944,
      "ola": 3945,
      "deals": 3946,
      "upset": 3947,
      "print": 3948,
      "province": 3949,
      "driver": 3950,
      "samsung": 3951,
      "resume": 3952,
      "master": 3953,
      "residents": 3954,
      "exports": 3955,
      "hewitt": 3956,
      "regist": 3957,
      "fastest": 3958,
      "leaves": 3959,
      "explorer": 3960,
      "gulf": 3961,
      "user": 3962,
      "trail": 3963,
      "perfect": 3964,
      "handed": 3965,
      "georgia": 3966,
      "qualifying": 3967,
      "placed": 3968,
      "kel": 3969,
      "manning": 3970,
      "seventh": 3971,
      "material": 3972,
      "treasury": 3973,
      "rookie": 3974,
      "las": 3975,
      "lank": 3976,
      "iles": 3977,
      "une": 3978,
      "wards": 3979,
      "address": 3980,
      "reportedly": 3981,
      "nascar": 3982,
      "sixth": 3983,
      "braves": 3984,
      "considering": 3985,
      "colorado": 3986,
      "cabinet": 3987,
      "jakarta": 3988,
      "mits": 3989,
      "ws": 3990,
      "pric": 3991,
      "twice": 3992,
      "defensive": 3993,
      "atlantic": 3994,
      "announcement": 3995,
      "familiar": 3996,
      "toshiba": 3997,
      "lon": 3998,
      "rall": 3999,
      "petro": 4000,
      "reduc": 4001,
      "sudanese": 4002,
      "exploded": 4003,
      "lets": 4004,
      "display": 4005,
      "2002": 4006,
      "string": 4007,
      "speech": 4008,
      "bills": 4009,
      "blasts": 4010,
      "wounding": 4011,
      "strength": 4012,
      "java": 4013,
      "tigers": 4014,
      "sie": 4015,
      "beach": 4016,
      "clar": 4017,
      "marath": 4018,
      "changed": 4019,
      "upgrade": 4020,
      "traffic": 4021,
      "contr": 4022,
      "proto": 4023,
      "quarters": 4024,
      "speak": 4025,
      "levels": 4026,
      "enrichment": 4027,
      "ule": 4028,
      "theft": 4029,
      "mae": 4030,
      "advant": 4031,
      "democracy": 4032,
      "copyright": 4033,
      "faster": 4034,
      "gear": 4035,
      "native": 4036,
      "zens": 4037,
      "arctic": 4038,
      "alan": 4039,
      "oklaho": 4040,
      "standing": 4041,
      "sels": 4042,
      "selves": 4043,
      "hawks": 4044,
      "partner": 4045,
      "dozens": 4046,
      "zimbab": 4047,
      "marathon": 4048,
      "sens": 4049,
      "becoming": 4050,
      "crim": 4051,
      "bern": 4052,
      "salv": 4053,
      "saturn": 4054,
      "managers": 4055,
      "oklahoma": 4056,
      "oping": 4057,
      "halt": 4058,
      "solid": 4059,
      "roddick": 4060,
      "zimbabwe": 4061,
      "zar": 4062,
      "repe": 4063,
      "really": 4064,
      "allowed": 4065,
      "respond": 4066,
      "partnership": 4067,
      "coalition": 4068,
      "semif": 4069,
      "47": 4070,
      "ival": 4071,
      "pharm": 4072,
      "angu": 4073,
      "motors": 4074,
      "allegations": 4075,
      "candidates": 4076,
      "600": 4077,
      "sri": 4078,
      "text": 4079,
      "reform": 4080,
      "areas": 4081,
      "2001": 4082,
      "turns": 4083,
      "suffered": 4084,
      "drew": 4085,
      "jam": 4086,
      "sand": 4087,
      "table": 4088,
      "defending": 4089,
      "associates": 4090,
      "crowd": 4091,
      "700": 4092,
      "pad": 4093,
      "unexpected": 4094,
      "titan": 4095,
      "standards": 4096,
      "valu": 4097,
      "bia": 4098,
      "farm": 4099,
      "appeals": 4100,
      "limited": 4101,
      "treatment": 4102,
      "za": 4103,
      "inqu": 4104,
      "abad": 4105,
      "abuse": 4106,
      "scores": 4107,
      "goods": 4108,
      "employment": 4109,
      "awaited": 4110,
      "prepared": 4111,
      "ios": 4112,
      "cop": 4113,
      "nepal": 4114,
      "spaces": 4115,
      "bodies": 4116,
      "ization": 4117,
      "customer": 4118,
      "tennes": 4119,
      "boun": 4120,
      "kins": 4121,
      "argu": 4122,
      "peer": 4123,
      "often": 4124,
      "social": 4125,
      "currency": 4126,
      "notebook": 4127,
      "dual": 4128,
      "mov": 4129,
      "twins": 4130,
      "grad": 4131,
      "themselves": 4132,
      "closing": 4133,
      "emergency": 4134,
      "licens": 4135,
      "lawyers": 4136,
      "atomic": 4137,
      "cue": 4138,
      "tout": 4139,
      "comb": 4140,
      "tures": 4141,
      "looked": 4142,
      "hearing": 4143,
      "valley": 4144,
      "rockets": 4145,
      "anaheim": 4146,
      "doubt": 4147,
      "crucial": 4148,
      "lie": 4149,
      "mist": 4150,
      "anda": 4151,
      "boom": 4152,
      "majority": 4153,
      "keeps": 4154,
      "grew": 4155,
      "spring": 4156,
      "stroke": 4157,
      "independent": 4158,
      "bangladesh": 4159,
      "fal": 4160,
      "package": 4161,
      "mountain": 4162,
      "colomb": 4163,
      "datab": 4164,
      "tennessee": 4165,
      "32": 4166,
      "mu": 4167,
      "mates": 4168,
      "enced": 4169,
      "aries": 4170,
      "eman": 4171,
      "marks": 4172,
      "finished": 4173,
      "agrees": 4174,
      "morgan": 4175,
      "strateg": 4176,
      "retirement": 4177,
      "gone": 4178,
      "myster": 4179,
      "allows": 4180,
      "gunmen": 4181,
      "pacers": 4182,
      "gap": 4183,
      "edition": 4184,
      "chile": 4185,
      "ninth": 4186,
      "chann": 4187,
      "disease": 4188,
      "doing": 4189,
      "ology": 4190,
      "maintain": 4191,
      "nom": 4192,
      "rejects": 4193,
      "cold": 4194,
      "affect": 4195,
      "abilities": 4196,
      "brus": 4197,
      "tured": 4198,
      "swiss": 4199,
      "activity": 4200,
      "philippines": 4201,
      "54": 4202,
      "cnn": 4203,
      "porter": 4204,
      "telecommunications": 4205,
      "created": 4206,
      "schedule": 4207,
      "figh": 4208,
      "ht": 4209,
      "syria": 4210,
      "delays": 4211,
      "deaths": 4212,
      "ordin": 4213,
      "seems": 4214,
      "shiite": 4215,
      "ratings": 4216,
      "defeated": 4217,
      "allawi": 4218,
      "bean": 4219,
      "ght": 4220,
      "nortel": 4221,
      "sought": 4222,
      "wave": 4223,
      "wales": 4224,
      "turk": 4225,
      "brussels": 4226,
      "800": 4227,
      "gla": 4228,
      "resour": 4229,
      "earn": 4230,
      "clus": 4231,
      "castle": 4232,
      "supercomputer": 4233,
      "documents": 4234,
      "fine": 4235,
      "hib": 4236,
      "holy": 4237,
      "len": 4238,
      "paper": 4239,
      "chem": 4240,
      "martha": 4241,
      "capac": 4242,
      "previously": 4243,
      "ched": 4244,
      "sav": 4245,
      "bless": 4246,
      "decide": 4247,
      "diffic": 4248,
      "beyond": 4249,
      "cities": 4250,
      "jury": 4251,
      "construction": 4252,
      "opter": 4253,
      "quickly": 4254,
      "declared": 4255,
      "magaz": 4256,
      "prosecutors": 4257,
      "3g": 4258,
      "mate": 4259,
      "refer": 4260,
      "enh": 4261,
      "conserv": 4262,
      "wife": 4263,
      "utions": 4264,
      "conditions": 4265,
      "releases": 4266,
      "completed": 4267,
      "mutual": 4268,
      ".-": 4269,
      "iation": 4270,
      "ither": 4271,
      "nd": 4272,
      "overs": 4273,
      "marine": 4274,
      "cuba": 4275,
      "developer": 4276,
      "frances": 4277,
      "turning": 4278,
      "confident": 4279,
      "fred": 4280,
      "lap": 4281,
      "tent": 4282,
      "ern": 4283,
      "select": 4284,
      "eline": 4285,
      "river": 4286,
      "suspects": 4287,
      "terrorists": 4288,
      "matter": 4289,
      "natural": 4290,
      "laden": 4291,
      "43": 4292,
      "educ": 4293,
      "elimin": 4294,
      "images": 4295,
      "insist": 4296,
      "grant": 4297,
      "fully": 4298,
      "breaks": 4299,
      "joined": 4300,
      "battled": 4301,
      "rig": 4302,
      "asks": 4303,
      "ups": 4304,
      "draft": 4305,
      "finding": 4306,
      "bringing": 4307,
      "beckham": 4308,
      "district": 4309,
      "aling": 4310,
      "embar": 4311,
      "redskins": 4312,
      "charles": 4313,
      "adding": 4314,
      "clean": 4315,
      "smaller": 4316,
      "complain": 4317,
      "veteran": 4318,
      "gus": 4319,
      "nel": 4320,
      "willing": 4321,
      "regional": 4322,
      "account": 4323,
      "remot": 4324,
      "sein": 4325,
      "wire": 4326,
      "cents": 4327,
      "genes": 4328,
      "helps": 4329,
      "denied": 4330,
      "promised": 4331,
      "jumped": 4332,
      "withdrawal": 4333,
      "bac": 4334,
      "bought": 4335,
      "ius": 4336,
      "entire": 4337,
      "prom": 4338,
      "cry": 4339,
      "voted": 4340,
      "speculation": 4341,
      "apparently": 4342,
      "dun": 4343,
      "ione": 4344,
      "overtime": 4345,
      "putting": 4346,
      "prisoners": 4347,
      "influ": 4348,
      "preparing": 4349,
      "dramatic": 4350,
      "fing": 4351,
      "lor": 4352,
      "pun": 4353,
      "hood": 4354,
      "include": 4355,
      "commissioner": 4356,
      "environmental": 4357,
      "craig": 4358,
      "iban": 4359,
      "pi": 4360,
      "prel": 4361,
      "wear": 4362,
      "zy": 4363,
      "ional": 4364,
      "trig": 4365,
      "devast": 4366,
      "jordan": 4367,
      "holm": 4368,
      "multi": 4369,
      "opportunity": 4370,
      "sab": 4371,
      "vod": 4372,
      "worm": 4373,
      "parties": 4374,
      "controll": 4375,
      "denver": 4376,
      "property": 4377,
      "magazine": 4378,
      "99": 4379,
      "enters": 4380,
      "iple": 4381,
      "brad": 4382,
      "helic": 4383,
      "auburn": 4384,
      "schilling": 4385,
      "receiver": 4386,
      "picture": 4387,
      "sis": 4388,
      "sp2": 4389,
      "inez": 4390,
      "anton": 4391,
      "governor": 4392,
      "hub": 4393,
      "bombings": 4394,
      "faced": 4395,
      "indiana": 4396,
      "promise": 4397,
      "style": 4398,
      "virtual": 4399,
      "plead": 4400,
      "agon": 4401,
      "ried": 4402,
      "owned": 4403,
      "preview": 4404,
      "hamm": 4405,
      "sells": 4406,
      "indianapolis": 4407,
      "instant": 4408,
      "coup": 4409,
      "eighth": 4410,
      "cav": 4411,
      "gi": 4412,
      "tiny": 4413,
      "wers": 4414,
      "quiet": 4415,
      "upcoming": 4416,
      "sach": 4417,
      "shooting": 4418,
      "gym": 4419,
      "martinez": 4420,
      "tren": 4421,
      "amoun": 4422,
      "sues": 4423,
      "active": 4424,
      "chiefs": 4425,
      "bai": 4426,
      "inquir": 4427,
      "86": 4428,
      "cinc": 4429,
      "jaz": 4430,
      "tip": 4431,
      "chart": 4432,
      "ampa": 4433,
      "attend": 4434,
      "acher": 4435,
      "taliban": 4436,
      "command": 4437,
      "includes": 4438,
      "born": 4439,
      "boosted": 4440,
      "camera": 4441,
      "kidnappers": 4442,
      "hills": 4443,
      "priority": 4444,
      "demonstr": 4445,
      "76": 4446,
      "ency": 4447,
      "chris": 4448,
      "deput": 4449,
      "berlin": 4450,
      "broken": 4451,
      "barry": 4452,
      "hussein": 4453,
      "difficult": 4454,
      "lum": 4455,
      "mile": 4456,
      "orbit": 4457,
      "chir": 4458,
      "otta": 4459,
      "congo": 4460,
      "respon": 4461,
      "ously": 4462,
      "hamid": 4463,
      "ruption": 4464,
      "championships": 4465,
      "earthquake": 4466,
      "trouble": 4467,
      "rooney": 4468,
      "usa": 4469,
      "beta": 4470,
      "wasn": 4471,
      "libr": 4472,
      "stronger": 4473,
      "increases": 4474,
      "directors": 4475,
      "believed": 4476,
      "nigerian": 4477,
      "ravens": 4478,
      "response": 4479,
      "gb": 4480,
      "plun": 4481,
      "disaster": 4482,
      "cann": 4483,
      "page": 4484,
      "vacc": 4485,
      "eds": 4486,
      "always": 4487,
      "ica": 4488,
      "comments": 4489,
      "emy": 4490,
      "sued": 4491,
      "monitor": 4492,
      "assassin": 4493,
      "milan": 4494,
      "instit": 4495,
      "connect": 4496,
      "improved": 4497,
      "scoring": 4498,
      "vodaf": 4499,
      "gren": 4500,
      "hang": 4501,
      "ils": 4502,
      "seat": 4503,
      "afford": 4504,
      "exam": 4505,
      "ivid": 4506,
      "colts": 4507,
      "walt": 4508,
      "crashed": 4509,
      "clashes": 4510,
      "html": 4511,
      "vodafone": 4512,
      "cassin": 4513,
      "minor": 4514,
      "gene": 4515,
      "pedro": 4516,
      "roundup": 4517,
      "mount": 4518,
      "carrying": 4519,
      "lanka": 4520,
      "enty": 4521,
      "impress": 4522,
      "estab": 4523,
      "actions": 4524,
      "symb": 4525,
      "agencies": 4526,
      "nati": 4527,
      "capacity": 4528,
      "cassini": 4529,
      "tampa": 4530,
      "wenger": 4531,
      "unbeaten": 4532,
      "kevin": 4533,
      "msft": 4534,
      "drops": 4535,
      "extension": 4536,
      "citiz": 4537,
      "happy": 4538,
      "spaceship": 4539,
      "movies": 4540,
      "innati": 4541,
      "igro": 4542,
      "usato": 4543,
      "ership": 4544,
      "subst": 4545,
      "believes": 4546,
      "citigro": 4547,
      "argentina": 4548,
      "scotland": 4549,
      "remote": 4550,
      "cincinnati": 4551,
      "usatoday": 4552,
      "lions": 4553,
      "pist": 4554,
      "recall": 4555,
      "stal": 4556,
      "robert": 4557,
      "seoul": 4558,
      "shift": 4559,
      "serve": 4560,
      "phel": 4561,
      "hardware": 4562,
      "involved": 4563,
      "steelers": 4564,
      "crimes": 4565,
      "citigroup": 4566,
      "love": 4567,
      "newcastle": 4568,
      "bigley": 4569,
      "guerr": 4570,
      "fields": 4571,
      "solution": 4572,
      "activities": 4573,
      "transport": 4574,
      "database": 4575,
      "prelimin": 4576,
      "phelps": 4577,
      "nick": 4578,
      "rd": 4579,
      "aband": 4580,
      "liby": 4581,
      "scen": 4582,
      "mp3": 4583,
      "bomber": 4584,
      "founder": 4585,
      "slo": 4586,
      "truck": 4587,
      "motion": 4588,
      "drives": 4589,
      "turkish": 4590,
      "46": 4591,
      "kod": 4592,
      "lins": 4593,
      "chry": 4594,
      "seas": 4595,
      "rescue": 4596,
      "email": 4597,
      "pra": 4598,
      "tec": 4599,
      "inspect": 4600,
      "carlos": 4601,
      "supporters": 4602,
      "deli": 4603,
      "voip": 4604,
      "failure": 4605,
      "islamabad": 4606,
      "narrow": 4607,
      "ique": 4608,
      "prim": 4609,
      "rome": 4610,
      "attention": 4611,
      "lawmakers": 4612,
      "update1": 4613,
      "matches": 4614,
      "leadership": 4615,
      "outsour": 4616,
      "rapid": 4617,
      "allegedly": 4618,
      "choice": 4619,
      "rebounds": 4620,
      "vehicle": 4621,
      "revolution": 4622,
      "lewis": 4623,
      "shel": 4624,
      "spend": 4625,
      "rather": 4626,
      "fees": 4627,
      "comeback": 4628,
      "labour": 4629,
      "packers": 4630,
      "51": 4631,
      "kim": 4632,
      "wav": 4633,
      "mond": 4634,
      "haul": 4635,
      "nationwide": 4636,
      "izes": 4637,
      "entered": 4638,
      "bloom": 4639,
      "sentenced": 4640,
      "sweep": 4641,
      "dial": 4642,
      "pn": 4643,
      "ziff": 4644,
      "ilar": 4645,
      "semi": 4646,
      "nobel": 4647,
      "county": 4648,
      "pushed": 4649,
      "batter": 4650,
      "miller": 4651,
      "venezuela": 4652,
      "jagu": 4653,
      "aret": 4654,
      "laws": 4655,
      "enna": 4656,
      "qualif": 4657,
      "seeded": 4658,
      "creat": 4659,
      "poised": 4660,
      "website": 4661,
      "44": 4662,
      "dict": 4663,
      "doping": 4664,
      "sides": 4665,
      "franch": 4666,
      "joins": 4667,
      "ibly": 4668,
      "medic": 4669,
      "officers": 4670,
      "sler": 4671,
      "hero": 4672,
      "begun": 4673,
      "golden": 4674,
      "processors": 4675,
      "advantage": 4676,
      "05": 4677,
      "inn": 4678,
      "sters": 4679,
      "unlikely": 4680,
      "exist": 4681,
      "individ": 4682,
      "radical": 4683,
      "motorola": 4684,
      "kmart": 4685,
      "asse": 4686,
      "shots": 4687,
      "spin": 4688,
      "surged": 4689,
      "continuing": 4690,
      "inquiry": 4691,
      "chrysler": 4692,
      "hunt": 4693,
      "jacqu": 4694,
      "recomm": 4695,
      "crown": 4696,
      "immediately": 4697,
      "ottawa": 4698,
      "250": 4699,
      "ec": 4700,
      "rub": 4701,
      "joe": 4702,
      "grab": 4703,
      "wayne": 4704,
      "mayor": 4705,
      "lifted": 4706,
      "investigating": 4707,
      "similar": 4708,
      "admitted": 4709,
      "fat": 4710,
      "langu": 4711,
      "erup": 4712,
      "revis": 4713,
      "recover": 4714,
      "stret": 4715,
      "aceut": 4716,
      "cycl": 4717,
      "violent": 4718,
      "driven": 4719,
      "machine": 4720,
      "renewed": 4721,
      "anticipated": 4722,
      "protocol": 4723,
      "eland": 4724,
      "berry": 4725,
      "uefa": 4726,
      "premiership": 4727,
      "housing": 4728,
      "jr": 4729,
      "tend": 4730,
      "crime": 4731,
      "sym": 4732,
      "etary": 4733,
      "150": 4734,
      "feature": 4735,
      "schools": 4736,
      "recogn": 4737,
      "separate": 4738,
      "situation": 4739,
      "disappointing": 4740,
      "split": 4741,
      "53": 4742,
      "lives": 4743,
      "lux": 4744,
      "alive": 4745,
      "contribut": 4746,
      "bang": 4747,
      "collap": 4748,
      "infow": 4749,
      "birth": 4750,
      "gart": 4751,
      "inks": 4752,
      "restr": 4753,
      "iety": 4754,
      "sole": 4755,
      "overnight": 4756,
      "ranking": 4757,
      "explosives": 4758,
      "tackle": 4759,
      "deputy": 4760,
      ")--": 4761,
      "oning": 4762,
      "encour": 4763,
      "abor": 4764,
      "marines": 4765,
      "centre": 4766,
      "halo": 4767,
      "wonder": 4768,
      "declined": 4769,
      "shrine": 4770,
      "education": 4771,
      "42": 4772,
      "ias": 4773,
      "tan": 4774,
      "newly": 4775,
      "marin": 4776,
      "answer": 4777,
      "greater": 4778,
      "resigned": 4779,
      "increasingly": 4780,
      "marg": 4781,
      "phys": 4782,
      "soaring": 4783,
      "worker": 4784,
      "remaining": 4785,
      "egyptian": 4786,
      "malaysia": 4787,
      "preliminary": 4788,
      "minent": 4789,
      "claiming": 4790,
      "horn": 4791,
      "adobe": 4792,
      "flying": 4793,
      "circu": 4794,
      "pistons": 4795,
      "85": 4796,
      "cus": 4797,
      "theastern": 4798,
      "orld": 4799,
      "ater": 4800,
      "acquired": 4801,
      "destroy": 4802,
      "athletics": 4803,
      "mcl": 4804,
      "edged": 4805,
      "sears": 4806,
      "ented": 4807,
      "carter": 4808,
      "italia": 4809,
      "door": 4810,
      "captured": 4811,
      "caught": 4812,
      "traditional": 4813,
      "rawl": 4814,
      "scientific": 4815,
      "widely": 4816,
      "lawyer": 4817,
      "vendors": 4818,
      "constitution": 4819,
      "gymnast": 4820,
      "infoworld": 4821,
      "sidel": 4822,
      "aggress": 4823,
      "defend": 4824,
      "threatening": 4825,
      "square": 4826,
      "challenges": 4827,
      "dc": 4828,
      "ka": 4829,
      "oy": 4830,
      "rid": 4831,
      "eri": 4832,
      "edwards": 4833,
      "alert": 4834,
      "itar": 4835,
      "aming": 4836,
      "uncertain": 4837,
      "oty": 4838,
      "grid": 4839,
      "auts": 4840,
      "officially": 4841,
      "recording": 4842,
      "launching": 4843,
      "myan": 4844,
      "authority": 4845,
      "criticism": 4846,
      "separat": 4847,
      "abduct": 4848,
      "lights": 4849,
      "chances": 4850,
      "else": 4851,
      "occup": 4852,
      "means": 4853,
      "governments": 4854,
      "palm": 4855,
      "technical": 4856,
      "iranian": 4857,
      "father": 4858,
      "songs": 4859,
      "itis": 4860,
      "dete": 4861,
      "achie": 4862,
      "reporting": 4863,
      "guid": 4864,
      "waiting": 4865,
      "bids": 4866,
      "succeed": 4867,
      "status": 4868,
      "steady": 4869,
      "vehicles": 4870,
      "professional": 4871,
      "pharmaceut": 4872,
      "myanmar": 4873,
      "buster": 4874,
      "parent": 4875,
      "rw": 4876,
      "snow": 4877,
      "apers": 4878,
      "bright": 4879,
      "assi": 4880,
      "liqu": 4881,
      "barcel": 4882,
      "chechen": 4883,
      "threatens": 4884,
      "attacked": 4885,
      "evening": 4886,
      "messaging": 4887,
      "infring": 4888,
      "refugee": 4889,
      "fcc": 4890,
      "04": 4891,
      "pical": 4892,
      "attract": 4893,
      "ilton": 4894,
      "units": 4895,
      "apart": 4896,
      "ably": 4897,
      "overall": 4898,
      "mone": 4899,
      "idea": 4900,
      "jewish": 4901,
      "patients": 4902,
      "compete": 4903,
      "restructuring": 4904,
      "gs": 4905,
      "ano": 4906,
      "vez": 4907,
      "condem": 4908,
      "hop": 4909,
      "attemp": 4910,
      "winds": 4911,
      "rolls": 4912,
      "banned": 4913,
      "hum": 4914,
      "seized": 4915,
      "resist": 4916,
      "iant": 4917,
      "sud": 4918,
      "click": 4919,
      "jobless": 4920,
      "loses": 4921,
      "sharap": 4922,
      "creating": 4923,
      "bench": 4924,
      "brian": 4925,
      "channel": 4926,
      "kodak": 4927,
      "ini": 4928,
      "eme": 4929,
      "clou": 4930,
      "ivity": 4931,
      "studios": 4932,
      "passenger": 4933,
      "reaching": 4934,
      "camer": 4935,
      "vendor": 4936,
      "inters": 4937,
      "ofi": 4938,
      "icated": 4939,
      "unless": 4940,
      "annivers": 4941,
      "larry": 4942,
      "kobe": 4943,
      "towards": 4944,
      "dangerous": 4945,
      "vietnam": 4946,
      "sharapova": 4947,
      "vowed": 4948,
      "wre": 4949,
      "erc": 4950,
      "fizer": 4951,
      "scale": 4952,
      "shipping": 4953,
      "steroid": 4954,
      "cells": 4955,
      "spammers": 4956,
      "astronom": 4957,
      "solaris": 4958,
      "lebanon": 4959,
      "zarqa": 4960,
      "anniversary": 4961,
      "ril": 4962,
      "agassi": 4963,
      "howe": 4964,
      "relations": 4965,
      "partic": 4966,
      "legisl": 4967,
      "streets": 4968,
      "events": 4969,
      "hackers": 4970,
      "navy": 4971,
      "resources": 4972,
      "barcelona": 4973,
      "zarqawi": 4974,
      "vows": 4975,
      "allowing": 4976,
      "forum": 4977,
      "usual": 4978,
      "spitzer": 4979,
      "pole": 4980,
      "corner": 4981,
      "lineup": 4982,
      "vienna": 4983,
      "cerem": 4984,
      "developers": 4985,
      "robot": 4986,
      "playoffs": 4987,
      ".;": 4988,
      "leh": 4989,
      "mother": 4990,
      "fires": 4991,
      "syman": 4992,
      "linger": 4993,
      "purch": 4994,
      "democrats": 4995,
      "jersey": 4996,
      "tempor": 4997,
      "convicted": 4998,
      "otype": 4999,
      "37": 5000,
      "fda": 5001,
      "stall": 5002,
      "edia": 5003,
      "phen": 5004,
      "condition": 5005,
      "militia": 5006,
      "hike": 5007,
      "blockbuster": 5008,
      "gordon": 5009,
      "jeanne": 5010,
      "jacques": 5011,
      "collapse": 5012,
      "legislation": 5013,
      "symantec": 5014,
      "52": 5015,
      "feld": 5016,
      "jhtml": 5017,
      "path": 5018,
      "zo": 5019,
      "merc": 5020,
      "slash": 5021,
      "vijay": 5022,
      "titans": 5023,
      "promises": 5024,
      "potent": 5025,
      "briefly": 5026,
      "rallied": 5027,
      "mariners": 5028,
      "aide": 5029,
      "chur": 5030,
      "ambit": 5031,
      "igious": 5032,
      "brain": 5033,
      "factory": 5034,
      "mouth": 5035,
      "67": 5036,
      "bbc": 5037,
      "iary": 5038,
      "oce": 5039,
      "qcat": 5040,
      "qtype": 5041,
      "elook": 5042,
      "deleg": 5043,
      "corre": 5044,
      "quotelook": 5045,
      "frust": 5046,
      "providers": 5047,
      "networking": 5048,
      "struggle": 5049,
      "financequotelook": 5050,
      "infotype": 5051,
      "friendly": 5052,
      "contracts": 5053,
      "financequotelookup": 5054,
      "gard": 5055,
      "matt": 5056,
      "pfizer": 5057,
      "rat": 5058,
      "leans": 5059,
      "imp": 5060,
      "resig": 5061,
      "ancient": 5062,
      "surround": 5063,
      "powers": 5064,
      "mosque": 5065,
      "measures": 5066,
      "69": 5067,
      "brawl": 5068,
      "signing": 5069,
      "editor": 5070,
      "poses": 5071,
      "denies": 5072,
      "torn": 5073,
      "jailed": 5074,
      "improving": 5075,
      "circuit": 5076,
      "eve": 5077,
      "eased": 5078,
      "flow": 5079,
      "lig": 5080,
      "lind": 5081,
      "map": 5082,
      "pret": 5083,
      "arra": 5084,
      "ira": 5085,
      "mining": 5086,
      "fined": 5087,
      "paying": 5088,
      "territ": 5089,
      "writ": 5090,
      "injuries": 5091,
      "reaches": 5092,
      "politic": 5093,
      "everything": 5094,
      "gaming": 5095,
      "vaccine": 5096,
      "ja": 5097,
      "sle": 5098,
      "clud": 5099,
      "hai": 5100,
      "holes": 5101,
      "summary": 5102,
      "considered": 5103,
      "brazilian": 5104,
      "multiple": 5105,
      "driving": 5106,
      "nca": 5107,
      "pione": 5108,
      "ague": 5109,
      "aining": 5110,
      "corruption": 5111,
      "identity": 5112,
      "ibur": 5113,
      "ferr": 5114,
      "viruses": 5115,
      "traded": 5116,
      "bolster": 5117,
      "82": 5118,
      "fare": 5119,
      "pier": 5120,
      "tag": 5121,
      "yu": 5122,
      "ining": 5123,
      "formed": 5124,
      "contest": 5125,
      "quite": 5126,
      "ivo": 5127,
      "icted": 5128,
      "elected": 5129,
      "refused": 5130,
      "hitting": 5131,
      "showdown": 5132,
      "taxes": 5133,
      "foods": 5134,
      "climb": 5135,
      "pictures": 5136,
      "expressed": 5137,
      "hallibur": 5138,
      "prepare": 5139,
      "thomas": 5140,
      "halliburton": 5141,
      "fash": 5142,
      "lak": 5143,
      "sequ": 5144,
      "forbes": 5145,
      "pervez": 5146,
      "extends": 5147,
      "doubled": 5148,
      "evac": 5149,
      "messages": 5150,
      "picked": 5151,
      "semifinals": 5152,
      "genesis": 5153,
      "dum": 5154,
      "ji": 5155,
      "kur": 5156,
      "rays": 5157,
      "mod": 5158,
      "shu": 5159,
      "skip": 5160,
      "bitter": 5161,
      "critics": 5162,
      "blackberry": 5163,
      "browns": 5164,
      "shoppers": 5165,
      "friends": 5166,
      "vac": 5167,
      "cott": 5168,
      "determin": 5169,
      "combat": 5170,
      "aked": 5171,
      "archite": 5172,
      "plants": 5173,
      "failing": 5174,
      "analysis": 5175,
      "organis": 5176,
      "benefit": 5177,
      "ncaa": 5178,
      "88": 5179,
      "cases": 5180,
      "haps": 5181,
      "thod": 5182,
      "stol": 5183,
      "orleans": 5184,
      "letter": 5185,
      "emerged": 5186,
      "involving": 5187,
      "diam": 5188,
      "bottom": 5189,
      "subscribers": 5190,
      "fro": 5191,
      "jays": 5192,
      "tics": 5193,
      "tied": 5194,
      "ara": 5195,
      "sule": 5196,
      "complet": 5197,
      "internal": 5198,
      "postseason": 5199,
      "drove": 5200,
      "possibly": 5201,
      "ankle": 5202,
      "columbia": 5203,
      "diplomats": 5204,
      "mens": 5205,
      "ubs": 5206,
      "anth": 5207,
      "arthr": 5208,
      "icals": 5209,
      "loom": 5210,
      "cease": 5211,
      "export": 5212,
      "worry": 5213,
      "lyn": 5214,
      "iana": 5215,
      "meter": 5216,
      "trium": 5217,
      "politics": 5218,
      "transfer": 5219,
      "photos": 5220,
      "practices": 5221,
      "henman": 5222,
      "manufacturer": 5223,
      "graphics": 5224,
      "surprising": 5225,
      "thai": 5226,
      "april": 5227,
      "respect": 5228,
      "trick": 5229,
      "engers": 5230,
      "capsule": 5231,
      "seasons": 5232,
      "civilians": 5233,
      "trigger": 5234,
      "church": 5235,
      "pushing": 5236,
      "perhaps": 5237,
      "dismissed": 5238,
      "relie": 5239,
      "either": 5240,
      "gang": 5241,
      "p2": 5242,
      "tear": 5243,
      "cope": 5244,
      "cooperation": 5245,
      "shak": 5246,
      "dozen": 5247,
      "expands": 5248,
      "ships": 5249,
      "managed": 5250,
      "accident": 5251,
      "favour": 5252,
      "figure": 5253,
      "spaceshipone": 5254,
      "arthritis": 5255,
      "triumph": 5256,
      "78": 5257,
      "hab": 5258,
      "ored": 5259,
      "rand": 5260,
      "itors": 5261,
      "ager": 5262,
      "rip": 5263,
      "legally": 5264,
      "squad": 5265,
      "bobby": 5266,
      "siege": 5267,
      "chirac": 5268,
      "sudden": 5269,
      "nv": 5270,
      "ying": 5271,
      "stations": 5272,
      "usion": 5273,
      "vegas": 5274,
      "acked": 5275,
      "fled": 5276,
      "killer": 5277,
      "bigger": 5278,
      "kyoto": 5279,
      "joining": 5280,
      "fighters": 5281,
      "amount": 5282,
      "outsourcing": 5283,
      "franchise": 5284,
      "diamond": 5285,
      "fid": 5286,
      "sain": 5287,
      "ongoing": 5288,
      "remember": 5289,
      "ales": 5290,
      "serena": 5291,
      "identified": 5292,
      "backing": 5293,
      "desert": 5294,
      "dominated": 5295,
      "colombia": 5296,
      "strategic": 5297,
      "kofi": 5298,
      "lers": 5299,
      "tap": 5300,
      "recru": 5301,
      "alitalia": 5302,
      "lying": 5303,
      "elled": 5304,
      "enses": 5305,
      "stein": 5306,
      "slum": 5307,
      "announcing": 5308,
      "stands": 5309,
      "curt": 5310,
      "suspension": 5311,
      "everyone": 5312,
      "resolve": 5313,
      "journalists": 5314,
      "astronauts": 5315,
      "cowboys": 5316,
      "gil": 5317,
      "tors": 5318,
      "oned": 5319,
      "adap": 5320,
      "neg": 5321,
      "modest": 5322,
      "shang": 5323,
      "fects": 5324,
      "passengers": 5325,
      "injuring": 5326,
      "famous": 5327,
      "rolled": 5328,
      "weaker": 5329,
      "qaida": 5330,
      "opponents": 5331,
      "89": 5332,
      "kenn": 5333,
      "paren": 5334,
      "tada": 5335,
      "cola": 5336,
      "otech": 5337,
      "illino": 5338,
      "lake": 5339,
      "particip": 5340,
      "throughout": 5341,
      "gained": 5342,
      "indians": 5343,
      "approves": 5344,
      "drivers": 5345,
      "toyota": 5346,
      "language": 5347,
      "resignation": 5348,
      "p2p": 5349,
      "dur": 5350,
      "nec": 5351,
      "emen": 5352,
      "ryan": 5353,
      "playstation": 5354,
      "setts": 5355,
      "brother": 5356,
      "harmon": 5357,
      "swim": 5358,
      "scientist": 5359,
      "expert": 5360,
      "expanding": 5361,
      "illinois": 5362,
      "gall": 5363,
      "nap": 5364,
      "pct": 5365,
      "pav": 5366,
      "usetts": 5367,
      "nether": 5368,
      "ational": 5369,
      "rier": 5370,
      "overseas": 5371,
      "compens": 5372,
      "brings": 5373,
      "buff": 5374,
      "trib": 5375,
      "financing": 5376,
      "receive": 5377,
      "massach": 5378,
      "connection": 5379,
      "massachusetts": 5380,
      "fate": 5381,
      "nu": 5382,
      "sap": 5383,
      "wim": 5384,
      "espn": 5385,
      "conv": 5386,
      "princ": 5387,
      "marlins": 5388,
      "carib": 5389,
      "preseason": 5390,
      "regard": 5391,
      "visiting": 5392,
      "additional": 5393,
      "continent": 5394,
      "heard": 5395,
      "cleared": 5396,
      "plement": 5397,
      "suspic": 5398,
      "lockout": 5399,
      "downloads": 5400,
      "measure": 5401,
      "trend": 5402,
      "libya": 5403,
      "shanghai": 5404,
      "stu": 5405,
      "isions": 5406,
      "brands": 5407,
      "grade": 5408,
      "landmark": 5409,
      "lifts": 5410,
      "anyone": 5411,
      "experiment": 5412,
      "successor": 5413,
      "pirates": 5414,
      "tells": 5415,
      "resigns": 5416,
      "mosul": 5417,
      "floods": 5418,
      "antonio": 5419,
      "netherlands": 5420,
      "3q": 5421,
      "peter": 5422,
      "ables": 5423,
      "peru": 5424,
      "foundation": 5425,
      "gaining": 5426,
      "collabor": 5427,
      "maryland": 5428,
      "inventories": 5429,
      "phishing": 5430,
      "insisted": 5431,
      "77": 5432,
      "kir": 5433,
      "rated": 5434,
      "aside": 5435,
      "entry": 5436,
      "highly": 5437,
      "fergus": 5438,
      "divid": 5439,
      "meets": 5440,
      "hotels": 5441,
      "quality": 5442,
      "column": 5443,
      "updates": 5444,
      "cameras": 5445,
      "\"\\": 5446,
      "rein": 5447,
      "orland": 5448,
      "coca": 5449,
      "endum": 5450,
      "disco": 5451,
      "warnings": 5452,
      "larg": 5453,
      "postpon": 5454,
      "chech": 5455,
      "communist": 5456,
      "freeze": 5457,
      "maccentral": 5458,
      "introduce": 5459,
      "treasuries": 5460,
      "fellow": 5461,
      "predicted": 5462,
      "lehman": 5463,
      "caribbean": 5464,
      "orlando": 5465,
      "dia": 5466,
      "hug": 5467,
      "sac": 5468,
      "tun": 5469,
      "teles": 5470,
      "cancel": 5471,
      "sunni": 5472,
      "deser": 5473,
      "talking": 5474,
      "extrem": 5475,
      "stern": 5476,
      "stream": 5477,
      "suggests": 5478,
      "scram": 5479,
      "controversy": 5480,
      "nc": 5481,
      "zard": 5482,
      "repair": 5483,
      "reforms": 5484,
      "chap": 5485,
      "southeast": 5486,
      "produce": 5487,
      "universal": 5488,
      "accounts": 5489,
      "protests": 5490,
      "arabia": 5491,
      "pipeline": 5492,
      "referendum": 5493,
      "gon": 5494,
      "rim": 5495,
      "urning": 5496,
      "agents": 5497,
      "monetary": 5498,
      "clif": 5499,
      "inton": 5500,
      "medals": 5501,
      "returning": 5502,
      "payments": 5503,
      "ennan": 5504,
      "write": 5505,
      "writer": 5506,
      "anything": 5507,
      "engineers": 5508,
      "waves": 5509,
      "enjoy": 5510,
      "confirm": 5511,
      "sust": 5512,
      "assess": 5513,
      "busch": 5514,
      "serving": 5515,
      "provided": 5516,
      "sense": 5517,
      "gasol": 5518,
      "pilot": 5519,
      "assistant": 5520,
      "mclennan": 5521,
      "parents": 5522,
      "84": 5523,
      "knew": 5524,
      "rug": 5525,
      "ading": 5526,
      "allies": 5527,
      "embattled": 5528,
      "offices": 5529,
      "offset": 5530,
      "presence": 5531,
      "blamed": 5532,
      "vikings": 5533,
      "palmone": 5534,
      "hollinger": 5535,
      "insurgent": 5536,
      "affair": 5537,
      "stopped": 5538,
      "equity": 5539,
      "mbly": 5540,
      "assembly": 5541,
      "pas": 5542,
      "ican": 5543,
      "projects": 5544,
      "blu": 5545,
      "max": 5546,
      "relation": 5547,
      "ailing": 5548,
      "boosts": 5549,
      "pitched": 5550,
      "cheney": 5551,
      "flex": 5552,
      "invas": 5553,
      "bronze": 5554,
      "ceremony": 5555,
      "fashion": 5556,
      "architect": 5557,
      "ferguson": 5558,
      "eg": 5559,
      "cha": 5560,
      "astr": 5561,
      "blame": 5562,
      "maures": 5563,
      "schum": 5564,
      "osen": 5565,
      "coaches": 5566,
      "watched": 5567,
      "sentiment": 5568,
      "explosions": 5569,
      "horse": 5570,
      "muslims": 5571,
      "suffering": 5572,
      "pounds": 5573,
      "competitive": 5574,
      "harmony": 5575,
      "aire": 5576,
      "iel": 5577,
      "kers": 5578,
      "enix": 5579,
      "escal": 5580,
      "como": 5581,
      "mohan": 5582,
      "surface": 5583,
      "tradition": 5584,
      "passing": 5585,
      "pares": 5586,
      "knicks": 5587,
      "boxing": 5588,
      "appointed": 5589,
      "mauresmo": 5590,
      "dna": 5591,
      "eclip": 5592,
      "jol": 5593,
      "sop": 5594,
      "yi": 5595,
      "stick": 5596,
      "acad": 5597,
      "geting": 5598,
      "marri": 5599,
      "longhorn": 5600,
      "estimated": 5601,
      "license": 5602,
      "models": 5603,
      "pledged": 5604,
      "successfully": 5605,
      "ousted": 5606,
      "helicopter": 5607,
      "however": 5608,
      "xbox": 5609,
      "yang": 5610,
      "zards": 5611,
      "andrew": 5612,
      "chave": 5613,
      "eler": 5614,
      "promp": 5615,
      "aker": 5616,
      "larger": 5617,
      "ichiro": 5618,
      "headquarters": 5619,
      "austria": 5620,
      "climbed": 5621,
      "infrastr": 5622,
      "chavez": 5623,
      "infrastruct": 5624,
      "gad": 5625,
      "kin": 5626,
      "task": 5627,
      "amil": 5628,
      "approve": 5629,
      "comment": 5630,
      "trim": 5631,
      "suite": 5632,
      "hassan": 5633,
      "compon": 5634,
      "docomo": 5635,
      "northeast": 5636,
      "genet": 5637,
      "capture": 5638,
      "produced": 5639,
      "closely": 5640,
      "sweden": 5641,
      "manufacturers": 5642,
      "responsible": 5643,
      "kazaa": 5644,
      "qualifier": 5645,
      "dles": 5646,
      "fought": 5647,
      "ito": 5648,
      "swe": 5649,
      "beef": 5650,
      "tsun": 5651,
      "quakes": 5652,
      "prospect": 5653,
      "sured": 5654,
      "sphere": 5655,
      "wash": 5656,
      "client": 5657,
      "feared": 5658,
      "easier": 5659,
      "carried": 5660,
      "cannot": 5661,
      "ocean": 5662,
      "63": 5663,
      "bug": 5664,
      "wm": 5665,
      "innov": 5666,
      "alo": 5667,
      "adrian": 5668,
      "antas": 5669,
      "worlds": 5670,
      "misses": 5671,
      "prepares": 5672,
      "charlot": 5673,
      "posing": 5674,
      "targeting": 5675,
      "storms": 5676,
      "solutions": 5677,
      "distance": 5678,
      "stepped": 5679,
      "magic": 5680,
      "casino": 5681,
      "described": 5682,
      "reduced": 5683,
      "caval": 5684,
      "kil": 5685,
      "sr": 5686,
      "swi": 5687,
      "wto": 5688,
      "wic": 5689,
      "rovers": 5690,
      "neck": 5691,
      "rescu": 5692,
      "proceed": 5693,
      "emens": 5694,
      "inaug": 5695,
      "preced": 5696,
      "risks": 5697,
      "harry": 5698,
      "volum": 5699,
      "fails": 5700,
      "celtic": 5701,
      "expanded": 5702,
      "require": 5703,
      "alternative": 5704,
      "stretch": 5705,
      "cliffe": 5706,
      "62": 5707,
      "bt": 5708,
      "tape": 5709,
      "wich": 5710,
      "amo": 5711,
      "dee": 5712,
      "deuts": 5713,
      "true": 5714,
      "frame": 5715,
      "palace": 5716,
      "swing": 5717,
      "woes": 5718,
      "clemens": 5719,
      "rolling": 5720,
      "raptors": 5721,
      "rington": 5722,
      "beslan": 5723,
      "seemed": 5724,
      "appearance": 5725,
      "rums": 5726,
      "siemens": 5727,
      "piece": 5728,
      "potentially": 5729,
      "infrastructure": 5730,
      "auss": 5731,
      "khar": 5732,
      "arily": 5733,
      "icts": 5734,
      "usc": 5735,
      "imac": 5736,
      "peg": 5737,
      "exclus": 5738,
      "exhib": 5739,
      "shad": 5740,
      "worried": 5741,
      "manned": 5742,
      "enda": 5743,
      "syl": 5744,
      "retired": 5745,
      "slugg": 5746,
      "positions": 5747,
      "powered": 5748,
      "sentence": 5749,
      "focused": 5750,
      "emerging": 5751,
      "battles": 5752,
      "sexual": 5753,
      "heavyweight": 5754,
      "welcome": 5755,
      "penalty": 5756,
      "neighbor": 5757,
      "pleaded": 5758,
      "ek": 5759,
      "fold": 5760,
      "hond": 5761,
      "qtada": 5762,
      "ori": 5763,
      "exit": 5764,
      "spurs": 5765,
      "mini": 5766,
      "disrupt": 5767,
      "capable": 5768,
      "osama": 5769,
      "shoulder": 5770,
      "hired": 5771,
      "meetings": 5772,
      "complex": 5773,
      "raiders": 5774,
      "effective": 5775,
      "spirit": 5776,
      "brokerage": 5777,
      "crackdown": 5778,
      "yield": 5779,
      "gd": 5780,
      "inho": 5781,
      "rey": 5782,
      "ensure": 5783,
      "ala": 5784,
      "adop": 5785,
      "implement": 5786,
      "feed": 5787,
      "achi": 5788,
      "shipments": 5789,
      "israelis": 5790,
      "writes": 5791,
      "humans": 5792,
      "magn": 5793,
      "slipped": 5794,
      "institute": 5795,
      "gartner": 5796,
      "liquid": 5797,
      "infringement": 5798,
      "bund": 5799,
      "dust": 5800,
      "mum": 5801,
      "som": 5802,
      "yon": 5803,
      "orange": 5804,
      "alone": 5805,
      "cooper": 5806,
      "imports": 5807,
      "peters": 5808,
      "marked": 5809,
      "blaz": 5810,
      "aviation": 5811,
      "disk": 5812,
      "rett": 5813,
      "euros": 5814,
      "couldn": 5815,
      "uction": 5816,
      "shake": 5817,
      "causing": 5818,
      "update2": 5819,
      "limit": 5820,
      "investigators": 5821,
      "couple": 5822,
      "glazer": 5823,
      "largely": 5824,
      "invasion": 5825,
      "aware": 5826,
      "fem": 5827,
      "kat": 5828,
      "overhaul": 5829,
      "firing": 5830,
      "lowest": 5831,
      "helens": 5832,
      "tropical": 5833,
      "maybe": 5834,
      "mostly": 5835,
      "breed": 5836,
      "payment": 5837,
      "funding": 5838,
      "cambo": 5839,
      "philips": 5840,
      "settles": 5841,
      "families": 5842,
      "distribution": 5843,
      "knock": 5844,
      "publisher": 5845,
      "prompt": 5846,
      "sized": 5847,
      "comed": 5848,
      "opin": 5849,
      "lined": 5850,
      "providing": 5851,
      "charley": 5852,
      "industries": 5853,
      "insurers": 5854,
      "waters": 5855,
      "audio": 5856,
      "delivered": 5857,
      "flaws": 5858,
      "deutsche": 5859,
      "sar": 5860,
      "tay": 5861,
      "incent": 5862,
      "versions": 5863,
      "hamilton": 5864,
      "targeted": 5865,
      "acceler": 5866,
      "consol": 5867,
      "patents": 5868,
      "subject": 5869,
      "phoenix": 5870,
      "greatest": 5871,
      "correct": 5872,
      "dividend": 5873,
      "schumacher": 5874,
      "charlotte": 5875,
      ".\\\\": 5876,
      "aur": 5877,
      "eis": 5878,
      "lies": 5879,
      "yer": 5880,
      "wealth": 5881,
      "manmohan": 5882,
      "clinton": 5883,
      "bln": 5884,
      "landing": 5885,
      "reflect": 5886,
      "offerings": 5887,
      "reading": 5888,
      "movement": 5889,
      "programme": 5890,
      "obtain": 5891,
      "pushes": 5892,
      "advances": 5893,
      "subsidiary": 5894,
      "territory": 5895,
      "tsunami": 5896,
      "sluggish": 5897,
      "bare": 5898,
      "apolog": 5899,
      "thatcher": 5900,
      "exact": 5901,
      "owen": 5902,
      "poison": 5903,
      "rail": 5904,
      "ample": 5905,
      "busy": 5906,
      "icken": 5907,
      "commander": 5908,
      "memphis": 5909,
      "possibility": 5910,
      "experience": 5911,
      "seahawks": 5912,
      "homeland": 5913,
      "reasons": 5914,
      "document": 5915,
      "favorite": 5916,
      "pentagon": 5917,
      "modern": 5918,
      "f1": 5919,
      "hugh": 5920,
      "lun": 5921,
      "luc": 5922,
      "conver": 5923,
      "arena": 5924,
      "fied": 5925,
      "whole": 5926,
      "desper": 5927,
      "guine": 5928,
      "reality": 5929,
      "160": 5930,
      "netscape": 5931,
      "henry": 5932,
      "arrives": 5933,
      "prosecutor": 5934,
      "discovery": 5935,
      "eera": 5936,
      "fen": 5937,
      "sor": 5938,
      "conspir": 5939,
      "earned": 5940,
      "acknow": 5941,
      "maria": 5942,
      "ips": 5943,
      "blade": 5944,
      "religious": 5945,
      "monthly": 5946,
      "drag": 5947,
      "mortar": 5948,
      "watching": 5949,
      "islands": 5950,
      "representatives": 5951,
      "jazeera": 5952,
      "iest": 5953,
      "rfid": 5954,
      "comfort": 5955,
      "imf": 5956,
      "convoy": 5957,
      "prop": 5958,
      "compared": 5959,
      "perform": 5960,
      "branch": 5961,
      "intens": 5962,
      "provides": 5963,
      "calm": 5964,
      "loyal": 5965,
      "demanding": 5966,
      "mcn": 5967,
      "concerned": 5968,
      "felt": 5969,
      "bucks": 5970,
      "angered": 5971,
      "guinea": 5972,
      "56": 5973,
      "hiring": 5974,
      "muse": 5975,
      "slowing": 5976,
      "viv": 5977,
      "vital": 5978,
      "wage": 5979,
      "erce": 5980,
      "oring": 5981,
      "leum": 5982,
      "agenda": 5983,
      "spo": 5984,
      "rell": 5985,
      "doom": 5986,
      "engines": 5987,
      "clothing": 5988,
      "keepers": 5989,
      "democrat": 5990,
      "frequ": 5991,
      "suggested": 5992,
      "initiative": 5993,
      "origin": 5994,
      "finger": 5995,
      "anthony": 5996,
      "acknowled": 5997,
      "ea": 5998,
      "tens": 5999,
      "xin": 6000,
      "tobac": 6001,
      "illegally": 6002,
      "aced": 6003,
      "concess": 6004,
      "prospec": 6005,
      "exerc": 6006,
      "manage": 6007,
      "foss": 6008,
      "enson": 6009,
      "legend": 6010,
      "doubles": 6011,
      "celtics": 6012,
      "optimistic": 6013,
      "gateway": 6014,
      "controlled": 6015,
      "lakers": 6016,
      "gasoline": 6017,
      "eisner": 6018,
      "tobacco": 6019,
      "prospects": 6020,
      "72": 6021,
      "lam": 6022,
      "mall": 6023,
      "tivo": 6024,
      "astic": 6025,
      "lycos": 6026,
      "disarm": 6027,
      "2007": 6028,
      "fierce": 6029,
      "10th": 6030,
      "guards": 6031,
      "titles": 6032,
      "republicans": 6033,
      "shareholder": 6034,
      "competitors": 6035,
      "tentative": 6036,
      "honda": 6037,
      "95": 6038,
      "cze": 6039,
      "eb": 6040,
      "instr": 6041,
      "envoy": 6042,
      "confirms": 6043,
      "abled": 6044,
      "crush": 6045,
      "2008": 6046,
      "backup": 6047,
      "ballmer": 6048,
      "locked": 6049,
      "surviv": 6050,
      "sirius": 6051,
      "nt": 6052,
      "nand": 6053,
      "aran": 6054,
      "itanium": 6055,
      "allen": 6056,
      "abbey": 6057,
      "clin": 6058,
      "crm": 6059,
      "tyco": 6060,
      "contact": 6061,
      "operators": 6062,
      "suspend": 6063,
      "ticket": 6064,
      "william": 6065,
      "protesters": 6066,
      "birds": 6067,
      "mln": 6068,
      "separatist": 6069,
      "rumsfeld": 6070,
      "instru": 6071,
      "cain": 6072,
      "reporters": 6073,
      "atively": 6074,
      "neal": 6075,
      "illy": 6076,
      "wizards": 6077,
      "aste": 6078,
      "fool": 6079,
      "formally": 6080,
      "population": 6081,
      "stood": 6082,
      "arrests": 6083,
      "plea": 6084,
      "currently": 6085,
      "supplier": 6086,
      "individual": 6087,
      "greg": 6088,
      "krem": 6089,
      "revers": 6090,
      "itude": 6091,
      "pet": 6092,
      "estate": 6093,
      "plug": 6094,
      "antan": 6095,
      "lah": 6096,
      "ody": 6097,
      "defends": 6098,
      "effects": 6099,
      "northwest": 6100,
      "consort": 6101,
      "radcliffe": 6102,
      "membership": 6103,
      "1990": 6104,
      "awards": 6105,
      "sweeping": 6106,
      "materials": 6107,
      "petroleum": 6108,
      "margaret": 6109,
      "detect": 6110,
      "astronomers": 6111,
      "particular": 6112,
      "czech": 6113,
      "kremlin": 6114,
      "3rd": 6115,
      "cbc": 6116,
      "kie": 6117,
      "pages": 6118,
      "pleads": 6119,
      "yad": 6120,
      "escap": 6121,
      "toum": 6122,
      "islat": 6123,
      "utility": 6124,
      "aka": 6125,
      "fran": 6126,
      "wars": 6127,
      "steam": 6128,
      "stephen": 6129,
      "legislat": 6130,
      "memor": 6131,
      "regulator": 6132,
      "policies": 6133,
      "function": 6134,
      "followed": 6135,
      "optimism": 6136,
      "establish": 6137,
      "nan": 6138,
      "nya": 6139,
      "punch": 6140,
      "rams": 6141,
      "infect": 6142,
      "ati": 6143,
      "espec": 6144,
      "rol": 6145,
      "loan": 6146,
      "cep": 6147,
      "suff": 6148,
      "haven": 6149,
      "anson": 6150,
      "merge": 6151,
      "angel": 6152,
      "slides": 6153,
      "justin": 6154,
      "caution": 6155,
      "handset": 6156,
      "studio": 6157,
      "cellular": 6158,
      "revenues": 6159,
      "simple": 6160,
      "rushed": 6161,
      "citizens": 6162,
      "delivery": 6163,
      "gymnastics": 6164,
      "attempts": 6165,
      "consortium": 6166,
      "especially": 6167,
      "ders": 6168,
      "gp": 6169,
      "lag": 6170,
      "pin": 6171,
      "rice": 6172,
      "vp": 6173,
      "itas": 6174,
      "lob": 6175,
      "plenty": 6176,
      "rive": 6177,
      "ucks": 6178,
      "briton": 6179,
      "bcs": 6180,
      "slowdown": 6181,
      "aboard": 6182,
      "knows": 6183,
      "advertis": 6184,
      "casual": 6185,
      "munich": 6186,
      "wreck": 6187,
      "chechnya": 6188,
      "hire": 6189,
      "pill": 6190,
      "vast": 6191,
      "oral": 6192,
      "enport": 6193,
      "necess": 6194,
      "upbeat": 6195,
      "metro": 6196,
      "trials": 6197,
      "davenport": 6198,
      "facility": 6199,
      "boosting": 6200,
      "regulatory": 6201,
      "eases": 6202,
      "privately": 6203,
      "struggles": 6204,
      "organizations": 6205,
      "accepted": 6206,
      "philippine": 6207,
      "compensation": 6208,
      "cavaliers": 6209,
      "bil": 6210,
      "gom": 6211,
      "unemployment": 6212,
      "unpreced": 6213,
      "becomes": 6214,
      "shif": 6215,
      "poc": 6216,
      "elling": 6217,
      "fee": 6218,
      "searching": 6219,
      "guide": 6220,
      "included": 6221,
      "fewer": 6222,
      "rape": 6223,
      "broncos": 6224,
      "refugees": 6225,
      "swedish": 6226,
      "mystery": 6227,
      "eclipse": 6228,
      "sylvan": 6229,
      "unprecedented": 6230,
      "jama": 6231,
      "oth": 6232,
      "rough": 6233,
      "conclud": 6234,
      "utious": 6235,
      "abil": 6236,
      "abbas": 6237,
      "formal": 6238,
      "victor": 6239,
      "visits": 6240,
      "cautious": 6241,
      "coaching": 6242,
      "harris": 6243,
      "biotech": 6244,
      "struggled": 6245,
      "administr": 6246,
      "committed": 6247,
      "picks": 6248,
      "garcia": 6249,
      "immediate": 6250,
      "chemical": 6251,
      "jaguar": 6252,
      "telescope": 6253,
      "rugby": 6254,
      "68": 6255,
      "dir": 6256,
      "gop": 6257,
      "lley": 6258,
      "sight": 6259,
      "vement": 6260,
      "emiss": 6261,
      "umb": 6262,
      "artic": 6263,
      "inson": 6264,
      "shown": 6265,
      "accusing": 6266,
      "everton": 6267,
      "aska": 6268,
      "awarded": 6269,
      "doubts": 6270,
      "sven": 6271,
      "stakes": 6272,
      "amster": 6273,
      "veritas": 6274,
      "shire": 6275,
      "lav": 6276,
      "discount": 6277,
      "feet": 6278,
      "sson": 6279,
      "ballot": 6280,
      "starter": 6281,
      "creation": 6282,
      "producing": 6283,
      "depot": 6284,
      "battered": 6285,
      "carriers": 6286,
      "galore": 6287,
      "original": 6288,
      "responsibility": 6289,
      "pentium": 6290,
      "licensing": 6291,
      "symbol": 6292,
      "evacu": 6293,
      "amsterdam": 6294,
      "79": 6295,
      "din": 6296,
      "evolution": 6297,
      "ti": 6298,
      "von": 6299,
      "loans": 6300,
      "console": 6301,
      "aking": 6302,
      "strained": 6303,
      "warm": 6304,
      "tested": 6305,
      "seeing": 6306,
      "engineering": 6307,
      "safin": 6308,
      "pitching": 6309,
      "races": 6310,
      "hopeful": 6311,
      "itarian": 6312,
      "lleyton": 6313,
      "insp": 6314,
      "tering": 6315,
      "trafford": 6316,
      "suing": 6317,
      "ippi": 6318,
      "setback": 6319,
      "handsets": 6320,
      "producers": 6321,
      "breakthrough": 6322,
      "changing": 6323,
      "snap": 6324,
      "fleet": 6325,
      "boycott": 6326,
      "deployment": 6327,
      "unexpectedly": 6328,
      "buffalo": 6329,
      "postponed": 6330,
      "chapter": 6331,
      "relationship": 6332,
      "female": 6333,
      "92": 6334,
      "bis": 6335,
      "bold": 6336,
      "iow": 6337,
      "lord": 6338,
      "multim": 6339,
      "ride": 6340,
      "ination": 6341,
      "react": 6342,
      "backer": 6343,
      "guantan": 6344,
      "stronghold": 6345,
      "threaten": 6346,
      "peacekeepers": 6347,
      "lowered": 6348,
      "object": 6349,
      "employee": 6350,
      "strengthe": 6351,
      "integration": 6352,
      "momentum": 6353,
      "sylvania": 6354,
      "guantanamo": 6355,
      "bum": 6356,
      "coff": 6357,
      "gig": 6358,
      "jp": 6359,
      "stam": 6360,
      "enforce": 6361,
      "toys": 6362,
      "shed": 6363,
      "emc": 6364,
      "compat": 6365,
      "meters": 6366,
      "render": 6367,
      "shore": 6368,
      "winners": 6369,
      "anced": 6370,
      "thanksgiving": 6371,
      "copies": 6372,
      "library": 6373,
      "kent": 6374,
      "khan": 6375,
      "sag": 6376,
      "chet": 6377,
      "relatives": 6378,
      "cairo": 6379,
      "curb": 6380,
      "domain": 6381,
      "murdo": 6382,
      "bloody": 6383,
      "influence": 6384,
      "khartoum": 6385,
      "consolid": 6386,
      "2nd": 6387,
      "dal": 6388,
      "fs": 6389,
      "wider": 6390,
      "wides": 6391,
      "supposed": 6392,
      "restaur": 6393,
      "specific": 6394,
      "atorial": 6395,
      "processing": 6396,
      "easily": 6397,
      "promising": 6398,
      "connectic": 6399,
      "leno": 6400,
      "assassination": 6401,
      "scene": 6402,
      "luxury": 6403,
      "napster": 6404,
      "wickets": 6405,
      "connecticut": 6406,
      "ae": 6407,
      "jul": 6408,
      "mud": 6409,
      "ses": 6410,
      "sends": 6411,
      "vard": 6412,
      "inking": 6413,
      "rever": 6414,
      "stamp": 6415,
      "item": 6416,
      "plum": 6417,
      "ulate": 6418,
      "ampton": 6419,
      "counting": 6420,
      "warn": 6421,
      "trojan": 6422,
      "angry": 6423,
      "genoc": 6424,
      "chargers": 6425,
      "nears": 6426,
      "places": 6427,
      "kenya": 6428,
      "journalist": 6429,
      "homered": 6430,
      "definition": 6431,
      "flagship": 6432,
      "filled": 6433,
      "pricing": 6434,
      "barely": 6435,
      "iowa": 6436,
      "murdoch": 6437,
      "kl": 6438,
      "lus": 6439,
      "nag": 6440,
      "sed": 6441,
      "u2": 6442,
      "idg": 6443,
      "coordin": 6444,
      "illed": 6445,
      "resort": 6446,
      "enders": 6447,
      "hav": 6448,
      "bos": 6449,
      "norway": 6450,
      "expensive": 6451,
      "blew": 6452,
      "cheap": 6453,
      "mcdonald": 6454,
      "spotlight": 6455,
      "settled": 6456,
      "replacement": 6457,
      "phillies": 6458,
      "existing": 6459,
      "57": 6460,
      "cited": 6461,
      "lcd": 6462,
      "mol": 6463,
      "onso": 6464,
      "remove": 6465,
      "stir": 6466,
      "forcing": 6467,
      "neth": 6468,
      "exporters": 6469,
      "whel": 6470,
      "endi": 6471,
      "clients": 6472,
      "ache": 6473,
      "aiming": 6474,
      "restore": 6475,
      "views": 6476,
      "healthy": 6477,
      "nato": 6478,
      "disputed": 6479,
      "pulls": 6480,
      "crowded": 6481,
      "350": 6482,
      "cart": 6483,
      "fu": 6484,
      "hs": 6485,
      "kies": 6486,
      "phas": 6487,
      "asset": 6488,
      "ksson": 6489,
      "hasn": 6490,
      "notes": 6491,
      "worked": 6492,
      "teammates": 6493,
      "capabilities": 6494,
      "checks": 6495,
      "extending": 6496,
      "freedom": 6497,
      "knocked": 6498,
      "gathered": 6499,
      "eriksson": 6500,
      "resistance": 6501,
      "emissions": 6502,
      "genocide": 6503,
      "81": 6504,
      "ipl": 6505,
      "pd": 6506,
      "pino": 6507,
      "wine": 6508,
      "yel": 6509,
      "ark": 6510,
      "aded": 6511,
      "emic": 6512,
      "ifies": 6513,
      "missions": 6514,
      "cycle": 6515,
      "someone": 6516,
      "guy": 6517,
      "throw": 6518,
      "insurer": 6519,
      "advoc": 6520,
      "slowed": 6521,
      "kenneth": 6522,
      "dominant": 6523,
      "civilian": 6524,
      "revamp": 6525,
      "thinking": 6526,
      "ferrari": 6527,
      "lunar": 6528,
      "96": 6529,
      "beng": 6530,
      "ees": 6531,
      "wau": 6532,
      "sting": 6533,
      "iron": 6534,
      "embr": 6535,
      "suz": 6536,
      "wholes": 6537,
      "perman": 6538,
      "prescri": 6539,
      "bangalore": 6540,
      "sometimes": 6541,
      "pollution": 6542,
      "activists": 6543,
      "athletes": 6544,
      "wolves": 6545,
      "revised": 6546,
      "museum": 6547,
      "fossil": 6548,
      "jon": 6549,
      "luk": 6550,
      "toss": 6551,
      "iced": 6552,
      "rot": 6553,
      "admits": 6554,
      "accep": 6555,
      "imposed": 6556,
      "emot": 6557,
      "older": 6558,
      "pread": 6559,
      "cert": 6560,
      "learn": 6561,
      "ventus": 6562,
      "televis": 6563,
      "consin": 6564,
      "dark": 6565,
      "reserves": 6566,
      "hydro": 6567,
      "circ": 6568,
      "wisconsin": 6569,
      "spark": 6570,
      "sparked": 6571,
      "juventus": 6572,
      "opponent": 6573,
      "widespread": 6574,
      "permanent": 6575,
      "dim": 6576,
      "rill": 6577,
      "tank": 6578,
      "alco": 6579,
      "icting": 6580,
      "chad": 6581,
      "ambass": 6582,
      "determ": 6583,
      "improper": 6584,
      "bruary": 6585,
      "laugh": 6586,
      "february": 6587,
      "grace": 6588,
      "liest": 6589,
      "investments": 6590,
      "milwau": 6591,
      "satis": 6592,
      "normal": 6593,
      "charac": 6594,
      "signal": 6595,
      "boro": 6596,
      "panthers": 6597,
      "ception": 6598,
      "baby": 6599,
      "wildlife": 6600,
      "fixed": 6601,
      "aggressive": 6602,
      "hughes": 6603,
      "determine": 6604,
      "milwaukee": 6605,
      "hut": 6606,
      "hell": 6607,
      "arbit": 6608,
      "adam": 6609,
      "bru": 6610,
      "execs": 6611,
      "factories": 6612,
      "realnetworks": 6613,
      "listed": 6614,
      "arsene": 6615,
      "proposals": 6616,
      "detained": 6617,
      "granted": 6618,
      "pinochet": 6619,
      "74": 6620,
      "tall": 6621,
      "edy": 6622,
      "asy": 6623,
      "idc": 6624,
      "forget": 6625,
      "esty": 6626,
      "istics": 6627,
      "trump": 6628,
      "mega": 6629,
      "portfol": 6630,
      "math": 6631,
      "jection": 6632,
      "devil": 6633,
      "victories": 6634,
      "daniel": 6635,
      "swap": 6636,
      "weakness": 6637,
      "heavily": 6638,
      "hunting": 6639,
      "montgom": 6640,
      "ricky": 6641,
      "promote": 6642,
      "cycling": 6643,
      "daim": 6644,
      "nz": 6645,
      "tes": 6646,
      "peak": 6647,
      "exceed": 6648,
      "umble": 6649,
      "bris": 6650,
      "ballots": 6651,
      "ologists": 6652,
      "guaran": 6653,
      "thrown": 6654,
      "limits": 6655,
      "shrug": 6656,
      "jumps": 6657,
      "athletic": 6658,
      "diamondbacks": 6659,
      "volume": 6660,
      "xinhu": 6661,
      "suzuk": 6662,
      "daimler": 6663,
      "cath": 6664,
      "md": 6665,
      "ramp": 6666,
      "overwhel": 6667,
      "scam": 6668,
      "ancy": 6669,
      "milose": 6670,
      "learned": 6671,
      "grows": 6672,
      "buyers": 6673,
      "exec": 6674,
      "paypal": 6675,
      "extin": 6676,
      "patrick": 6677,
      "hijack": 6678,
      "crashes": 6679,
      "ramad": 6680,
      "raids": 6681,
      "slips": 6682,
      "mutu": 6683,
      "seriously": 6684,
      "bourne": 6685,
      "kids": 6686,
      "santa": 6687,
      "pharmaceutical": 6688,
      "fest": 6689,
      "lsu": 6690,
      "orcl": 6691,
      "agers": 6692,
      "owens": 6693,
      "prises": 6694,
      "interior": 6695,
      "relay": 6696,
      "weekly": 6697,
      "shoo": 6698,
      "northeastern": 6699,
      "proved": 6700,
      "slump": 6701,
      "billions": 6702,
      "throwing": 6703,
      "student": 6704,
      "foreigners": 6705,
      "coverage": 6706,
      "welcomed": 6707,
      "pullout": 6708,
      "criticized": 6709,
      "grip": 6710,
      "milosevic": 6711,
      "1st": 6712,
      "cend": 6713,
      "sean": 6714,
      "deter": 6715,
      "beheaded": 6716,
      "ulting": 6717,
      "endangered": 6718,
      "mete": 6719,
      "ellor": 6720,
      "counts": 6721,
      "linebacker": 6722,
      "rounds": 6723,
      "switzer": 6724,
      "matic": 6725,
      "simply": 6726,
      "earthquakes": 6727,
      "robust": 6728,
      "rocked": 6729,
      "1999": 6730,
      "reveal": 6731,
      "reveals": 6732,
      "weighed": 6733,
      "description": 6734,
      "andreas": 6735,
      "laptop": 6736,
      "abducted": 6737,
      "determined": 6738,
      "g5": 6739,
      "gay": 6740,
      "lis": 6741,
      "illas": 6742,
      "worse": 6743,
      "discover": 6744,
      "highlight": 6745,
      "mississ": 6746,
      "closure": 6747,
      "balance": 6748,
      "psft": 6749,
      "volcan": 6750,
      "equatorial": 6751,
      "observ": 6752,
      "keeper": 6753,
      "lebanese": 6754,
      "priced": 6755,
      "survivors": 6756,
      "71": 6757,
      "psy": 6758,
      "uf": 6759,
      "chan": 6760,
      "newest": 6761,
      "retreat": 6762,
      "maine": 6763,
      "buyout": 6764,
      "breath": 6765,
      "12th": 6766,
      "rowing": 6767,
      "controls": 6768,
      "visitors": 6769,
      "astronaut": 6770,
      "diplomatic": 6771,
      "combined": 6772,
      "pretty": 6773,
      "opinion": 6774,
      "conspiracy": 6775,
      "lenovo": 6776,
      "dot": 6777,
      "qantas": 6778,
      "tact": 6779,
      "alle": 6780,
      "outr": 6781,
      "chi": 6782,
      "chanc": 6783,
      "adjust": 6784,
      "deport": 6785,
      "pep": 6786,
      "saving": 6787,
      "tru": 6788,
      "indies": 6789,
      "netfl": 6790,
      "lifting": 6791,
      "persu": 6792,
      "146": 6793,
      "dropping": 6794,
      "experien": 6795,
      "chenko": 6796,
      "celebrate": 6797,
      "pledges": 6798,
      "punish": 6799,
      "recommend": 6800,
      "kennedy": 6801,
      "orioles": 6802,
      "taylor": 6803,
      "vivendi": 6804,
      "instruments": 6805,
      "59": 6806,
      "ault": 6807,
      "dale": 6808,
      "eta": 6809,
      "gib": 6810,
      "jen": 6811,
      "tree": 6812,
      "icc": 6813,
      "idia": 6814,
      "abc": 6815,
      "astro": 6816,
      "marion": 6817,
      "intended": 6818,
      "anny": 6819,
      "versus": 6820,
      "keys": 6821,
      "leagues": 6822,
      "cheaper": 6823,
      "submit": 6824,
      "judges": 6825,
      "invit": 6826,
      "stunning": 6827,
      "updated": 6828,
      "conservative": 6829,
      "exhibition": 6830,
      "shadow": 6831,
      "switzerland": 6832,
      "mississippi": 6833,
      "netflix": 6834,
      "bb": 6835,
      "cair": 6836,
      "mes": 6837,
      "pum": 6838,
      "icious": 6839,
      "unix": 6840,
      "urban": 6841,
      "hoped": 6842,
      "shat": 6843,
      "mann": 6844,
      "pope": 6845,
      "maver": 6846,
      "merrill": 6847,
      "miners": 6848,
      "ogue": 6849,
      "brothers": 6850,
      "slug": 6851,
      "ranks": 6852,
      "2012": 6853,
      "deadliest": 6854,
      "insurgency": 6855,
      "fax": 6856,
      "graphy": 6857,
      "planets": 6858,
      "newspapers": 6859,
      "village": 6860,
      "nvidia": 6861,
      "convinc": 6862,
      "exactly": 6863,
      "rant": 6864,
      "route": 6865,
      "conway": 6866,
      "branson": 6867,
      "button": 6868,
      "prec": 6869,
      "walker": 6870,
      "violations": 6871,
      "revenge": 6872,
      "privacy": 6873,
      "questioned": 6874,
      "sender": 6875,
      "dubai": 6876,
      "houses": 6877,
      "hubble": 6878,
      "bust": 6879,
      "gover": 6880,
      "nug": 6881,
      "td": 6882,
      "alab": 6883,
      "destruction": 6884,
      "bear": 6885,
      "immig": 6886,
      "spa": 6887,
      "method": 6888,
      "actually": 6889,
      "finland": 6890,
      "soared": 6891,
      "warri": 6892,
      "enterprises": 6893,
      "managing": 6894,
      "severe": 6895,
      "closes": 6896,
      "commitment": 6897,
      "samarra": 6898,
      "independence": 6899,
      "mourinho": 6900,
      "scottish": 6901,
      "pennsylvania": 6902,
      "politicians": 6903,
      "organisation": 6904,
      "/&": 6905,
      "caf": 6906,
      "kris": 6907,
      "pensions": 6908,
      "tham": 6909,
      "orb": 6910,
      "asking": 6911,
      "rover": 6912,
      "iling": 6913,
      "mao": 6914,
      "oked": 6915,
      "rental": 6916,
      "ashing": 6917,
      "belg": 6918,
      "courts": 6919,
      "demanded": 6920,
      "bases": 6921,
      "ulls": 6922,
      "aids": 6923,
      "guns": 6924,
      "challenger": 6925,
      "temper": 6926,
      "ovitz": 6927,
      "padres": 6928,
      "impressive": 6929,
      "lynch": 6930,
      "ambassador": 6931,
      "nj": 6932,
      "ntt": 6933,
      "rushing": 6934,
      "slower": 6935,
      "erie": 6936,
      "urge": 6937,
      "comcast": 6938,
      "proof": 6939,
      "akh": 6940,
      "meant": 6941,
      "intense": 6942,
      "buts": 6943,
      "caps": 6944,
      "triple": 6945,
      "handle": 6946,
      "harm": 6947,
      "engineer": 6948,
      "massac": 6949,
      "connections": 6950,
      "melbourne": 6951,
      "prompting": 6952,
      "fenway": 6953,
      "portfolio": 6954,
      "cathol": 6955,
      "cairn": 6956,
      "belgium": 6957,
      "pover": 6958,
      "ingly": 6959,
      "itely": 6960,
      "usually": 6961,
      "rio": 6962,
      "prominent": 6963,
      "aston": 6964,
      "pray": 6965,
      "spots": 6966,
      "fines": 6967,
      "poland": 6968,
      "techweb": 6969,
      "regime": 6970,
      "aziz": 6971,
      "defended": 6972,
      "computerworld": 6973,
      "lington": 6974,
      "harvard": 6975,
      "yankee": 6976,
      "humanitarian": 6977,
      "tickets": 6978,
      "draws": 6979,
      "collaps": 6980,
      "congressional": 6981,
      "treaty": 6982,
      "strengthen": 6983,
      "feeling": 6984,
      "bengals": 6985,
      "governing": 6986,
      "bian": 6987,
      "dh": 6988,
      "dor": 6989,
      "naz": 6990,
      "nix": 6991,
      "pp": 6992,
      "rass": 6993,
      "sque": 6994,
      "intr": 6995,
      "reign": 6996,
      "rodr": 6997,
      "igue": 6998,
      "impose": 6999,
      "allah": 7000,
      "trapped": 7001,
      "roma": 7002,
      "ivir": 7003,
      "polish": 7004,
      "defender": 7005,
      "hosts": 7006,
      "southwest": 7007,
      "persist": 7008,
      "baseman": 7009,
      "malicious": 7010,
      "tourists": 7011,
      "choose": 7012,
      "gamers": 7013,
      "settlers": 7014,
      "introduces": 7015,
      "patches": 7016,
      "ethnic": 7017,
      "subsidies": 7018,
      "quietly": 7019,
      "steroids": 7020,
      "temporary": 7021,
      "exclusive": 7022,
      "phase": 7023,
      "meteor": 7024,
      "poverty": 7025,
      "61": 7026,
      "94": 7027,
      "kath": 7028,
      "pays": 7029,
      "vy": 7030,
      "reporter": 7031,
      "atmo": 7032,
      "urgent": 7033,
      "quits": 7034,
      "resident": 7035,
      "heed": 7036,
      "antivir": 7037,
      "intc": 7038,
      "grim": 7039,
      "entering": 7040,
      "economists": 7041,
      "hammer": 7042,
      "clock": 7043,
      "bombard": 7044,
      "stormed": 7045,
      "settlements": 7046,
      "clearing": 7047,
      "roads": 7048,
      "kuwait": 7049,
      "embarrass": 7050,
      "stalled": 7051,
      "surrounding": 7052,
      "liga": 7053,
      "regarding": 7054,
      "affairs": 7055,
      "daimlerchrysler": 7056,
      "ael": 7057,
      "mph": 7058,
      "mvp": 7059,
      "wta": 7060,
      "ths": 7061,
      "anx": 7062,
      "rets": 7063,
      "reput": 7064,
      "recovered": 7065,
      "straw": 7066,
      "height": 7067,
      "authen": 7068,
      "missiles": 7069,
      "surf": 7070,
      "surging": 7071,
      "cuban": 7072,
      "midfielder": 7073,
      "buried": 7074,
      "discipl": 7075,
      "stripped": 7076,
      "langer": 7077,
      "telling": 7078,
      "federation": 7079,
      "prompted": 7080,
      "enforcement": 7081,
      "antivirus": 7082,
      "authentic": 7083,
      "gmail": 7084,
      "lure": 7085,
      "lived": 7086,
      "nad": 7087,
      "stable": 7088,
      "debuts": 7089,
      "coni": 7090,
      "spons": 7091,
      "outfielder": 7092,
      "twin": 7093,
      "portug": 7094,
      "notice": 7095,
      "scare": 7096,
      "burst": 7097,
      "rivalry": 7098,
      "investigate": 7099,
      "ramallah": 7100,
      "representing": 7101,
      "eliot": 7102,
      "stolen": 7103,
      "hugo": 7104,
      "swept": 7105,
      "chancellor": 7106,
      "twi": 7107,
      "tender": 7108,
      "tensions": 7109,
      "wy": 7110,
      "atop": 7111,
      "idays": 7112,
      "elite": 7113,
      "uri": 7114,
      "combin": 7115,
      "conn": 7116,
      "artest": 7117,
      "berts": 7118,
      "laid": 7119,
      "igned": 7120,
      "counted": 7121,
      "venus": 7122,
      "carl": 7123,
      "quarterfinals": 7124,
      "ological": 7125,
      "musab": 7126,
      "senator": 7127,
      "bidding": 7128,
      "swapping": 7129,
      "ressed": 7130,
      "direction": 7131,
      "competing": 7132,
      "emerge": 7133,
      "christian": 7134,
      "fixing": 7135,
      "improvement": 7136,
      "kicked": 7137,
      "juan": 7138,
      "mourning": 7139,
      "farmers": 7140,
      "falcons": 7141,
      "restrict": 7142,
      "swift": 7143,
      "necessary": 7144,
      "yellow": 7145,
      "randy": 7146,
      "tles": 7147,
      "escape": 7148,
      "oured": 7149,
      "moham": 7150,
      "offs": 7151,
      "porn": 7152,
      "indicted": 7153,
      "phony": 7154,
      "syn": 7155,
      "syrac": 7156,
      "electoral": 7157,
      "belar": 7158,
      "recorded": 7159,
      "visa": 7160,
      "bali": 7161,
      "films": 7162,
      "standings": 7163,
      "volun": 7164,
      "stockholm": 7165,
      "globe": 7166,
      "easing": 7167,
      "tooth": 7168,
      "explain": 7169,
      "error": 7170,
      "ernie": 7171,
      "stuff": 7172,
      "concessions": 7173,
      "syracuse": 7174,
      "650": 7175,
      "fame": 7176,
      "mgm": 7177,
      "wrest": 7178,
      "recalled": 7179,
      "stops": 7180,
      "imag": 7181,
      "sures": 7182,
      "marking": 7183,
      "attan": 7184,
      "troop": 7185,
      "medium": 7186,
      "buzz": 7187,
      "effic": 7188,
      "holders": 7189,
      "signals": 7190,
      "motive": 7191,
      "automaker": 7192,
      "rockies": 7193,
      "49ers": 7194,
      "survived": 7195,
      "replaced": 7196,
      "captors": 7197,
      "crystal": 7198,
      "devastating": 7199,
      "minority": 7200,
      "destroyed": 7201,
      "estyle": 7202,
      "aar": 7203,
      "aero": 7204,
      "hide": 7205,
      "heral": 7206,
      "kok": 7207,
      "q3": 7208,
      "tab": 7209,
      "uan": 7210,
      "arist": 7211,
      "arrive": 7212,
      "seats": 7213,
      "forth": 7214,
      "pey": 7215,
      "newratings": 7216,
      "shape": 7217,
      "teach": 7218,
      "ource": 7219,
      "derail": 7220,
      "losed": 7221,
      "colon": 7222,
      "11th": 7223,
      "buildings": 7224,
      "hikes": 7225,
      "queen": 7226,
      "damaged": 7227,
      "doubleclick": 7228,
      "grizz": 7229,
      "teenager": 7230,
      "location": 7231,
      "siliconvalley": 7232,
      "guidant": 7233,
      "continental": 7234,
      "cambodia": 7235,
      "bast": 7236,
      "bie": 7237,
      "craw": 7238,
      "centers": 7239,
      "fuj": 7240,
      "inos": 7241,
      "removed": 7242,
      "ishi": 7243,
      "charging": 7244,
      "leagu": 7245,
      "breach": 7246,
      "patrol": 7247,
      "supporting": 7248,
      "dynam": 7249,
      "employers": 7250,
      "disclosed": 7251,
      "society": 7252,
      "mingham": 7253,
      "dawn": 7254,
      "dominate": 7255,
      "happened": 7256,
      "husband": 7257,
      "birmingham": 7258,
      "conducted": 7259,
      "complaint": 7260,
      "rwanda": 7261,
      "chaos": 7262,
      "honey": 7263,
      "scan": 7264,
      "recalls": 7265,
      "atta": 7266,
      "rog": 7267,
      "upon": 7268,
      "gross": 7269,
      "workforce": 7270,
      "tten": 7271,
      "billionaire": 7272,
      "ortiz": 7273,
      "finale": 7274,
      "singles": 7275,
      "yanks": 7276,
      "popul": 7277,
      "glass": 7278,
      "iverse": 7279,
      "daugh": 7280,
      "mexican": 7281,
      "liberty": 7282,
      "indicated": 7283,
      "mandu": 7284,
      "written": 7285,
      "bail": 7286,
      "gment": 7287,
      "gift": 7288,
      "hid": 7289,
      "tow": 7290,
      "leap": 7291,
      "unrest": 7292,
      "pledge": 7293,
      "abroad": 7294,
      "compound": 7295,
      "timber": 7296,
      "landed": 7297,
      "shoot": 7298,
      "belgian": 7299,
      "longest": 7300,
      "hamstring": 7301,
      "blocks": 7302,
      "morris": 7303,
      "submarine": 7304,
      "shortage": 7305,
      "robinson": 7306,
      "freshman": 7307,
      "sweet": 7308,
      "finishing": 7309,
      "electricity": 7310,
      "jacksonville": 7311,
      "vulnerable": 7312,
      "speaking": 7313,
      "savings": 7314,
      "pioneer": 7315,
      "suddenly": 7316,
      "wmt": 7317,
      "wholesale": 7318,
      "nuggets": 7319,
      "58": 7320,
      "dub": 7321,
      "ike": 7322,
      "mare": 7323,
      "wagen": 7324,
      "yes": 7325,
      "zur": 7326,
      "zook": 7327,
      "thus": 7328,
      "thunder": 7329,
      "anwar": 7330,
      "lean": 7331,
      "chko": 7332,
      "uni": 7333,
      "urging": 7334,
      "commod": 7335,
      "kswagen": 7336,
      "tracks": 7337,
      "overcome": 7338,
      "hailed": 7339,
      "berlus": 7340,
      "volkswagen": 7341,
      "digit": 7342,
      "trees": 7343,
      "favre": 7344,
      "louisville": 7345,
      "estimate": 7346,
      "ranging": 7347,
      "parliamentary": 7348,
      "salvation": 7349,
      "sabot": 7350,
      "jamaica": 7351,
      "article": 7352,
      "km": 7353,
      "mous": 7354,
      "nbc": 7355,
      "qb": 7356,
      "yug": 7357,
      "reward": 7358,
      "atile": 7359,
      "unusual": 7360,
      "conced": 7361,
      "expo": 7362,
      "margin": 7363,
      "raib": 7364,
      "hait": 7365,
      "incident": 7366,
      "ongyang": 7367,
      "soyu": 7368,
      "insists": 7369,
      "ghraib": 7370,
      "shawn": 7371,
      "accuses": 7372,
      "subpo": 7373,
      "packed": 7374,
      "bayern": 7375,
      "treo": 7376,
      "eventually": 7377,
      "pyongyang": 7378,
      "louisiana": 7379,
      "tommy": 7380,
      "spokeswoman": 7381,
      "various": 7382,
      "penalties": 7383,
      "valuable": 7384,
      "guerrillas": 7385,
      "ambitions": 7386,
      "negative": 7387,
      "tribun": 7388,
      "marriage": 7389,
      "grizzlies": 7390,
      "berlusconi": 7391,
      "87": 7392,
      "abe": 7393,
      "fai": 7394,
      "none": 7395,
      "raft": 7396,
      "soun": 7397,
      "stays": 7398,
      "tery": 7399,
      "wired": 7400,
      "moss": 7401,
      "prob": 7402,
      "worn": 7403,
      "worms": 7404,
      "mah": 7405,
      "nett": 7406,
      "soren": 7407,
      "retain": 7408,
      "ashes": 7409,
      "posting": 7410,
      "addition": 7411,
      "holidays": 7412,
      "ubishi": 7413,
      "declines": 7414,
      "availability": 7415,
      "inventory": 7416,
      "abdul": 7417,
      "mitsubishi": 7418,
      "overshad": 7419,
      "holmes": 7420,
      "attendants": 7421,
      "pocket": 7422,
      "aerospace": 7423,
      "soyuz": 7424,
      "souness": 7425,
      "eves": 7426,
      "fights": 7427,
      "hague": 7428,
      "leng": 7429,
      "remark": 7430,
      "ature": 7431,
      "ateral": 7432,
      "encounter": 7433,
      "isse": 7434,
      "andan": 7435,
      "terry": 7436,
      "beha": 7437,
      "verge": 7438,
      "withdrew": 7439,
      "probes": 7440,
      "ulted": 7441,
      "cloning": 7442,
      "paraly": 7443,
      "viewed": 7444,
      "glitch": 7445,
      "speedway": 7446,
      "eager": 7447,
      "pounded": 7448,
      "madison": 7449,
      "telecoms": 7450,
      "phillips": 7451,
      "eliminate": 7452,
      "bangkok": 7453,
      "desperate": 7454,
      "massacre": 7455,
      "sep": 7456,
      "pei": 7457,
      "ister": 7458,
      "serge": 7459,
      "ograp": 7460,
      "syrian": 7461,
      "delivers": 7462,
      "athlon": 7463,
      "walked": 7464,
      "standoff": 7465,
      "intellect": 7466,
      "valen": 7467,
      "label": 7468,
      "ski": 7469,
      "blackburn": 7470,
      "laboratory": 7471,
      "negotiators": 7472,
      "happen": 7473,
      "remind": 7474,
      "ravaged": 7475,
      "malaysian": 7476,
      "mysterious": 7477,
      "milestone": 7478,
      "monitoring": 7479,
      "transportation": 7480,
      "rapidly": 7481,
      "cloud": 7482,
      "saints": 7483,
      "nuke": 7484,
      "coffee": 7485,
      "aristide": 7486,
      "900": 7487,
      "sights": 7488,
      "chron": 7489,
      "unable": 7490,
      "beaut": 7491,
      "pest": 7492,
      "ineon": 7493,
      "berth": 7494,
      "michel": 7495,
      "canc": 7496,
      "dealers": 7497,
      "brewers": 7498,
      "considers": 7499,
      "divided": 7500,
      "directly": 7501,
      "observers": 7502,
      "infineon": 7503,
      "pitcairn": 7504,
      "suggesting": 7505,
      "certainly": 7506,
      "animals": 7507,
      "santander": 7508,
      "venezuelan": 7509,
      "tanks": 7510,
      "prescription": 7511,
      "twist": 7512,
      "tribunal": 7513,
      "120": 7514,
      "dish": 7515,
      "fbi": 7516,
      "jona": 7517,
      "uals": 7518,
      "stum": 7519,
      "unle": 7520,
      "agric": 7521,
      "porno": 7522,
      "occur": 7523,
      "bruce": 7524,
      "bure": 7525,
      "doctor": 7526,
      "surrender": 7527,
      "throws": 7528,
      "rankings": 7529,
      "hardt": 7530,
      "advice": 7531,
      "equal": 7532,
      "aides": 7533,
      "simpl": 7534,
      "clears": 7535,
      "royals": 7536,
      "completing": 7537,
      "replacing": 7538,
      "mistakes": 7539,
      "earnhardt": 7540,
      "plunged": 7541,
      "gdp": 7542,
      "particularly": 7543,
      "montgomerie": 7544,
      "faith": 7545,
      "valencia": 7546,
      "jonathan": 7547,
      "ascus": 7548,
      "roster": 7549,
      "ila": 7550,
      "ambi": 7551,
      "lowe": 7552,
      "conven": 7553,
      "shir": 7554,
      "earns": 7555,
      "iaea": 7556,
      "quoted": 7557,
      "answers": 7558,
      "gerr": 7559,
      "supports": 7560,
      "teammate": 7561,
      "vik": 7562,
      "patient": 7563,
      "damascus": 7564,
      "junk": 7565,
      "hundred": 7566,
      "taipei": 7567,
      "involvement": 7568,
      "tougher": 7569,
      "gathering": 7570,
      "affected": 7571,
      "batteries": 7572,
      "bam": 7573,
      "bone": 7574,
      "eers": 7575,
      "fidel": 7576,
      "hend": 7577,
      "psp": 7578,
      "ql": 7579,
      "temp": 7580,
      "xm": 7581,
      "alaska": 7582,
      "totten": 7583,
      "igno": 7584,
      "beer": 7585,
      "afee": 7586,
      "riot": 7587,
      "outcome": 7588,
      "clues": 7589,
      "crunch": 7590,
      "meyer": 7591,
      "aviv": 7592,
      "warplanes": 7593,
      "shook": 7594,
      "anged": 7595,
      "schwar": 7596,
      "hander": 7597,
      "mci": 7598,
      "receiving": 7599,
      "uja": 7600,
      "hunger": 7601,
      "battling": 7602,
      "flee": 7603,
      "upgrades": 7604,
      "revive": 7605,
      "honor": 7606,
      "romania": 7607,
      "pieces": 7608,
      "freddie": 7609,
      "constitutional": 7610,
      "uncertainty": 7611,
      "occupied": 7612,
      "swimming": 7613,
      "kathmandu": 7614,
      "atmosphere": 7615,
      "belarus": 7616,
      "aaron": 7617,
      "behavi": 7618,
      "tottenham": 7619,
      "fake": 7620,
      "iam": 7621,
      "qwest": 7622,
      "rut": 7623,
      "rss": 7624,
      "orts": 7625,
      "isive": 7626,
      "ighter": 7627,
      "saver": 7628,
      "sponso": 7629,
      "clubs": 7630,
      "hello": 7631,
      "colm": 7632,
      "unchanged": 7633,
      "expenses": 7634,
      "gotten": 7635,
      "purdue": 7636,
      "pursue": 7637,
      "malcolm": 7638,
      "fueled": 7639,
      "hybrid": 7640,
      "tracking": 7641,
      "pulling": 7642,
      "jointly": 7643,
      "girls": 7644,
      "govt": 7645,
      "ordinary": 7646,
      "enhance": 7647,
      "libraries": 7648,
      "grabbed": 7649,
      "mercury": 7650,
      "genetic": 7651,
      "sponsored": 7652,
      "hem": 7653,
      "jar": 7654,
      "refin": 7655,
      "enable": 7656,
      "cox": 7657,
      "amel": 7658,
      "imminent": 7659,
      "indo": 7660,
      "undis": 7661,
      "maj": 7662,
      "disrup": 7663,
      "soar": 7664,
      "wouldn": 7665,
      "palms": 7666,
      "pressed": 7667,
      "hitachi": 7668,
      "readies": 7669,
      "latin": 7670,
      "appealed": 7671,
      "tradem": 7672,
      "closest": 7673,
      "greenhouse": 7674,
      "interests": 7675,
      "damages": 7676,
      "hornets": 7677,
      "dominance": 7678,
      "stayed": 7679,
      "rafael": 7680,
      "weighs": 7681,
      "significantly": 7682,
      "garden": 7683,
      "mumbai": 7684,
      "115": 7685,
      "bhp": 7686,
      "dd": 7687,
      "kom": 7688,
      "nm": 7689,
      "rit": 7690,
      "preser": 7691,
      "presid": 7692,
      "troy": 7693,
      "ghz": 7694,
      "provision": 7695,
      "fedex": 7696,
      "fallen": 7697,
      "publicly": 7698,
      "firewall": 7699,
      "mcafee": 7700,
      "tvs": 7701,
      "qualcomm": 7702,
      "negotiating": 7703,
      "viacom": 7704,
      "ownership": 7705,
      "surprised": 7706,
      "stanford": 7707,
      "medicine": 7708,
      "erupted": 7709,
      "suzuki": 7710,
      "catholic": 7711,
      "zurich": 7712,
      "bureau": 7713,
      "cate": 7714,
      "divers": 7715,
      "gem": 7716,
      "iyad": 7717,
      "joc": 7718,
      "jpeg": 7719,
      "kreme": 7720,
      "sql": 7721,
      "tz": 7722,
      "roof": 7723,
      "deton": 7724,
      "pling": 7725,
      "trucks": 7726,
      "buoy": 7727,
      "irez": 7728,
      "guill": 7729,
      "solic": 7730,
      "rocks": 7731,
      "junior": 7732,
      "ramirez": 7733,
      "hung": 7734,
      "fifa": 7735,
      "flew": 7736,
      "logic": 7737,
      "ukrainian": 7738,
      "vulnerability": 7739,
      "73": 7740,
      "93": 7741,
      "dere": 7742,
      "dave": 7743,
      "hart": 7744,
      "vow": 7745,
      "zed": 7746,
      "edon": 7747,
      "anderson": 7748,
      "portland": 7749,
      "lau": 7750,
      "assists": 7751,
      "ericsson": 7752,
      "drama": 7753,
      "understand": 7754,
      "bloc": 7755,
      "creates": 7756,
      "rossi": 7757,
      "pleas": 7758,
      "slowly": 7759,
      "homers": 7760,
      "popularity": 7761,
      "celebrated": 7762,
      "filmmaker": 7763,
      "disappointed": 7764,
      "alexander": 7765,
      "stanley": 7766,
      "clinched": 7767,
      "vulnerabilities": 7768,
      "embargo": 7769,
      "symbian": 7770,
      "sleep": 7771,
      "acknowledged": 7772,
      "1990s": 7773,
      "lobby": 7774,
      "items": 7775,
      "klits": 7776,
      "krispy": 7777,
      "maoist": 7778,
      "rodrigue": 7779,
      "reputation": 7780,
      "rodriguez": 7781,
      "damp": 7782,
      "tas": 7783,
      "vit": 7784,
      "yud": 7785,
      "eries": 7786,
      "ently": 7787,
      "ours": 7788,
      "permission": 7789,
      "diss": 7790,
      "relatively": 7791,
      "header": 7792,
      "jeeves": 7793,
      "tale": 7794,
      "barr": 7795,
      "scheme": 7796,
      "consult": 7797,
      "chipmaker": 7798,
      "communication": 7799,
      "acquiring": 7800,
      "videot": 7801,
      "contractor": 7802,
      "supermarket": 7803,
      "agreements": 7804,
      "barrels": 7805,
      "floor": 7806,
      "dvds": 7807,
      "animation": 7808,
      "meaning": 7809,
      "kelson": 7810,
      "repeated": 7811,
      "grenade": 7812,
      "delegation": 7813,
      "skipper": 7814,
      "suspicion": 7815,
      "exercise": 7816,
      "kiev": 7817,
      "bans": 7818,
      "baker": 7819,
      "iate": 7820,
      "jin": 7821,
      "kan": 7822,
      "kit": 7823,
      "nold": 7824,
      "nology": 7825,
      "sick": 7826,
      "xim": 7827,
      "thwart": 7828,
      "ontar": 7829,
      "theory": 7830,
      "amate": 7831,
      "mode": 7832,
      "blind": 7833,
      "intention": 7834,
      "odds": 7835,
      "kett": 7836,
      "belong": 7837,
      "austin": 7838,
      "learning": 7839,
      "sporting": 7840,
      "basis": 7841,
      "pursuit": 7842,
      "departure": 7843,
      "loaded": 7844,
      "nature": 7845,
      "paula": 7846,
      "batting": 7847,
      "indefin": 7848,
      "sitting": 7849,
      "goran": 7850,
      "bulls": 7851,
      "dialogue": 7852,
      "triggered": 7853,
      "tycoon": 7854,
      "dhaka": 7855,
      "sorenstam": 7856,
      "cds": 7857,
      "cats": 7858,
      "dome": 7859,
      "fon": 7860,
      "pile": 7861,
      "sne": 7862,
      "sink": 7863,
      "wise": 7864,
      "icate": 7865,
      "ouver": 7866,
      "ouri": 7867,
      "chosen": 7868,
      "unknown": 7869,
      "ura": 7870,
      "defect": 7871,
      "hoyon": 7872,
      "omar": 7873,
      "lyon": 7874,
      "rahim": 7875,
      "presents": 7876,
      "soars": 7877,
      "releasing": 7878,
      "bombers": 7879,
      "costly": 7880,
      "volatile": 7881,
      "acquires": 7882,
      "counterfe": 7883,
      "liberal": 7884,
      "detainees": 7885,
      "condemned": 7886,
      "ripped": 7887,
      "kilome": 7888,
      "inaugural": 7889,
      "adopted": 7890,
      "concluded": 7891,
      "presidency": 7892,
      "klitschko": 7893,
      "yudhoyon": 7894,
      "ontario": 7895,
      "yudhoyono": 7896,
      "ares": 7897,
      "biz": 7898,
      "dino": 7899,
      "hud": 7900,
      "hedge": 7901,
      "nut": 7902,
      "vanc": 7903,
      "thy": 7904,
      "lex": 7905,
      "cole": 7906,
      "beleagu": 7907,
      "oted": 7908,
      "compromise": 7909,
      "uprising": 7910,
      "plagu": 7911,
      "offshore": 7912,
      "cla": 7913,
      "rah": 7914,
      "gtime": 7915,
      "mickelson": 7916,
      "cancell": 7917,
      "liable": 7918,
      "renault": 7919,
      "angle": 7920,
      "rivers": 7921,
      "striking": 7922,
      "rants": 7923,
      "harrington": 7924,
      "wells": 7925,
      "blocked": 7926,
      "photograph": 7927,
      "audit": 7928,
      "drawn": 7929,
      "fischer": 7930,
      "longtime": 7931,
      "siebel": 7932,
      "sensitive": 7933,
      "repeat": 7934,
      "conservation": 7935,
      "dictator": 7936,
      "fatal": 7937,
      "tendul": 7938,
      "ambitious": 7939,
      "breeders": 7940,
      "casualties": 7941,
      "volcano": 7942,
      "alabama": 7943,
      "collapsed": 7944,
      "peyton": 7945,
      "vancouver": 7946,
      "beleaguered": 7947,
      "eat": 7948,
      "grav": 7949,
      "lp": 7950,
      "wab": 7951,
      "wicket": 7952,
      "atp": 7953,
      "ento": 7954,
      "vet": 7955,
      "aped": 7956,
      "moments": 7957,
      "owns": 7958,
      "slams": 7959,
      "slashed": 7960,
      "regions": 7961,
      "calend": 7962,
      "profitable": 7963,
      "starbucks": 7964,
      "ultane": 7965,
      "telephony": 7966,
      "cheer": 7967,
      "singer": 7968,
      "facilities": 7969,
      "please": 7970,
      "stepping": 7971,
      "simultane": 7972,
      "prisoner": 7973,
      "boxes": 7974,
      "exploit": 7975,
      "audience": 7976,
      "shield": 7977,
      "iffs": 7978,
      "agreeing": 7979,
      "exploration": 7980,
      "integrated": 7981,
      "bernie": 7982,
      "bloomberg": 7983,
      "elsewhere": 7984,
      "experimental": 7985,
      "sustained": 7986,
      "magnitude": 7987,
      "advertisement": 7988,
      "mavericks": 7989,
      "intellectual": 7990,
      "brett": 7991,
      "mul": 7992,
      "mice": 7993,
      "santi": 7994,
      "villa": 7995,
      "edt": 7996,
      "edges": 7997,
      "acular": 7998,
      "unanim": 7999
    },
    "merges": [
      [
        "i",
        "n"
      ],
      [
        "t",
        "h"
      ],
      [
        "e",
        "r"
      ],
      [
        "a",
        "n"
      ],
      [
        "o",
        "n"
      ],
      [
        "r",
        "e"
      ],
      [
        "s",
        "t"
      ],
      [
        "th",
        "e"
      ],
      [
        "o",
        "r"
      ],
      [
        "a",
        "t"
      ],
      [
        "e",
        "n"
      ],
      [
        "e",
        "d"
      ],
      [
        "a",
        "r"
      ],
      [
        "a",
        "l"
      ],
      [
        "e",
        "s"
      ],
      [
        "t",
        "o"
      ],
      [
        "in",
        "g"
      ],
      [
        "i",
        "t"
      ],
      [
        "o",
        "f"
      ],
      [
        "a",
        "s"
      ],
      [
        "i",
        "c"
      ],
      [
        "i",
        "s"
      ],
      [
        "r",
        "o"
      ],
      [
        "l",
        "e"
      ],
      [
        "a",
        "y"
      ],
      [
        "o",
        "u"
      ],
      [
        "an",
        "d"
      ],
      [
        "i",
        "l"
      ],
      [
        "i",
        "on"
      ],
      [
        "c",
        "h"
      ],
      [
        "s",
        "e"
      ],
      [
        "i",
        "d"
      ],
      [
        "t",
        "er"
      ],
      [
        "c",
        "o"
      ],
      [
        "a",
        "d"
      ],
      [
        "f",
        "or"
      ],
      [
        "e",
        "l"
      ],
      [
        "a",
        "c"
      ],
      [
        "a",
        "m"
      ],
      [
        "en",
        "t"
      ],
      [
        "i",
        "r"
      ],
      [
        "u",
        "n"
      ],
      [
        "n",
        "e"
      ],
      [
        "u",
        "r"
      ],
      [
        "d",
        "ay"
      ],
      [
        "i",
        "g"
      ],
      [
        "u",
        "s"
      ],
      [
        "o",
        "l"
      ],
      [
        "v",
        "e"
      ],
      [
        "a",
        "p"
      ],
      [
        "a",
        "g"
      ],
      [
        "er",
        "s"
      ],
      [
        "d",
        "e"
      ],
      [
        "b",
        "e"
      ],
      [
        "o",
        "t"
      ],
      [
        "3",
        "9"
      ],
      [
        "il",
        "l"
      ],
      [
        "l",
        "o"
      ],
      [
        "co",
        "m"
      ],
      [
        "i",
        "m"
      ],
      [
        "t",
        "s"
      ],
      [
        "v",
        "er"
      ],
      [
        "c",
        "on"
      ],
      [
        "q",
        "u"
      ],
      [
        "u",
        "p"
      ],
      [
        "p",
        "e"
      ],
      [
        "re",
        "s"
      ],
      [
        "w",
        "i"
      ],
      [
        "u",
        "t"
      ],
      [
        "at",
        "ion"
      ],
      [
        "e",
        "st"
      ],
      [
        "k",
        "e"
      ],
      [
        "h",
        "o"
      ],
      [
        "al",
        "l"
      ],
      [
        "c",
        "e"
      ],
      [
        "p",
        "l"
      ],
      [
        "a",
        "f"
      ],
      [
        "m",
        "o"
      ],
      [
        "c",
        "t"
      ],
      [
        "r",
        "i"
      ],
      [
        "wi",
        "th"
      ],
      [
        "p",
        "ro"
      ],
      [
        "u",
        "l"
      ],
      [
        "ig",
        "h"
      ],
      [
        "o",
        "p"
      ],
      [
        "ne",
        "w"
      ],
      [
        "th",
        "at"
      ],
      [
        "e",
        "x"
      ],
      [
        "it",
        "s"
      ],
      [
        "a",
        "re"
      ],
      [
        "a",
        "b"
      ],
      [
        "s",
        "h"
      ],
      [
        "a",
        "in"
      ],
      [
        "e",
        "ar"
      ],
      [
        "a",
        "st"
      ],
      [
        "o",
        "w"
      ],
      [
        "e",
        "m"
      ],
      [
        "s",
        "a"
      ],
      [
        "ter",
        "s"
      ],
      [
        "i",
        "st"
      ],
      [
        "g",
        "e"
      ],
      [
        "p",
        "r"
      ],
      [
        "o",
        "m"
      ],
      [
        "l",
        "d"
      ],
      [
        "k",
        "s"
      ],
      [
        "w",
        "or"
      ],
      [
        "b",
        "y"
      ],
      [
        "ou",
        "n"
      ],
      [
        "t",
        "r"
      ],
      [
        "l",
        "y"
      ],
      [
        "h",
        "e"
      ],
      [
        "i",
        "an"
      ],
      [
        "s",
        "u"
      ],
      [
        "w",
        "e"
      ],
      [
        "s",
        "p"
      ],
      [
        "o",
        "ver"
      ],
      [
        "at",
        "e"
      ],
      [
        "t",
        "e"
      ],
      [
        "0",
        "0"
      ],
      [
        "m",
        "an"
      ],
      [
        "u",
        "ters"
      ],
      [
        "sa",
        "id"
      ],
      [
        "a",
        "k"
      ],
      [
        "ou",
        "t"
      ],
      [
        "p",
        "o"
      ],
      [
        "h",
        "as"
      ],
      [
        "of",
        "f"
      ],
      [
        "i",
        "a"
      ],
      [
        "w",
        "h"
      ],
      [
        "re",
        "uters"
      ],
      [
        "ou",
        "r"
      ],
      [
        "en",
        "d"
      ],
      [
        "i",
        "es"
      ],
      [
        "es",
        "s"
      ],
      [
        "ro",
        "m"
      ],
      [
        "m",
        "ent"
      ],
      [
        "m",
        "on"
      ],
      [
        "w",
        "as"
      ],
      [
        "p",
        "or"
      ],
      [
        "f",
        "rom"
      ],
      [
        "igh",
        "t"
      ],
      [
        "c",
        "l"
      ],
      [
        "com",
        "p"
      ],
      [
        "u",
        "st"
      ],
      [
        "ac",
        "k"
      ],
      [
        "m",
        "ar"
      ],
      [
        "in",
        "d"
      ],
      [
        "it",
        "y"
      ],
      [
        "i",
        "f"
      ],
      [
        "r",
        "a"
      ],
      [
        "w",
        "ill"
      ],
      [
        "h",
        "a"
      ],
      [
        "ar",
        "d"
      ],
      [
        "t",
        "w"
      ],
      [
        "c",
        "or"
      ],
      [
        "i",
        "e"
      ],
      [
        "i",
        "v"
      ],
      [
        "th",
        "er"
      ],
      [
        "o",
        "c"
      ],
      [
        "on",
        "e"
      ],
      [
        "h",
        "is"
      ],
      [
        "b",
        "o"
      ],
      [
        "in",
        "e"
      ],
      [
        "i",
        "p"
      ],
      [
        ".",
        "."
      ],
      [
        "af",
        "ter"
      ],
      [
        "qu",
        "ot"
      ],
      [
        "es",
        "day"
      ],
      [
        "s",
        "er"
      ],
      [
        "i",
        "al"
      ],
      [
        "i",
        "ve"
      ],
      [
        "y",
        "ear"
      ],
      [
        "f",
        "o"
      ],
      [
        "l",
        "t"
      ],
      [
        "u",
        "m"
      ],
      [
        "re",
        "d"
      ],
      [
        "f",
        "ir"
      ],
      [
        "ar",
        "t"
      ],
      [
        "p",
        "er"
      ],
      [
        "f",
        "r"
      ],
      [
        "p",
        "res"
      ],
      [
        "g",
        "t"
      ],
      [
        "ic",
        "e"
      ],
      [
        "b",
        "l"
      ],
      [
        "u",
        "g"
      ],
      [
        "c",
        "r"
      ],
      [
        "b",
        "r"
      ],
      [
        "an",
        "t"
      ],
      [
        "in",
        "ter"
      ],
      [
        "ac",
        "e"
      ],
      [
        "m",
        "e"
      ],
      [
        "re",
        "e"
      ],
      [
        "n",
        "o"
      ],
      [
        "b",
        "er"
      ],
      [
        "g",
        "o"
      ],
      [
        "el",
        "l"
      ],
      [
        "por",
        "t"
      ],
      [
        "ou",
        "ld"
      ],
      [
        "t",
        "a"
      ],
      [
        "ol",
        "d"
      ],
      [
        "l",
        "a"
      ],
      [
        "an",
        "s"
      ],
      [
        "un",
        "d"
      ],
      [
        "ha",
        "ve"
      ],
      [
        "in",
        "c"
      ],
      [
        "m",
        "a"
      ],
      [
        "b",
        "ut"
      ],
      [
        "s",
        "of"
      ],
      [
        "n",
        "ing"
      ],
      [
        "ac",
        "t"
      ],
      [
        "\\",
        "$"
      ],
      [
        "g",
        "ro"
      ],
      [
        "u",
        "d"
      ],
      [
        "a",
        "ir"
      ],
      [
        "ill",
        "ion"
      ],
      [
        "the",
        "ir"
      ],
      [
        "lo",
        "w"
      ],
      [
        "on",
        "g"
      ],
      [
        "am",
        "p"
      ],
      [
        "ne",
        "t"
      ],
      [
        "m",
        "er"
      ],
      [
        "p",
        "h"
      ],
      [
        "comp",
        "an"
      ],
      [
        "am",
        "e"
      ],
      [
        "tw",
        "o"
      ],
      [
        "ow",
        "n"
      ],
      [
        "a",
        "v"
      ],
      [
        "n",
        "ation"
      ],
      [
        "j",
        "o"
      ],
      [
        "a",
        "q"
      ],
      [
        "at",
        "t"
      ],
      [
        "t",
        "im"
      ],
      [
        "as",
        "s"
      ],
      [
        "id",
        "e"
      ],
      [
        "t",
        "u"
      ],
      [
        "er",
        "e"
      ],
      [
        "fir",
        "st"
      ],
      [
        "c",
        "ent"
      ],
      [
        "i",
        "le"
      ],
      [
        "id",
        "ent"
      ],
      [
        "is",
        "h"
      ],
      [
        "le",
        "ad"
      ],
      [
        "m",
        "ic"
      ],
      [
        "m",
        "in"
      ],
      [
        "wor",
        "ld"
      ],
      [
        "b",
        "us"
      ],
      [
        "f",
        "in"
      ],
      [
        "se",
        "c"
      ],
      [
        "ion",
        "s"
      ],
      [
        "ic",
        "k"
      ],
      [
        "ig",
        "n"
      ],
      [
        "w",
        "ed"
      ],
      [
        "u",
        "e"
      ],
      [
        "in",
        "t"
      ],
      [
        "mo",
        "re"
      ],
      [
        "ir",
        "aq"
      ],
      [
        "o",
        "d"
      ],
      [
        "we",
        "e"
      ],
      [
        "an",
        "n"
      ],
      [
        "ag",
        "e"
      ],
      [
        "r",
        "y"
      ],
      [
        "ay",
        "s"
      ],
      [
        "o",
        "g"
      ],
      [
        "-",
        "-"
      ],
      [
        "n",
        "ot"
      ],
      [
        "d",
        "is"
      ],
      [
        "o",
        "k"
      ],
      [
        "2",
        "00"
      ],
      [
        "ag",
        "ain"
      ],
      [
        "s",
        "o"
      ],
      [
        "or",
        "s"
      ],
      [
        "f",
        "l"
      ],
      [
        "u",
        "c"
      ],
      [
        "in",
        "s"
      ],
      [
        "f",
        "e"
      ],
      [
        "a",
        "ch"
      ],
      [
        "c",
        "an"
      ],
      [
        "ic",
        "es"
      ],
      [
        "as",
        "e"
      ],
      [
        "g",
        "r"
      ],
      [
        "t",
        "on"
      ],
      [
        "st",
        "r"
      ],
      [
        "b",
        "an"
      ],
      [
        "th",
        "is"
      ],
      [
        "t",
        "ing"
      ],
      [
        "en",
        "s"
      ],
      [
        "est",
        "er"
      ],
      [
        "f",
        "i"
      ],
      [
        "l",
        "i"
      ],
      [
        "e",
        "u"
      ],
      [
        "at",
        "es"
      ],
      [
        "ur",
        "s"
      ],
      [
        "pl",
        "ay"
      ],
      [
        "s",
        "s"
      ],
      [
        "o",
        "il"
      ],
      [
        "c",
        "oun"
      ],
      [
        "compan",
        "y"
      ],
      [
        "b",
        "ack"
      ],
      [
        "it",
        "e"
      ],
      [
        "th",
        "an"
      ],
      [
        "wor",
        "k"
      ],
      [
        "id",
        "ay"
      ],
      [
        "h",
        "el"
      ],
      [
        "m",
        "is"
      ],
      [
        "h",
        "igh"
      ],
      [
        "mon",
        "day"
      ],
      [
        "w",
        "ar"
      ],
      [
        "pres",
        "ident"
      ],
      [
        "s",
        "un"
      ],
      [
        "wed",
        "n"
      ],
      [
        "wedn",
        "esday"
      ],
      [
        "..",
        "."
      ],
      [
        "tu",
        "esday"
      ],
      [
        "p",
        "ol"
      ],
      [
        "f",
        "ul"
      ],
      [
        "ar",
        "ch"
      ],
      [
        "a",
        "u"
      ],
      [
        "v",
        "en"
      ],
      [
        "t",
        "ro"
      ],
      [
        "re",
        "l"
      ],
      [
        "p",
        "t"
      ],
      [
        "th",
        "urs"
      ],
      [
        "thurs",
        "day"
      ],
      [
        "or",
        "y"
      ],
      [
        "oun",
        "d"
      ],
      [
        "l",
        "ar"
      ],
      [
        "ic",
        "h"
      ],
      [
        "st",
        "oc"
      ],
      [
        "cor",
        "d"
      ],
      [
        "i",
        "z"
      ],
      [
        "g",
        "er"
      ],
      [
        "i",
        "b"
      ],
      [
        "ar",
        "y"
      ],
      [
        "le",
        "ct"
      ],
      [
        "m",
        "ed"
      ],
      [
        "se",
        "t"
      ],
      [
        "wee",
        "k"
      ],
      [
        "b",
        "u"
      ],
      [
        "mic",
        "ro"
      ],
      [
        "ad",
        "e"
      ],
      [
        "w",
        "ho"
      ],
      [
        "en",
        "ce"
      ],
      [
        "c",
        "ar"
      ],
      [
        "again",
        "st"
      ],
      [
        "ser",
        "v"
      ],
      [
        "ke",
        "t"
      ],
      [
        "fr",
        "iday"
      ],
      [
        "d",
        "own"
      ],
      [
        "ge",
        "t"
      ],
      [
        "at",
        "ed"
      ],
      [
        "s",
        "y"
      ],
      [
        "in",
        "to"
      ],
      [
        "re",
        "n"
      ],
      [
        "it",
        "ed"
      ],
      [
        "l",
        "and"
      ],
      [
        "s",
        "ho"
      ],
      [
        "l",
        "ast"
      ],
      [
        "ve",
        "st"
      ],
      [
        "fo",
        "re"
      ],
      [
        "ation",
        "s"
      ],
      [
        "p",
        "art"
      ],
      [
        "se",
        "arch"
      ],
      [
        "an",
        "ce"
      ],
      [
        "w",
        "in"
      ],
      [
        "k",
        "ill"
      ],
      [
        "in",
        "vest"
      ],
      [
        "m",
        "ak"
      ],
      [
        "qu",
        "ar"
      ],
      [
        "g",
        "h"
      ],
      [
        "re",
        "port"
      ],
      [
        "ou",
        "s"
      ],
      [
        "the",
        "y"
      ],
      [
        "re",
        "t"
      ],
      [
        "er",
        "ic"
      ],
      [
        "sof",
        "t"
      ],
      [
        "m",
        "illion"
      ],
      [
        "ab",
        "out"
      ],
      [
        "off",
        "ic"
      ],
      [
        "s",
        "c"
      ],
      [
        "y",
        "or"
      ],
      [
        "s",
        "al"
      ],
      [
        ";",
        "/"
      ],
      [
        "nation",
        "al"
      ],
      [
        "l",
        "in"
      ],
      [
        "yor",
        "k"
      ],
      [
        "ur",
        "n"
      ],
      [
        "an",
        "c"
      ],
      [
        "pr",
        "of"
      ],
      [
        "as",
        "on"
      ],
      [
        "pe",
        "ct"
      ],
      [
        "l",
        "ine"
      ],
      [
        "s",
        "up"
      ],
      [
        "all",
        "y"
      ],
      [
        "quar",
        "ter"
      ],
      [
        "eu",
        "ro"
      ],
      [
        "tim",
        "e"
      ],
      [
        "y",
        "ester"
      ],
      [
        "yester",
        "day"
      ],
      [
        "ic",
        "t"
      ],
      [
        "l",
        "l"
      ],
      [
        "e",
        "lect"
      ],
      [
        "to",
        "p"
      ],
      [
        "con",
        "d"
      ],
      [
        "th",
        "ree"
      ],
      [
        "ap",
        "p"
      ],
      [
        "an",
        "g"
      ],
      [
        "as",
        "h"
      ],
      [
        "c",
        "k"
      ],
      [
        "micro",
        "soft"
      ],
      [
        "over",
        "n"
      ],
      [
        "g",
        "ame"
      ],
      [
        "b",
        "ro"
      ],
      [
        "mis",
        "s"
      ],
      [
        "in",
        "a"
      ],
      [
        "op",
        "en"
      ],
      [
        "w",
        "ere"
      ],
      [
        "d",
        "es"
      ],
      [
        "p",
        "re"
      ],
      [
        "he",
        "ad"
      ],
      [
        "it",
        "al"
      ],
      [
        "m",
        "il"
      ],
      [
        "st",
        "e"
      ],
      [
        "o",
        "ther"
      ],
      [
        "w",
        "ay"
      ],
      [
        "min",
        "ist"
      ],
      [
        "te",
        "ch"
      ],
      [
        "al",
        "s"
      ],
      [
        "sec",
        "ur"
      ],
      [
        "g",
        "overn"
      ],
      [
        "h",
        "ad"
      ],
      [
        "te",
        "am"
      ],
      [
        "s",
        "at"
      ],
      [
        "p",
        "ar"
      ],
      [
        "d",
        "o"
      ],
      [
        "j",
        "e"
      ],
      [
        "m",
        "s"
      ],
      [
        "be",
        "en"
      ],
      [
        "it",
        "ion"
      ],
      [
        "t",
        "y"
      ],
      [
        "gro",
        "up"
      ],
      [
        "c",
        "ut"
      ],
      [
        "n",
        "or"
      ],
      [
        "a",
        "il"
      ],
      [
        "g",
        "est"
      ],
      [
        "om",
        "e"
      ],
      [
        "cor",
        "p"
      ],
      [
        "ab",
        "le"
      ],
      [
        "am",
        "eric"
      ],
      [
        "f",
        "our"
      ],
      [
        "t",
        "al"
      ],
      [
        "en",
        "g"
      ],
      [
        "s",
        "ays"
      ],
      [
        "r",
        "al"
      ],
      [
        "g",
        "en"
      ],
      [
        "d",
        "er"
      ],
      [
        "u",
        "re"
      ],
      [
        "ir",
        "d"
      ],
      [
        "m",
        "ay"
      ],
      [
        "mon",
        "th"
      ],
      [
        "at",
        "ing"
      ],
      [
        "offic",
        "ial"
      ],
      [
        "c",
        "ap"
      ],
      [
        "ri",
        "v"
      ],
      [
        "se",
        "ason"
      ],
      [
        "c",
        "ed"
      ],
      [
        "un",
        "ited"
      ],
      [
        "b",
        "all"
      ],
      [
        "1",
        "0"
      ],
      [
        "ug",
        "h"
      ],
      [
        "govern",
        "ment"
      ],
      [
        "b",
        "s"
      ],
      [
        "t",
        "ri"
      ],
      [
        "wh",
        "en"
      ],
      [
        "r",
        "is"
      ],
      [
        "b",
        "el"
      ],
      [
        "c",
        "ould"
      ],
      [
        "er",
        "al"
      ],
      [
        "as",
        "ed"
      ],
      [
        "ne",
        "x"
      ],
      [
        "o",
        "re"
      ],
      [
        "s",
        "ur"
      ],
      [
        "se",
        "cond"
      ],
      [
        "stoc",
        "ks"
      ],
      [
        "sun",
        "day"
      ],
      [
        "pro",
        "v"
      ],
      [
        "w",
        "ould"
      ],
      [
        "s",
        "ou"
      ],
      [
        "s",
        "l"
      ],
      [
        "nex",
        "t"
      ],
      [
        "secur",
        "ity"
      ],
      [
        "quot",
        "e"
      ],
      [
        "pr",
        "ices"
      ],
      [
        "c",
        "y"
      ],
      [
        "at",
        "ch"
      ],
      [
        "re",
        "at"
      ],
      [
        "ann",
        "oun"
      ],
      [
        "us",
        "s"
      ],
      [
        "de",
        "v"
      ],
      [
        "on",
        "d"
      ],
      [
        "euro",
        "pe"
      ],
      [
        "re",
        "g"
      ],
      [
        "h",
        "ing"
      ],
      [
        "u",
        "ct"
      ],
      [
        "b",
        "ig"
      ],
      [
        "i",
        "re"
      ],
      [
        "t",
        "est"
      ],
      [
        "ch",
        "ar"
      ],
      [
        "c",
        "ess"
      ],
      [
        "f",
        "er"
      ],
      [
        "d",
        "r"
      ],
      [
        "pl",
        "an"
      ],
      [
        "to",
        "day"
      ],
      [
        "r",
        "ic"
      ],
      [
        "year",
        "s"
      ],
      [
        "s",
        "ome"
      ],
      [
        "op",
        "le"
      ],
      [
        "pe",
        "ople"
      ],
      [
        "n",
        "s"
      ],
      [
        "c",
        "all"
      ],
      [
        "a",
        "z"
      ],
      [
        "per",
        "cent"
      ],
      [
        "ban",
        "k"
      ],
      [
        "wh",
        "ich"
      ],
      [
        "ful",
        "l"
      ],
      [
        "lo",
        "s"
      ],
      [
        "le",
        "g"
      ],
      [
        "new",
        "s"
      ],
      [
        "ol",
        "og"
      ],
      [
        "mo",
        "st"
      ],
      [
        "d",
        "el"
      ],
      [
        "v",
        "i"
      ],
      [
        "tw",
        "are"
      ],
      [
        "af",
        "p"
      ],
      [
        "a",
        "im"
      ],
      [
        "re",
        "cord"
      ],
      [
        "tr",
        "y"
      ],
      [
        "in",
        "ess"
      ],
      [
        "c",
        "our"
      ],
      [
        "sof",
        "tware"
      ],
      [
        "st",
        "em"
      ],
      [
        "ic",
        "al"
      ],
      [
        "pro",
        "d"
      ],
      [
        "c",
        "al"
      ],
      [
        "b",
        "ar"
      ],
      [
        "w",
        "w"
      ],
      [
        "bus",
        "iness"
      ],
      [
        "n",
        "ight"
      ],
      [
        "ic",
        "s"
      ],
      [
        "p",
        "u"
      ],
      [
        "m",
        "us"
      ],
      [
        "r",
        "un"
      ],
      [
        "s",
        "pe"
      ],
      [
        "po",
        "s"
      ],
      [
        "p",
        "al"
      ],
      [
        "mil",
        "it"
      ],
      [
        "g",
        "u"
      ],
      [
        "br",
        "it"
      ],
      [
        "de",
        "al"
      ],
      [
        "ch",
        "amp"
      ],
      [
        "th",
        "ird"
      ],
      [
        "c",
        "er"
      ],
      [
        "de",
        "f"
      ],
      [
        "e",
        "f"
      ],
      [
        "co",
        "l"
      ],
      [
        "con",
        "t"
      ],
      [
        "com",
        "m"
      ],
      [
        "n",
        "ow"
      ],
      [
        "p",
        "ed"
      ],
      [
        "em",
        "ent"
      ],
      [
        "t",
        "ar"
      ],
      [
        "el",
        "y"
      ],
      [
        "p",
        "ut"
      ],
      [
        "ex",
        "pect"
      ],
      [
        "a",
        "th"
      ],
      [
        "st",
        "ate"
      ],
      [
        "for",
        "m"
      ],
      [
        "i",
        "x"
      ],
      [
        "s",
        "ch"
      ],
      [
        "und",
        "er"
      ],
      [
        "o",
        "s"
      ],
      [
        "a",
        "ust"
      ],
      [
        "un",
        "ch"
      ],
      [
        "e",
        "t"
      ],
      [
        "inter",
        "net"
      ],
      [
        "f",
        "ed"
      ],
      [
        "po",
        "st"
      ],
      [
        "sat",
        "ur"
      ],
      [
        "satur",
        "day"
      ],
      [
        "tech",
        "n"
      ],
      [
        "ex",
        "p"
      ],
      [
        "mar",
        "ket"
      ],
      [
        "de",
        "c"
      ],
      [
        "sy",
        "stem"
      ],
      [
        "la",
        "w"
      ],
      [
        "op",
        "er"
      ],
      [
        "was",
        "hing"
      ],
      [
        "t",
        "t"
      ],
      [
        "ch",
        "ina"
      ],
      [
        "v",
        "ict"
      ],
      [
        "j",
        "ap"
      ],
      [
        "washing",
        "ton"
      ],
      [
        "v",
        "is"
      ],
      [
        "jap",
        "an"
      ],
      [
        "b",
        "illion"
      ],
      [
        "ie",
        "f"
      ],
      [
        "j",
        "ust"
      ],
      [
        "w",
        "ard"
      ],
      [
        "be",
        "t"
      ],
      [
        "u",
        "k"
      ],
      [
        "re",
        "le"
      ],
      [
        "l",
        "ed"
      ],
      [
        "h",
        "old"
      ],
      [
        "ist",
        "s"
      ],
      [
        "sal",
        "es"
      ],
      [
        "bus",
        "h"
      ],
      [
        "m",
        "p"
      ],
      [
        "s",
        "co"
      ],
      [
        "c",
        "es"
      ],
      [
        "minist",
        "er"
      ],
      [
        "p",
        "ow"
      ],
      [
        "f",
        "all"
      ],
      [
        "ing",
        "s"
      ],
      [
        "ta",
        "ke"
      ],
      [
        "re",
        "f"
      ],
      [
        "s",
        "an"
      ],
      [
        "le",
        "ar"
      ],
      [
        "gro",
        "w"
      ],
      [
        "b",
        "le"
      ],
      [
        "ag",
        "re"
      ],
      [
[...]
