{
  "version": "1.0",
  "truncation": null,
  "padding": null,
  "added_tokens": [
    {
      "id": 0,
      "content": "<pad>",
      "single_word": false,
      "lstrip": false,
      "rstrip": false,
      "normalized": false,
      "special": true
    },
    {
      "id": 1,
      "content": "<sos>",
      "single_word": false,
      "lstrip": false,
      "rstrip": false,
      "normalized": false,
      "special": true
    },
    {
      "id": 2,
      "content": "<eos>",
      "single_word": false,
      "lstrip": false,
      "rstrip": false,
      "normalized": false,
      "special": true
    },
    {
      "id": 3,
      "content": "<unk>",
      "single_word": false,
      "lstrip": false,
      "rstrip": false,
      "normalized": false,
      "special": true
    }
  ],
  "normalizer": {
    "type": "Sequence",
    "normalizers": [
      {
        "type": "NFD"
      },
      {
        "type": "Lowercase"
      },
      {
        "type": "StripAccents"
      }
    ]
  },
  "pre_tokenizer": {
    "type": "Whitespace"
  },
  "post_processor": {
    "type": "TemplateProcessing",
    "single": [
      {
        "SpecialToken": {
          "id": "<sos>",
          "type_id": 0
        }
      },
      {
        "Sequence": {
          "id": "A",
          "type_id": 0
        }
      },
      {
        "SpecialToken": {
          "id": "<eos>",
          "type_id": 0
        }
      }
    ],
    "pair": [
      {
        "Sequence": {
          "id": "A",
          "type_id": 0
        }
      },
      {
        "Sequence": {
          "id": "B",
          "type_id": 1
        }
      }
    ],
    "special_tokens": {
      "<eos>": {
        "id": "<eos>",
        "ids": [
          2
        ],
        "tokens": [
          "<eos>"
        ]
      },
      "<sos>": {
        "id": "<sos>",
        "ids": [
          1
        ],
        "tokens": [
          "<sos>"
        ]
      }
    }
  },
  "decoder": null,
  "model": {
    "type": "BPE",
    "dropout": null,
    "unk_token": null,
    "continuing_subword_prefix": null,
    "end_of_word_suffix": null,
    "fuse_unk": false,
    "byte_fallback": false,
    "ignore_merges": false,
    "vocab": {
      "<pad>": 0,
      "<sos>": 1,
      "<eos>": 2,
      "<unk>": 3,
      "!": 4,
      "\"": 5,
      "#": 6,
      "$": 7,
      "%": 8,
      "&": 9,
      "'": 10,
      "(": 11,
      ")": 12,
      "*": 13,
      "+": 14,
      ",": 15,
      "-": 16,
      ".": 17,
      "/": 18,
      "0": 19,
      "1": 20,
      "2": 21,
      "3": 22,
      "4": 23,
      "5": 24,
      "6": 25,
      "7": 26,
      "8": 27,
      "9": 28,
      ":": 29,
      ";": 30,
      "=": 31,
      "?": 32,
      "@": 33,
      "[": 34,
      "]": 35,
      "^": 36,
      "_": 37,
      "a": 38,
      "b": 39,
      "c": 40,
      "d": 41,
      "e": 42,
      "f": 43,
      "g": 44,
      "h": 45,
      "i": 46,
      "j": 47,
      "k": 48,
      "l": 49,
      "m": 50,
      "n": 51,
      "o": 52,
      "p": 53,
      "q": 54,
      "r": 55,
      "s": 56,
      "t": 57,
      "u": 58,
      "v": 59,
      "w": 60,
      "x": 61,
      "y": 62,
      "z": 63,
      "": 64,
      "": 65,
      "¡": 66,
      "£": 67,
      "²": 68,
      "º": 69,
      "ø": 70,
      "ย": 71,
      "ร": 72,
      "อ": 73,
      "–": 74,
      "—": 75,
      "‘": 76,
      "’": 77,
      "“": 78,
      "”": 79,
      "…": 80,
      "€": 81,
      "♪": 82,
      "♫": 83,
      "你": 84,
      "葱": 85,
      "送": 86,
      "th": 87,
      "in": 88,
      "the": 89,
      "an": 90,
      "re": 91,
      "at": 92,
      "ou": 93,
      "on": 94,
      "er": 95,
      "is": 96,
      "to": 97,
      "and": 98,
      "en": 99,
      "al": 100,
      "ing": 101,
      "it": 102,
      "or": 103,
      "of": 104,
      "es": 105,
      "as": 106,
      "ar": 107,
      "ed": 108,
      "le": 109,
      "that": 110,
      "we": 111,
      "se": 112,
      "st": 113,
      "you": 114,
      "wh": 115,
      "om": 116,
      "ic": 117,
      "ve": 118,
      "be": 119,
      "ow": 120,
      "ly": 121,
      "ac": 122,
      "ion": 123,
      "ha": 124,
      "so": 125,
      "ll": 126,
      "this": 127,
      "ent": 128,
      "he": 129,
      "me": 130,
      "ld": 131,
      "ut": 132,
      "ver": 133,
      "li": 134,
      "ot": 135,
      "ch": 136,
      "ay": 137,
      "id": 138,
      "for": 139,
      "ab": 140,
      "ro": 141,
      "ke": 142,
      "are": 143,
      "wi": 144,
      "out": 145,
      "ge": 146,
      "gh": 147,
      "lo": 148,
      "pe": 149,
      "all": 150,
      "go": 151,
      "they": 152,
      "do": 153,
      "was": 154,
      "mo": 155,
      "un": 156,
      "ir": 157,
      "ne": 158,
      "de": 159,
      "ri": 160,
      "ome": 161,
      "now": 162,
      "if": 163,
      "one": 164,
      "ally": 165,
      "ce": 166,
      "us": 167,
      "im": 168,
      "what": 169,
      "but": 170,
      "with": 171,
      "have": 172,
      "op": 173,
      "fe": 174,
      "can": 175,
      "am": 176,
      "ter": 177,
      "ct": 178,
      "--": 179,
      "our": 180,
      "ad": 181,
      "wor": 182,
      "thing": 183,
      "ation": 184,
      "con": 185,
      "te": 186,
      "ght": 187,
      "ca": 188,
      "tr": 189,
      "ur": 190,
      "very": 191,
      "there": 192,
      "ther": 193,
      "ould": 194,
      "fr": 195,
      "ant": 196,
      "about": 197,
      "ul": 198,
      "com": 199,
      "not": 200,
      "act": 201,
      "ma": 202,
      "per": 203,
      "pro": 204,
      "ex": 205,
      "my": 206,
      "some": 207,
      "ust": 208,
      "art": 209,
      "pl": 210,
      "use": 211,
      "ind": 212,
      "oun": 213,
      "ok": 214,
      "il": 215,
      "po": 216,
      "like": 217,
      "sh": 218,
      "od": 219,
      "peop": 220,
      "people": 221,
      "up": 222,
      "um": 223,
      "ess": 224,
      "ate": 225,
      "ure": 226,
      "ig": 227,
      "co": 228,
      "no": 229,
      "ain": 230,
      "from": 231,
      "ity": 232,
      "sa": 233,
      "ye": 234,
      "est": 235,
      "qu": 236,
      "ive": 237,
      "ag": 238,
      "just": 239,
      "way": 240,
      "ink": 241,
      "these": 242,
      "know": 243,
      "beca": 244,
      "any": 245,
      "gr": 246,
      "get": 247,
      "when": 248,
      "ci": 249,
      "them": 250,
      "res": 251,
      "because": 252,
      "see": 253,
      "ti": 254,
      "who": 255,
      "ide": 256,
      "think": 257,
      "by": 258,
      "ist": 259,
      "ill": 260,
      "ers": 261,
      "how": 262,
      "ap": 263,
      "going": 264,
      "ich": 265,
      "ars": 266,
      "ound": 267,
      "other": 268,
      "whe": 269,
      "ren": 270,
      "more": 271,
      "your": 272,
      "ol": 273,
      "had": 274,
      "sp": 275,
      "here": 276,
      "end": 277,
      "work": 278,
      "ment": 279,
      "ine": 280,
      "red": 281,
      "look": 282,
      "ort": 283,
      "would": 284,
      "fo": 285,
      "which": 286,
      "ack": 287,
      "su": 288,
      "00": 289,
      "their": 290,
      "ta": 291,
      "were": 292,
      "really": 293,
      "br": 294,
      "want": 295,
      "than": 296,
      "where": 297,
      "ually": 298,
      "then": 299,
      ".\"": 300,
      "ous": 301,
      "ard": 302,
      "ble": 303,
      "ans": 304,
      "ies": 305,
      "ev": 306,
      "world": 307,
      "tor": 308,
      "time": 309,
      "day": 310,
      "ple": 311,
      "ast": 312,
      "every": 313,
      "own": 314,
      "don": 315,
      "age": 316,
      "has": 317,
      "em": 318,
      "der": 319,
      "reat": 320,
      "ach": 321,
      "ace": 322,
      "pr": 323,
      "iv": 324,
      "hap": 325,
      "lit": 326,
      "ough": 327,
      "iz": 328,
      "actually": 329,
      "able": 330,
      "will": 331,
      "et": 332,
      "into": 333,
      "bo": 334,
      "ph": 335,
      "could": 336,
      "cent": 337,
      "new": 338,
      "say": 339,
      "ong": 340,
      "tw": 341,
      "ions": 342,
      "king": 343,
      "things": 344,
      "ence": 345,
      "did": 346,
      "well": 347,
      "right": 348,
      "years": 349,
      "el": 350,
      "ild": 351,
      "bu": 352,
      "she": 353,
      "put": 354,
      "ose": 355,
      "ight": 356,
      "dif": 357,
      "most": 358,
      "ical": 359,
      "happ": 360,
      "make": 361,
      "sel": 362,
      "been": 363,
      "part": 364,
      "log": 365,
      "ie": 366,
      "ice": 367,
      "ite": 368,
      "chan": 369,
      "dis": 370,
      "his": 371,
      "over": 372,
      "fir": 373,
      "try": 374,
      "tal": 375,
      "need": 376,
      "sy": 377,
      "ree": 378,
      "tle": 379,
      "come": 380,
      "back": 381,
      "start": 382,
      "said": 383,
      "ass": 384,
      "feren": 385,
      "ud": 386,
      "two": 387,
      "form": 388,
      "got": 389,
      "something": 390,
      "bl": 391,
      "af": 392,
      "first": 393,
      "mu": 394,
      "those": 395,
      "port": 396,
      "cl": 397,
      "str": 398,
      "call": 399,
      "ign": 400,
      "kind": 401,
      "much": 402,
      "cr": 403,
      "gu": 404,
      "int": 405,
      "ens": 406,
      "des": 407,
      "ber": 408,
      "differen": 409,
      "ia": 410,
      "also": 411,
      "ho": 412,
      "ater": 413,
      "little": 414,
      "ves": 415,
      "spe": 416,
      "let": 417,
      "lot": 418,
      "life": 419,
      "bod": 420,
      "bet": 421,
      "ting": 422,
      "ty": 423,
      "ving": 424,
      "pos": 425,
      "pre": 426,
      "even": 427,
      "only": 428,
      "ish": 429,
      "thr": 430,
      "gen": 431,
      "si": 432,
      "rest": 433,
      "many": 434,
      "ck": 435,
      "hum": 436,
      "her": 437,
      "man": 438,
      "ts": 439,
      "take": 440,
      "ated": 441,
      "body": 442,
      "coun": 443,
      "cho": 444,
      "tell": 445,
      "cre": 446,
      "good": 447,
      "under": 448,
      "ful": 449,
      "ob": 450,
      "ep": 451,
      "inter": 452,
      "its": 453,
      "lear": 454,
      "does": 455,
      "down": 456,
      "pres": 457,
      "mar": 458,
      "real": 459,
      "ect": 460,
      "pt": 461,
      "different": 462,
      "self": 463,
      "through": 464,
      "comm": 465,
      "why": 466,
      "tri": 467,
      "around": 468,
      "tur": 469,
      "ms": 470,
      "ick": 471,
      "uct": 472,
      "stand": 473,
      "may": 474,
      "vi": 475,
      "tory": 476,
      "ip": 477,
      "read": 478,
      "being": 479,
      "off": 480,
      "ase": 481,
      "show": 482,
      "ue": 483,
      "ought": 484,
      "ning": 485,
      "son": 486,
      "cess": 487,
      "als": 488,
      "ict": 489,
      "dr": 490,
      "ents": 491,
      "cont": 492,
      "car": 493,
      "side": 494,
      "ations": 495,
      "la": 496,
      "stem": 497,
      "same": 498,
      "hi": 499,
      "fore": 500,
      "tech": 501,
      "great": 502,
      "happen": 503,
      "big": 504,
      "proble": 505,
      "wr": 506,
      "ance": 507,
      "three": 508,
      "sur": 509,
      "ire": 510,
      "talk": 511,
      "lect": 512,
      "human": 513,
      "sci": 514,
      "tim": 515,
      "year": 516,
      "doing": 517,
      "system": 518,
      "ces": 519,
      "med": 520,
      "fl": 521,
      "comp": 522,
      "fa": 523,
      "cor": 524,
      "find": 525,
      "ject": 526,
      "ys": 527,
      "sto": 528,
      "min": 529,
      "ically": 530,
      "cond": 531,
      "pa": 532,
      "build": 533,
      "thank": 534,
      "fact": 535,
      "bit": 536,
      "child": 537,
      "inte": 538,
      "cer": 539,
      "cour": 540,
      "bi": 541,
      "mon": 542,
      "long": 543,
      "ser": 544,
      "again": 545,
      "after": 546,
      "col": 547,
      "percent": 548,
      "soci": 549,
      "eng": 550,
      "called": 551,
      "ask": 552,
      "logy": 553,
      "stud": 554,
      "xt": 555,
      "sim": 556,
      "ef": 557,
      "fin": 558,
      "ways": 559,
      "ved": 560,
      "ary": 561,
      "less": 562,
      "quest": 563,
      "ower": 564,
      "ak": 565,
      "sol": 566,
      "bas": 567,
      "sm": 568,
      "wom": 569,
      "inv": 570,
      "made": 571,
      "light": 572,
      "ult": 573,
      "cal": 574,
      "ics": 575,
      "uc": 576,
      "today": 577,
      "play": 578,
      "ear": 579,
      "turn": 580,
      "ger": 581,
      "should": 582,
      "illion": 583,
      "ever": 584,
      "exper": 585,
      "ating": 586,
      "import": 587,
      "techno": 588,
      "vers": 589,
      "change": 590,
      "ual": 591,
      "ities": 592,
      "fect": 593,
      "hel": 594,
      "design": 595,
      "inst": 596,
      "last": 597,
      "plan": 598,
      "ition": 599,
      "person": 600,
      "mean": 601,
      "used": 602,
      "ates": 603,
      "brain": 604,
      "creat": 605,
      "old": 606,
      "another": 607,
      "interest": 608,
      "point": 609,
      "arch": 610,
      "pu": 611,
      "didn": 612,
      "important": 613,
      "thought": 614,
      "000": 615,
      "ave": 616,
      "feel": 617,
      "amer": 618,
      "ial": 619,
      "sing": 620,
      "gan": 621,
      "idea": 622,
      "high": 623,
      "ra": 624,
      "him": 625,
      "times": 626,
      "prod": 627,
      "und": 628,
      "started": 629,
      "?\"": 630,
      "before": 631,
      "give": 632,
      "place": 633,
      "na": 634,
      "hand": 635,
      "les": 636,
      "exam": 637,
      "land": 638,
      "bab": 639,
      "water": 640,
      "power": 641,
      "ica": 642,
      "ize": 643,
      "beli": 644,
      "az": 645,
      "imag": 646,
      "alth": 647,
      "understand": 648,
      "went": 649,
      "course": 650,
      "never": 651,
      "help": 652,
      "ise": 653,
      "might": 654,
      "ted": 655,
      "ss": 656,
      "ds": 657,
      "better": 658,
      "mem": 659,
      "ven": 660,
      "found": 661,
      "ile": 662,
      "vir": 663,
      "story": 664,
      "ility": 665,
      "nat": 666,
      "ists": 667,
      "cur": 668,
      "problem": 669,
      "chool": 670,
      "ular": 671,
      "par": 672,
      "school": 673,
      "num": 674,
      "kid": 675,
      "mat": 676,
      "kes": 677,
      "still": 678,
      "dec": 679,
      "pat": 680,
      "20": 681,
      "ago": 682,
      "ons": 683,
      "next": 684,
      "few": 685,
      "toge": 686,
      "together": 687,
      "ily": 688,
      "10": 689,
      "fam": 690,
      "came": 691,
      "care": 692,
      "sha": 693,
      "vis": 694,
      "sort": 695,
      "ten": 696,
      "net": 697,
      "ry": 698,
      "each": 699,
      "aw": 700,
      "19": 701,
      "commun": 702,
      "velo": 703,
      "won": 704,
      "che": 705,
      "ution": 706,
      "uni": 707,
      "comple": 708,
      "second": 709,
      "ors": 710,
      "four": 711,
      "ff": 712,
      "ped": 713,
      "too": 714,
      "gy": 715,
      "book": 716,
      "cell": 717,
      "possi": 718,
      "cy": 719,
      "ween": 720,
      "technology": 721,
      "di": 722,
      "ense": 723,
      "lar": 724,
      "develo": 725,
      "learn": 726,
      "clo": 727,
      "love": 728,
      "dat": 729,
      "ward": 730,
      "between": 731,
      "ited": 732,
      "tain": 733,
      "ness": 734,
      "rel": 735,
      "looking": 736,
      "pri": 737,
      "question": 738,
      "mom": 739,
      "comes": 740,
      "women": 741,
      "trans": 742,
      "bal": 743,
      "eve": 744,
      "ug": 745,
      "face": 746,
      "ps": 747,
      "small": 748,
      "move": 749,
      ",\"": 750,
      "ience": 751,
      "nor": 752,
      "ian": 753,
      "maybe": 754,
      "ures": 755,
      "comput": 756,
      "room": 757,
      "grow": 758,
      "gener": 759,
      "mus": 760,
      "head": 761,
      "live": 762,
      "fri": 763,
      "afr": 764,
      "war": 765,
      "example": 766,
      "ins": 767,
      "done": 768,
      "far": 769,
      "data": 770,
      "jo": 771,
      "partic": 772,
      "ship": 773,
      "using": 774,
      "ters": 775,
      "led": 776,
      "doesn": 777,
      "bot": 778,
      "gre": 779,
      "mind": 780,
      "mal": 781,
      "yes": 782,
      "iness": 783,
      "bus": 784,
      "ized": 785,
      "line": 786,
      "children": 787,
      "aph": 788,
      "sit": 789,
      "chang": 790,
      "ks": 791,
      "hard": 792,
      "reas": 793,
      "vie": 794,
      "wanted": 795,
      "working": 796,
      "giv": 797,
      "ines": 798,
      "formation": 799,
      "whole": 800,
      "econ": 801,
      "health": 802,
      "mis": 803,
      "econom": 804,
      "lim": 805,
      "press": 806,
      "million": 807,
      "bre": 808,
      "building": 809,
      "wal": 810,
      "set": 811,
      "ner": 812,
      "away": 813,
      "men": 814,
      "sk": 815,
      "trying": 816,
      "selves": 817,
      "friend": 818,
      "ft": 819,
      "sup": 820,
      "att": 821,
      "ific": 822,
      "always": 823,
      "five": 824,
      "home": 825,
      "believe": 826,
      "ote": 827,
      "val": 828,
      "organ": 829,
      "ational": 830,
      "open": 831,
      "ls": 832,
      "anim": 833,
      "aut": 834,
      "tra": 835,
      "space": 836,
      "ments": 837,
      "oney": 838,
      "country": 839,
      "run": 840,
      "everything": 841,
      "aren": 842,
      "project": 843,
      "hal": 844,
      "publ": 845,
      "ious": 846,
      "av": 847,
      "ath": 848,
      "ross": 849,
      "atch": 850,
      "bor": 851,
      "coming": 852,
      "pict": 853,
      "fic": 854,
      "..": 855,
      "search": 856,
      "top": 857,
      "low": 858,
      "50": 859,
      "number": 860,
      "eas": 861,
      "ute": 862,
      "sub": 863,
      "pon": 864,
      "aces": 865,
      "dri": 866,
      "doll": 867,
      "cri": 868,
      "stu": 869,
      "pret": 870,
      "kids": 871,
      "speci": 872,
      "conne": 873,
      "ban": 874,
      "cept": 875,
      "pect": 876,
      "thinking": 877,
      "information": 878,
      "air": 879,
      "ress": 880,
      "create": 881,
      "ener": 882,
      "lead": 883,
      "means": 884,
      "probab": 885,
      "add": 886,
      "took": 887,
      "elect": 888,
      "ones": 889,
      "inc": 890,
      "ism": 891,
      "ction": 892,
      "fun": 893,
      "ket": 894,
      "food": 895,
      "ory": 896,
      "graph": 897,
      "ative": 898,
      "ital": 899,
      "teach": 900,
      "money": 901,
      "process": 902,
      "leg": 903,
      "glo": 904,
      "gover": 905,
      "au": 906,
      "left": 907,
      "become": 908,
      "gest": 909,
      "beg": 910,
      "exp": 911,
      "ris": 912,
      "making": 913,
      "interesting": 914,
      "ping": 915,
      "cons": 916,
      "getting": 917,
      "mor": 918,
      "half": 919,
      "quite": 920,
      "ident": 921,
      "social": 922,
      "best": 923,
      "fu": 924,
      "city": 925,
      "enough": 926,
      "mic": 927,
      "ah": 928,
      "struct": 929,
      "fut": 930,
      "vide": 931,
      "view": 932,
      "ready": 933,
      "ries": 934,
      "science": 935,
      "probably": 936,
      "govern": 937,
      "bring": 938,
      "contro": 939,
      "energy": 940,
      "char": 941,
      "tries": 942,
      "possible": 943,
      "sense": 944,
      "cap": 945,
      "lan": 946,
      "product": 947,
      "reg": 948,
      "mode": 949,
      "cul": 950,
      "ouse": 951,
      "llow": 952,
      "grou": 953,
      "month": 954,
      "future": 955,
      "earth": 956,
      "pop": 957,
      "ga": 958,
      "happened": 959,
      "ible": 960,
      "allow": 961,
      "cle": 962,
      "tern": 963,
      "without": 964,
      "planet": 965,
      "pie": 966,
      "pass": 967,
      "talking": 968,
      "tre": 969,
      "iting": 970,
      "ken": 971,
      "stuff": 972,
      "wee": 973,
      "moment": 974,
      "keep": 975,
      "pretty": 976,
      "wa": 977,
      "prof": 978,
      "pho": 979,
      "business": 980,
      "tors": 981,
      "ican": 982,
      "lives": 983,
      "sign": 984,
      "told": 985,
      "ird": 986,
      "gl": 987,
      "ability": 988,
      "answ": 989,
      "bad": 990,
      "cus": 991,
      "beaut": 992,
      "respon": 993,
      "such": 994,
      "ply": 995,
      "hope": 996,
      "anything": 997,
      "job": 998,
      "gram": 999,
      "reason": 1000,
      "hour": 1001,
      "ately": 1002,
      "else": 1003,
      "countries": 1004,
      "dollars": 1005,
      "ices": 1006,
      "fort": 1007,
      "fig": 1008,
      "phys": 1009,
      "member": 1010,
      "viron": 1011,
      "den": 1012,
      "environ": 1013,
      "oc": 1014,
      "scient": 1015,
      "while": 1016,
      "imagine": 1017,
      "sound": 1018,
      "list": 1019,
      "educ": 1020,
      "ural": 1021,
      "200": 1022,
      "stre": 1023,
      "unt": 1024,
      "once": 1025,
      "six": 1026,
      "youn": 1027,
      "across": 1028,
      "mother": 1029,
      "bro": 1030,
      "issu": 1031,
      "seen": 1032,
      "ince": 1033,
      "living": 1034,
      "saw": 1035,
      "vel": 1036,
      "verse": 1037,
      "connect": 1038,
      "later": 1039,
      "ants": 1040,
      "mid": 1041,
      "having": 1042,
      "stop": 1043,
      "africa": 1044,
      "global": 1045,
      "mach": 1046,
      "makes": 1047,
      "says": 1048,
      "certain": 1049,
      "amaz": 1050,
      "present": 1051,
      "case": 1052,
      "din": 1053,
      "simple": 1054,
      "vol": 1055,
      "ying": 1056,
      "public": 1057,
      "goes": 1058,
      "asked": 1059,
      "yet": 1060,
      "basically": 1061,
      "research": 1062,
      "experience": 1063,
      "wonder": 1064,
      "ient": 1065,
      "30": 1066,
      "particular": 1067,
      "ash": 1068,
      "works": 1069,
      "polit": 1070,
      "sure": 1071,
      "effect": 1072,
      "ced": 1073,
      "ided": 1074,
      "complete": 1075,
      "ili": 1076,
      "ang": 1077,
      "computer": 1078,
      "ric": 1079,
      "okay": 1080,
      "happens": 1081,
      "begin": 1082,
      "ina": 1083,
      "photo": 1084,
      "blo": 1085,
      "oh": 1086,
      "thous": 1087,
      "state": 1088,
      "equ": 1089,
      "picture": 1090,
      "thousand": 1091,
      "cou": 1092,
      "fac": 1093,
      "gn": 1094,
      "nothing": 1095,
      "days": 1096,
      "plic": 1097,
      "uro": 1098,
      "watch": 1099,
      "tem": 1100,
      "family": 1101,
      "environment": 1102,
      "fish": 1103,
      "ality": 1104,
      "inste": 1105,
      "har": 1106,
      "tom": 1107,
      "met": 1108,
      "uring": 1109,
      "cu": 1110,
      "hu": 1111,
      "langu": 1112,
      "whether": 1113,
      "tru": 1114,
      "ety": 1115,
      "house": 1116,
      "almost": 1117,
      "problems": 1118,
      "mil": 1119,
      "test": 1120,
      "video": 1121,
      "ention": 1122,
      "states": 1123,
      "remember": 1124,
      "fron": 1125,
      "law": 1126,
      "music": 1127,
      "single": 1128,
      "ange": 1129,
      "treat": 1130,
      "fi": 1131,
      "gir": 1132,
      "inside": 1133,
      "young": 1134,
      "cha": 1135,
      "night": 1136,
      "both": 1137,
      "bio": 1138,
      "within": 1139,
      "heart": 1140,
      "disco": 1141,
      "serv": 1142,
      "hear": 1143,
      "ilt": 1144,
      "cost": 1145,
      "saying": 1146,
      "words": 1147,
      "everybody": 1148,
      "dep": 1149,
      "someone": 1150,
      "ages": 1151,
      "pain": 1152,
      "contin": 1153,
      "guy": 1154,
      "answer": 1155,
      "suc": 1156,
      "national": 1157,
      "already": 1158,
      "class": 1159,
      "walk": 1160,
      "hy": 1161,
      "doc": 1162,
      "iful": 1163,
      "io": 1164,
      "order": 1165,
      "ously": 1166,
      "incred": 1167,
      "unch": 1168,
      "history": 1169,
      "dist": 1170,
      "sou": 1171,
      "program": 1172,
      "exact": 1173,
      "billion": 1174,
      "itive": 1175,
      "looked": 1176,
      "ings": 1177,
      "ivid": 1178,
      "wrong": 1179,
      "ideas": 1180,
      "large": 1181,
      "dire": 1182,
      "oper": 1183,
      "bed": 1184,
      "uce": 1185,
      "nam": 1186,
      "acy": 1187,
      "100": 1188,
      "vo": 1189,
      "often": 1190,
      "looks": 1191,
      "ground": 1192,
      "paren": 1193,
      "community": 1194,
      "ury": 1195,
      "true": 1196,
      "cells": 1197,
      "hold": 1198,
      "matter": 1199,
      "bar": 1200,
      "beautiful": 1201,
      "amazing": 1202,
      "aud": 1203,
      "heard": 1204,
      "kill": 1205,
      "evol": 1206,
      "word": 1207,
      "myself": 1208,
      "built": 1209,
      "fre": 1210,
      "united": 1211,
      "figure": 1212,
      "chall": 1213,
      "pay": 1214,
      "bers": 1215,
      "hund": 1216,
      "since": 1217,
      "hundred": 1218,
      "gets": 1219,
      "cancer": 1220,
      "ulation": 1221,
      "fil": 1222,
      "ield": 1223,
      "government": 1224,
      "instead": 1225,
      "bly": 1226,
      "action": 1227,
      "isn": 1228,
      "sometimes": 1229,
      "scal": 1230,
      "lab": 1231,
      "mater": 1232,
      "dar": 1233,
      "free": 1234,
      "dle": 1235,
      "cut": 1236,
      "until": 1237,
      "dan": 1238,
      "robot": 1239,
      "months": 1240,
      "language": 1241,
      "nature": 1242,
      "prot": 1243,
      "cord": 1244,
      "ering": 1245,
      "adv": 1246,
      "piece": 1247,
      "phone": 1248,
      "develop": 1249,
      "control": 1250,
      "couple": 1251,
      "ator": 1252,
      "god": 1253,
      "oce": 1254,
      "individ": 1255,
      "woman": 1256,
      "must": 1257,
      "entire": 1258,
      "que": 1259,
      "ivity": 1260,
      "places": 1261,
      "sw": 1262,
      "incre": 1263,
      "appro": 1264,
      "fund": 1265,
      "dev": 1266,
      "species": 1267,
      "group": 1268,
      "clear": 1269,
      "engine": 1270,
      "internet": 1271,
      "model": 1272,
      "aster": 1273,
      "follow": 1274,
      "train": 1275,
      "middle": 1276,
      "education": 1277,
      "plain": 1278,
      "ton": 1279,
      "beha": 1280,
      "ste": 1281,
      "front": 1282,
      "somebody": 1283,
      "bs": 1284,
      "pol": 1285,
      "sun": 1286,
      "name": 1287,
      "ulture": 1288,
      "friends": 1289,
      "utes": 1290,
      "taking": 1291,
      "wasn": 1292,
      "ization": 1293,
      "level": 1294,
      "expect": 1295,
      "pris": 1296,
      "turns": 1297,
      "universe": 1298,
      "quick": 1299,
      "completely": 1300,
      "wind": 1301,
      "exactly": 1302,
      "exc": 1303,
      "decided": 1304,
      "behavi": 1305,
      "step": 1306,
      "sho": 1307,
      "dro": 1308,
      "stories": 1309,
      "mag": 1310,
      "ues": 1311,
      "though": 1312,
      "demo": 1313,
      "mass": 1314,
      "key": 1315,
      "students": 1316,
      "fly": 1317,
      "mer": 1318,
      "study": 1319,
      "close": 1320,
      "society": 1321,
      "mess": 1322,
      "object": 1323,
      "deal": 1324,
      "ush": 1325,
      "imp": 1326,
      "fer": 1327,
      "inno": 1328,
      "meet": 1329,
      "green": 1330,
      "yeah": 1331,
      "bur": 1332,
      "indust": 1333,
      "share": 1334,
      "huge": 1335,
      "tool": 1336,
      "became": 1337,
      "15": 1338,
      "third": 1339,
      "company": 1340,
      "animals": 1341,
      "appe": 1342,
      "spend": 1343,
      "experim": 1344,
      "rather": 1345,
      "drug": 1346,
      "happening": 1347,
      "ied": 1348,
      "sion": 1349,
      "everyone": 1350,
      "ze": 1351,
      "happy": 1352,
      "market": 1353,
      "ben": 1354,
      "success": 1355,
      "bon": 1356,
      "sc": 1357,
      "knew": 1358,
      "kinds": 1359,
      "fully": 1360,
      "itself": 1361,
      "india": 1362,
      "mill": 1363,
      "acter": 1364,
      "por": 1365,
      "ional": 1366,
      "learned": 1367,
      "systems": 1368,
      "collect": 1369,
      "game": 1370,
      "clim": 1371,
      "ourselves": 1372,
      "field": 1373,
      "along": 1374,
      "minutes": 1375,
      "cogn": 1376,
      "cam": 1377,
      "against": 1378,
      "america": 1379,
      "relation": 1380,
      "complex": 1381,
      "questions": 1382,
      "street": 1383,
      "seven": 1384,
      "past": 1385,
      "haps": 1386,
      "hours": 1387,
      "univers": 1388,
      "perhaps": 1389,
      "black": 1390,
      "opport": 1391,
      "news": 1392,
      "opportun": 1393,
      "var": 1394,
      "themselves": 1395,
      "created": 1396,
      "ples": 1397,
      "others": 1398,
      "logical": 1399,
      "ming": 1400,
      "ease": 1401,
      "ien": 1402,
      "american": 1403,
      "rad": 1404,
      "depend": 1405,
      "pred": 1406,
      "natural": 1407,
      "worked": 1408,
      "century": 1409,
      "coll": 1410,
      "pot": 1411,
      "liter": 1412,
      "couldn": 1413,
      "micro": 1414,
      "guys": 1415,
      "fall": 1416,
      "paper": 1417,
      "meas": 1418,
      "uses": 1419,
      "father": 1420,
      "flu": 1421,
      "...": 1422,
      "speak": 1423,
      "thousands": 1424,
      "ling": 1425,
      "least": 1426,
      "hor": 1427,
      "deep": 1428,
      "lots": 1429,
      "lt": 1430,
      "text": 1431,
      "early": 1432,
      "aid": 1433,
      "cir": 1434,
      "diffic": 1435,
      "euro": 1436,
      "based": 1437,
      "dom": 1438,
      "pur": 1439,
      "disease": 1440,
      "ail": 1441,
      "listen": 1442,
      "reli": 1443,
      "ished": 1444,
      "squ": 1445,
      "innov": 1446,
      "sex": 1447,
      "china": 1448,
      "emp": 1449,
      "amoun": 1450,
      "finally": 1451,
      "turned": 1452,
      "ele": 1453,
      "gave": 1454,
      "spect": 1455,
      "sens": 1456,
      "exist": 1457,
      "rich": 1458,
      "grand": 1459,
      "machine": 1460,
      "arr": 1461,
      "hind": 1462,
      "protect": 1463,
      "ats": 1464,
      "death": 1465,
      "team": 1466,
      "recent": 1467,
      "ork": 1468,
      "oil": 1469,
      "ared": 1470,
      "known": 1471,
      "obvi": 1472,
      "posed": 1473,
      "istic": 1474,
      "learning": 1475,
      "colle": 1476,
      "full": 1477,
      "40": 1478,
      "wo": 1479,
      "super": 1480,
      "invest": 1481,
      "behavior": 1482,
      "dig": 1483,
      "scale": 1484,
      "atic": 1485,
      "trad": 1486,
      "ocean": 1487,
      "igh": 1488,
      "taken": 1489,
      "wards": 1490,
      "main": 1491,
      "given": 1492,
      "changed": 1493,
      "outside": 1494,
      "moving": 1495,
      "ade": 1496,
      "vision": 1497,
      "relationship": 1498,
      "ither": 1499,
      "dre": 1500,
      "break": 1501,
      "blue": 1502,
      "compan": 1503,
      "week": 1504,
      "tin": 1505,
      "fail": 1506,
      "psy": 1507,
      "difference": 1508,
      "flo": 1509,
      "cities": 1510,
      "jour": 1511,
      "mit": 1512,
      "ral": 1513,
      "area": 1514,
      "tail": 1515,
      "rent": 1516,
      "cas": 1517,
      "perform": 1518,
      "jor": 1519,
      "force": 1520,
      "ially": 1521,
      "60": 1522,
      "sent": 1523,
      "ror": 1524,
      "ians": 1525,
      "sym": 1526,
      "europe": 1527,
      "vered": 1528,
      "short": 1529,
      "cks": 1530,
      "non": 1531,
      "ordin": 1532,
      "eight": 1533,
      "tend": 1534,
      "york": 1535,
      "ider": 1536,
      "aged": 1537,
      "easy": 1538,
      "pattern": 1539,
      "wall": 1540,
      "during": 1541,
      "18": 1542,
      "yourself": 1543,
      "mark": 1544,
      "communic": 1545,
      "12": 1546,
      "bri": 1547,
      "size": 1548,
      "perfect": 1549,
      "beginning": 1550,
      "ives": 1551,
      "parents": 1552,
      "os": 1553,
      "ier": 1554,
      "leave": 1555,
      "gle": 1556,
      "incl": 1557,
      "ots": 1558,
      "whatever": 1559,
      "eyes": 1560,
      "pet": 1561,
      "common": 1562,
      "sum": 1563,
      "local": 1564,
      "draw": 1565,
      "sea": 1566,
      "ential": 1567,
      "culture": 1568,
      "behind": 1569,
      "population": 1570,
      "issue": 1571,
      "explain": 1572,
      "grad": 1573,
      "ients": 1574,
      "takes": 1575,
      "reach": 1576,
      "viol": 1577,
      "democr": 1578,
      "foot": 1579,
      "path": 1580,
      "support": 1581,
      "difficult": 1582,
      "verage": 1583,
      "bir": 1584,
      "sil": 1585,
      "lu": 1586,
      "sof": 1587,
      "ster": 1588,
      "seeing": 1589,
      "pract": 1590,
      "parts": 1591,
      "typ": 1592,
      "audience": 1593,
      "win": 1594,
      "terms": 1595,
      "needs": 1596,
      "economic": 1597,
      "explo": 1598,
      "gress": 1599,
      "aring": 1600,
      "absol": 1601,
      "wonderful": 1602,
      "pick": 1603,
      "extra": 1604,
      "invol": 1605,
      "instit": 1606,
      "bility": 1607,
      "event": 1608,
      "sug": 1609,
      "map": 1610,
      "board": 1611,
      "hands": 1612,
      "companies": 1613,
      "media": 1614,
      "ances": 1615,
      "impro": 1616,
      "fur": 1617,
      "neur": 1618,
      "absolute": 1619,
      "sequ": 1620,
      "extre": 1621,
      "box": 1622,
      "mi": 1623,
      "ru": 1624,
      "stay": 1625,
      "ument": 1626,
      "sour": 1627,
      "began": 1628,
      "astic": 1629,
      "dream": 1630,
      "acc": 1631,
      "cannot": 1632,
      "major": 1633,
      "pose": 1634,
      "tow": 1635,
      "image": 1636,
      "bat": 1637,
      "access": 1638,
      "idence": 1639,
      "tract": 1640,
      "simply": 1641,
      "famili": 1642,
      "poor": 1643,
      "decis": 1644,
      "pen": 1645,
      "defin": 1646,
      "powerful": 1647,
      "knowled": 1648,
      "spir": 1649,
      "amount": 1650,
      "ax": 1651,
      "ball": 1652,
      "ith": 1653,
      "sed": 1654,
      "feed": 1655,
      "longer": 1656,
      "ames": 1657,
      "dark": 1658,
      "personal": 1659,
      "fast": 1660,
      "utions": 1661,
      "type": 1662,
      "resour": 1663,
      "needed": 1664,
      "realized": 1665,
      "eat": 1666,
      "ament": 1667,
      "gal": 1668,
      "fortun": 1669,
      "sis": 1670,
      "itions": 1671,
      "buy": 1672,
      "itect": 1673,
      "architect": 1674,
      "special": 1675,
      "ature": 1676,
      "lling": 1677,
      "center": 1678,
      "lish": 1679,
      "send": 1680,
      "emot": 1681,
      "strong": 1682,
      "bes": 1683,
      "white": 1684,
      "growth": 1685,
      "gs": 1686,
      "gone": 1687,
      "itch": 1688,
      "stage": 1689,
      "safe": 1690,
      "hood": 1691,
      "profess": 1692,
      "humans": 1693,
      "tried": 1694,
      "reality": 1695,
      "ron": 1696,
      "interested": 1697,
      "experiment": 1698,
      "surv": 1699,
      "conv": 1700,
      "scre": 1701,
      "ude": 1702,
      "girl": 1703,
      "sud": 1704,
      "felt": 1705,
      "south": 1706,
      "born": 1707,
      "forward": 1708,
      "record": 1709,
      "crit": 1710,
      "80": 1711,
      "lands": 1712,
      "plant": 1713,
      "medi": 1714,
      "situ": 1715,
      "ties": 1716,
      "books": 1717,
      "value": 1718,
      "sat": 1719,
      "ults": 1720,
      "either": 1721,
      "recogn": 1722,
      "orig": 1723,
      "quickly": 1724,
      "ging": 1725,
      "ox": 1726,
      "ned": 1727,
      "knowledge": 1728,
      "ni": 1729,
      "rate": 1730,
      "ford": 1731,
      "ilar": 1732,
      "cool": 1733,
      "cop": 1734,
      "near": 1735,
      "slow": 1736,
      "spec": 1737,
      "sudden": 1738,
      "dna": 1739,
      "descri": 1740,
      "revol": 1741,
      "spent": 1742,
      "animal": 1743,
      "trave": 1744,
      "opportunity": 1745,
      "feet": 1746,
      "forest": 1747,
      "prom": 1748,
      "sitting": 1749,
      "ination": 1750,
      "ank": 1751,
      "shows": 1752,
      "write": 1753,
      "political": 1754,
      "approach": 1755,
      "ney": 1756,
      "blood": 1757,
      "weeks": 1758,
      "ides": 1759,
      "lost": 1760,
      "anci": 1761,
      "worth": 1762,
      "ended": 1763,
      "wouldn": 1764,
      "incredible": 1765,
      "vor": 1766,
      "surface": 1767,
      "photograph": 1768,
      "nice": 1769,
      "ring": 1770,
      "row": 1771,
      "consum": 1772,
      "terri": 1773,
      "structure": 1774,
      "road": 1775,
      "morning": 1776,
      "gas": 1777,
      "economy": 1778,
      "extreme": 1779,
      "die": 1780,
      "sal": 1781,
      "web": 1782,
      "writ": 1783,
      "patients": 1784,
      "evolution": 1785,
      "hot": 1786,
      "technolog": 1787,
      "rain": 1788,
      "measure": 1789,
      "enge": 1790,
      "bottom": 1791,
      "changes": 1792,
      "camer": 1793,
      "fight": 1794,
      "medic": 1795,
      "giving": 1796,
      "ane": 1797,
      "areas": 1798,
      "flow": 1799,
      "growing": 1800,
      "eth": 1801,
      "solution": 1802,
      "fine": 1803,
      "mole": 1804,
      "attention": 1805,
      "similar": 1806,
      "bill": 1807,
      "term": 1808,
      "ined": 1809,
      "anal": 1810,
      "scientists": 1811,
      "direct": 1812,
      "lies": 1813,
      "anyone": 1814,
      "sli": 1815,
      "ught": 1816,
      "moder": 1817,
      "telling": 1818,
      "increas": 1819,
      "average": 1820,
      "impact": 1821,
      "soon": 1822,
      "sport": 1823,
      "challenge": 1824,
      "ny": 1825,
      "voice": 1826,
      "mot": 1827,
      "zer": 1828,
      "post": 1829,
      "interact": 1830,
      "fair": 1831,
      "card": 1832,
      "tic": 1833,
      "ively": 1834,
      "meaning": 1835,
      "normal": 1836,
      "relig": 1837,
      "oud": 1838,
      "ators": 1839,
      "numbers": 1840,
      "sust": 1841,
      "risk": 1842,
      "climate": 1843,
      "color": 1844,
      "ried": 1845,
      "realize": 1846,
      "sustain": 1847,
      "ged": 1848,
      "ouch": 1849,
      "developed": 1850,
      "physical": 1851,
      "hon": 1852,
      "vent": 1853,
      "quality": 1854,
      "brought": 1855,
      "individual": 1856,
      "tu": 1857,
      "emer": 1858,
      "feeling": 1859,
      "lay": 1860,
      "entially": 1861,
      "ler": 1862,
      "predict": 1863,
      "rele": 1864,
      "arm": 1865,
      "vill": 1866,
      "invent": 1867,
      "hundreds": 1868,
      "sle": 1869,
      "inde": 1870,
      "hosp": 1871,
      "material": 1872,
      "dim": 1873,
      "running": 1874,
      "film": 1875,
      "tran": 1876,
      "development": 1877,
      "fill": 1878,
      "tele": 1879,
      "je": 1880,
      "north": 1881,
      "literally": 1882,
      "poll": 1883,
      "result": 1884,
      "print": 1885,
      "ired": 1886,
      "wood": 1887,
      "theory": 1888,
      "peri": 1889,
      "seems": 1890,
      "technologies": 1891,
      "dead": 1892,
      "serious": 1893,
      "understanding": 1894,
      "male": 1895,
      "cars": 1896,
      "moun": 1897,
      "wrote": 1898,
      "fear": 1899,
      "compass": 1900,
      "changing": 1901,
      "issues": 1902,
      "fundament": 1903,
      "spread": 1904,
      "stat": 1905,
      "english": 1906,
      "solve": 1907,
      "electric": 1908,
      "ond": 1909,
      "alone": 1910,
      "count": 1911,
      "eye": 1912,
      "wish": 1913,
      "fire": 1914,
      "gor": 1915,
      "lled": 1916,
      "izing": 1917,
      "ordinary": 1918,
      "absolutely": 1919,
      "starting": 1920,
      "position": 1921,
      "produce": 1922,
      "90": 1923,
      "joy": 1924,
      "millions": 1925,
      "consci": 1926,
      "modern": 1927,
      "aging": 1928,
      "guess": 1929,
      "favor": 1930,
      "tradition": 1931,
      "revolution": 1932,
      "requ": 1933,
      "chem": 1934,
      "miles": 1935,
      "intell": 1936,
      "chris": 1937,
      "neigh": 1938,
      "intellig": 1939,
      "pal": 1940,
      "ibly": 1941,
      "images": 1942,
      "band": 1943,
      "hit": 1944,
      "among": 1945,
      "nobody": 1946,
      "playing": 1947,
      "current": 1948,
      "ials": 1949,
      "focus": 1950,
      "uced": 1951,
      "movement": 1952,
      "general": 1953,
      "likely": 1954,
      "patient": 1955,
      "dy": 1956,
      "11": 1957,
      "dou": 1958,
      "ses": 1959,
      "west": 1960,
      "touch": 1961,
      "loc": 1962,
      "creating": 1963,
      "rid": 1964,
      "track": 1965,
      "gives": 1966,
      "recently": 1967,
      "asking": 1968,
      "suggest": 1969,
      "aking": 1970,
      "cially": 1971,
      "boy": 1972,
      "nine": 1973,
      "represent": 1974,
      "tools": 1975,
      "sl": 1976,
      "syn": 1977,
      "baby": 1978,
      "priv": 1979,
      "responsi": 1980,
      "25": 1981,
      "moved": 1982,
      "ades": 1983,
      "70": 1984,
      "da": 1985,
      "proper": 1986,
      "ption": 1987,
      "peace": 1988,
      "avail": 1989,
      "truth": 1990,
      "rul": 1991,
      "town": 1992,
      "icy": 1993,
      "affect": 1994,
      "star": 1995,
      "except": 1996,
      "discovered": 1997,
      "online": 1998,
      "espe": 1999,
      "includ": 2000,
      "pan": 2001,
      "comb": 2002,
      "forms": 2003,
      "div": 2004,
      "ju": 2005,
      "mathem": 2006,
      "developing": 2007,
      "astr": 2008,
      "ilities": 2009,
      "pression": 2010,
      "ensive": 2011,
      "visual": 2012,
      "ches": 2013,
      "uals": 2014,
      "generation": 2015,
      "skill": 2016,
      "function": 2017,
      "cing": 2018,
      "mul": 2019,
      "song": 2020,
      "sold": 2021,
      "seem": 2022,
      "showed": 2023,
      "carbon": 2024,
      "kets": 2025,
      "save": 2026,
      "writing": 2027,
      "industry": 2028,
      "innovation": 2029,
      "compassion": 2030,
      "sever": 2031,
      "liz": 2032,
      "ref": 2033,
      "trust": 2034,
      "obviously": 2035,
      "onto": 2036,
      "bey": 2037,
      "ame": 2038,
      "ba": 2039,
      "door": 2040,
      "medical": 2041,
      "designed": 2042,
      "university": 2043,
      "especially": 2044,
      "sor": 2045,
      "mechan": 2046,
      "benef": 2047,
      "push": 2048,
      "concer": 2049,
      "connected": 2050,
      "cli": 2051,
      "nal": 2052,
      "table": 2053,
      "origin": 2054,
      "rup": 2055,
      "round": 2056,
      "rod": 2057,
      "shape": 2058,
      "attack": 2059,
      "incredibly": 2060,
      "resources": 2061,
      "ctor": 2062,
      "lines": 2063,
      "subject": 2064,
      "secur": 2065,
      "goo": 2066,
      "chance": 2067,
      "talked": 2068,
      "dest": 2069,
      "prov": 2070,
      "anybody": 2071,
      "network": 2072,
      "drop": 2073,
      "rece": 2074,
      "convers": 2075,
      "speed": 2076,
      "late": 2077,
      "haven": 2078,
      "experien": 2079,
      "period": 2080,
      "please": 2081,
      "computers": 2082,
      "reasons": 2083,
      "available": 2084,
      "mand": 2085,
      "inese": 2086,
      "choice": 2087,
      "knows": 2088,
      "source": 2089,
      "evidence": 2090,
      "girls": 2091,
      "psycho": 2092,
      "iant": 2093,
      "tar": 2094,
      "inci": 2095,
      "lea": 2096,
      "pictures": 2097,
      "message": 2098,
      "hun": 2099,
      "lived": 2100,
      "strate": 2101,
      "solar": 2102,
      "tiny": 2103,
      "report": 2104,
      "chinese": 2105,
      "involved": 2106,
      "situation": 2107,
      "security": 2108,
      "const": 2109,
      "sphere": 2110,
      "conf": 2111,
      "surpris": 2112,
      "lam": 2113,
      "soph": 2114,
      "necess": 2115,
      "smart": 2116,
      "dimens": 2117,
      "nuc": 2118,
      "sleep": 2119,
      "cover": 2120,
      "cat": 2121,
      "office": 2122,
      "lau": 2123,
      "rial": 2124,
      "challeng": 2125,
      "becomes": 2126,
      "ghter": 2127,
      "construct": 2128,
      "sounds": 2129,
      "beyond": 2130,
      "putting": 2131,
      "genet": 2132,
      "bigger": 2133,
      "mail": 2134,
      "transform": 2135,
      "drive": 2136,
      "indeed": 2137,
      "multi": 2138,
      "several": 2139,
      "ences": 2140,
      "groups": 2141,
      "conscious": 2142,
      "bacter": 2143,
      "fant": 2144,
      "hom": 2145,
      "ore": 2146,
      "istan": 2147,
      "iction": 2148,
      "aware": 2149,
      "ump": 2150,
      "thor": 2151,
      "tware": 2152,
      "mountain": 2153,
      "ese": 2154,
      "lad": 2155,
      "link": 2156,
      "sand": 2157,
      "smo": 2158,
      "icans": 2159,
      "capital": 2160,
      "software": 2161,
      "dam": 2162,
      "san": 2163,
      "ows": 2164,
      "ado": 2165,
      "died": 2166,
      "ency": 2167,
      "stick": 2168,
      "effic": 2169,
      "scientific": 2170,
      "rules": 2171,
      "sam": 2172,
      "wide": 2173,
      "ley": 2174,
      "fold": 2175,
      "danger": 2176,
      "drugs": 2177,
      "eco": 2178,
      "ran": 2179,
      "secre": 2180,
      "abo": 2181,
      "suff": 2182,
      "ference": 2183,
      "sky": 2184,
      "certainly": 2185,
      "cin": 2186,
      "fing": 2187,
      "ival": 2188,
      "towards": 2189,
      "tex": 2190,
      "app": 2191,
      "device": 2192,
      "shar": 2193,
      "international": 2194,
      "chemical": 2195,
      "load": 2196,
      "brid": 2197,
      "walking": 2198,
      "screen": 2199,
      "cit": 2200,
      "progress": 2201,
      "cris": 2202,
      "google": 2203,
      "lon": 2204,
      "rap": 2205,
      "abor": 2206,
      "wash": 2207,
      "notice": 2208,
      "particularly": 2209,
      "concept": 2210,
      "tion": 2211,
      "usion": 2212,
      "cause": 2213,
      "activ": 2214,
      "believ": 2215,
      "further": 2216,
      "zero": 2217,
      "princi": 2218,
      "consider": 2219,
      "fortunately": 2220,
      "tally": 2221,
      "clin": 2222,
      "vari": 2223,
      "mers": 2224,
      "ony": 2225,
      "bul": 2226,
      "east": 2227,
      "pers": 2228,
      "character": 2229,
      "square": 2230,
      "suddenly": 2231,
      "wait": 2232,
      "gent": 2233,
      "minute": 2234,
      "schools": 2235,
      "ake": 2236,
      "games": 2237,
      "ably": 2238,
      "anyway": 2239,
      "phen": 2240,
      "basic": 2241,
      "digital": 2242,
      "narr": 2243,
      "tun": 2244,
      "enter": 2245,
      "violence": 2246,
      "eventually": 2247,
      "rop": 2248,
      "ift": 2249,
      "confl": 2250,
      "plants": 2251,
      "code": 2252,
      "everywhere": 2253,
      "mission": 2254,
      "hol": 2255,
      "ghan": 2256,
      "happiness": 2257,
      "positive": 2258,
      "fix": 2259,
      "mine": 2260,
      "kept": 2261,
      "cape": 2262,
      "park": 2263,
      "clean": 2264,
      "largest": 2265,
      "jobs": 2266,
      "potential": 2267,
      "aim": 2268,
      "ded": 2269,
      "tribut": 2270,
      "student": 2271,
      "teachers": 2272,
      "materials": 2273,
      "terror": 2274,
      "genes": 2275,
      "standard": 2276,
      "showing": 2277,
      "projects": 2278,
      "rom": 2279,
      "totally": 2280,
      "examples": 2281,
      "particip": 2282,
      "pover": 2283,
      "journey": 2284,
      "ges": 2285,
      "mas": 2286,
      "role": 2287,
      "extremely": 2288,
      "oid": 2289,
      "sco": 2290,
      "pair": 2291,
      "comfort": 2292,
      "tural": 2293,
      "vert": 2294,
      "craz": 2295,
      "leader": 2296,
      "hospital": 2297,
      "fit": 2298,
      "tens": 2299,
      "deli": 2300,
      "introd": 2301,
      "occur": 2302,
      "wants": 2303,
      "starts": 2304,
      "fundamental": 2305,
      "ilo": 2306,
      "xic": 2307,
      "sell": 2308,
      "capt": 2309,
      "antic": 2310,
      "biggest": 2311,
      "memory": 2312,
      "fuel": 2313,
      "exciting": 2314,
      "mous": 2315,
      "threat": 2316,
      "detail": 2317,
      "anti": 2318,
      "results": 2319,
      "brit": 2320,
      "carry": 2321,
      "minis": 2322,
      "brains": 2323,
      "apart": 2324,
      "higher": 2325,
      "joh": 2326,
      "skin": 2327,
      "bank": 2328,
      "democracy": 2329,
      "birth": 2330,
      "activity": 2331,
      "essentially": 2332,
      "central": 2333,
      "bom": 2334,
      "neighbor": 2335,
      "poverty": 2336,
      "500": 2337,
      "sect": 2338,
      "mobi": 2339,
      "cked": 2340,
      "legal": 2341,
      "emplo": 2342,
      "camera": 2343,
      "tit": 2344,
      "organization": 2345,
      "named": 2346,
      "village": 2347,
      "mathemat": 2348,
      "lose": 2349,
      "creative": 2350,
      "medicine": 2351,
      "pack": 2352,
      "page": 2353,
      "antly": 2354,
      "virt": 2355,
      "college": 2356,
      "ene": 2357,
      "complic": 2358,
      "ived": 2359,
      "models": 2360,
      "stri": 2361,
      "moral": 2362,
      "labor": 2363,
      "citiz": 2364,
      "mp": 2365,
      "ery": 2366,
      "iss": 2367,
      "wild": 2368,
      "urban": 2369,
      "leaders": 2370,
      "rect": 2371,
      "immedi": 2372,
      "shop": 2373,
      "apan": 2374,
      "rais": 2375,
      "diag": 2376,
      "continue": 2377,
      "separ": 2378,
      "supposed": 2379,
      "teacher": 2380,
      "response": 2381,
      "luck": 2382,
      "japan": 2383,
      "mir": 2384,
      "sch": 2385,
      "weight": 2386,
      "trees": 2387,
      "doctor": 2388,
      "improve": 2389,
      "crazy": 2390,
      "earli": 2391,
      "jud": 2392,
      "icle": 2393,
      "deser": 2394,
      "favorite": 2395,
      "waste": 2396,
      "usually": 2397,
      "standing": 2398,
      "discover": 2399,
      "gree": 2400,
      "ium": 2401,
      "mental": 2402,
      "finding": 2403,
      "bol": 2404,
      "calcul": 2405,
      "allowed": 2406,
      "watching": 2407,
      "individuals": 2408,
      "galax": 2409,
      "nuclear": 2410,
      "faster": 2411,
      "prison": 2412,
      "context": 2413,
      "passion": 2414,
      "freed": 2415,
      "collabor": 2416,
      "john": 2417,
      "bunch": 2418,
      "ram": 2419,
      "cold": 2420,
      "agree": 2421,
      "thanks": 2422,
      "buildings": 2423,
      "milit": 2424,
      "16": 2425,
      "fle": 2426,
      "impossible": 2427,
      "perspect": 2428,
      "blind": 2429,
      "grew": 2430,
      "author": 2431,
      "sess": 2432,
      "somewhere": 2433,
      "prote": 2434,
      "choose": 2435,
      "tells": 2436,
      "conditions": 2437,
      "african": 2438,
      "rand": 2439,
      "task": 2440,
      "zz": 2441,
      "arg": 2442,
      "ify": 2443,
      "shot": 2444,
      "glass": 2445,
      "goal": 2446,
      "dete": 2447,
      "worse": 2448,
      "cru": 2449,
      "manage": 2450,
      ".,": 2451,
      "lap": 2452,
      "sus": 2453,
      "version": 2454,
      "hiv": 2455,
      "lif": 2456,
      "movie": 2457,
      "site": 2458,
      "dog": 2459,
      "communities": 2460,
      "minds": 2461,
      "brother": 2462,
      "meant": 2463,
      "compet": 2464,
      "shown": 2465,
      "rights": 2466,
      "products": 2467,
      "specific": 2468,
      "ultim": 2469,
      "respect": 2470,
      "launch": 2471,
      "pull": 2472,
      "objects": 2473,
      "14": 2474,
      "bing": 2475,
      "wes": 2476,
      "wise": 2477,
      "remark": 2478,
      "bel": 2479,
      "accept": 2480,
      "ified": 2481,
      "bud": 2482,
      "chair": 2483,
      "rus": 2484,
      "ann": 2485,
      "neuro": 2486,
      "imm": 2487,
      "hero": 2488,
      "points": 2489,
      "sorts": 2490,
      "larger": 2491,
      "colleag": 2492,
      "extraordinary": 2493,
      "freedom": 2494,
      "none": 2495,
      "tree": 2496,
      "sem": 2497,
      "ribut": 2498,
      "healthy": 2499,
      "allows": 2500,
      "appear": 2501,
      "above": 2502,
      "arily": 2503,
      "stars": 2504,
      "wife": 2505,
      "somehow": 2506,
      "taught": 2507,
      "infect": 2508,
      "cook": 2509,
      "studies": 2510,
      "training": 2511,
      "oxy": 2512,
      "traditional": 2513,
      "cup": 2514,
      "ray": 2515,
      "ingly": 2516,
      "neg": 2517,
      "upon": 2518,
      "bodies": 2519,
      "production": 2520,
      "continu": 2521,
      "killed": 2522,
      "including": 2523,
      "cise": 2524,
      "reading": 2525,
      "signific": 2526,
      "cases": 2527,
      "influ": 2528,
      "wever": 2529,
      "omen": 2530,
      "ulate": 2531,
      "however": 2532,
      "temper": 2533,
      "fas": 2534,
      "gold": 2535,
      "stra": 2536,
      "service": 2537,
      "lower": 2538,
      "swe": 2539,
      "engage": 2540,
      "pieces": 2541,
      "complicated": 2542,
      "17": 2543,
      "series": 2544,
      "older": 2545,
      "biology": 2546,
      "ding": 2547,
      "hur": 2548,
      "muse": 2549,
      "nia": 2550,
      "vil": 2551,
      "therefore": 2552,
      "crisis": 2553,
      "western": 2554,
      "nation": 2555,
      "quant": 2556,
      "president": 2557,
      "truly": 2558,
      "critical": 2559,
      "lat": 2560,
      "ham": 2561,
      "although": 2562,
      "clearly": 2563,
      "successful": 2564,
      "written": 2565,
      "atom": 2566,
      "atory": 2567,
      "ables": 2568,
      "loved": 2569,
      "discus": 2570,
      "content": 2571,
      "doctors": 2572,
      "increase": 2573,
      "electricity": 2574,
      "phenomen": 2575,
      "alive": 2576,
      "vels": 2577,
      "afford": 2578,
      "seconds": 2579,
      "families": 2580,
      "dad": 2581,
      "mist": 2582,
      "gue": 2583,
      "physics": 2584,
      "excited": 2585,
      "types": 2586,
      "decision": 2587,
      "bacteria": 2588,
      "income": 2589,
      "iced": 2590,
      "deb": 2591,
      "achie": 2592,
      "price": 2593,
      "beings": 2594,
      "!\"": 2595,
      "ders": 2596,
      "mam": 2597,
      "offe": 2598,
      "plane": 2599,
      "distribut": 2600,
      "insp": 2601,
      "hell": 2602,
      "math": 2603,
      "commit": 2604,
      "magic": 2605,
      "tv": 2606,
      "uction": 2607,
      "versity": 2608,
      "region": 2609,
      "museum": 2610,
      "mention": 2611,
      "americans": 2612,
      "police": 2613,
      "achieve": 2614,
      "base": 2615,
      "dau": 2616,
      "active": 2617,
      "anywhere": 2618,
      "strange": 2619,
      "store": 2620,
      "expensive": 2621,
      "robots": 2622,
      "policy": 2623,
      "architecture": 2624,
      "mobile": 2625,
      "military": 2626,
      "catch": 2627,
      "ased": 2628,
      "civi": 2629,
      "throughout": 2630,
      "gradu": 2631,
      "perspective": 2632,
      "infr": 2633,
      "famous": 2634,
      "199": 2635,
      "treatment": 2636,
      "patterns": 2637,
      "conversation": 2638,
      "straight": 2639,
      "smaller": 2640,
      "familiar": 2641,
      "cross": 2642,
      "nut": 2643,
      "enor": 2644,
      "provide": 2645,
      "ured": 2646,
      "auto": 2647,
      "trou": 2648,
      "mak": 2649,
      "throw": 2650,
      "financi": 2651,
      "secret": 2652,
      "swi": 2653,
      "slight": 2654,
      "onom": 2655,
      "isms": 2656,
      "logists": 2657,
      "gotten": 2658,
      "himself": 2659,
      "trade": 2660,
      "stress": 2661,
      "habit": 2662,
      "hey": 2663,
      "def": 2664,
      "foc": 2665,
      "radio": 2666,
      "neurons": 2667,
      "transport": 2668,
      "rise": 2669,
      "scan": 2670,
      "shap": 2671,
      "actual": 2672,
      "saving": 2673,
      "machines": 2674,
      "recognize": 2675,
      "hop": 2676,
      "unfortunately": 2677,
      "preci": 2678,
      "ered": 2679,
      "faces": 2680,
      "lights": 2681,
      "fantastic": 2682,
      "cro": 2683,
      "organiz": 2684,
      "travel": 2685,
      "aust": 2686,
      "wel": 2687,
      "anymore": 2688,
      "performance": 2689,
      "private": 2690,
      "laugh": 2691,
      "earlier": 2692,
      "associ": 2693,
      "webs": 2694,
      "roll": 2695,
      "cade": 2696,
      "trick": 2697,
      "quar": 2698,
      "logist": 2699,
      "cles": 2700,
      "greater": 2701,
      "massive": 2702,
      "proto": 2703,
      "industrial": 2704,
      "hous": 2705,
      "init": 2706,
      "veh": 2707,
      "becoming": 2708,
      "teen": 2709,
      "willing": 2710,
      "unders": 2711,
      "driving": 2712,
      "environmental": 2713,
      "engineering": 2714,
      "listening": 2715,
      "range": 2716,
      "ounds": 2717,
      "condition": 2718,
      "effective": 2719,
      "intelligence": 2720,
      "sen": 2721,
      "van": 2722,
      "rock": 2723,
      "amp": 2724,
      "uments": 2725,
      "explore": 2726,
      "gain": 2727,
      "ites": 2728,
      "geo": 2729,
      "address": 2730,
      "painting": 2731,
      "pi": 2732,
      "demand": 2733,
      "interview": 2734,
      "legs": 2735,
      "direction": 2736,
      "decisions": 2737,
      "reflect": 2738,
      "email": 2739,
      "instr": 2740,
      "weren": 2741,
      "liber": 2742,
      "solutions": 2743,
      "broad": 2744,
      "13": 2745,
      "ners": 2746,
      "meters": 2747,
      "surger": 2748,
      "final": 2749,
      "cali": 2750,
      "dependent": 2751,
      "practice": 2752,
      "skills": 2753,
      "genetic": 2754,
      "plac": 2755,
      "integr": 2756,
      "capac": 2757,
      "stream": 2758,
      "gar": 2759,
      "lebr": 2760,
      "roy": 2761,
      "express": 2762,
      "dangerous": 2763,
      "cis": 2764,
      "celebr": 2765,
      "worry": 2766,
      "tered": 2767,
      "thern": 2768,
      "ending": 2769,
      "afghan": 2770,
      "strug": 2771,
      "drink": 2772,
      "contain": 2773,
      "waiting": 2774,
      "beauty": 2775,
      "costs": 2776,
      "mix": 2777,
      "spirit": 2778,
      "bridge": 2779,
      "enjoy": 2780,
      "governments": 2781,
      "forth": 2782,
      "unique": 2783,
      "invented": 2784,
      "du": 2785,
      "itation": 2786,
      "levels": 2787,
      "meter": 2788,
      "river": 2789,
      "humanity": 2790,
      "check": 2791,
      "lin": 2792,
      "meth": 2793,
      "adap": 2794,
      "iling": 2795,
      "surve": 2796,
      "journal": 2797,
      "immediately": 2798,
      "fascin": 2799,
      "cket": 2800,
      "ories": 2801,
      "wealth": 2802,
      "counter": 2803,
      "related": 2804,
      "connection": 2805,
      "random": 2806,
      "website": 2807,
      "bits": 2808,
      "race": 2809,
      "demon": 2810,
      "ceed": 2811,
      "cial": 2812,
      "atmo": 2813,
      "weap": 2814,
      "nel": 2815,
      "popular": 2816,
      "conflict": 2817,
      "hall": 2818,
      "arri": 2819,
      "beat": 2820,
      "optim": 2821,
      "phones": 2822,
      "greatest": 2823,
      "values": 2824,
      "teaching": 2825,
      "floor": 2826,
      "nic": 2827,
      "alter": 2828,
      "plastic": 2829,
      "brand": 2830,
      "harv": 2831,
      "services": 2832,
      "walked": 2833,
      "institutions": 2834,
      "mut": 2835,
      "decade": 2836,
      "frame": 2837,
      "raise": 2838,
      "dollar": 2839,
      "laws": 2840,
      "21": 2841,
      "300": 2842,
      "arab": 2843,
      "ira": 2844,
      "prevent": 2845,
      "electron": 2846,
      "cultural": 2847,
      "physic": 2848,
      "obvious": 2849,
      "babies": 2850,
      "virus": 2851,
      "camp": 2852,
      "hid": 2853,
      "contribut": 2854,
      "meeting": 2855,
      "honest": 2856,
      "encour": 2857,
      "account": 2858,
      "iger": 2859,
      "wheel": 2860,
      "various": 2861,
      "rule": 2862,
      "sustainable": 2863,
      "dynam": 2864,
      "hair": 2865,
      "forget": 2866,
      "curi": 2867,
      "flying": 2868,
      "ahead": 2869,
      "cular": 2870,
      "tood": 2871,
      "select": 2872,
      "match": 2873,
      "decades": 2874,
      "sorry": 2875,
      "understood": 2876,
      "cast": 2877,
      "cry": 2878,
      "belief": 2879,
      "effects": 2880,
      "24": 2881,
      "mary": 2882,
      "following": 2883,
      "london": 2884,
      "financial": 2885,
      "une": 2886,
      "speaking": 2887,
      "paid": 2888,
      "possibly": 2889,
      "remarkable": 2890,
      "ky": 2891,
      "insect": 2892,
      "apply": 2893,
      "manu": 2894,
      "offic": 2895,
      "relative": 2896,
      "neighborhood": 2897,
      "cure": 2898,
      "concl": 2899,
      "gene": 2900,
      "commer": 2901,
      "decide": 2902,
      "career": 2903,
      "ech": 2904,
      "fat": 2905,
      "lic": 2906,
      "sad": 2907,
      "bees": 2908,
      "expand": 2909,
      "politics": 2910,
      "astruct": 2911,
      "infrastruct": 2912,
      "seas": 2913,
      "useful": 2914,
      "hole": 2915,
      "pressure": 2916,
      "crimin": 2917,
      "summer": 2918,
      "fro": 2919,
      "aries": 2920,
      "boys": 2921,
      "mostly": 2922,
      "instance": 2923,
      "purpose": 2924,
      "terrible": 2925,
      "enormous": 2926,
      "choices": 2927,
      "corpor": 2928,
      "transl": 2929,
      "remain": 2930,
      "termin": 2931,
      "saur": 2932,
      "agric": 2933,
      "philo": 2934,
      "markets": 2935,
      "dram": 2936,
      "graphic": 2937,
      "sequence": 2938,
      "female": 2939,
      "diseas": 2940,
      "washing": 2941,
      "capacity": 2942,
      "wis": 2943,
      "motiv": 2944,
      "philosoph": 2945,
      "ito": 2946,
      "ires": 2947,
      "party": 2948,
      "ucing": 2949,
      "native": 2950,
      "challenges": 2951,
      "blog": 2952,
      "era": 2953,
      "total": 2954,
      "forces": 2955,
      "paign": 2956,
      "played": 2957,
      "campaign": 2958,
      "birds": 2959,
      "eties": 2960,
      "nur": 2961,
      "spo": 2962,
      "below": 2963,
      "spin": 2964,
      "societies": 2965,
      "rooms": 2966,
      "trem": 2967,
      "efficient": 2968,
      "slightly": 2969,
      "hus": 2970,
      "ked": 2971,
      "mars": 2972,
      "tro": 2973,
      "wered": 2974,
      "entre": 2975,
      "wire": 2976,
      "compe": 2977,
      "core": 2978,
      "istics": 2979,
      "crow": 2980,
      "creativity": 2981,
      "join": 2982,
      "diseases": 2983,
      "tum": 2984,
      "worst": 2985,
      "coast": 2986,
      "supply": 2987,
      "parent": 2988,
      "slide": 2989,
      "original": 2990,
      "citizens": 2991,
      "swim": 2992,
      "conserv": 2993,
      "whose": 2994,
      "craf": 2995,
      "desp": 2996,
      "surround": 2997,
      "helped": 2998,
      "expected": 2999,
      "religion": 3000,
      "television": 3001,
      "califor": 3002,
      "zo": 3003,
      "island": 3004,
      "edge": 3005,
      "loss": 3006,
      "indian": 3007,
      "assum": 3008,
      "published": 3009,
      "switch": 3010,
      "civiliz": 3011,
      "entrepre": 3012,
      "aur": 3013,
      "mad": 3014,
      "yle": 3015,
      "ils": 3016,
      "shared": 3017,
      "biological": 3018,
      "diagno": 3019,
      "sn": 3020,
      "yellow": 3021,
      "resist": 3022,
      "spaces": 3023,
      "claim": 3024,
      "scientist": 3025,
      "directly": 3026,
      "colleagues": 3027,
      "temperature": 3028,
      "aper": 3029,
      "artist": 3030,
      "knowing": 3031,
      "ends": 3032,
      "produced": 3033,
      "brea": 3034,
      "profit": 3035,
      "relationships": 3036,
      "sme": 3037,
      "lying": 3038,
      "tax": 3039,
      "survive": 3040,
      "surgery": 3041,
      "infrastructure": 3042,
      "tremend": 3043,
      "california": 3044,
      "ancy": 3045,
      "heat": 3046,
      "pleas": 3047,
      "oxygen": 3048,
      "anced": 3049,
      "fran": 3050,
      "answers": 3051,
      "programs": 3052,
      "dance": 3053,
      "hack": 3054,
      "whal": 3055,
      "ung": 3056,
      "imate": 3057,
      "ustr": 3058,
      "iles": 3059,
      "turning": 3060,
      "manufact": 3061,
      "rout": 3062,
      "rem": 3063,
      "tery": 3064,
      "plat": 3065,
      "twice": 3066,
      "partner": 3067,
      "differences": 3068,
      "funny": 3069,
      "profound": 3070,
      "copy": 3071,
      "eating": 3072,
      "rough": 3073,
      "lie": 3074,
      "causes": 3075,
      "techni": 3076,
      "avid": 3077,
      "organizations": 3078,
      "iran": 3079,
      "conference": 3080,
      "noticed": 3081,
      "workers": 3082,
      "embr": 3083,
      "members": 3084,
      "networks": 3085,
      "evolved": 3086,
      "despite": 3087,
      "itor": 3088,
      "kil": 3089,
      "thetic": 3090,
      "anda": 3091,
      "contr": 3092,
      "genome": 3093,
      "correct": 3094,
      "document": 3095,
      "shoot": 3096,
      "tube": 3097,
      "afghanistan": 3098,
      "iraq": 3099,
      "gap": 3100,
      "scr": 3101,
      "islam": 3102,
      "ently": 3103,
      "frank": 3104,
      "akes": 3105,
      "highly": 3106,
      "daughter": 3107,
      "atmosphere": 3108,
      "bound": 3109,
      "fed": 3110,
      "ior": 3111,
      "osaur": 3112,
      "held": 3113,
      "moon": 3114,
      "suit": 3115,
      "closer": 3116,
      "cules": 3117,
      "respond": 3118,
      "brill": 3119,
      "responsibility": 3120,
      "method": 3121,
      "mr": 3122,
      "mou": 3123,
      "vit": 3124,
      "afraid": 3125,
      "streets": 3126,
      "symbol": 3127,
      "comfortable": 3128,
      "trouble": 3129,
      "bought": 3130,
      "cooper": 3131,
      "applic": 3132,
      "rench": 3133,
      "hibit": 3134,
      "stopped": 3135,
      "fash": 3136,
      "vul": 3137,
      "boat": 3138,
      "speech": 3139,
      "designers": 3140,
      "custom": 3141,
      "hydro": 3142,
      "thes": 3143,
      "advant": 3144,
      "domin": 3145,
      "communication": 3146,
      "communicate": 3147,
      "emotional": 3148,
      "bird": 3149,
      "master": 3150,
      "rot": 3151,
      "sick": 3152,
      "remind": 3153,
      "traf": 3154,
      "plor": 3155,
      "justice": 3156,
      "carto": 3157,
      "compon": 3158,
      "paral": 3159,
      "missing": 3160,
      "bringing": 3161,
      "broken": 3162,
      "bag": 3163,
      "dying": 3164,
      "gun": 3165,
      "scar": 3166,
      "seemed": 3167,
      "prise": 3168,
      "bub": 3169,
      "contact": 3170,
      "experiments": 3171,
      "aids": 3172,
      "analy": 3173,
      "target": 3174,
      "iers": 3175,
      "rare": 3176,
      "ya": 3177,
      "attract": 3178,
      "isra": 3179,
      "formed": 3180,
      "talks": 3181,
      "feels": 3182,
      "easily": 3183,
      "nearly": 3184,
      "finger": 3185,
      "rapid": 3186,
      "ather": 3187,
      "lack": 3188,
      "vast": 3189,
      "acce": 3190,
      "degre": 3191,
      "oppos": 3192,
      "sharing": 3193,
      "shift": 3194,
      "reduce": 3195,
      "lets": 3196,
      "corner": 3197,
      "molecules": 3198,
      "cred": 3199,
      "sate": 3200,
      "ths": 3201,
      "ana": 3202,
      "icles": 3203,
      "explor": 3204,
      "braz": 3205,
      "shel": 3206,
      "cycle": 3207,
      "block": 3208,
      "window": 3209,
      "consciousness": 3210,
      "austral": 3211,
      "nations": 3212,
      "ison": 3213,
      "algor": 3214,
      "note": 3215,
      "prep": 3216,
      "dinosaur": 3217,
      "magaz": 3218,
      "degrees": 3219,
      "satell": 3220,
      "algorith": 3221,
      "eg": 3222,
      "hang": 3223,
      "seat": 3224,
      "actions": 3225,
      "grade": 3226,
      "differently": 3227,
      "intel": 3228,
      "basis": 3229,
      "creates": 3230,
      "helping": 3231,
      "planets": 3232,
      "passed": 3233,
      "psych": 3234,
      "experiences": 3235,
      "fashion": 3236,
      "py": 3237,
      "pts": 3238,
      "diversity": 3239,
      "electr": 3240,
      "metaph": 3241,
      "deliver": 3242,
      "significant": 3243,
      "david": 3244,
      "inspir": 3245,
      "itude": 3246,
      "lied": 3247,
      "etc": 3248,
      "complexity": 3249,
      "mes": 3250,
      "nit": 3251,
      "vic": 3252,
      "spring": 3253,
      "ishing": 3254,
      "ancient": 3255,
      "focused": 3256,
      "date": 3257,
      "gard": 3258,
      "dered": 3259,
      "vulner": 3260,
      "bread": 3261,
      "accord": 3262,
      "rob": 3263,
      "civil": 3264,
      "spot": 3265,
      "ender": 3266,
      "background": 3267,
      "flag": 3268,
      "spending": 3269,
      "ology": 3270,
      "zen": 3271,
      "org": 3272,
      "exer": 3273,
      "norm": 3274,
      "breast": 3275,
      "addition": 3276,
      "charge": 3277,
      "regular": 3278,
      "hearing": 3279,
      "400": 3280,
      "mort": 3281,
      "tes": 3282,
      "repe": 3283,
      "stren": 3284,
      "acade": 3285,
      "hea": 3286,
      "unk": 3287,
      "usual": 3288,
      "therap": 3289,
      "trial": 3290,
      "foreign": 3291,
      "studying": 3292,
      "balance": 3293,
      "devices": 3294,
      "professor": 3295,
      "inspired": 3296,
      "coffe": 3297,
      "tren": 3298,
      "atives": 3299,
      "foundation": 3300,
      "facebook": 3301,
      "landscape": 3302,
      "religious": 3303,
      "scri": 3304,
      "wave": 3305,
      "stone": 3306,
      "poem": 3307,
      "bled": 3308,
      "techn": 3309,
      "identity": 3310,
      "opportunities": 3311,
      "soft": 3312,
      "lucky": 3313,
      "husband": 3314,
      "tremendous": 3315,
      "giant": 3316,
      "tough": 3317,
      "depart": 3318,
      "decl": 3319,
      "ards": 3320,
      "imagination": 3321,
      "sexual": 3322,
      "entrepreneur": 3323,
      "streng": 3324,
      "bone": 3325,
      "forever": 3326,
      "serve": 3327,
      "ception": 3328,
      "collap": 3329,
      "fairly": 3330,
      "detect": 3331,
      "coffee": 3332,
      "og": 3333,
      "pas": 3334,
      "vict": 3335,
      "anth": 3336,
      "weird": 3337,
      "chur": 3338,
      "myster": 3339,
      "artists": 3340,
      "corrup": 3341,
      "effort": 3342,
      "possibility": 3343,
      "avoid": 3344,
      "ultimately": 3345,
      "fol": 3346,
      "opt": 3347,
      "crash": 3348,
      "intu": 3349,
      "cheap": 3350,
      "miss": 3351,
      "virtual": 3352,
      "stor": 3353,
      "tap": 3354,
      "asia": 3355,
      "arts": 3356,
      "umb": 3357,
      "histor": 3358,
      "creation": 3359,
      "hill": 3360,
      "chick": 3361,
      "ets": 3362,
      "farmers": 3363,
      "sites": 3364,
      "fresh": 3365,
      "definition": 3366,
      "scul": 3367,
      "inct": 3368,
      "ama": 3369,
      "drag": 3370,
      "failure": 3371,
      "necessary": 3372,
      "victim": 3373,
      "reve": 3374,
      "coal": 3375,
      "figured": 3376,
      "dreams": 3377,
      "mouse": 3378,
      "ander": 3379,
      "degree": 3380,
      "invis": 3381,
      "equip": 3382,
      "distance": 3383,
      "radi": 3384,
      "phenomenon": 3385,
      "brilliant": 3386,
      "flies": 3387,
      "tag": 3388,
      "vacc": 3389,
      "aspect": 3390,
      "weak": 3391,
      "ada": 3392,
      "events": 3393,
      "finished": 3394,
      "creatures": 3395,
      "european": 3396,
      "responsible": 3397,
      "gentle": 3398,
      "raised": 3399,
      "argument": 3400,
      "opposite": 3401,
      "bright": 3402,
      "pig": 3403,
      "uary": 3404,
      "seed": 3405,
      "particles": 3406,
      "valu": 3407,
      "describe": 3408,
      "desert": 3409,
      "negative": 3410,
      "kilome": 3411,
      "traffic": 3412,
      "fab": 3413,
      "tent": 3414,
      "grav": 3415,
      "leads": 3416,
      "structures": 3417,
      "frequ": 3418,
      "necessarily": 3419,
      "cum": 3420,
      "zed": 3421,
      "depression": 3422,
      "appreci": 3423,
      "otherwise": 3424,
      "importantly": 3425,
      "198": 3426,
      "moments": 3427,
      "easier": 3428,
      "graphy": 3429,
      "holding": 3430,
      "accident": 3431,
      "leadership": 3432,
      "cod": 3433,
      "fif": 3434,
      "hip": 3435,
      "niger": 3436,
      "sac": 3437,
      "ened": 3438,
      "roof": 3439,
      "conce": 3440,
      "notion": 3441,
      "covered": 3442,
      "quote": 3443,
      "click": 3444,
      "heads": 3445,
      "leading": 3446,
      "equal": 3447,
      "tempt": 3448,
      "discovery": 3449,
      "entirely": 3450,
      "gri": 3451,
      "mur": 3452,
      "rum": 3453,
      "tour": 3454,
      "return": 3455,
      "cope": 3456,
      "gry": 3457,
      "signal": 3458,
      "mothers": 3459,
      "billions": 3460,
      "suffering": 3461,
      "remote": 3462,
      "bow": 3463,
      "french": 3464,
      "lph": 3465,
      "pir": 3466,
      "icking": 3467,
      "accur": 3468,
      "calls": 3469,
      "benefits": 3470,
      "uck": 3471,
      "assem": 3472,
      "concent": 3473,
      "cloud": 3474,
      "dry": 3475,
      "elements": 3476,
      "sequences": 3477,
      "mber": 3478,
      "nan": 3479,
      "va": 3480,
      "icon": 3481,
      "libr": 3482,
      "previ": 3483,
      "cycl": 3484,
      "pressed": 3485,
      "organisms": 3486,
      "brings": 3487,
      "double": 3488,
      "smell": 3489,
      "cand": 3490,
      "fal": 3491,
      "flight": 3492,
      "lunch": 3493,
      "mig": 3494,
      "independent": 3495,
      "arian": 3496,
      "iding": 3497,
      "noise": 3498,
      "letter": 3499,
      "studied": 3500,
      "shouldn": 3501,
      "puzz": 3502,
      "helps": 3503,
      "visit": 3504,
      "opened": 3505,
      "oceans": 3506,
      "trained": 3507,
      "dimensional": 3508,
      "sets": 3509,
      "station": 3510,
      "otic": 3511,
      "moves": 3512,
      "indic": 3513,
      "ager": 3514,
      "bling": 3515,
      "bert": 3516,
      "restaur": 3517,
      "prior": 3518,
      "prize": 3519,
      "emotion": 3520,
      "require": 3521,
      "competition": 3522,
      "commercial": 3523,
      "intellect": 3524,
      "ii": 3525,
      "ns": 3526,
      "pac": 3527,
      "snow": 3528,
      "tissue": 3529,
      "ases": 3530,
      "wear": 3531,
      "vere": 3532,
      "bee": 3533,
      "abilities": 3534,
      "motor": 3535,
      "tric": 3536,
      "ulations": 3537,
      "grass": 3538,
      "faith": 3539,
      "capable": 3540,
      "institution": 3541,
      "xico": 3542,
      "placed": 3543,
      "weapons": 3544,
      "egy": 3545,
      "pun": 3546,
      "adults": 3547,
      "cies": 3548,
      "sume": 3549,
      "proud": 3550,
      "newsp": 3551,
      "puts": 3552,
      "epide": 3553,
      "matters": 3554,
      "closed": 3555,
      "bomb": 3556,
      "cate": 3557,
      "pounds": 3558,
      "atures": 3559,
      "sector": 3560,
      "determin": 3561,
      "limited": 3562,
      "stuck": 3563,
      "tempor": 3564,
      "typical": 3565,
      "quantum": 3566,
      "insects": 3567,
      "according": 3568,
      "gi": 3569,
      "los": 3570,
      "mod": 3571,
      "unte": 3572,
      "ami": 3573,
      "grown": 3574,
      "itely": 3575,
      "host": 3576,
      "factory": 3577,
      "investment": 3578,
      "transp": 3579,
      "employ": 3580,
      "bilities": 3581,
      "fli": 3582,
      "tons": 3583,
      "heav": 3584,
      "chr": 3585,
      "idents": 3586,
      "ifically": 3587,
      "opin": 3588,
      "extend": 3589,
      "ysis": 3590,
      "childhood": 3591,
      "colors": 3592,
      "failed": 3593,
      "professional": 3594,
      "eli": 3595,
      "jan": 3596,
      "wit": 3597,
      "ino": 3598,
      "incent": 3599,
      "maint": 3600,
      "plus": 3601,
      "grab": 3602,
      "fourth": 3603,
      "hopefully": 3604,
      "volunte": 3605,
      "horri": 3606,
      "slowly": 3607,
      "believed": 3608,
      "advantage": 3609,
      "fell": 3610,
      "offer": 3611,
      "surge": 3612,
      "flat": 3613,
      "compared": 3614,
      "fighting": 3615,
      "relev": 3616,
      "currently": 3617,
      "destroy": 3618,
      "leaving": 3619,
      "magazine": 3620,
      "metaphor": 3621,
      "invisible": 3622,
      "150": 3623,
      "45": 3624,
      "hate": 3625,
      "tas": 3626,
      "chip": 3627,
      "caught": 3628,
      "ulous": 3629,
      "whenever": 3630,
      "apple": 3631,
      "organic": 3632,
      "succeed": 3633,
      "eleph": 3634,
      "promise": 3635,
      "filled": 3636,
      "concerned": 3637,
      "acceler": 3638,
      "dia": 3639,
      "due": 3640,
      "jump": 3641,
      "anger": 3642,
      "stim": 3643,
      "unless": 3644,
      "els": 3645,
      "appeared": 3646,
      "majority": 3647,
      "sister": 3648,
      "convinc": 3649,
      "nas": 3650,
      "spl": 3651,
      "ening": 3652,
      "frag": 3653,
      "extin": 3654,
      "compare": 3655,
      "coral": 3656,
      "yester": 3657,
      "politic": 3658,
      "names": 3659,
      "consumption": 3660,
      "benefit": 3661,
      "dial": 3662,
      "wat": 3663,
      "teles": 3664,
      "qui": 3665,
      "strain": 3666,
      "lesson": 3667,
      "engineers": 3668,
      "collective": 3669,
      "cognitive": 3670,
      "circle": 3671,
      "influence": 3672,
      "gin": 3673,
      "rat": 3674,
      "bear": 3675,
      "enty": 3676,
      "agers": 3677,
      "blow": 3678,
      "marri": 3679,
      "warm": 3680,
      "attach": 3681,
      "subst": 3682,
      "paint": 3683,
      "deeply": 3684,
      "circu": 3685,
      "mathematics": 3686,
      "normally": 3687,
      "ka": 3688,
      "rit": 3689,
      "itter": 3690,
      "meat": 3691,
      "fellow": 3692,
      "install": 3693,
      "clock": 3694,
      "operating": 3695,
      "walls": 3696,
      "constantly": 3697,
      "protein": 3698,
      "craft": 3699,
      "yesterday": 3700,
      "dp": 3701,
      "wow": 3702,
      "inner": 3703,
      "metal": 3704,
      "forced": 3705,
      "gos": 3706,
      "izes": 3707,
      "bles": 3708,
      "managed": 3709,
      "cared": 3710,
      "begins": 3711,
      "paying": 3712,
      "emotions": 3713,
      "fascinating": 3714,
      "demonstr": 3715,
      "mouth": 3716,
      "church": 3717,
      "transparen": 3718,
      "argue": 3719,
      "soli": 3720,
      "interaction": 3721,
      "insight": 3722,
      "driven": 3723,
      "angle": 3724,
      "treated": 3725,
      "british": 3726,
      "galaxy": 3727,
      "99": 3728,
      "mart": 3729,
      "rational": 3730,
      "reward": 3731,
      "ising": 3732,
      "weather": 3733,
      "soil": 3734,
      "ulated": 3735,
      "erson": 3736,
      "surprise": 3737,
      "equival": 3738,
      "described": 3739,
      "soldiers": 3740,
      "strategy": 3741,
      "separate": 3742,
      "graduate": 3743,
      "leng": 3744,
      "pill": 3745,
      "rac": 3746,
      "arms": 3747,
      "artific": 3748,
      "reser": 3749,
      "foss": 3750,
      "steps": 3751,
      "fields": 3752,
      "location": 3753,
      "35": 3754,
      "75": 3755,
      "eper": 3756,
      "jum": 3757,
      "las": 3758,
      "ub": 3759,
      "infin": 3760,
      "replace": 3761,
      "actor": 3762,
      "precise": 3763,
      "obsess": 3764,
      "married": 3765,
      "farm": 3766,
      "investig": 3767,
      "symme": 3768,
      "perfectly": 3769,
      "seriously": 3770,
      "principles": 3771,
      "galaxies": 3772,
      "adapt": 3773,
      "agriculture": 3774,
      "gender": 3775,
      "wing": 3776,
      "eral": 3777,
      "mov": 3778,
      "prop": 3779,
      "destr": 3780,
      "player": 3781,
      "appropri": 3782,
      "followed": 3783,
      "element": 3784,
      "homes": 3785,
      "civilization": 3786,
      "sculpt": 3787,
      "vot": 3788,
      "whom": 3789,
      "hasn": 3790,
      "consist": 3791,
      "businesses": 3792,
      "chain": 3793,
      "brief": 3794,
      "gall": 3795,
      "wearing": 3796,
      "section": 3797,
      "pros": 3798,
      "exhibit": 3799,
      "cule": 3800,
      "battle": 3801,
      "wisdom": 3802,
      "shad": 3803,
      "mexico": 3804,
      "ulf": 3805,
      "reef": 3806,
      "presents": 3807,
      "solved": 3808,
      "generate": 3809,
      "organized": 3810,
      "crime": 3811,
      "morrow": 3812,
      "keeping": 3813,
      "feedback": 3814,
      "80s": 3815,
      "intelligent": 3816,
      "surprised": 3817,
      "mentioned": 3818,
      "apped": 3819,
      "everyday": 3820,
      "crack": 3821,
      "desire": 3822,
      "cortex": 3823,
      "conduct": 3824,
      "planning": 3825,
      "breath": 3826,
      "languages": 3827,
      "cult": 3828,
      "xim": 3829,
      "stup": 3830,
      "acqu": 3831,
      "worried": 3832,
      "magn": 3833,
      "invited": 3834,
      "ships": 3835,
      "harder": 3836,
      "setting": 3837,
      "gather": 3838,
      "fied": 3839,
      "darwin": 3840,
      "motion": 3841,
      "70s": 3842,
      "strateg": 3843,
      "multiple": 3844,
      "announ": 3845,
      "vehicle": 3846,
      "israel": 3847,
      "brazil": 3848,
      "australia": 3849,
      "department": 3850,
      "equivalent": 3851,
      "etry": 3852,
      "vac": 3853,
      "tomorrow": 3854,
      "beach": 3855,
      "keys": 3856,
      "iron": 3857,
      "poetry": 3858,
      "qual": 3859,
      "twitter": 3860,
      "england": 3861,
      "designer": 3862,
      "20th": 3863,
      "economics": 3864,
      "scen": 3865,
      "institute": 3866,
      "increasingly": 3867,
      "received": 3868,
      "construction": 3869,
      "washington": 3870,
      "francis": 3871,
      "kick": 3872,
      "sight": 3873,
      "theater": 3874,
      "review": 3875,
      "bell": 3876,
      "belong": 3877,
      "goals": 3878,
      "define": 3879,
      "adult": 3880,
      "tian": 3881,
      "bran": 3882,
      "nerv": 3883,
      "valley": 3884,
      "continent": 3885,
      "universal": 3886,
      "richard": 3887,
      "drawing": 3888,
      "lady": 3889,
      "management": 3890,
      "zing": 3891,
      "replic": 3892,
      "iter": 3893,
      "loy": 3894,
      "peak": 3895,
      "command": 3896,
      "versus": 3897,
      "mistry": 3898,
      "engineer": 3899,
      "daily": 3900,
      "debate": 3901,
      "alternative": 3902,
      "gay": 3903,
      "pil": 3904,
      "ware": 3905,
      "geor": 3906,
      "implic": 3907,
      "advert": 3908,
      "shut": 3909,
      "colon": 3910,
      "diet": 3911,
      "warming": 3912,
      "dinner": 3913,
      "researchers": 3914,
      "watched": 3915,
      "testing": 3916,
      "classroom": 3917,
      "safety": 3918,
      "survival": 3919,
      "molecule": 3920,
      "launched": 3921,
      "associated": 3922,
      "houses": 3923,
      "hidden": 3924,
      "quiet": 3925,
      "mac": 3926,
      "nest": 3927,
      "pages": 3928,
      "rs": 3929,
      "rely": 3930,
      "ston": 3931,
      "users": 3932,
      "ops": 3933,
      "marke": 3934,
      "highest": 3935,
      "imagin": 3936,
      "fuge": 3937,
      "cutting": 3938,
      "cards": 3939,
      "credit": 3940,
      "equipment": 3941,
      "rural": 3942,
      "thesis": 3943,
      "ids": 3944,
      "acts": 3945,
      "exists": 3946,
      "calling": 3947,
      "ensity": 3948,
      "viet": 3949,
      "expert": 3950,
      "chemistry": 3951,
      "driver": 3952,
      "statistics": 3953,
      "90s": 3954,
      "clinical": 3955,
      "employe": 3956,
      "technical": 3957,
      "folks": 3958,
      "stupid": 3959,
      "mc": 3960,
      "veget": 3961,
      "thinks": 3962,
      "trill": 3963,
      "players": 3964,
      "males": 3965,
      "ification": 3966,
      "identify": 3967,
      "waves": 3968,
      "sentence": 3969,
      "principle": 3970,
      "christ": 3971,
      "iev": 3972,
      "mile": 3973,
      "atically": 3974,
      "toward": 3975,
      "chimp": 3976,
      "dolph": 3977,
      "expression": 3978,
      "igno": 3979,
      "grain": 3980,
      "germany": 3981,
      "photos": 3982,
      "polic": 3983,
      "existence": 3984,
      "resource": 3985,
      "forests": 3986,
      "distribution": 3987,
      "shapes": 3988,
      "nervous": 3989,
      "dress": 3990,
      "acting": 3991,
      "article": 3992,
      "co2": 3993,
      "connections": 3994,
      "hypo": 3995,
      "democratic": 3996,
      "property": 3997,
      "kilometers": 3998,
      "cow": 3999,
      "einste": 4000,
      "tall": 4001,
      "caused": 4002,
      "illness": 4003,
      "pray": 4004,
      "aff": 4005,
      "awful": 4006,
      "wake": 4007,
      "signals": 4008,
      "harm": 4009,
      "convention": 4010,
      "leaves": 4011,
      "surprising": 4012,
      "instrument": 4013,
      "struggle": 4014,
      "heavy": 4015,
      "sla": 4016,
      "icts": 4017,
      "liked": 4018,
      "irt": 4019,
      "explan": 4020,
      "stood": 4021,
      "transition": 4022,
      "transformation": 4023,
      "suppose": 4024,
      "opening": 4025,
      "airplane": 4026,
      "processes": 4027,
      "shoes": 4028,
      "scene": 4029,
      "japanese": 4030,
      "corruption": 4031,
      "george": 4032,
      "bum": 4033,
      "ib": 4034,
      "kistan": 4035,
      "rhy": 4036,
      "som": 4037,
      "losing": 4038,
      "maps": 4039,
      "saved": 4040,
      "evil": 4041,
      "portion": 4042,
      "parad": 4043,
      "prim": 4044,
      "generations": 4045,
      "bush": 4046,
      "occup": 4047,
      "empty": 4048,
      "analysis": 4049,
      "layer": 4050,
      "experienced": 4051,
      "hurt": 4052,
      "artificial": 4053,
      "eld": 4054,
      "ko": 4055,
      "pow": 4056,
      "sia": 4057,
      "isol": 4058,
      "toi": 4059,
      "eness": 4060,
      "accom": 4061,
      "negot": 4062,
      "ads": 4063,
      "empath": 4064,
      "observ": 4065,
      "trip": 4066,
      "importance": 4067,
      "designing": 4068,
      "prime": 4069,
      "wondering": 4070,
      "dealing": 4071,
      "collection": 4072,
      "circum": 4073,
      "spoke": 4074,
      "electrical": 4075,
      "marriage": 4076,
      "negoti": 4077,
      "dot": 4078,
      "iat": 4079,
      "inj": 4080,
      "refuge": 4081,
      "aling": 4082,
      "user": 4083,
      "boo": 4084,
      "interface": 4085,
      "facts": 4086,
      "producing": 4087,
      "occas": 4088,
      "grandmother": 4089,
      "picked": 4090,
      "dimensions": 4091,
      "chemicals": 4092,
      "minister": 4093,
      "kore": 4094,
      "ume": 4095,
      "thre": 4096,
      "reaction": 4097,
      "orders": 4098,
      "arct": 4099,
      "aria": 4100,
      "abstr": 4101,
      "del": 4102,
      "consequences": 4103,
      "pole": 4104,
      "powered": 4105,
      "shif": 4106,
      "novel": 4107,
      "estic": 4108,
      "hadn": 4109,
      "whereas": 4110,
      "firm": 4111,
      "vessel": 4112,
      "letters": 4113,
      "preser": 4114,
      "kenya": 4115,
      "hyper": 4116,
      "advanced": 4117,
      "mountains": 4118,
      "britain": 4119,
      "einstein": 4120,
      "ec": 4121,
      "hide": 4122,
      "thir": 4123,
      "height": 4124,
      "ctions": 4125,
      "pool": 4126,
      "embar": 4127,
      "marine": 4128,
      "studio": 4129,
      "finish": 4130,
      "limit": 4131,
      "signs": 4132,
      "voices": 4133,
      "specifically": 4134,
      "honor": 4135,
      "21st": 4136,
      "relevant": 4137,
      "movies": 4138,
      "pit": 4139,
      "ali": 4140,
      "acle": 4141,
      "congress": 4142,
      "frustr": 4143,
      "phil": 4144,
      "monitor": 4145,
      "viruses": 4146,
      "facing": 4147,
      "killing": 4148,
      "burn": 4149,
      "microbes": 4150,
      "pengu": 4151,
      "damage": 4152,
      "holes": 4153,
      "arrived": 4154,
      "convinced": 4155,
      "ctors": 4156,
      "rates": 4157,
      "army": 4158,
      "unit": 4159,
      "conside": 4160,
      "essential": 4161,
      "estab": 4162,
      "cents": 4163,
      "manip": 4164,
      "pakistan": 4165,
      "northern": 4166,
      "healthcare": 4167,
      "productive": 4168,
      "battery": 4169,
      "increasing": 4170,
      "satellite": 4171,
      "concentr": 4172,
      "considered": 4173,
      "dots": 4174,
      "hat": 4175,
      "pto": 4176,
      "vote": 4177,
      "toy": 4178,
      "perce": 4179,
      "plate": 4180,
      "cipl": 4181,
      "desk": 4182,
      "trials": 4183,
      "experts": 4184,
      "possibilities": 4185,
      "muscle": 4186,
      "magnet": 4187,
      "sending": 4188,
      "clip": 4189,
      "maintain": 4190,
      "mm": 4191,
      "pin": 4192,
      "winter": 4193,
      "neath": 4194,
      "deeper": 4195,
      "admit": 4196,
      "exchange": 4197,
      "underneath": 4198,
      "paul": 4199,
      "feelings": 4200,
      "broke": 4201,
      "consumer": 4202,
      "variety": 4203,
      "terrorism": 4204,
      "budget": 4205,
      "dynamic": 4206,
      "curious": 4207,
      "dinosaurs": 4208,
      "exercise": 4209,
      "apo": 4210,
      "iest": 4211,
      "ride": 4212,
      "vas": 4213,
      "vig": 4214,
      "via": 4215,
      "zone": 4216,
      "anze": 4217,
      "tori": 4218,
      "selling": 4219,
      "wik": 4220,
      "brown": 4221,
      "izon": 4222,
      "cords": 4223,
      "controlled": 4224,
      "regard": 4225,
      "60s": 4226,
      "garden": 4227,
      "intellectual": 4228,
      "witness": 4229,
      "chimpanze": 4230,
      "chap": 4231,
      "orbit": 4232,
      "prove": 4233,
      "polar": 4234,
      "logic": 4235,
      "fishing": 4236,
      "steel": 4237,
      "messages": 4238,
      "sources": 4239,
      "definitely": 4240,
      "satis": 4241,
      "sharks": 4242,
      "flex": 4243,
      "platform": 4244,
      "roughly": 4245,
      "prepared": 4246,
      "strength": 4247,
      "cil": 4248,
      "ske": 4249,
      "sides": 4250,
      "thal": 4251,
      "encies": 4252,
      "lock": 4253,
      "ideal": 4254,
      "crete": 4255,
      "stock": 4256,
      "videos": 4257,
      "swed": 4258,
      "molecular": 4259,
      "harvard": 4260,
      "tumor": 4261,
      "cartoon": 4262,
      "3d": 4263,
      "pure": 4264,
      "wars": 4265,
      "ques": 4266,
      "display": 4267,
      "discipl": 4268,
      "autonom": 4269,
      "lawy": 4270,
      "horse": 4271,
      "doub": 4272,
      "capture": 4273,
      "relatively": 4274,
      "diction": 4275,
      "lor": 4276,
      "oly": 4277,
      "pian": 4278,
      "tan": 4279,
      "tch": 4280,
      "zy": 4281,
      "atl": 4282,
      "acters": 4283,
      "aming": 4284,
      "contract": 4285,
      "quit": 4286,
      "owner": 4287,
      "achiev": 4288,
      "thoughts": 4289,
      "privi": 4290,
      "malaria": 4291,
      "characters": 4292,
      "iency": 4293,
      "violent": 4294,
      "sugar": 4295,
      "emerging": 4296,
      "status": 4297,
      "requires": 4298,
      "sophistic": 4299,
      "entertain": 4300,
      "cultures": 4301,
      "gift": 4302,
      "jack": 4303,
      "kitch": 4304,
      "liqu": 4305,
      "root": 4306,
      "amin": 4307,
      "urally": 4308,
      "extract": 4309,
      "generally": 4310,
      "rub": 4311,
      "shark": 4312,
      "crowd": 4313,
      "chicken": 4314,
      "valuable": 4315,
      "flip": 4316,
      "length": 4317,
      "2000": 4318,
      "bay": 4319,
      "instruct": 4320,
      "teeth": 4321,
      "tip": 4322,
      "worldwide": 4323,
      "fewer": 4324,
      "carefully": 4325,
      "movements": 4326,
      "gling": 4327,
      "effectively": 4328,
      "radical": 4329,
      "typically": 4330,
      "introduce": 4331,
      "carrying": 4332,
      "issions": 4333,
      "encourage": 4334,
      "bubble": 4335,
      "rapidly": 4336,
      "gravity": 4337,
      "600": 4338,
      "bare": 4339,
      "han": 4340,
      "represents": 4341,
      "argu": 4342,
      "canada": 4343,
      "grid": 4344,
      "gency": 4345,
      "smile": 4346,
      "added": 4347,
      "practical": 4348,
      "defined": 4349,
      "convince": 4350,
      "properties": 4351,
      "mathematical": 4352,
      "makers": 4353,
      "library": 4354,
      "epidemic": 4355,
      "fossil": 4356,
      "ai": 4357,
      "bath": 4358,
      "reven": 4359,
      "chron": 4360,
      "agre": 4361,
      "prefer": 4362,
      "court": 4363,
      "served": 4364,
      "shame": 4365,
      "primary": 4366,
      "bottle": 4367,
      "behaviors": 4368,
      "osity": 4369,
      "cameras": 4370,
      "release": 4371,
      "atoms": 4372,
      "survey": 4373,
      "vulnerable": 4374,
      "mortality": 4375,
      "victims": 4376,
      "politicians": 4377,
      "gate": 4378,
      "gdp": 4379,
      "kne": 4380,
      "uit": 4381,
      "uces": 4382,
      "ission": 4383,
      "anderson": 4384,
      "actors": 4385,
      "shall": 4386,
      "noon": 4387,
      "grant": 4388,
      "till": 4389,
      "span": 4390,
      "phy": 4391,
      "assist": 4392,
      "former": 4393,
      "lifetime": 4394,
      "engaged": 4395,
      "aked": 4396,
      "electro": 4397,
      "protection": 4398,
      "situations": 4399,
      "satur": 4400,
      "details": 4401,
      "automat": 4402,
      "hydrogen": 4403,
      "nigeria": 4404,
      "francisco": 4405,
      "trillion": 4406,
      "bors": 4407,
      "vention": 4408,
      "dogs": 4409,
      "emissions": 4410,
      "boom": 4411,
      "assign": 4412,
      "pointed": 4413,
      "raw": 4414,
      "muslim": 4415,
      "bang": 4416,
      "southern": 4417,
      "depends": 4418,
      "protected": 4419,
      "ecosystem": 4420,
      "tension": 4421,
      "introduced": 4422,
      "initi": 4423,
      "season": 4424,
      "conservation": 4425,
      "pleasure": 4426,
      "rhyth": 4427,
      ".'": 4428,
      "65": 4429,
      "gut": 4430,
      "sque": 4431,
      "thri": 4432,
      "attempt": 4433,
      "weigh": 4434,
      "stan": 4435,
      "chica": 4436,
      "ulating": 4437,
      "interests": 4438,
      "risks": 4439,
      "maker": 4440,
      "previous": 4441,
      "chicago": 4442,
      "cking": 4443,
      "dh": 4444,
      "james": 4445,
      "wed": 4446,
      "union": 4447,
      "unlike": 4448,
      "notes": 4449,
      "grap": 4450,
      "inevit": 4451,
      "buying": 4452,
      "march": 4453,
      "sensitive": 4454,
      "profession": 4455,
      "recorded": 4456,
      "released": 4457,
      "affected": 4458,
      "confidence": 4459,
      "awareness": 4460,
      "ladies": 4461,
      "sample": 4462,
      "appropriate": 4463,
      "employees": 4464,
      "cue": 4465,
      "gro": 4466,
      "vag": 4467,
      "aris": 4468,
      "youtube": 4469,
      "rocket": 4470,
      "rig": 4471,
      "tape": 4472,
      "phan": 4473,
      "minim": 4474,
      "monkey": 4475,
      "invention": 4476,
      "personally": 4477,
      "performing": 4478,
      "sports": 4479,
      "organs": 4480,
      "radiation": 4481,
      "circumst": 4482,
      "kitchen": 4483,
      "pul": 4484,
      "phas": 4485,
      "itals": 4486,
      "itarian": 4487,
      "stic": 4488,
      "hael": 4489,
      "myth": 4490,
      "odd": 4491,
      "gras": 4492,
      "worlds": 4493,
      "phr": 4494,
      "glam": 4495,
      "factor": 4496,
      "appears": 4497,
      "spectrum": 4498,
      "mirror": 4499,
      "laptop": 4500,
      "discussion": 4501,
      "harvest": 4502,
      "techniques": 4503,
      "components": 4504,
      "edia": 4505,
      "adminis": 4506,
      "centers": 4507,
      "shell": 4508,
      "interpret": 4509,
      "ptions": 4510,
      "memor": 4511,
      "regions": 4512,
      "environments": 4513,
      "blocks": 4514,
      "advent": 4515,
      "axis": 4516,
      "pollution": 4517,
      "astronom": 4518,
      "zoom": 4519,
      "restaurant": 4520,
      "newspaper": 4521,
      "solid": 4522,
      "liquid": 4523,
      "za": 4524,
      "icing": 4525,
      "conver": 4526,
      "cock": 4527,
      "eval": 4528,
      "disaster": 4529,
      "talent": 4530,
      "naturally": 4531,
      "197": 4532,
      "runs": 4533,
      "processing": 4534,
      "factors": 4535,
      "milk": 4536,
      "literature": 4537,
      "roads": 4538,
      "combination": 4539,
      "bin": 4540,
      "scared": 4541,
      "toxic": 4542,
      "staff": 4543,
      "option": 4544,
      "ignor": 4545,
      "pregn": 4546,
      "lessons": 4547,
      "medium": 4548,
      "evolutionary": 4549,
      "privacy": 4550,
      "applied": 4551,
      "mistake": 4552,
      "ey": 4553,
      "jer": 4554,
      "kno": 4555,
      "rush": 4556,
      "thus": 4557,
      "reci": 4558,
      "records": 4559,
      "sees": 4560,
      "style": 4561,
      "adam": 4562,
      "complain": 4563,
      "perception": 4564,
      "courage": 4565,
      "charles": 4566,
      "soul": 4567,
      "psychology": 4568,
      "opinion": 4569,
      "nasa": 4570,
      "telescope": 4571,
      "bicy": 4572,
      "refer": 4573,
      "islands": 4574,
      "tories": 4575,
      "severe": 4576,
      "illegal": 4577,
      "upper": 4578,
      "estim": 4579,
      "lake": 4580,
      "singing": 4581,
      "breaking": 4582,
      "windows": 4583,
      "reached": 4584,
      "critic": 4585,
      "susp": 4586,
      "false": 4587,
      "temporary": 4588,
      "destruction": 4589,
      "ki": 4590,
      "mult": 4591,
      "wine": 4592,
      "insur": 4593,
      "theme": 4594,
      "secure": 4595,
      "steve": 4596,
      "liver": 4597,
      "otics": 4598,
      "perman": 4599,
      "mented": 4600,
      "goods": 4601,
      "michael": 4602,
      "traveling": 4603,
      "hotel": 4604,
      "neighbors": 4605,
      "efficiency": 4606,
      "score": 4607,
      "laboratory": 4608,
      "brothers": 4609,
      "sophisticated": 4610,
      "cart": 4611,
      "honey": 4612,
      "ibility": 4613,
      "anx": 4614,
      "ingred": 4615,
      "stair": 4616,
      "roots": 4617,
      "poo": 4618,
      "apparent": 4619,
      "dish": 4620,
      "biom": 4621,
      "simpl": 4622,
      "solving": 4623,
      "planes": 4624,
      "pulled": 4625,
      "gang": 4626,
      "ternal": 4627,
      "physically": 4628,
      "2008": 4629,
      "falls": 4630,
      "include": 4631,
      "silence": 4632,
      "required": 4633,
      "linked": 4634,
      "participate": 4635,
      "collaboration": 4636,
      "russia": 4637,
      "sweet": 4638,
      "corporate": 4639,
      "split": 4640,
      "paradig": 4641,
      "dut": 4642,
      "pitch": 4643,
      "sir": 4644,
      "alex": 4645,
      "lyn": 4646,
      "mosqu": 4647,
      "unusual": 4648,
      "dece": 4649,
      "button": 4650,
      "features": 4651,
      "spider": 4652,
      "presence": 4653,
      "icted": 4654,
      "technological": 4655,
      "shake": 4656,
      "keeps": 4657,
      "equally": 4658,
      "burning": 4659,
      "fundamentally": 4660,
      "rupt": 4661,
      "dropped": 4662,
      "ultimate": 4663,
      "infected": 4664,
      "transportation": 4665,
      "hoping": 4666,
      "quarter": 4667,
      "vehicles": 4668,
      "breathe": 4669,
      "manufacturing": 4670,
      "reveal": 4671,
      "empathy": 4672,
      "thin": 4673,
      "ised": 4674,
      "abled": 4675,
      "neither": 4676,
      "feature": 4677,
      "cave": 4678,
      "channel": 4679,
      "string": 4680,
      "berg": 4681,
      "colum": 4682,
      "memories": 4683,
      "2010": 4684,
      "computing": 4685,
      "50s": 4686,
      "tests": 4687,
      "largely": 4688,
      "senses": 4689,
      "existing": 4690,
      "meaningful": 4691,
      "attacks": 4692,
      "activities": 4693,
      "clinic": 4694,
      "algorithms": 4695,
      "pacific": 4696,
      "hits": 4697,
      "rass": 4698,
      "recycl": 4699,
      "asing": 4700,
      "usive": 4701,
      "empower": 4702,
      "trig": 4703,
      "vibr": 4704,
      "afternoon": 4705,
      "musical": 4706,
      "topic": 4707,
      "eastern": 4708,
      "functions": 4709,
      "volume": 4710,
      "sunlight": 4711,
      "amounts": 4712,
      "ancestors": 4713,
      "stronger": 4714,
      "increased": 4715,
      "sustainability": 4716,
      "hospitals": 4717,
      "combined": 4718,
      "constant": 4719,
      "occurred": 4720,
      "eggs": 4721,
      "circuit": 4722,
      "marketing": 4723,
      "embarrass": 4724,
      "doubt": 4725,
      "23": 4726,
      "pup": 4727,
      "thom": 4728,
      "renew": 4729,
      "stro": 4730,
      "icated": 4731,
      "underwater": 4732,
      "internal": 4733,
      "flower": 4734,
      "relate": 4735,
      "joke": 4736,
      "election": 4737,
      "amazon": 4738,
      "operate": 4739,
      "queen": 4740,
      "digit": 4741,
      "silk": 4742,
      "tracking": 4743,
      "mechanism": 4744,
      "scope": 4745,
      "authority": 4746,
      "aug": 4747,
      "france": 4748,
      "comment": 4749,
      "coordin": 4750,
      "boston": 4751,
      "partners": 4752,
      "bike": 4753,
      "walks": 4754,
      "border": 4755,
      "clever": 4756,
      "tested": 4757,
      "tonight": 4758,
      "falling": 4759,
      "oxide": 4760,
      "psychological": 4761,
      "cooking": 4762,
      "mistakes": 4763,
      "electronic": 4764,
      "swimming": 4765,
      "script": 4766,
      "accompl": 4767,
      "administr": 4768,
      "22": 4769,
      "ffe": 4770,
      "rab": 4771,
      "vation": 4772,
      "ante": 4773,
      "enced": 4774,
      "cher": 4775,
      "nets": 4776,
      "somewhat": 4777,
      "plom": 4778,
      "spok": 4779,
      "bra": 4780,
      "desper": 4781,
      "hook": 4782,
      "humor": 4783,
      "diplom": 4784,
      "allowing": 4785,
      "treating": 4786,
      "director": 4787,
      "explained": 4788,
      "feeding": 4789,
      "combine": 4790,
      "mechanical": 4791,
      "proteins": 4792,
      "housing": 4793,
      "contrast": 4794,
      "exploration": 4795,
      "therapy": 4796,
      "entrepreneurs": 4797,
      "abstract": 4798,
      "mate": 4799,
      "reject": 4800,
      "stal": 4801,
      "doors": 4802,
      "ours": 4803,
      "excell": 4804,
      "plot": 4805,
      "iving": 4806,
      "clust": 4807,
      "cyber": 4808,
      "ballo": 4809,
      "mush": 4810,
      "drives": 4811,
      "fisher": 4812,
      "scot": 4813,
      "potentially": 4814,
      "flowers": 4815,
      "ridic": 4816,
      "adopt": 4817,
      "birthday": 4818,
      "accurate": 4819,
      "aa": 4820,
      "gulf": 4821,
      "tack": 4822,
      "ret": 4823,
      "rema": 4824,
      "error": 4825,
      "acles": 4826,
      "wired": 4827,
      "proof": 4828,
      "nowhere": 4829,
      "brow": 4830,
      "overall": 4831,
      "compar": 4832,
      "fake": 4833,
      "creature": 4834,
      "visible": 4835,
      "19th": 4836,
      "figures": 4837,
      "statement": 4838,
      "operation": 4839,
      "advice": 4840,
      "collected": 4841,
      "defense": 4842,
      "spiritual": 4843,
      "dramatic": 4844,
      "migr": 4845,
      "taste": 4846,
      "occasion": 4847,
      "piano": 4848,
      "fiction": 4849,
      "pink": 4850,
      "uries": 4851,
      "wid": 4852,
      "reti": 4853,
      "repair": 4854,
      "absor": 4855,
      "unknown": 4856,
      "conven": 4857,
      "concrete": 4858,
      "whel": 4859,
      "overwhel": 4860,
      "flash": 4861,
      "generated": 4862,
      "globe": 4863,
      "pursu": 4864,
      "innovative": 4865,
      "boxes": 4866,
      "photographs": 4867,
      "laughter": 4868,
      "narrative": 4869,
      "antibi": 4870,
      "heroes": 4871,
      "conclusion": 4872,
      "whales": 4873,
      "paralle": 4874,
      "inspiration": 4875,
      "diabet": 4876,
      "bones": 4877,
      "gam": 4878,
      "gment": 4879,
      "iphone": 4880,
      "reverse": 4881,
      "iti": 4882,
      "ark": 4883,
      "chart": 4884,
      "ateful": 4885,
      "tie": 4886,
      "wherever": 4887,
      "intense": 4888,
      "percentage": 4889,
      "german": 4890,
      "paris": 4891,
      "economists": 4892,
      "boring": 4893,
      "scop": 4894,
      "stayed": 4895,
      "subjects": 4896,
      "suspect": 4897,
      "latin": 4898,
      "discuss": 4899,
      "collapse": 4900,
      "appreciate": 4901,
      "explanation": 4902,
      "ears": 4903,
      "fan": 4904,
      "lens": 4905,
      "pes": 4906,
      "pace": 4907,
      "inform": 4908,
      "orient": 4909,
      "stable": 4910,
      "chose": 4911,
      "congo": 4912,
      "ula": 4913,
      "resili": 4914,
      "logically": 4915,
      "lessly": 4916,
      "curve": 4917,
      "196": 4918,
      "faced": 4919,
      "deploy": 4920,
      "holds": 4921,
      "films": 4922,
      "sympto": 4923,
      "architects": 4924,
      "songs": 4925,
      "providing": 4926,
      "conversations": 4927,
      "romantic": 4928,
      "surrounded": 4929,
      "conventional": 4930,
      "remains": 4931,
      "gers": 4932,
      "gence": 4933,
      "loud": 4934,
      "remove": 4935,
      "sep": 4936,
      "stack": 4937,
      "lywood": 4938,
      "lio": 4939,
      "chie": 4940,
      "outcome": 4941,
      "loop": 4942,
      "imple": 4943,
      "ulty": 4944,
      "embed": 4945,
      "olds": 4946,
      "patent": 4947,
      "joined": 4948,
      "organism": 4949,
      "presentation": 4950,
      "sensors": 4951,
      "aneously": 4952,
      "capitalism": 4953,
      "flew": 4954,
      "shaped": 4955,
      "framework": 4956,
      "intuitive": 4957,
      "horrible": 4958,
      "christmas": 4959,
      "circumstances": 4960,
      "bg": 4961,
      "bby": 4962,
      "elit": 4963,
      "thick": 4964,
      "anony": 4965,
      "angry": 4966,
      "regre": 4967,
      "enable": 4968,
      "assume": 4969,
      "comed": 4970,
      "nose": 4971,
      "estyle": 4972,
      "gray": 4973,
      "mony": 4974,
      "curren": 4975,
      "rising": 4976,
      "educational": 4977,
      "2007": 4978,
      "angers": 4979,
      "closely": 4980,
      "horizon": 4981,
      "writer": 4982,
      "measured": 4983,
      "functional": 4984,
      "constit": 4985,
      "citizen": 4986,
      "scratch": 4987,
      "applications": 4988,
      "decline": 4989,
      "elephant": 4990,
      "infinite": 4991,
      "wikip": 4992,
      "eu": 4993,
      "itors": 4994,
      "jail": 4995,
      "kn": 4996,
      "ato": 4997,
      "ouds": 4998,
      "wet": 4999,
      "whist": 5000,
      "abol": 5001,
      "ghters": 5002,
      "expon": 5003,
      "agency": 5004,
      "centuries": 5005,
      "clouds": 5006,
      "evening": 5007,
      "serving": 5008,
      "handle": 5009,
      "awes": 5010,
      "limits": 5011,
      "breed": 5012,
      "autism": 5013,
      "publish": 5014,
      "advance": 5015,
      "deaths": 5016,
      "communications": 5017,
      "footprint": 5018,
      "fortunate": 5019,
      "ropy": 5020,
      "passionate": 5021,
      "whale": 5022,
      "frankly": 5023,
      "options": 5024,
      "gentlemen": 5025,
      "symptoms": 5026,
      "dum": 5027,
      "fying": 5028,
      "gon": 5029,
      "hen": 5030,
      "resolution": 5031,
      "asy": 5032,
      "accoun": 5033,
      "dere": 5034,
      "poly": 5035,
      "poet": 5036,
      "astro": 5037,
      "disappear": 5038,
      "guide": 5039,
      "guard": 5040,
      "navig": 5041,
      "clothes": 5042,
      "datab": 5043,
      "surely": 5044,
      "angeles": 5045,
      "barri": 5046,
      "papers": 5047,
      "behavioral": 5048,
      "provided": 5049,
      "challenging": 5050,
      "suffer": 5051,
      "fingers": 5052,
      "standards": 5053,
      "embrace": 5054,
      "fifth": 5055,
      "mosquito": 5056,
      "septem": 5057,
      "ckets": 5058,
      "pting": 5059,
      "rors": 5060,
      "reform": 5061,
      "item": 5062,
      "herent": 5063,
      "mel": 5064,
      "peer": 5065,
      "ums": 5066,
      "grateful": 5067,
      "illusion": 5068,
      "chocol": 5069,
      "transmit": 5070,
      "identical": 5071,
      "truck": 5072,
      "climb": 5073,
      "villages": 5074,
      "pollen": 5075,
      "samples": 5076,
      "fixed": 5077,
      "continued": 5078,
      "instruments": 5079,
      "egypt": 5080,
      "surgeon": 5081,
      "obsessed": 5082,
      "agreed": 5083,
      "phase": 5084,
      "paradigm": 5085,
      "wikipedia": 5086,
      "september": 5087,
      "dense": 5088,
      "fla": 5089,
      "gps": 5090,
      "nes": 5091,
      "rocks": 5092,
      "constrain": 5093,
      "seek": 5094,
      "owned": 5095,
      "preced": 5096,
      "busy": 5097,
      "distinct": 5098,
      "dancing": 5099,
      "funding": 5100,
      "portra": 5101,
      "consumers": 5102,
      "transformed": 5103,
      "application": 5104,
      "powers": 5105,
      "250": 5106,
      "[\"": 5107,
      "dict": 5108,
      "reference": 5109,
      "ision": 5110,
      "lims": 5111,
      "ays": 5112,
      "dozen": 5113,
      "neut": 5114,
      "determ": 5115,
      "cere": 5116,
      "causing": 5117,
      "anta": 5118,
      "extent": 5119,
      "pled": 5120,
      "plug": 5121,
      "transfer": 5122,
      "muslims": 5123,
      "connecting": 5124,
      "robotic": 5125,
      "greenhouse": 5126,
      "dependence": 5127,
      "floating": 5128,
      "reaching": 5129,
      "recording": 5130,
      "hello": 5131,
      "welcome": 5132,
      "resistance": 5133,
      "technique": 5134,
      "trend": 5135,
      "mystery": 5136,
      "policies": 5137,
      "grapher": 5138,
      "chief": 5139,
      "awesome": 5140,
      "determine": 5141,
      "bage": 5142,
      "cence": 5143,
      "hig": 5144,
      "ja": 5145,
      "mim": 5146,
      "mice": 5147,
      "yard": 5148,
      "ale": 5149,
      "orches": 5150,
      "sters": 5151,
      "gol": 5152,
      "unexpected": 5153,
      "decre": 5154,
      "ambit": 5155,
      "thered": 5156,
      "plans": 5157,
      "ests": 5158,
      "struck": 5159,
      "poses": 5160,
      "obes": 5161,
      "pressing": 5162,
      "corals": 5163,
      "monkeys": 5164,
      "shoulder": 5165,
      "careful": 5166,
      "earthqu": 5167,
      "younger": 5168,
      "suggests": 5169,
      "represented": 5170,
      "mathematic": 5171,
      "pushing": 5172,
      "celebrate": 5173,
      "olymp": 5174,
      "27": 5175,
      "bia": 5176,
      "cot": 5177,
      "sar": 5178,
      "vin": 5179,
      "infl": 5180,
      "arrest": 5181,
      "leap": 5182,
      "icide": 5183,
      "utter": 5184,
      "ota": 5185,
      "iders": 5186,
      "robert": 5187,
      "ria": 5188,
      "shr": 5189,
      "grat": 5190,
      "pharm": 5191,
      "cra": 5192,
      "download": 5193,
      "finance": 5194,
      "virgin": 5195,
      "parking": 5196,
      "economies": 5197,
      "interestingly": 5198,
      "stretch": 5199,
      "equation": 5200,
      "anticip": 5201,
      "spinal": 5202,
      "breathing": 5203,
      "vaccine": 5204,
      "fabric": 5205,
      "puzzle": 5206,
      "pilot": 5207,
      "poorest": 5208,
      "cash": 5209,
      "dir": 5210,
      "june": 5211,
      "lone": 5212,
      "lung": 5213,
      "mals": 5214,
      "ull": 5215,
      "ita": 5216,
      "ifying": 5217,
      "aston": 5218,
      "club": 5219,
      "stands": 5220,
      "corn": 5221,
      "wondered": 5222,
      "glac": 5223,
      "classes": 5224,
      "asteroid": 5225,
      "measuring": 5226,
      "domestic": 5227,
      "lux": 5228,
      "promot": 5229,
      "emergency": 5230,
      "telephone": 5231,
      "narrator": 5232,
      "curiosity": 5233,
      "implications": 5234,
      "26": 5235,
      "cers": 5236,
      "cend": 5237,
      "dust": 5238,
      "dign": 5239,
      "fare": 5240,
      "fright": 5241,
      "ius": 5242,
      "oth": 5243,
      "reco": 5244,
      "ises": 5245,
      "ald": 5246,
      "sole": 5247,
      "unclear": 5248,
      "tea": 5249,
      "prices": 5250,
      "disorders": 5251,
      "obama": 5252,
      "prescri": 5253,
      "engaging": 5254,
      "borders": 5255,
      "populations": 5256,
      "plicity": 5257,
      "existed": 5258,
      "grandfather": 5259,
      "mainly": 5260,
      "flood": 5261,
      "increases": 5262,
      "raising": 5263,
      "judge": 5264,
      "arguments": 5265,
      "golden": 5266,
      "mammals": 5267,
      "drinking": 5268,
      "selection": 5269,
      "elimin": 5270,
      "toilet": 5271,
      "penguins": 5272,
      "thomas": 5273,
      "higgs": 5274,
      "obesity": 5275,
      "bil": 5276,
      "gust": 5277,
      "iop": 5278,
      "lun": 5279,
      "pour": 5280,
      "rw": 5281,
      "rice": 5282,
      "rition": 5283,
      "react": 5284,
      "alp": 5285,
      "locked": 5286,
      "ultural": 5287,
      "excl": 5288,
      "iled": 5289,
      "polio": 5290,
      "sahar": 5291,
      "spon": 5292,
      "worker": 5293,
      "intention": 5294,
      "carried": 5295,
      "flor": 5296,
      "instinct": 5297,
      "bott": 5298,
      "2005": 5299,
      "2009": 5300,
      "recognition": 5301,
      "directions": 5302,
      "smoke": 5303,
      "offered": 5304,
      "nutrition": 5305,
      "sweden": 5306,
      "entertainment": 5307,
      "automatically": 5308,
      "spoken": 5309,
      "density": 5310,
      "gates": 5311,
      "pound": 5312,
      "wich": 5313,
      "ario": 5314,
      "icient": 5315,
      "heim": 5316,
      "ida": 5317,
      "abs": 5318,
      "degrad": 5319,
      "oph": 5320,
      "traged": 5321,
      "bron": 5322,
      "pher": 5323,
      "sheep": 5324,
      "disorder": 5325,
      "guar": 5326,
      "labe": 5327,
      "colony": 5328,
      "grows": 5329,
      "airport": 5330,
      "controlling": 5331,
      "certainty": 5332,
      "classic": 5333,
      "shock": 5334,
      "ferti": 5335,
      "interactions": 5336,
      "properly": 5337,
      "title": 5338,
      "diagram": 5339,
      "immune": 5340,
      "distributed": 5341,
      "pipe": 5342,
      "license": 5343,
      "dramatically": 5344,
      "academic": 5345,
      "phrase": 5346,
      "bid": 5347,
      "cute": 5348,
      "lou": 5349,
      "input": 5350,
      "inject": 5351,
      "abuse": 5352,
      "outcomes": 5353,
      "mold": 5354,
      "exe": 5355,
      "agend": 5356,
      "rescue": 5357,
      "kingdom": 5358,
      "overcome": 5359,
      "rail": 5360,
      "missed": 5361,
      "organize": 5362,
      "graphics": 5363,
      "champ": 5364,
      "teams": 5365,
      "printing": 5366,
      "spreading": 5367,
      "ghana": 5368,
      "lifestyle": 5369,
      "russi": 5370,
      "savings": 5371,
      "wireless": 5372,
      "component": 5373,
      "january": 5374,
      "extinct": 5375,
      "attached": 5376,
      "shadow": 5377,
      "korea": 5378,
      "chocolate": 5379,
      "dies": 5380,
      "tical": 5381,
      "yo": 5382,
      "ining": 5383,
      "recomm": 5384,
      "sty": 5385,
      "aret": 5386,
      "delic": 5387,
      "impress": 5388,
      "ams": 5389,
      "coca": 5390,
      "illance": 5391,
      "apping": 5392,
      "brush": 5393,
      "bug": 5394,
      "bless": 5395,
      "posing": 5396,
      "prepar": 5397,
      "obst": 5398,
      "particle": 5399,
      "authen": 5400,
      "filter": 5401,
      "stere": 5402,
      "expectations": 5403,
      "depending": 5404,
      "practices": 5405,
      "furnit": 5406,
      "interactive": 5407,
      "receive": 5408,
      "enemy": 5409,
      "prototype": 5410,
      "philosophy": 5411,
      "route": 5412,
      "cooperation": 5413,
      "precisely": 5414,
      "permanent": 5415,
      "diabetes": 5416,
      "bally": 5417,
      "ji": 5418,
      "jim": 5419,
      "len": 5420,
      "ooh": 5421,
      "entered": 5422,
      "units": 5423,
      "dear": 5424,
      "plenty": 5425,
      "quot": 5426,
      "rence": 5427,
      "lovely": 5428,
      "linear": 5429,
      "hardware": 5430,
      "animation": 5431,
      "legit": 5432,
      "painful": 5433,
      "millen": 5434,
      "sales": 5435,
      "slides": 5436,
      "constructed": 5437,
      "bombs": 5438,
      "tasks": 5439,
      "surveillance": 5440,
      "scary": 5441,
      "concepts": 5442,
      "categor": 5443,
      "sculpture": 5444,
      "scenario": 5445,
      "furniture": 5446,
      "ker": 5447,
      "pons": 5448,
      "vital": 5449,
      "yield": 5450,
      "isa": 5451,
      "tops": 5452,
      "toler": 5453,
      "orange": 5454,
      "aband": 5455,
      "proced": 5456,
      "pocket": 5457,
      "shri": 5458,
      "nobel": 5459,
      "inequality": 5460,
      "designs": 5461,
      "personality": 5462,
      "diver": 5463,
      "translate": 5464,
      "drill": 5465,
      "legacy": 5466,
      "presented": 5467,
      "accum": 5468,
      "balls": 5469,
      "traveled": 5470,
      "divided": 5471,
      "hunger": 5472,
      "reported": 5473,
      "genesis": 5474,
      "strip": 5475,
      "habitat": 5476,
      "criminal": 5477,
      "islamic": 5478,
      "destroyed": 5479,
      "exhibition": 5480,
      "elder": 5481,
      "antibiotics": 5482,
      "800": 5483,
      "cens": 5484,
      "jes": 5485,
      "jac": 5486,
      "ological": 5487,
      "pand": 5488,
      "theless": 5489,
      "oned": 5490,
      "lian": 5491,
      "lift": 5492,
      "geome": 5493,
      "extr": 5494,
      "pox": 5495,
      "tight": 5496,
      "bucks": 5497,
      "genom": 5498,
      "transplant": 5499,
      "ugly": 5500,
      "hardly": 5501,
      "friendly": 5502,
      "signed": 5503,
      "drawn": 5504,
      "tower": 5505,
      "interacting": 5506,
      "divide": 5507,
      "covering": 5508,
      "sticks": 5509,
      "latest": 5510,
      "laughing": 5511,
      "fascinated": 5512,
      "exploring": 5513,
      "repeat": 5514,
      "arctic": 5515,
      "vessels": 5516,
      "magnetic": 5517,
      "atlantic": 5518,
      "evalu": 5519,
      "execut": 5520,
      "dur": 5521,
      "gig": 5522,
      "mum": 5523,
      "ssing": 5524,
      "reput": 5525,
      "request": 5526,
      "aside": 5527,
      "behave": 5528,
      "likes": 5529,
      "adjust": 5530,
      "spill": 5531,
      "ela": 5532,
      "sheet": 5533,
      "positions": 5534,
      "thrown": 5535,
      "lecture": 5536,
      "simplicity": 5537,
      "imagined": 5538,
      "incident": 5539,
      "biologists": 5540,
      "elev": 5541,
      "fortune": 5542,
      "ethical": 5543,
      "concern": 5544,
      "virtually": 5545,
      "engagement": 5546,
      "commitment": 5547,
      "committed": 5548,
      "manufacture": 5549,
      "federal": 5550,
      "customers": 5551,
      "sacri": 5552,
      "candid": 5553,
      "rhythm": 5554,
      "bicycle": 5555,
      "apparently": 5556,
      "parallel": 5557,
      "recovery": 5558,
      "alpha": 5559,
      "authentic": 5560,
      "95": 5561,
      "kar": 5562,
      "tank": 5563,
      "ws": 5564,
      "inf": 5565,
      "erad": 5566,
      "escape": 5567,
      "aspir": 5568,
      "beer": 5569,
      "rose": 5570,
      "modif": 5571,
      "ceiling": 5572,
      "maxim": 5573,
      "persu": 5574,
      "cosmo": 5575,
      "wanting": 5576,
      "lighting": 5577,
      "plays": 5578,
      "dioxide": 5579,
      "relations": 5580,
      "muscles": 5581,
      "adding": 5582,
      "productivity": 5583,
      "hearts": 5584,
      "recognized": 5585,
      "ethiop": 5586,
      "synthetic": 5587,
      "sandwich": 5588,
      "session": 5589,
      "mammo": 5590,
      "dynamics": 5591,
      "official": 5592,
      "shooting": 5593,
      "psychiat": 5594,
      "transparency": 5595,
      "ignore": 5596,
      "insurance": 5597,
      "balloon": 5598,
      "guarante": 5599,
      "aer": 5600,
      "aes": 5601,
      "ape": 5602,
      "kilo": 5603,
      "ores": 5604,
      "pm": 5605,
      "trop": 5606,
      "alien": 5607,
      "haiti": 5608,
      "chest": 5609,
      "chrom": 5610,
      "unbeliev": 5611,
      "estimate": 5612,
      "aggress": 5613,
      "tired": 5614,
      "illustr": 5615,
      "elly": 5616,
      "udes": 5617,
      "strict": 5618,
      "produces": 5619,
      "paras": 5620,
      "cheaper": 5621,
      "limb": 5622,
      "otech": 5623,
      "probability": 5624,
      "glad": 5625,
      "meetings": 5626,
      "microsoft": 5627,
      "silent": 5628,
      "involves": 5629,
      "accessible": 5630,
      "amongst": 5631,
      "schol": 5632,
      "paintings": 5633,
      "pyram": 5634,
      "incentives": 5635,
      "symmetry": 5636,
      "chapter": 5637,
      "embedded": 5638,
      "dignity": 5639,
      "\"]": 5640,
      "32": 5641,
      "bars": 5642,
      "cats": 5643,
      "hatt": 5644,
      "ias": 5645,
      "pile": 5646,
      "lege": 5647,
      "youth": 5648,
      "veter": 5649,
      "ache": 5650,
      "hemis": 5651,
      "forts": 5652,
      "opposed": 5653,
      "proportion": 5654,
      "coach": 5655,
      "quad": 5656,
      "agon": 5657,
      "distr": 5658,
      "disgust": 5659,
      "ferences": 5660,
      "clar": 5661,
      "strand": 5662,
      "manhatt": 5663,
      "lax": 5664,
      "minor": 5665,
      "invite": 5666,
      "secondly": 5667,
      "africans": 5668,
      "searching": 5669,
      "controver": 5670,
      "funded": 5671,
      "speaker": 5672,
      "purch": 5673,
      "football": 5674,
      "palest": 5675,
      "touched": 5676,
      "narrow": 5677,
      "conflicts": 5678,
      "neuroscience": 5679,
      "historical": 5680,
      "aspects": 5681,
      "volunteers": 5682,
      "prosper": 5683,
      "strategies": 5684,
      "dolphins": 5685,
      "achieved": 5686,
      "stanford": 5687,
      "agenda": 5688,
      "manhattan": 5689,
      "700": 5690,
      "85": 5691,
      "pam": 5692,
      "sket": 5693,
      "tat": 5694,
      "wound": 5695,
      "tho": 5696,
      "inations": 5697,
      "republic": 5698,
      "nels": 5699,
      "femin": 5700,
      "fruit": 5701,
      "umin": 5702,
      "agger": 5703,
      "resto": 5704,
      "respons": 5705,
      "disappeared": 5706,
      "crying": 5707,
      "genoc": 5708,
      "underground": 5709,
      "farmer": 5710,
      "legis": 5711,
      "governance": 5712,
      "charity": 5713,
      "universities": 5714,
      "silicon": 5715,
      "christian": 5716,
      "homo": 5717,
      "texas": 5718,
      "titan": 5719,
      "accepted": 5720,
      "colleague": 5721,
      "journalist": 5722,
      "electronics": 5723,
      "frog": 5724,
      "heaven": 5725,
      "privilege": 5726,
      "knee": 5727,
      "granted": 5728,
      "dirty": 5729,
      "iety": 5730,
      "lind": 5731,
      "mri": 5732,
      "twe": 5733,
      "removed": 5734,
      "stations": 5735,
      "exposed": 5736,
      "shine": 5737,
      "tied": 5738,
      "yours": 5739,
      "backwards": 5740,
      "herit": 5741,
      "instant": 5742,
      "matic": 5743,
      "diverse": 5744,
      "banks": 5745,
      "globally": 5746,
      "expans": 5747,
      "regis": 5748,
      "passing": 5749,
      "educated": 5750,
      "distant": 5751,
      "scales": 5752,
      "advoc": 5753,
      "devast": 5754,
      "drove": 5755,
      "fluid": 5756,
      "neuron": 5757,
      "darkness": 5758,
      "slip": 5759,
      "vertical": 5760,
      "apartment": 5761,
      "neighborhoods": 5762,
      "frozen": 5763,
      "advertising": 5764,
      "skelet": 5765,
      "earthquake": 5766,
      "29": 5767,
      "jaz": 5768,
      "mall": 5769,
      "mone": 5770,
      "rating": 5771,
      "ture": 5772,
      "uk": 5773,
      "zens": 5774,
      "theories": 5775,
      "bered": 5776,
      "gee": 5777,
      "poster": 5778,
      "shirt": 5779,
      "reduction": 5780,
      "hier": 5781,
      "smith": 5782,
      "views": 5783,
      "equality": 5784,
      "continues": 5785,
      "collecting": 5786,
      "hungry": 5787,
      "smoking": 5788,
      "dedicated": 5789,
      "terrorists": 5790,
      "captured": 5791,
      "paraly": 5792,
      "punish": 5793,
      "transparent": 5794,
      "consistent": 5795,
      "chimpanzees": 5796,
      "retire": 5797,
      "28": 5798,
      "cab": 5799,
      "lly": 5800,
      "mud": 5801,
      "pion": 5802,
      "attribut": 5803,
      "toys": 5804,
      "encounter": 5805,
      "abund": 5806,
      "tears": 5807,
      "external": 5808,
      "intent": 5809,
      "herself": 5810,
      "council": 5811,
      "chosen": 5812,
      "marily": 5813,
      "commission": 5814,
      "laid": 5815,
      "hire": 5816,
      "afterwards": 5817,
      "archy": 5818,
      "headed": 5819,
      "skull": 5820,
      "passeng": 5821,
      "elsewhere": 5822,
      "figuring": 5823,
      "microscope": 5824,
      "domain": 5825,
      "mechanics": 5826,
      "weapon": 5827,
      "optimistic": 5828,
      "contribute": 5829,
      "motivation": 5830,
      "algorithm": 5831,
      "inspiring": 5832,
      "martin": 5833,
      "establish": 5834,
      "aqu": 5835,
      "bust": 5836,
      "dive": 5837,
      "hut": 5838,
      "jet": 5839,
      "mates": 5840,
      "rings": 5841,
      "iny": 5842,
      "eric": 5843,
      "acular": 5844,
      "lium": 5845,
      "oty": 5846,
      "defe": 5847,
      "commod": 5848,
      "poison": 5849,
      "odi": 5850,
      "odes": 5851,
      "essence": 5852,
      "sage": 5853,
      "twenty": 5854,
      "letting": 5855,
      "finds": 5856,
      "asks": 5857,
      "efforts": 5858,
      "oldest": 5859,
      "visited": 5860,
      "athlet": 5861,
      "borrow": 5862,
      "identified": 5863,
      "capita": 5864,
      "facial": 5865,
      "fiber": 5866,
      "evolve": 5867,
      "photography": 5868,
      "provides": 5869,
      "links": 5870,
      "affordable": 5871,
      "inspire": 5872,
      "integrated": 5873,
      "storm": 5874,
      "seeds": 5875,
      "33": 5876,
      "gory": 5877,
      "imeter": 5878,
      "nick": 5879,
      "pse": 5880,
      "voc": 5881,
      "lean": 5882,
      "icop": 5883,
      "neural": 5884,
      "rian": 5885,
      "usions": 5886,
      "tians": 5887,
      "suicide": 5888,
      "bias": 5889,
      "uganda": 5890,
      "supp": 5891,
      "controls": 5892,
      "2004": 5893,
      "musicians": 5894,
      "innovations": 5895,
      "layers": 5896,
      "predictable": 5897,
      "located": 5898,
      "mechanisms": 5899,
      "quarters": 5900,
      "boundaries": 5901,
      "frequency": 5902,
      "egyp": 5903,
      "vietnam": 5904,
      "dictionary": 5905,
      "barely": 5906,
      "pregnant": 5907,
      "ingredients": 5908,
      "anonymous": 5909,
      "tragedy": 5910,
      "120": 5911,
      "eleg": 5912,
      "ik": 5913,
      "jef": 5914,
      "jelly": 5915,
      "picking": 5916,
      "zes": 5917,
      "inch": 5918,
      "informed": 5919,
      "relax": 5920,
      "soap": 5921,
      "rip": 5922,
      "amy": 5923,
      "willi": 5924,
      "intended": 5925,
      "genius": 5926,
      "manif": 5927,
      "realm": 5928,
      "surfaces": 5929,
      "stops": 5930,
      "bible": 5931,
      "helicop": 5932,
      "aircraft": 5933,
      "30s": 5934,
      "depth": 5935,
      "jewish": 5936,
      "dimension": 5937,
      "smooth": 5938,
      "participants": 5939,
      "calculate": 5940,
      "crops": 5941,
      "contains": 5942,
      "campus": 5943,
      "beliefs": 5944,
      "methods": 5945,
      "trends": 5946,
      "determined": 5947,
      "laser": 5948,
      "reefs": 5949,
      "vacu": 5950,
      "autonomous": 5951,
      "ignorance": 5952,
      "excellent": 5953,
      "golf": 5954,
      "fusion": 5955,
      "ime": 5956,
      "jun": 5957,
      "naked": 5958,
      "ua": 5959,
      "thy": 5960,
      "enh": 5961,
      "seats": 5962,
      "stages": 5963,
      "omin": 5964,
      "het": 5965,
      "rolling": 5966,
      "kee": 5967,
      "delight": 5968,
      "rio": 5969,
      "amed": 5970,
      "conve": 5971,
      "frid": 5972,
      "spots": 5973,
      "bob": 5974,
      "fault": 5975,
      "stores": 5976,
      "elections": 5977,
      "chaos": 5978,
      "operations": 5979,
      "speakers": 5980,
      "circles": 5981,
      "emphas": 5982,
      "accidents": 5983,
      "writers": 5984,
      "cliff": 5985,
      "catal": 5986,
      "schiz": 5987,
      "improvement": 5988,
      "agricultural": 5989,
      "copyright": 5990,
      "symbols": 5991,
      "dominant": 5992,
      "robust": 5993,
      "announced": 5994,
      "injury": 5995,
      "regret": 5996,
      "shrimp": 5997,
      "sid": 5998,
      "skept": 5999,
      "vy": 6000,
      "meal": 6001,
      "utical": 6002,
      "dozens": 6003,
      "delive": 6004,
      "consume": 6005,
      "prince": 6006,
      "tali": 6007,
      "assess": 6008,
      "mining": 6009,
      "pulling": 6010,
      "settle": 6011,
      "italy": 6012,
      "passwords": 6013,
      "globalization": 6014,
      "metabol": 6015,
      "burst": 6016,
      "spectacular": 6017,
      "richer": 6018,
      "boards": 6019,
      "origami": 6020,
      "suggesting": 6021,
      "folding": 6022,
      "hollywood": 6023,
      "crucial": 6024,
      "chairs": 6025,
      "nutri": 6026,
      "crossing": 6027,
      "initial": 6028,
      "physicist": 6029,
      "hanging": 6030,
      "isolated": 6031,
      "physi": 6032,
      "ridiculous": 6033,
      "database": 6034,
      "delivered": 6035,
      "pump": 6036,
      "slo": 6037,
      "thumb": 6038,
      "recru": 6039,
      "tocin": 6040,
      "armed": 6041,
      "lig": 6042,
      "peter": 6043,
      "neat": 6044,
      "depressed": 6045,
      "implant": 6046,
      "ultra": 6047,
      "shit": 6048,
      "ressing": 6049,
      "printer": 6050,
      "blame": 6051,
      "strangers": 6052,
      "intervention": 6053,
      "tribes": 6054,
      "founded": 6055,
      "195": 6056,
      "diam": 6057,
      "smallpox": 6058,
      "capability": 6059,
      "glades": 6060,
      "octo": 6061,
      "photographer": 6062,
      "grandchildren": 6063,
      "oxford": 6064,
      "worthy": 6065,
      "reports": 6066,
      "confident": 6067,
      "persist": 6068,
      "oxytocin": 6069,
      "geographic": 6070,
      "demonstrate": 6071,
      "criminals": 6072,
      "anthro": 6073,
      "assembly": 6074,
      "branch": 6075,
      "anxiety": 6076,
      "lungs": 6077,
      "pandem": 6078,
      "reputation": 6079,
      "legisl": 6080,
      "bf": 6081,
      "mt": 6082,
      "punch": 6083,
      "sin": 6084,
      "wol": 6085,
      "orous": 6086,
      "edges": 6087,
      "beet": 6088,
      "heal": 6089,
      "chim": 6090,
      "uncomfortable": 6091,
      "iment": 6092,
      "opens": 6093,
      "trag": 6094,
      "grave": 6095,
      "answered": 6096,
      "phili": 6097,
      "happier": 6098,
      "invas": 6099,
      "vene": 6100,
      "viral": 6101,
      "tooth": 6102,
      "treatments": 6103,
      "painted": 6104,
      "programming": 6105,
      "audio": 6106,
      "breaks": 6107,
      "breakthrough": 6108,
      "experimental": 6109,
      "filling": 6110,
      "includes": 6111,
      "soldier": 6112,
      "originally": 6113,
      "adoles": 6114,
      "tuna": 6115,
      "separated": 6116,
      "glasses": 6117,
      "debt": 6118,
      "teenagers": 6119,
      "arabic": 6120,
      "hackers": 6121,
      "category": 6122,
      "briefly": 6123,
      "precedent": 6124,
      "genocide": 6125,
      "sink": 6126,
      "tone": 6127,
      "wand": 6128,
      "anes": 6129,
      "returned": 6130,
      "eni": 6131,
      "alco": 6132,
      "static": 6133,
      "bei": 6134,
      "soviet": 6135,
      "reduced": 6136,
      "fool": 6137,
      "brave": 6138,
      "thane": 6139,
      "parties": 6140,
      "differenti": 6141,
      "inven": 6142,
      "handed": 6143,
      "traje": 6144,
      "autom": 6145,
      "2006": 6146,
      "mingly": 6147,
      "microbi": 6148,
      "protecting": 6149,
      "winning": 6150,
      "emerge": 6151,
      "predictions": 6152,
      "surprisingly": 6153,
      "variation": 6154,
      "characteristics": 6155,
      "fuels": 6156,
      "tricks": 6157,
      "conclude": 6158,
      "nurses": 6159,
      "rarely": 6160,
      "revenue": 6161,
      "rwanda": 6162,
      "heimer": 6163,
      "hemisp": 6164,
      "alcohol": 6165,
      "trajec": 6166,
      "gand": 6167,
      "jam": 6168,
      "kin": 6169,
      "theore": 6170,
      "gods": 6171,
      "mood": 6172,
      "unlikely": 6173,
      "consequence": 6174,
      "caps": 6175,
      "shots": 6176,
      "agencies": 6177,
      "apor": 6178,
      "spi": 6179,
      "boss": 6180,
      "partly": 6181,
      "intim": 6182,
      "carol": 6183,
      "simult": 6184,
      "aks": 6185,
      "earn": 6186,
      "awk": 6187,
      "subtle": 6188,
      "2001": 6189,
      "angles": 6190,
      "barrel": 6191,
      "excuse": 6192,
      "sensory": 6193,
      "array": 6194,
      "ethnic": 6195,
      "impacts": 6196,
      "diving": 6197,
      "hunting": 6198,
      "nucle": 6199,
      "ecosystems": 6200,
      "atomic": 6201,
      "throwing": 6202,
      "liberal": 6203,
      "expanding": 6204,
      "bags": 6205,
      "mysterious": 6206,
      "thirds": 6207,
      "florida": 6208,
      "ethiopia": 6209,
      "vacuum": 6210,
      "bye": 6211,
      "ogue": 6212,
      "rome": 6213,
      "rick": 6214,
      "rang": 6215,
      "smar": 6216,
      "tong": 6217,
      "ingu": 6218,
      "seal": 6219,
      "usal": 6220,
      "teries": 6221,
      "confront": 6222,
      "articles": 6223,
      "shed": 6224,
      "aceutical": 6225,
      "bull": 6226,
      "forming": 6227,
      "clay": 6228,
      "underlying": 6229,
      "marks": 6230,
      "caring": 6231,
      "biodi": 6232,
      "simp": 6233,
      "landed": 6234,
      "matri": 6235,
      "primarily": 6236,
      "attitude": 6237,
      "openness": 6238,
      "drivers": 6239,
      "volcan": 6240,
      "facility": 6241,
      "trucks": 6242,
      "frontal": 6243,
      "measures": 6244,
      "silly": 6245,
      "pushed": 6246,
      "sharp": 6247,
      "discoveries": 6248,
      "diagnosed": 6249,
      "resistant": 6250,
      "reminded": 6251,
      "shelf": 6252,
      "satellites": 6253,
      "egg": 6254,
      "repeated": 6255,
      "qualities": 6256,
      "thresh": 6257,
      "philanth": 6258,
      "flexible": 6259,
      "vagina": 6260,
      "ophren": 6261,
      "pione": 6262,
      "jeff": 6263,
      "schizophren": 6264,
      "smarter": 6265,
      "47": 6266,
      "bure": 6267,
      "kit": 6268,
      "tast": 6269,
      "tick": 6270,
      "zheimer": 6271,
      "inches": 6272,
      "inhabit": 6273,
      "inherent": 6274,
      "alzheimer": 6275,
      "asha": 6276,
      "ardo": 6277,
      "leaf": 6278,
      "lethal": 6279,
      "icting": 6280,
      "bears": 6281,
      "acid": 6282,
      "heres": 6283,
      "meg": 6284,
      "lihood": 6285,
      "chat": 6286,
      "rogen": 6287,
      "pel": 6288,
      "agent": 6289,
      "render": 6290,
      "iveness": 6291,
      "selfish": 6292,
      "basket": 6293,
      "pointing": 6294,
      "mato": 6295,
      "cheese": 6296,
      "farming": 6297,
      "elected": 6298,
      "capes": 6299,
      "brook": 6300,
      "industries": 6301,
      "arrange": 6302,
      "sentences": 6303,
      "sisters": 6304,
      "besides": 6305,
      "predicted": 6306,
      "statist": 6307,
      "clients": 6308,
      "targets": 6309,
      "wildlife": 6310,
      "shopping": 6311,
      "lifes": 6312,
      "competitive": 6313,
      "ville": 6314,
      "daughters": 6315,
      "assumptions": 6316,
      "bubbles": 6317,
      "attractive": 6318,
      "sacred": 6319,
      "extended": 6320,
      "elephants": 6321,
      "threw": 6322,
      "resilience": 6323,
      "unbelievable": 6324,
      "pyramid": 6325,
      "october": 6326,
      "boun": 6327,
      "cable": 6328,
      "fest": 6329,
      "fought": 6330,
      "sna": 6331,
      "inves": 6332,
      "rey": 6333,
      "remem": 6334,
      "sey": 6335,
      "hai": 6336,
      "forgotten": 6337,
      "neo": 6338,
      "opard": 6339,
      "fraction": 6340,
      "perm": 6341,
      "exped": 6342,
      "artistic": 6343,
      "pla": 6344,
      "umes": 6345,
      "reson": 6346,
      "turkey": 6347,
      "mayor": 6348,
      "cert": 6349,
      "begun": 6350,
      "phosp": 6351,
      "glu": 6352,
      "distur": 6353,
      "objective": 6354,
      "sensor": 6355,
      "gases": 6356,
      "consciously": 6357,
      "panel": 6358,
      "scores": 6359,
      "focusing": 6360,
      "initially": 6361,
      "translated": 6362,
      "analyze": 6363,
      "shelter": 6364,
      "ratio": 6365,
      "slavery": 6366,
      "observation": 6367,
      "inevitable": 6368,
      "occasionally": 6369,
      "recommend": 6370,
      "elderly": 6371,
      "anthropo": 6372,
      "bam": 6373,
      "biz": 6374,
      "jok": 6375,
      "lished": 6376,
      "oo": 6377,
      "rage": 6378,
      "sits": 6379,
      "tam": 6380,
      "ert": 6381,
      "stab": 6382,
      "whis": 6383,
      "haw": 6384,
      "outs": 6385,
      "output": 6386,
      "neck": 6387,
      "opy": 6388,
      "advis": 6389,
      "trash": 6390,
      "permission": 6391,
      "ups": 6392,
      "aps": 6393,
      "conduc": 6394,
      "imaging": 6395,
      "1990s": 6396,
      "warning": 6397,
      "joint": 6398,
      "economist": 6399,
      "submit": 6400,
      "foods": 6401,
      "2003": 6402,
      "documents": 6403,
      "killer": 6404,
      "labs": 6405,
      "shore": 6406,
      "failing": 6407,
      "gradually": 6408,
      "supported": 6409,
      "involve": 6410,
      "architectural": 6411,
      "promote": 6412,
      "emerged": 6413,
      "hitting": 6414,
      "panels": 6415,
      "bai": 6416,
      "sleeping": 6417,
      "participation": 6418,
      "immediate": 6419,
      "collaborative": 6420,
      "baseball": 6421,
      "vulnerability": 6422,
      "primitive": 6423,
      "stairs": 6424,
      "stroke": 6425,
      "gonna": 6426,
      "expansion": 6427,
      "48": 6428,
      "athe": 6429,
      "dor": 6430,
      "dent": 6431,
      "iro": 6432,
      "rats": 6433,
      "yon": 6434,
      "reck": 6435,
      "refri": 6436,
      "itate": 6437,
      "leverage": 6438,
      "entering": 6439,
      "lia": 6440,
      "uncle": 6441,
      "ceo": 6442,
      "opath": 6443,
      "ulum": 6444,
      "proposed": 6445,
      "cosm": 6446,
      "grace": 6447,
      "brut": 6448,
      "buried": 6449,
      "disap": 6450,
      "needle": 6451,
      "udi": 6452,
      "craw": 6453,
      "ensure": 6454,
      "choo": 6455,
      "tribe": 6456,
      "sciences": 6457,
      "flour": 6458,
      "mont": 6459,
      "server": 6460,
      "imagery": 6461,
      "helpful": 6462,
      "parli": 6463,
      "1970s": 6464,
      "regime": 6465,
      "opera": 6466,
      "protest": 6467,
      "devil": 6468,
      "excite": 6469,
      "shocked": 6470,
      "magical": 6471,
      "difficulty": 6472,
      "surviv": 6473,
      "salt": 6474,
      "similarly": 6475,
      "suggested": 6476,
      "shops": 6477,
      "miracle": 6478,
      "senior": 6479,
      "struggling": 6480,
      "wheelchair": 6481,
      "nurse": 6482,
      "additional": 6483,
      "dialogue": 6484,
      "gathering": 6485,
      "colonies": 6486,
      "refugee": 6487,
      "lawyer": 6488,
      "saturn": 6489,
      "administration": 6490,
      "pursue": 6491,
      "elite": 6492,
      "jesus": 6493,
      "biodiversity": 6494,
      "bureau": 6495,
      "refriger": 6496,
      "cig": 6497,
      "cous": 6498,
      "jing": 6499,
      "ogy": 6500,
      "uri": 6501,
      "wings": 6502,
      "eda": 6503,
      "stun": 6504,
      "soever": 6505,
      "merely": 6506,
      "whatsoever": 6507,
      "cake": 6508,
      "urge": 6509,
      "artic": 6510,
      "bos": 6511,
      "bored": 6512,
      "syl": 6513,
      "realizing": 6514,
      "mines": 6515,
      "highway": 6516,
      "1980s": 6517,
      "closing": 6518,
      "greg": 6519,
      "nerve": 6520,
      "profits": 6521,
      "responding": 6522,
      "robotics": 6523,
      "expectancy": 6524,
      "keyboard": 6525,
      "bono": 6526,
      "climbing": 6527,
      "radically": 6528,
      "explaining": 6529,
      "silver": 6530,
      "photographed": 6531,
      "flows": 6532,
      "representation": 6533,
      "texts": 6534,
      "terrorist": 6535,
      "luckily": 6536,
      "immense": 6537,
      "mixed": 6538,
      "arrive": 6539,
      "translation": 6540,
      "routine": 6541,
      "prepare": 6542,
      "dragon": 6543,
      "fabulous": 6544,
      "employment": 6545,
      "waters": 6546,
      "refugees": 6547,
      "perceive": 6548,
      "instructions": 6549,
      "adventure": 6550,
      "adopted": 6551,
      "russian": 6552,
      "district": 6553,
      "bizar": 6554,
      "crop": 6555,
      "fits": 6556,
      "gled": 6557,
      "uh": 6558,
      "vity": 6559,
      "intr": 6560,
      "inson": 6561,
      "methane": 6562,
      "uncertainty": 6563,
      "febr": 6564,
      "contemporary": 6565,
      "seeking": 6566,
      "spray": 6567,
      "suffe": 6568,
      "clu": 6569,
      "crush": 6570,
      "intri": 6571,
      "posal": 6572,
      "marry": 6573,
      "carri": 6574,
      "condom": 6575,
      "award": 6576,
      "completed": 6577,
      "cycles": 6578,
      "miser": 6579,
      "consult": 6580,
      "fires": 6581,
      "successfully": 6582,
      "cambridge": 6583,
      "invested": 6584,
      "fastest": 6585,
      "promised": 6586,
      "printed": 6587,
      "exception": 6588,
      "confused": 6589,
      "genetically": 6590,
      "damn": 6591,
      "deliber": 6592,
      "greek": 6593,
      "infection": 6594,
      "garage": 6595,
      "physician": 6596,
      "cartoons": 6597,
      "institutional": 6598,
      "volunteer": 6599,
      "fragile": 6600,
      "demonstration": 6601,
      "dolphin": 6602,
      "hypothesis": 6603,
      "somed": 6604,
      "shifting": 6605,
      "discipline": 6606,
      "lawyers": 6607,
      "lord": 6608,
      "squee": 6609,
      "aristo": 6610,
      "scott": 6611,
      "convenient": 6612,
      "exponential": 6613,
      "derek": 6614,
      "cotton": 6615,
      "parliament": 6616,
      "february": 6617,
      "bie": 6618,
      "glow": 6619,
      "wider": 6620,
      "yn": 6621,
      "rebuild": 6622,
      "atar": 6623,
      "leon": 6624,
      "ros": 6625,
      "upset": 6626,
      "igr": 6627,
      "aint": 6628,
      "disagree": 6629,
      "county": 6630,
      "curric": 6631,
      "norway": 6632,
      "shipping": 6633,
      "sett": 6634,
      "organizing": 6635,
      "pretend": 6636,
      "capabilities": 6637,
      "profile": 6638,
      "bene": 6639,
      "reliable": 6640,
      "strongly": 6641,
      "description": 6642,
      "index": 6643,
      "concert": 6644,
      "secrets": 6645,
      "threats": 6646,
      "authorities": 6647,
      "kyo": 6648,
      "embrac": 6649,
      "nano": 6650,
      "pharmaceutical": 6651,
      "eradic": 6652,
      "skeleton": 6653,
      "matrix": 6654,
      "choosing": 6655,
      "suffered": 6656,
      "someday": 6657,
      "42": 6658,
      "bats": 6659,
      "dip": 6660,
      "gaz": 6661,
      "ipo": 6662,
      "kor": 6663,
      "pum": 6664,
      "uity": 6665,
      "thur": 6666,
      "reha": 6667,
      "recon": 6668,
      "encing": 6669,
      "enthus": 6670,
      "stake": 6671,
      "loves": 6672,
      "loving": 6673,
      "gore": 6674,
      "decor": 6675,
      "rivers": 6676,
      "ador": 6677,
      "civic": 6678,
      "tips": 6679,
      "suck": 6680,
      "chances": 6681,
      "stranger": 6682,
      "holy": 6683,
      "bian": 6684,
      "simulation": 6685,
      "natives": 6686,
      "clos": 6687,
      "joe": 6688,
      "homework": 6689,
      "morality": 6690,
      "charges": 6691,
      "responds": 6692,
      "sixth": 6693,
      "distingu": 6694,
      "soup": 6695,
      "expecting": 6696,
      "innocent": 6697,
      "circul": 6698,
      "staying": 6699,
      "leather": 6700,
      "lamp": 6701,
      "genetics": 6702,
      "judgment": 6703,
      "compelling": 6704,
      "tumors": 6705,
      "conservative": 6706,
      "intuition": 6707,
      "extinction": 6708,
      "replicate": 6709,
      "professionals": 6710,
      "december": 6711,
      "accomplish": 6712,
      "portrait": 6713,
      "orchestra": 6714,
      "restore": 6715,
      "microbial": 6716,
      "remembered": 6717,
      "bizarre": 6718,
      "beneath": 6719,
      "cd": 6720,
      "dys": 6721,
      "iac": 6722,
      "jug": 6723,
      "oven": 6724,
      "pad": 6725,
      "sche": 6726,
      "erg": 6727,
      "enabled": 6728,
      "arc": 6729,
      "lored": 6730,
      "unable": 6731,
      "defic": 6732,
      "canopy": 6733,
      "convert": 6734,
      "fract": 6735,
      "compos": 6736,
      "pling": 6737,
      "odds": 6738,
      "tier": 6739,
      "sheets": 6740,
      "preh": 6741,
      "fined": 6742,
      "parado": 6743,
      "chee": 6744,
      "engineered": 6745,
      "investing": 6746,
      "palm": 6747,
      "tracks": 6748,
      "affects": 6749,
      "experiencing": 6750,
      "sufficient": 6751,
      "loaded": 6752,
      "pairs": 6753,
      "detection": 6754,
      "placing": 6755,
      "garbage": 6756,
      "physicists": 6757,
      "pleasant": 6758,
      "guns": 6759,
      "poems": 6760,
      "historic": 6761,
      "pigs": 6762,
      "chips": 6763,
      "magnitude": 6764,
      "ownership": 6765,
      "rubber": 6766,
      "glamorous": 6767,
      "interpretation": 6768,
      "trigger": 6769,
      "tackle": 6770,
      "implement": 6771,
      "comedy": 6772,
      "spont": 6773,
      "paralyzed": 6774,
      "manifest": 6775,
      "taliban": 6776,
      "beijing": 6777,
      "hemisphere": 6778,
      "threshold": 6779,
      "paradox": 6780,
      "].": 6781,
      "bb": 6782,
      "bend": 6783,
      "dal": 6784,
      "pip": 6785,
      "zan": 6786,
      "thet": 6787,
      "reactions": 6788,
      "ende": 6789,
      "enna": 6790,
      "enables": 6791,
      "ara": 6792,
      "stones": 6793,
      "chor": 6794,
      "dopam": 6795,
      "iring": 6796,
      "reducing": 6797,
      "pride": 6798,
      "twist": 6799,
      "cric": 6800,
      "tsun": 6801,
      "counting": 6802,
      "observe": 6803,
      "instantly": 6804,
      "generating": 6805,
      "insist": 6806,
      "homeless": 6807,
      "subway": 6808,
      "angible": 6809,
      "musician": 6810,
      "demographic": 6811,
      "burg": 6812,
      "burned": 6813,
      "empire": 6814,
      "woke": 6815,
      "traditions": 6816,
      "improved": 6817,
      "rainforest": 6818,
      "flowing": 6819,
      "analog": 6820,
      "woods": 6821,
      "pale": 6822,
      "included": 6823,
      "widely": 6824,
      "occurs": 6825,
      "deserve": 6826,
      "cruel": 6827,
      "acceptable": 6828,
      "rays": 6829,
      "defend": 6830,
      "demands": 6831,
      "optimism": 6832,
      "officer": 6833,
      "remaining": 6834,
      "assumption": 6835,
      "snap": 6836,
      "profoundly": 6837,
      "jumped": 6838,
      "strategic": 6839,
      "frustrated": 6840,
      "august": 6841,
      "mushroom": 6842,
      "currency": 6843,
      "shrink": 6844,
      "pandemic": 6845,
      "trajectory": 6846,
      "simultaneously": 6847,
      "dopamine": 6848,
      "dating": 6849,
      "hors": 6850,
      "jaw": 6851,
      "kb": 6852,
      "kat": 6853,
      "nu": 6854,
      "pic": 6855,
      "recess": 6856,
      "oning": 6857,
      "errors": 6858,
      "encoun": 6859,
      "enlight": 6860,
      "asian": 6861,
      "ares": 6862,
      "outer": 6863,
      "unprecedent": 6864,
      "nowad": 6865,
      "ife": 6866,
      "impression": 6867,
      "aded": 6868,
      "worm": 6869,
      "worms": 6870,
      "trace": 6871,
      "comments": 6872,
      "combat": 6873,
      "peoples": 6874,
      "ague": 6875,
      "bold": 6876,
      "distor": 6877,
      "intensive": 6878,
      "turing": 6879,
      "drone": 6880,
      "socially": 6881,
      "meanwhile": 6882,
      "valid": 6883,
      "leged": 6884,
      "signature": 6885,
      "figur": 6886,
      "facilities": 6887,
      "nights": 6888,
      "classical": 6889,
      "steal": 6890,
      "winds": 6891,
      "tendency": 6892,
      "brian": 6893,
      "footage": 6894,
      "survived": 6895,
      "approaches": 6896,
      "pollut": 6897,
      "compassionate": 6898,
      "detailed": 6899,
      "influenced": 6900,
      "journalists": 6901,
      "wealthy": 6902,
      "gaps": 6903,
      "incentive": 6904,
      "substance": 6905,
      "conducted": 6906,
      "preserve": 6907,
      "established": 6908,
      "initiative": 6909,
      "dutch": 6910,
      "comparison": 6911,
      "bronx": 6912,
      "categories": 6913,
      "otechno": 6914,
      "cosmic": 6915,
      "intrigu": 6916,
      "curriculum": 6917,
      "unprecedented": 6918,
      "nowadays": 6919,
      "bind": 6920,
      "bble": 6921,
      "dile": 6922,
      "daw": 6923,
      "dung": 6924,
      "eigh": 6925,
      "reminds": 6926,
      "andre": 6927,
      "acou": 6928,
      "deck": 6929,
      "butter": 6930,
      "females": 6931,
      "ambig": 6932,
      "contrad": 6933,
      "export": 6934,
      "extension": 6935,
      "shout": 6936,
      "brun": 6937,
      "channels": 6938,
      "formal": 6939,
      "gotta": 6940,
      "blank": 6941,
      "engines": 6942,
      "plank": 6943,
      "clothing": 6944,
      "mindset": 6945,
      "ski": 6946,
      "attend": 6947,
      "airplanes": 6948,
      "gathered": 6949,
      "factories": 6950,
      "kills": 6951,
      "trains": 6952,
      "burden": 6953,
      "iences": 6954,
      "purposes": 6955,
      "grandparents": 6956,
      "ordinarily": 6957,
      "tends": 6958,
      "summar": 6959,
      "explains": 6960,
      "supporting": 6961,
      "mapping": 6962,
      "improving": 6963,
      "pene": 6964,
      "delivery": 6965,
      "strike": 6966,
      "continuing": 6967,
      "significantly": 6968,
      "association": 6969,
      "contrary": 6970,
      "gentleman": 6971,
      "restaurants": 6972,
      "substant": 6973,
      "insights": 6974,
      "expertise": 6975,
      "dressed": 6976,
      "neutral": 6977,
      "bottles": 6978,
      "stereoty": 6979,
      "aggressive": 6980,
      "scholar": 6981,
      "sketch": 6982,
      "jazz": 6983,
      "convey": 6984,
      "nutrients": 6985,
      "philip": 6986,
      "dilem": 6987,
      "55": 6988,
      "bass": 6989,
      "cree": 6990,
      "fice": 6991,
      "jose": 6992,
      "lions": 6993,
      "piz": 6994,
      "ubi": 6995,
      "reinvent": 6996,
      "tox": 6997,
      "enjo": 6998,
      "altit": 6999,
      "lever": 7000,
      "icel": 7001,
      "beating": 7002,
      "acies": 7003,
      "habits": 7004,
      "imper": 7005,
      "fears": 7006,
      "tray": 7007,
      "coat": 7008,
      "howard": 7009,
      "wheat": 7010,
      "fox": 7011,
      "disability": 7012,
      "distract": 7013,
      "sip": 7014,
      "vial": 7015,
      "drones": 7016,
      "courses": 7017,
      "versions": 7018,
      "rape": 7019,
      "parks": 7020,
      "1960": 7021,
      "pedest": 7022,
      "computation": 7023,
      "insul": 7024,
      "healthier": 7025,
      "structural": 7026,
      "connects": 7027,
      "harbor": 7028,
      "fathers": 7029,
      "fluores": 7030,
      "performed": 7031,
      "explosion": 7032,
      "mike": 7033,
      "eaten": 7034,
      "medication": 7035,
      "analogy": 7036,
      "ticket": 7037,
      "tubes": 7038,
      "destro": 7039,
      "tune": 7040,
      "threatened": 7041,
      "nuts": 7042,
      "broadcast": 7043,
      "halluc": 7044,
      "remained": 7045,
      "blogs": 7046,
      "compete": 7047,
      "customer": 7048,
      "academy": 7049,
      "rituals": 7050,
      "spanish": 7051,
      "alexander": 7052,
      "accounts": 7053,
      "saharan": 7054,
      "obstacles": 7055,
      "sacrifice": 7056,
      "tongue": 7057,
      "investors": 7058,
      "phosphor": 7059,
      "cigaret": 7060,
      "],": 7061,
      "dough": 7062,
      "file": 7063,
      "glim": 7064,
      "nap": 7065,
      "pants": 7066,
      "qa": 7067,
      "sized": 7068,
      "zip": 7069,
      "theast": 7070,
      "ongoing": 7071,
      "iso": 7072,
      "align": 7073,
      "esign": 7074,
      "semin": 7075,
      "haust": 7076,
      "lla": 7077,
      "entropy": 7078,
      "otion": 7079,
      "chol": 7080,
      "gear": 7081,
      "loan": 7082,
      "dose": 7083,
      "motors": 7084,
      "mobility": 7085,
      "cafe": 7086,
      "percept": 7087,
      "proven": 7088,
      "explic": 7089,
      "exhaust": 7090,
      "upside": 7091,
      "colored": 7092,
      "saudi": 7093,
      "spain": 7094,
      "redesign": 7095,
      "despair": 7096,
      "genu": 7097,
      "margin": 7098,
      "uctive": 7099,
      "sons": 7100,
      "pause": 7101,
      "mature": 7102,
      "2011": 7103,
      "transcend": 7104,
      "subsid": 7105,
      "passive": 7106,
      "reasonable": 7107,
      "researcher": 7108,
      "angered": 7109,
      "classrooms": 7110,
      "cuts": 7111,
      "zeal": 7112,
      "camps": 7113,
      "potato": 7114,
      "purple": 7115,
      "drew": 7116,
      "nonprofit": 7117,
      "drawings": 7118,
      "slime": 7119,
      "syndr": 7120,
      "peaceful": 7121,
      "believes": 7122,
      "captain": 7123,
      "achievement": 7124,
      "adapted": 7125,
      "honestly": 7126,
      "corporations": 7127,
      "previously": 7128,
      "phantom": 7129,
      "column": 7130,
      "knife": 7131,
      "impressive": 7132,
      "legitimate": 7133,
      "passenger": 7134,
      "37": 7135,
      "bak": 7136,
      "lum": 7137,
      "ngos": 7138,
      "oy": 7139,
      "pent": 7140,
      "sca": 7141,
      "wright": 7142,
      "anno": 7143,
      "ancing": 7144,
      "recover": 7145,
      "resem": 7146,
      "altru": 7147,
      "itudes": 7148,
      "sew": 7149,
      "stability": 7150,
      "forgot": 7151,
      "rope": 7152,
      "wires": 7153,
      "pep": 7154,
      "amate": 7155,
      "pless": 7156,
      "indians": 7157,
      "shor": 7158,
      "agents": 7159,
      "newton": 7160,
      "backs": 7161,
      "realistic": 7162,
      "drum": 7163,
      "numer": 7164,
      "1950s": 7165,
      "generous": 7166,
      "farms": 7167,
      "addiction": 7168,
      "italian": 7169,
      "badly": 7170,
      "harness": 7171,
      "continents": 7172,
      "approxim": 7173,
      "impul": 7174,
      "bench": 7175,
      "nearby": 7176,
      "approaching": 7177,
      "terribly": 7178,
      "terrifying": 7179,
      "religions": 7180,
      "synchron": 7181,
      "ecological": 7182,
      "bulb": 7183,
      "package": 7184,
      "annual": 7185,
      "catching": 7186,
      "graduated": 7187,
      "straightforward": 7188,
      "scanner": 7189,
      "teenage": 7190,
      "alternatives": 7191,
      "wheels": 7192,
      "blowing": 7193,
      "circuits": 7194,
      "propag": 7195,
      "gallery": 7196,
      "vegetables": 7197,
      "monitoring": 7198,
      "chimpanzee": 7199,
      "bathroom": 7200,
      ".'\"": 7201,
      "glamour": 7202,
      "barrier": 7203,
      "mathematicians": 7204,
      "arrested": 7205,
      "astonishing": 7206,
      "tropical": 7207,
      "palestin": 7208,
      "tragic": 7209,
      "awkward": 7210,
      "excitement": 7211,
      "closest": 7212,
      "otechnology": 7213,
      "36": 7214,
      "cows": 7215,
      "fancy": 7216,
      "iel": 7217,
      "tissues": 7218,
      "uel": 7219,
      "rein": 7220,
      "attem": 7221,
      "toes": 7222,
      "alty": 7223,
      "itative": 7224,
      "lex": 7225,
      "pets": 7226,
      "moore": 7227,
      "neys": 7228,
      "cel": 7229,
      "trical": 7230,
      "antarct": 7231,
      "prostate": 7232,
      "expos": 7233,
      "excess": 7234,
      "shang": 7235,
      "sauce": 7236,
      "aches": 7237,
      "boats": 7238,
      "phony": 7239,
      "discrimin": 7240,
      "disrupt": 7241,
      "spell": 7242,
      "preval": 7243,
      "manager": 7244,
      "managers": 7245,
      "wrap": 7246,
      "stomach": 7247,
      "mono": 7248,
      "monte": 7249,
      "2012": 7250,
      "lowest": 7251,
      "household": 7252,
      "freely": 7253,
      "stein": 7254,
      "burgh": 7255,
      "appearing": 7256,
      "speaks": 7257,
      "improvis": 7258,
      "medicines": 7259,
      "prediction": 7260,
      "pollin": 7261,
      "ridge": 7262,
      "panic": 7263,
      "divor": 7264,
      "client": 7265,
      "dropping": 7266,
      "psychologists": 7267,
      "earliest": 7268,
      "prisoners": 7269,
      "appearance": 7270,
      "sweat": 7271,
      "phenomena": 7272,
      "precious": 7273,
      "nelson": 7274,
      "physicians": 7275,
      "encouraged": 7276,
      "applying": 7277,
      "philosopher": 7278,
      "heavi": 7279,
      "collapsed": 7280,
      "magnific": 7281,
      "delhi": 7282,
      "items": 7283,
      "luxury": 7284,
      "champion": 7285,
      "jihad": 7286,
      "helicopter": 7287,
      "phosphorus": 7288,
      "genuine": 7289,
      "antarctica": 7290,
      "bac": 7291,
      "dumb": 7292,
      "fbi": 7293,
      "hug": 7294,
      "jar": 7295,
      "lg": 7296,
      "lion": 7297,
      "rb": 7298,
      "rh": 7299,
      "uous": 7300,
      "independence": 7301,
      "anas": 7302,
      "replaced": 7303,
      "album": 7304,
      "verb": 7305,
      "chop": 7306,
      "delay": 7307,
      "tering": 7308,
      "mainst": 7309,
      "propose": 7310,
      "plates": 7311,
      "indones": 7312,
      "pockets": 7313,
      "nove": 7314,
      "safer": 7315,
      "estate": 7316,
      "seemingly": 7317,
      "endangered": 7318,
      "workforce": 7319,
      "bris": 7320,
      "astics": 7321,
      "formula": 7322,
      "blown": 7323,
      "straw": 7324,
      "specul": 7325,
      "typing": 7326,
      "prev": 7327,
      "crew": 7328,
      "interior": 7329,
      "2050": 7330,
      "cellular": 7331,
      "insane": 7332,
      "josh": 7333,
      "traits": 7334,
      "password": 7335,
      "cuba": 7336,
      "audiences": 7337,
      "sunday": 7338,
      "bond": 7339,
      "potent": 7340,
      "pursuit": 7341,
      "penn": 7342,
      "landscapes": 7343,
      "aneous": 7344,
      "affecting": 7345,
      "lized": 7346,
      "recep": 7347,
      "psychologist": 7348,
      "ecology": 7349,
      "raped": 7350,
      "teenager": 7351,
      "interviewed": 7352,
      "hiding": 7353,
      "encouraging": 7354,
      "diagnosis": 7355,
      "thesia": 7356,
      "psychopath": 7357,
      "branches": 7358,
      "perceived": 7359,
      "regardless": 7360,
      "tanzan": 7361,
      "scopic": 7362,
      "navigate": 7363,
      "glacier": 7364,
      "guarantee": 7365,
      "tattoo": 7366,
      "heritage": 7367,
      "retirement": 7368,
      "jellyfish": 7369,
      "wandering": 7370,
      "tsunami": 7371,
      "horses": 7372,
      "amateur": 7373,
      "shanghai": 7374,
      "gif": 7375,
      "jon": 7376,
      "mics": 7377,
      "nom": 7378,
      "resolve": 7379,
      "itzer": 7380,
      "stad": 7381,
      "abra": 7382,
      "arest": 7383,
      "loose": 7384,
      "peers": 7385,
      "moz": 7386,
      "neander": 7387,
      "deaf": 7388,
      "iff": 7389,
      "cement": 7390,
      "terrain": 7391,
      "caves": 7392,
      "compreh": 7393,
      "proceed": 7394,
      "artif": 7395,
      "indig": 7396,
      "yourselves": 7397,
      "spat": 7398,
      "mentally": 7399,
      "suits": 7400,
      "donald": 7401,
      "empowered": 7402,
      "phal": 7403,
      "overnight": 7404,
      "prevention": 7405,
      "obese": 7406,
      "trivial": 7407,
      "offices": 7408,
      "offering": 7409,
      "highlight": 7410,
      "memes": 7411,
      "shakes": 7412,
      "visions": 7413,
      "chef": 7414,
      "smallest": 7415,
      "hardest": 7416,
      "mentor": 7417,
      "trail": 7418,
      "grams": 7419,
      "2002": 7420,
      "fibers": 7421,
      "biologist": 7422,
      "distances": 7423,
      "amazingly": 7424,
      "approved": 7425,
      "namely": 7426,
      "appeal": 7427,
      "collectively": 7428,
      "fallen": 7429,
      "breakfast": 7430,
      "specialized": 7431,
      "posted": 7432,
      "juries": 7433,
      "destiny": 7434,
      "mandela": 7435,
      "challenged": 7436,
      "transforming": 7437,
      "multiply": 7438,
      "activate": 7439,
      "packed": 7440,
      "discovering": 7441,
      "johnson": 7442,
      "gained": 7443,
      "royal": 7444,
      "flags": 7445,
      "storage": 7446,
      "employed": 7447,
      "surgeons": 7448,
      "reserve": 7449,
      "scenes": 7450,
      "arguing": 7451,
      "assistance": 7452,
      "assignment": 7453,
      "grasp": 7454,
      "estimates": 7455,
      "recycling": 7456,
      "decrease": 7457,
      "procedure": 7458,
      "responses": 7459,
      "schizophrenia": 7460,
      "leonardo": 7461,
      "koran": 7462,
      "ubiquit": 7463,
      "syndrome": 7464,
      "apers": 7465,
      "dv": 7466,
      "dun": 7467,
      "divid": 7468,
      "fred": 7469,
      "santa": 7470,
      "vice": 7471,
      "anni": 7472,
      "tock": 7473,
      "enforce": 7474,
      "encry": 7475,
      "alga": 7476,
      "stig": 7477,
      "acknowledge": 7478,
      "mex": 7479,
      "melt": 7480,
      "abul": 7481,
      "locom": 7482,
      "unhappy": 7483,
      "ustrate": 7484,
      "plastics": 7485,
      "coin": 7486,
      "coke": 7487,
      "sail": 7488,
      "residents": 7489,
      "apy": 7490,
      "embod": 7491,
      "uded": 7492,
      "clue": 7493,
      "genic": 7494,
      "obtain": 7495,
      "downtown": 7496,
      "offers": 7497,
      "drought": 7498,
      "hired": 7499,
      "fluct": 7500,
      "builds": 7501,
      "coln": 7502,
      "hometown": 7503,
      "halfway": 7504,
      "michel": 7505,
      "lanes": 7506,
      "connectivity": 7507,
      "stopping": 7508,
      "ilian": 7509,
      "equations": 7510,
      "voy": 7511,
      "stepped": 7512,
      "hormone": 7513,
      "sensation": 7514,
      "supermarket": 7515,
      "shortly": 7516,
      "explored": 7517,
      "defining": 7518,
      "safely": 7519,
      "slums": 7520,
      "division": 7521,
      "july": 7522,
      "juven": 7523,
      "concerns": 7524,
      "activist": 7525,
      "clinics": 7526,
      "bullet": 7527,
      "striking": 7528,
      "mammal": 7529,
      "scanning": 7530,
      "lincoln": 7531,
      "troops": 7532,
      "civilizations": 7533,
      "claims": 7534,
      "hacking": 7535,
      "cooperate": 7536,
      "dominated": 7537,
      "exercis": 7538,
      "succeeded": 7539,
      "imagining": 7540,
      "ignored": 7541,
      "wedding": 7542,
      "desperately": 7543,
      "breeding": 7544,
      "henry": 7545,
      "cocaine": 7546,
      "controversi": 7547,
      "prosperity": 7548,
      "elegant": 7549,
      "william": 7550,
      "keepers": 7551,
      "miserable": 7552,
      "penetr": 7553,
      "mainstre": 7554,
      "ubiquitous": 7555,
      "31": 7556,
      "avi": 7557,
      "bite": 7558,
      "iot": 7559,
      "rof": 7560,
      "tact": 7561,
      "tables": 7562,
      "wan": 7563,
      "yards": 7564,
      "reproduce": 7565,
      "reactor": 7566,
      "enem": 7567,
      "bean": 7568,
      "haz": 7569,
      "lith": 7570,
      "liar": 7571,
      "wil": 7572,
      "deter": 7573,
      "ril": 7574,
      "usage": 7575,
      "tee": 7576,
      "prope": 7577,
      "spheres": 7578,
      "brick": 7579,
      "asty": 7580,
      "donor": 7581,
      "phic": 7582,
      "kings": 7583,
      "cratic": 7584,
      "guil": 7585,
      "berry": 7586,
      "observed": 7587,
      "interconnected": 7588,
      "label": 7589,
      "compound": 7590,
      "socio": 7591,
      "storytelling": 7592,
      "patch": 7593,
      "cares": 7594,
      "headlines": 7595,
      "warri": 7596,
      "traum": 7597,
      "banglades": 7598,
      "cub": 7599,
      "huh": 7600,
      "yorker": 7601,
      "winner": 7602,
      "extraordinarily": 7603,
      "personalized": 7604,
      "nik": 7605,
      "describes": 7606,
      "territory": 7607,
      "locally": 7608,
      "locations": 7609,
      "attacked": 7610,
      "loads": 7611,
      "sched": 7612,
      "remarkably": 7613,
      "immun": 7614,
      "continuous": 7615,
      "fatal": 7616,
      "motivated": 7617,
      "partnership": 7618,
      "correctly": 7619,
      "electrons": 7620,
      "murder": 7621,
      "puzzles": 7622,
      "newspapers": 7623,
      "elementary": 7624,
      "limitations": 7625,
      "manipulate": 7626,
      "concentrated": 7627,
      "inevitably": 7628,
      "minimum": 7629,
      "fisheries": 7630,
      "whistle": 7631,
      "constraints": 7632,
      "absence": 7633,
      "geometry": 7634,
      "friday": 7635,
      "gandhi": 7636,
      "brooklyn": 7637,
      "gluco": 7638,
      "intrins": 7639,
      "pizza": 7640,
      "insulin": 7641,
      "mainstream": 7642,
      "aver": 7643,
      "dread": 7644,
      "ell": 7645,
      "fate": 7646,
      "jane": 7647,
      "junk": 7648,
      "nis": 7649,
      "nie": 7650,
      "sive": 7651,
      "sperm": 7652,
      "toss": 7653,
      "enzy": 7654,
      "asters": 7655,
      "assets": 7656,
      "leban": 7657,
      "stum": 7658,
      "hawa": 7659,
      "rog": 7660,
      "rolled": 7661,
      "lobby": 7662,
      "cage": 7663,
      "ura": 7664,
      "proved": 7665,
      "proposition": 7666,
      "shy": 7667,
      "shir": 7668,
      "shoc": 7669,
      "yemen": 7670,
      "quis": 7671,
      "rescu": 7672,
      "tile": 7673,
      "blink": 7674,
      "strings": 7675,
      "prey": 7676,
      "dra": 7677,
      "contamin": 7678,
      "humanitarian": 7679,
      "fles": 7680,
      "compli": 7681,
      "stored": 7682,
      "biol": 7683,
      "foundations": 7684,
      "20s": 7685,
      "1960s": 7686,
      "uniform": 7687,
      "cylind": 7688,
      "transmission": 7689,
      "heading": 7690,
      "nerves": 7691,
      "...\"": 7692,
      "crimes": 7693,
      "planetary": 7694,
      "amazed": 7695,
      "harmony": 7696,
      "bedroom": 7697,
      "advances": 7698,
      "stead": 7699,
      "marketplace": 7700,
      "predator": 7701,
      "hormon": 7702,
      "listened": 7703,
      "relief": 7704,
      "failures": 7705,
      "stays": 7706,
      "consumed": 7707,
      "bills": 7708,
      "doubled": 7709,
      "synthesis": 7710,
      "bacterial": 7711,
      "believing": 7712,
      "bulbs": 7713,
      "calculations": 7714,
      "blindness": 7715,
      "belly": 7716,
      "immigr": 7717,
      "infections": 7718,
      "1998": 7719,
      "reflection": 7720,
      "emails": 7721,
      "beaten": 7722,
      "contributed": 7723,
      "spinning": 7724,
      "surrounding": 7725,
      "israeli": 7726,
      "historically": 7727,
      "hills": 7728,
      "frequently": 7729,
      "bowl": 7730,
      "telescop": 7731,
      "installed": 7732,
      "demonstrated": 7733,
      "electrodes": 7734,
      "renewable": 7735,
      "mimic": 7736,
      "preparing": 7737,
      "athletes": 7738,
      "carolina": 7739,
      "cricket": 7740,
      "altitude": 7741,
      "exposure": 7742,
      "guilty": 7743,
      "glucose": 7744,
      "shocking": 7745,
      ",'": 7746,
      "350": 7747,
      "bother": 7748,
      "echo": 7749,
      "gles": 7750,
      "gments": 7751,
      "hong": 7752,
      "lists": 7753,
      "lined": 7754,
      "nodes": 7755,
      "pc": 7756,
      "pier": 7757,
      "rance": 7758,
      "vary": 7759,
      "thread": 7760,
      "infer": 7761,
      "anatom": 7762,
      "ativity": 7763,
      "isy": 7764,
      "enous": 7765,
      "orphan": 7766,
      "ari": 7767,
      "archa": 7768,
      "lee": 7769,
      "lete": 7770,
      "beth": 7771,
      "accent": 7772,
      "chile": 7773,
      "aby": 7774,
      "detro": 7775,
      "immers": 7776,
      "feyn": 7777,
      "congest": 7778,
      "cath": 7779,
      "comic": 7780,
      "useless": 7781,
      "covers": 7782,
      "gra": 7783,
      "restor": 7784,
      "workplace": 7785,
      "disabled": 7786,
      "blah": 7787,
      "cla": 7788,
      "kindness": 7789,
      "inton": 7790,
      "berlin": 7791,
      "manner": 7792,
      "epi": 7793,
      "marath": 7794,
      "calm": 7795,
      "calories": 7796,
      "1990": 7797,
      "subur": 7798,
      "banking": 7799,
      "addy": 7800,
      "gesture": 7801,
      "viewer": 7802,
      "glor": 7803,
      "glue": 7804,
      "responded": 7805,
      "denial": 7806,
      "chamber": 7807,
      "hybrid": 7808,
      "beautifully": 7809,
      "swiss": 7810,
      "funds": 7811,
      "follows": 7812,
      "steam": 7813,
      "shoe": 7814,
      "deepest": 7815,
      "sexy": 7816,
      "communicating": 7817,
      "grades": 7818,
      "democrat": 7819,
      "forestation": 7820,
      "approached": 7821,
      "terrified": 7822,
      "sale": 7823,
      "gorge": 7824,
      "receiving": 7825,
      "catastro": 7826,
      "sanitation": 7827,
      "folds": 7828,
      "folded": 7829,
      "variations": 7830,
      "tunnel": 7831,
      "sections": 7832,
      "laptops": 7833,
      "pix": 7834,
      "duck": 7835,
      "selected": 7836,
      "officials": 7837,
      "paste": 7838,
      "missions": 7839,
      "assemble": 7840,
      "stimul": 7841,
      "ritual": 7842,
      "installation": 7843,
      "pills": 7844,
      "voting": 7845,
      "hypothe": 7846,
      "toilets": 7847,
      "concentration": 7848,
      "estimated": 7849,
      "ambitious": 7850,
      "lonely": 7851,
      "delicious": 7852,
      "tweet": 7853,
      "punishment": 7854,
      "supplies": 7855,
      "expedition": 7856,
      "enjoying": 7857,
      "explicit": 7858,
      "zealand": 7859,
      "indonesia": 7860,
      "algae": 7861,
      "controversial": 7862,
      "enemies": 7863,
      "telescopes": 7864,
      "feynman": 7865,
      "38": 7866,
      "bis": 7867,
      "cto": 7868,
      "dated": 7869,
      "gli": 7870,
      "hes": 7871,
      "hans": 7872,
      "hmm": 7873,
      "jamin": 7874,
      "ku": 7875,
      "kans": 7876,
      "kins": 7877,
      "lac": 7878,
      "mously": 7879,
      "pis": 7880,
      "ini": 7881,
      "letal": 7882,
      "staring": 7883,
      "behalf": 7884,
      "healing": 7885,
      "verbal": 7886,
      "lize": 7887,
      "pee": 7888,
      "peare": 7889,
      "ifer": 7890,
      "usa": 7891,
      "cancers": 7892,
      "ading": 7893,
      "traction": 7894,
      "plum": 7895,
      "illustrate": 7896,
      "emit": 7897,
      "ension": 7898,
      "prem": 7899,
      "goodbye": 7900,
      "marg": 7901,
      "readers": 7902,
      "carpet": 7903,
      "flick": 7904,
      "minus": 7905,
      "paired": 7906,
      "smiling": 7907,
      "curves": 7908,
      "parach": 7909,
      "1900": 7910,
      "controll": 7911,
      "regulation": 7912,
      "phoeni": 7913,
      "educate": 7914,
      "ashed": 7915,
      "politically": 7916,
      "picks": 7917,
      "origins": 7918,
      "websites": 7919,
      "narratives": 7920,
      "masters": 7921,
      "introduction": 7922,
      "lifted": 7923,
      "budd": 7924,
      "mama": 7925,
      "interviews": 7926,
      "expressed": 7927,
      "worrying": 7928,
      "crystal": 7929,
      "competing": 7930,
      "crowds": 7931,
      "taxes": 7932,
      "therapies": 7933,
      "technically": 7934,
      "passage": 7935,
      "vaccines": 7936,
      "apolog": 7937,
      "grocer": 7938,
      "devastating": 7939,
      "qaeda": 7940,
      "magnificent": 7941,
      "shakespeare": 7942,
      "detroit": 7943,
      "phoenix": 7944,
      "batt": 7945,
      "jh": 7946,
      "kir": 7947,
      "luc": 7948,
      "mun": 7949,
      "tiles": 7950,
      "uma": 7951,
      "yr": 7952,
      "zi": 7953,
      "zones": 7954,
      "onia": 7955,
      "tomato": 7956,
      "enn": 7957,
      "ester": 7958,
      "stir": 7959,
      "entry": 7960,
      "oted": 7961,
      "kel": 7962,
      "kevin": 7963,
      "pear": 7964,
      "unde": 7965,
      "deals": 7966,
      "deception": 7967,
      "confron": 7968,
      "cathe": 7969,
      "comics": 7970,
      "compromise": 7971,
      "max": 7972,
      "likelihood": 7973,
      "umines": 7974,
      "sake": 7975,
      "bleed": 7976,
      "eline": 7977,
      "happily": 7978,
      "overhead": 7979,
      "affair": 7980,
      "mug": 7981,
      "cracy": 7982,
      "enses": 7983,
      "holi": 7984,
      "possess": 7985,
      "humili": 7986,
      "manual": 7987,
      "choir": 7988,
      "commons": 7989,
      "buses": 7990,
      "publishing": 7991,
      "topics": 7992,
      "charged": 7993,
      "temple": 7994,
      "masses": 7995,
      "benjamin": 7996,
      "predators": 7997,
      "pencil": 7998,
      "venture": 7999,
      "hunter": 8000,
      "encyclo": 8001,
      "activists": 8002,
      "agreement": 8003,
      "pige": 8004,
      "integration": 8005,
      "expressions": 8006,
      "randomly": 8007,
      "sadly": 8008,
      "nitrogen": 8009,
      "opinions": 8010,
      "tasman": 8011,
      "reserves": 8012,
      "binary": 8013,
      "recipe": 8014,
      "revealed": 8015,
      "ceremony": 8016,
      "hierarchy": 8017,
      "legislation": 8018,
      "iceland": 8019,
      "monterey": 8020,
      "november": 8021,
      "indigenous": 8022,
      "biolumines": 8023,
      "hh": 8024,
      "hunt": 8025,
      "jones": 8026,
      "liness": 8027,
      "mant": 8028,
      "mich": 8029,
      "mild": 8030,
      "nasty": 8031,
      "ole": 8032,
      "inth": 8033,
      "injuries": 8034,
      "remix": 8035,
      "ata": 8036,
      "ero": 8037,
      "envelo": 8038,
      "asle": 8039,
      "weed": 8040,
      "meme": 8041,
      "meals": 8042,
      "metric": 8043,
      "forbid": 8044,
      "composition": 8045,
      "maid": 8046,
      "prospect": 8047,
      "nova": 8048,
      "olic": 8049,
      "spark": 8050,
      "intensity": 8051,
      "interpre": 8052,
      "turk": 8053,
      "drain": 8054,
      "contest": 8055,
      "comparing": 8056,
      "corners": 8057,
      "mini": 8058,
      "miner": 8059,
      "faction": 8060,
      "ucers": 8061,
      "singapo": 8062,
      "diarr": 8063,
      "transit": 8064,
      "drif": 8065,
      "culti": 8066,
      "momentum": 8067,
      "machin": 8068,
      "angio": 8069,
      "couch": 8070,
      "metro": 8071,
      "evolving": 8072,
      "stephen": 8073,
      "drops": 8074,
      "messy": 8075,
      "millimeter": 8076,
      "summit": 8077,
      "batteries": 8078,
      "occurring": 8079,
      "temperatures": 8080,
      "automobile": 8081,
      "secretary": 8082,
      "enjoyed": 8083,
      "documented": 8084,
      "fifty": 8085,
      "watson": 8086,
      "belongs": 8087,
      "penguin": 8088,
      "torian": 8089,
      "skeletal": 8090,
      "chronic": 8091,
      "suspended": 8092,
      "simpler": 8093,
      "width": 8094,
      "constitution": 8095,
      "barriers": 8096,
      "labeled": 8097,
      "bamboo": 8098,
      "stabili": 8099,
      "conductor": 8100,
      "rehabil": 8101,
      "recession": 8102,
      "tanzania": 8103,
      "encycloped": 8104,
      "asleep": 8105,
      "singapore": 8106,
      "\"?": 8107,
      "72": 8108,
      "98": 8109,
      "dd": 8110,
      "kiss": 8111,
      "mans": 8112,
      "ost": 8113,
      "odo": 8114,
      "rican": 8115,
      "sne": 8116,
      "sadd": 8117,
      "tiger": 8118,
      "wart": 8119,
      "rethink": 8120,
      "restr": 8121,
      "repor": 8122,
      "onaut": 8123,
      "eries": 8124,
      "asth": 8125,
      "arbit": 8126,
      "lego": 8127,
      "oma": 8128,
      "belt": 8129,
      "roles": 8130,
      "irony": 8131,
      "configur": 8132,
      "trapped": 8133,
      "thermal": 8134,
      "april": 8135,
      "owning": 8136,
      "wells": 8137,
      "elabor": 8138,
      "disrup": 8139,
      "tale": 8140,
      "clinton": 8141,
      "fulness": 8142,
      "marvel": 8143,
      "forecast": 8144,
      "ireland": 8145,
      "fled": 8146,
      "naive": 8147,
      "nevertheless": 8148,
      "cheat": 8149,
      "skip": 8150,
      "attitudes": 8151,
      "spacecraft": 8152,
      "incidence": 8153,
      "untary": 8154,
      "harry": 8155,
      "metic": 8156,
      "angel": 8157,
      "switzer": 8158,
      "tony": 8159,
      "burger": 8160,
      "seventh": 8161,
      "textbooks": 8162,
      "digest": 8163,
      "sends": 8164,
      "criter": 8165,
      "measurements": 8166,
      "wooden": 8167,
      "mount": 8168,
      "statistic": 8169,
      "wishes": 8170,
      "visualization": 8171,
      "cattle": 8172,
      "bridges": 8173,
      "centralized": 8174,
      "calculated": 8175,
      "hopes": 8176,
      "rolls": 8177,
      "coastal": 8178,
      "mesh": 8179,
      "regularly": 8180,
      "hippo": 8181,
      "accuracy": 8182,
      "diameter": 8183,
      "ibm": 8184,
      "observations": 8185,
      "privileged": 8186,
      "cockro": 8187,
      "simplest": 8188,
      "embarrassing": 8189,
      "cluster": 8190,
      "clusters": 8191,
      "deployed": 8192,
      "olympic": 8193,
      "anticipate": 8194,
      "pouring": 8195,
      "abandoned": 8196,
      "genomes": 8197,
      "strands": 8198,
      "minority": 8199,
      "enhance": 8200,
      "chimps": 8201,
      "volcano": 8202,
      "clubs": 8203,
      "dawn": 8204,
      "bruno": 8205,
      "dilemma": 8206,
      "fluorescent": 8207,
      "destroying": 8208,
      "bangladesh": 8209,
      "machinery": 8210,
      "switzerland": 8211,
      "bun": 8212,
      "cine": 8213,
      "fis": 8214,
      "fuse": 8215,
      "hr": 8216,
      "hated": 8217,
      "jf": 8218,
      "kong": 8219,
      "mia": 8220,
      "ored": 8221,
      "sions": 8222,
      "sang": 8223,
      "ule": 8224,
      "ucer": 8225,
      "wrest": 8226,
      "inser": 8227,
      "infant": 8228,
      "tos": 8229,
      "alan": 8230,
      "arthur": 8231,
      "seti": 8232,
      "whip": 8233,
      "sovere": 8234,
      "hears": 8235,
      "dood": 8236,
      "depos": 8237,
      "tear": 8238,
      "tras": 8239,
      "coverage": 8240,
      "quate": 8241,
      "spiders": 8242,
      "foster": 8243,
      "boots": 8244,
      "twin": 8245,
      "sheer": 8246,
      "logging": 8247,
      "backyard": 8248,
      "blur": 8249,
      "intact": 8250,
      "hoo": 8251,
      "mankind": 8252,
      "interrup": 8253,
      "realization": 8254,
      "icked": 8255,
      "compounds": 8256,
      "stolen": 8257,
      "biof": 8258,
      "earning": 8259,
      "helpless": 8260,
      "landing": 8261,
      "norms": 8262,
      "trauma": 8263,
      "electrom": 8264,
      "graphs": 8265,
      "processor": 8266,
      "passes": 8267,
      "publicly": 8268,
      "couples": 8269,
      "fired": 8270,
      "biosphere": 8271,
      "programmers": 8272,
      "vocal": 8273,
      "lingu": 8274,
      "40s": 8275,
      "18th": 8276,
      "planted": 8277,
      "cardio": 8278,
      "favorites": 8279,
      "synap": 8280,
      "juice": 8281,
      "benefic": 8282,
      "enterprise": 8283,
      "continuously": 8284,
      "1999": 8285,
      "crossed": 8286,
      "integrate": 8287,
      "mutations": 8288,
      "contribution": 8289,
      "matched": 8290,
      "brazilian": 8291,
      "priority": 8292,
      "racing": 8293,
      "vascular": 8294,
      "overwhelming": 8295,
      "millenni": 8296,
      "candidate": 8297,
      "maximum": 8298,
      "aesthetic": 8299,
      "abundance": 8300,
      "theoretical": 8301,
      "aristotle": 8302,
      "glimpse": 8303,
      "hormones": 8304,
      "underest": 8305,
      "sovereign": 8306,
      "electromag": 8307,
      "130": 8308,
      "ego": 8309,
      "erect": 8310,
      "gio": 8311,
      "jur": 8312,
      "sab": 8313,
      "sulf": 8314,
      "treas": 8315,
      "xy": 8316,
      "zu": 8317,
      "iner": 8318,
      "inary": 8319,
      "rep": 8320,
      "recall": 8321,
      "rewards": 8322,
      "isha": 8323,
      "alarm": 8324,
      "ingen": 8325,
      "sectors": 8326,
      "icious": 8327,
      "soc": 8328,
      "helium": 8329,
      "oton": 8330,
      "roc": 8331,
      "nearest": 8332,
      "imes": 8333,
      "canad": 8334,
      "contem": 8335,
      "actively": 8336,
      "perpet": 8337,
      "prose": 8338,
      "coli": 8339,
      "cola": 8340,
      "gran": 8341,
      "whoever": 8342,
      "owners": 8343,
      "pra": 8344,
      "osex": 8345,
      "dispar": 8346,
      "disasters": 8347,
      "overlap": 8348,
      "syria": 8349,
      "aft": 8350,
      "crap": 8351,
      "crude": 8352,
      "cream": 8353,
      "intersection": 8354,
      "realities": 8355,
      "laure": 8356,
      "wrapped": 8357,
      "findings": 8358,
      "planned": 8359,
      "creator": 8360,
      "understands": 8361,
      "storytell": 8362,
      "2020": 8363,
      "2030": 8364,
      "relatives": 8365,
      "computational": 8366,
      "fried": 8367,
      "farther": 8368,
      "teaches": 8369,
      "livestock": 8370,
      "barbar": 8371,
      "freezing": 8372,
      "modeling": 8373,
      "texture": 8374,
      "petition": 8375,
      "professors": 8376,
      "girlfriend": 8377,
      "cooling": 8378,
      "copies": 8379,
      "consuming": 8380,
      "sooner": 8381,
      "emergence": 8382,
      "christians": 8383,
      "touching": 8384,
      "riding": 8385,
      "suggestion": 8386,
      "visualize": 8387,
      "transformative": 8388,
      "activated": 8389,
      "separation": 8390,
      "nonetheless": 8391,
      "phenomenal": 8392,
      "stressed": 8393,
      "welfare": 8394,
      "reflected": 8395,
      "broader": 8396,
      "expanded": 8397,
      "corporation": 8398,
      "attracted": 8399,
      "grip": 8400,
      "watts": 8401,
      "thirty": 8402,
      "recycled": 8403,
      "accomplished": 8404,
      "dictator": 8405,
      "frightening": 8406,
      "commodity": 8407,
      "philanthropy": 8408,
      "approximately": 8409,
      "stadium": 8410,
      "abraham": 8411,
      "fluctu": 8412,
      "gorgeous": 8413,
      "electromagnet": 8414,
      "46": 8415,
      "cass": 8416,
      "dates": 8417,
      "dump": 8418,
      "dirt": 8419,
      "fda": 8420,
      "gical": 8421,
      "hed": 8422,
      "kis": 8423,
      "kers": 8424,
      "mask": 8425,
      "nons": 8426,
      "sizes": 8427,
      "tk": 8428,
      "yan": 8429,
      "thors": 8430,
      "inction": 8431,
      "rev": 8432,
      "revel": 8433,
      "retail": 8434,
      "retro": 8435,
      "enab": 8436,
      "editor": 8437,
      "stit": 8438,
      "steven": 8439,
      "heating": 8440,
      "metr": 8441,
      "abed": 8442,
      "keley": 8443,
      "logo": 8444,
      "pecu": 8445,
      "mob": 8446,
      "modest": 8447,
      "tel": 8448,
      "therlands": 8449,
      "mah": 8450,
      "proli": 8451,
      "proposal": 8452,
      "exec": 8453,
      "oked": 8454,
      "ila": 8455,
      "shat": 8456,
      "spons": 8457,
      "redwood": 8458,
      "brane": 8459,
      "evapor": 8460,
      "donors": 8461,
      "buck": 8462,
      "format": 8463,
      "guer": 8464,
      "guards": 8465,
      "berkeley": 8466,
      "maneu": 8467,
      "presum": 8468,
      "trips": 8469,
      "shower": 8470,
      "drunk": 8471,
      "compat": 8472,
      "membrane": 8473,
      "kidding": 8474,
      "patents": 8475,
      "camel": 8476,
      "190": 8477,
      "1980": 8478,
      "transis": 8479,
      "authors": 8480,
      "custo": 8481,
      "facil": 8482,
      "answering": 8483,
      "distinction": 8484,
      "scaling": 8485,
      "swing": 8486,
      "climbed": 8487,
      "literacy": 8488,
      "horror": 8489,
      "sexually": 8490,
      "trading": 8491,
      "seawater": 8492,
      "reaches": 8493,
      "democracies": 8494,
      "exploit": 8495,
      "screaming": 8496,
      "describing": 8497,
      "terrific": 8498,
      "raine": 8499,
      "jews": 8500,
      "exceptions": 8501,
      "skilled": 8502,
      "fantasy": 8503,
      "laden": 8504,
      "parkinson": 8505,
      "greece": 8506,
      "calculus": 8507,
      "pulls": 8508,
      "immort": 8509,
      "hurrican": 8510,
      "laughed": 8511,
      "protocol": 8512,
      "prototypes": 8513,
      "streams": 8514,
      "contained": 8515,
      "mutation": 8516,
      "switched": 8517,
      "iranian": 8518,
      "scrap": 8519,
      "boundary": 8520,
      "analyzed": 8521,
      "nigerian": 8522,
      "iconic": 8523,
      "candy": 8524,
      "indicate": 8525,
      "priorit": 8526,
      "determines": 8527,
      "acquired": 8528,
      "thrilled": 8529,
      "pulse": 8530,
      "memorial": 8531,
      "knock": 8532,
      "biomass": 8533,
      "absorb": 8534,
      "discussions": 8535,
      "flavor": 8536,
      "asteroids": 8537,
      "alphabet": 8538,
      "neocortex": 8539,
      "endeav": 8540,
      "plankton": 8541,
      "heavily": 8542,
      "spatial": 8543,
      "diarrhea": 8544,
      "peculiar": 8545,
      "96": 8546,
      "dare": 8547,
      "dil": 8548,
      "dick": 8549,
      "fence": 8550,
      "gill": 8551,
      "gross": 8552,
      "hc": 8553,
      "wins": 8554,
      "itating": 8555,
      "ora": 8556,
      "assa": 8557,
      "sting": 8558,
      "sticking": 8559,
      "acre": 8560,
      "acknowled": 8561,
      "melo": 8562,
      "wives": 8563,
      "gevity": 8564,
      "loses": 8565,
      "unconscious": 8566,
      "netherlands": 8567,
      "deforestation": 8568,
      "canvas": 8569,
      "trap": 8570,
      "frames": 8571,
      "sometime": 8572,
      "odor": 8573,
      "apes": 8574,
      "spr": 8575,
      "endless": 8576,
      "blew": 8577,
      "eman": 8578,
      "disney": 8579,
      "assure": 8580,
      "guit": 8581,
      "intimate": 8582,
      "ensus": 8583,
      "counted": 8584,
      "carries": 8585,
      "wrist": 8586,
      "serves": 8587,
      "shoulders": 8588,
      "versary": 8589,
      "handful": 8590,
      "visually": 8591,
      "visiting": 8592,
      "generates": 8593,
      "graphical": 8594,
      "consensus": 8595,
      "cube": 8596,
      "holders": 8597,
      "alongside": 8598,
      "universes": 8599,
      "sensing": 8600,
      "sensit": 8601,
      "float": 8602,
      "practically": 8603,
      "sequencing": 8604,
      "risky": 8605,
      "spreads": 8606,
      "representative": 8607,
      "slower": 8608,
      "juana": 8609,
      "trusted": 8610,
      "reporting": 8611,
      "confess": 8612,
      "damaged": 8613,
      "longevity": 8614,
      "tuned": 8615,
      "lify": 8616,
      "sweep": 8617,
      "discussing": 8618,
      "graduates": 8619,
      "associate": 8620,
      "gains": 8621,
      "surgeries": 8622,
      "accountability": 8623,
      "cooperative": 8624,
      "mastery": 8625,
      "kilometer": 8626,
      "smells": 8627,
      "emotionally": 8628,
      "hostile": 8629,
      "accelerating": 8630,
      "sculptures": 8631,
      "voted": 8632,
      "vacation": 8633,
      "mcdonald": 8634,
      "shifts": 8635,
      "argued": 8636,
      "astronomy": 8637,
      "jerusal": 8638,
      "migration": 8639,
      "informal": 8640,
      "mathematician": 8641,
      "virginia": 8642,
      "louis": 8643,
      "censor": 8644,
      "incidentally": 8645,
      "egyptian": 8646,
      "lifespan": 8647,
      "andrew": 8648,
      "cylinder": 8649,
      "criteria": 8650,
      "jerusalem": 8651,
      "ao": 8652,
      "ais": 8653,
      "awe": 8654,
      "cs": 8655,
      "dens": 8656,
      "hint": 8657,
      "imeters": 8658,
      "mating": 8659,
      "pestic": 8660,
      "rm": 8661,
      "rhe": 8662,
      "tide": 8663,
      "reme": 8664,
      "rever": 8665,
      "retain": 8666,
      "isions": 8667,
      "enrich": 8668,
      "arians": 8669,
      "arith": 8670,
      "argent": 8671,
      "league": 8672,
      "seals": 8673,
      "vet": 8674,
      "acres": 8675,
      "mere": 8676,
      "utili": 8677,
      "chess": 8678,
      "rover": 8679,
      "outrage": 8680,
      "petr": 8681,
      "neum": 8682,
      "rill": 8683,
      "canyon": 8684,
      "teem": 8685,
      "antenna": 8686,
      "exagger": 8687,
      "arten": 8688,
      "artwork": 8689,
      "shu": 8690,
      "shred": 8691,
      "sav": 8692,
      "ideo": 8693,
      "ideology": 8694,
      "illa": 8695,
      "apps": 8696,
      "oline": 8697,
      "spar": 8698,
      "spare": 8699,
      "endor": 8700,
      "brad": 8701,
      "buff": 8702,
      "shepher": 8703,
      "firing": 8704,
      "udge": 8705,
      "kinderg": 8706,
      "lottery": 8707,
      "counts": 8708,
      "intervent": 8709,
      "triple": 8710,
      "triangle": 8711,
      "offs": 8712,
      "systematically": 8713,
      "kidney": 8714,
      "shaking": 8715,
      "1950": 8716,
      "mala": 8717,
      "economically": 8718,
      "charlie": 8719,
      "hopeful": 8720,
      "youngest": 8721,
      "harsh": 8722,
      "nightm": 8723,
      "programmed": 8724,
      "freak": 8725,
      "microphone": 8726,
      "investments": 8727,
      "casual": 8728,
      "patho": 8729,
      "pathways": 8730,
      "improv": 8731,
      "mixt": 8732,
      "critically": 8733,
      "recognizing": 8734,
      "promising": 8735,
      "gasoline": 8736,
      "salmon": 8737,
      "cardiac": 8738,
      "ventil": 8739,
      "pollo": 8740,
      "representing": 8741,
      "slum": 8742,
      "destination": 8743,
      "conceptual": 8744,
      "principal": 8745,
      "ministry": 8746,
      "raises": 8747,
      "prisoner": 8748,
      "collaborate": 8749,
      "infectious": 8750,
      "significance": 8751,
      "liberty": 8752,
      "cision": 8753,
      "arabia": 8754,
      "philosophical": 8755,
      "zoo": 8756,
      "platforms": 8757,
      "rotate": 8758,
      "shelves": 8759,
      "optical": 8760,
      "remotely": 8761,
      "concentrate": 8762,
      "accelerate": 8763,
      "jumping": 8764,
      "kicked": 8765,
      "occupy": 8766,
      "injured": 8767,
      "aliens": 8768,
      "satisfaction": 8769,
      "autonomy": 8770,
      "achieving": 8771,
      "instruction": 8772,
      "weighs": 8773,
      "desperate": 8774,
      "overwhelmed": 8775,
      "oriented": 8776,
      "horizontal": 8777,
      "mosquitos": 8778,
      "olympics": 8779,
      "palestinian": 8780,
      "congestion": 8781,
      "catholic": 8782,
      "grocery": 8783,
      "interventions": 8784,
      "44": 8785,
      "bm": 8786,
      "bable": 8787,
      "cort": 8788,
      "copen": 8789,
      "ethan": 8790,
      "hou": 8791,
      "pou": 8792,
      "pies": 8793,
      "vivid": 8794,
      "reconstruct": 8795,
      "enance": 8796,
      "allies": 8797,
      "semi": 8798,
      "stics": 8799,
      "omes": 8800,
      "behold": 8801,
      "chase": 8802,
      "idal": 8803,
      "unfortunate": 8804,
      "irrational": 8805,
      "ulsion": 8806,
      "probe": 8807,
      "exotic": 8808,
      "myce": 8809,
      "shield": 8810,
      "shining": 8811,
      "themes": 8812,
      "resur": 8813,
      "whoa": 8814,
      "crows": 8815,
      "fulfill": 8816,
      "vio": 8817,
      "offspring": 8818,
      "technic": 8819,
      "surfing": 8820,
      "corrid": 8821,
      "biased": 8822,
      "raz": 8823,
      "parame": 8824,
      "matt": 8825,
      "checked": 8826,
      "cyrus": 8827,
      "cloth": 8828,
      "supreme": 8829,
      "legally": 8830,
      "consent": 8831,
      "bloom": 8832,
      "chains": 8833,
      "meets": 8834,
      "greenland": 8835,
      "rains": 8836,
      "jewel": 8837,
      "slice": 8838,
      "synthes": 8839,
      "functioning": 8840,
      "recei": 8841,
      "periods": 8842,
      "tunis": 8843,
      "cups": 8844,
      "17th": 8845,
      "geography": 8846,
      "philosophers": 8847,
      "documentary": 8848,
      "targeted": 8849,
      "seattle": 8850,
      "gardens": 8851,
      "gravit": 8852,
      "1984": 8853,
      "coding": 8854,
      "punct": 8855,
      "stimulation": 8856,
      "investigation": 8857,
      "destructive": 8858,
      "acquire": 8859,
      "powder": 8860,
      "witnessed": 8861,
      "dictionaries": 8862,
      "cocktail": 8863,
      "dishes": 8864,
      "renewables": 8865,
      "diplomacy": 8866,
      "mushrooms": 8867,
      "melting": 8868,
      "utterly": 8869,
      "eliminate": 8870,
      "preparation": 8871,
      "tolerance": 8872,
      "mumbai": 8873,
      "candidates": 8874,
      "feminist": 8875,
      "inventor": 8876,
      "basketball": 8877,
      "ipod": 8878,
      "thetics": 8879,
      "acoustic": 8880,
      "joseph": 8881,
      "mozart": 8882,
      "enforcement": 8883,
      "mexican": 8884,
      "locomotion": 8885,
      "marathon": 8886,
      "cultiv": 8887,
      "elaborate": 8888,
      "canadian": 8889,
      "kindergarten": 8890,
      "43": 8891,
      "58": 8892,
      "86": 8893,
      "bc": 8894,
      "cables": 8895,
      "eliz": 8896,
      "fy": 8897,
      "fus": 8898,
      "kh": 8899,
      "lers": 8900,
      "phe": 8901,
      "thro": 8902,
      "inn": 8903,
      "reper": 8904,
      "onic": 8905,
      "alli": 8906,
      "orang": 8907,
      "ordered": 8908,
      "segment": 8909,
      "stain": 8910,
      "beam": 8911,
      "acious": 8912,
      "acute": 8913,
      "acids": 8914,
      "hagen": 8915,
      "entit": 8916,
      "mead": 8917,
      "lip": 8918,
      "loans": 8919,
      "peel": 8920,
      "wasted": 8921,
      "dem": 8922,
      "default": 8923,
      "adds": 8924,
      "confir": 8925,
      "uran": 8926,
      "ulting": 8927,
      "indus": 8928,
      "istine": 8929,
      "mentation": 8930,
      "pleased": 8931,
      "blast": 8932,
      "intend": 8933,
      "holo": 8934,
      "irect": 8935,
      "correspond": 8936,
      "lasting": 8937,
      "venue": 8938,
      "patri": 8939,
      "networking": 8940,
      "1930s": 8941,
      "chemother": 8942,
      "divers": 8943,
      "relates": 8944,
      "ugal": 8945,
      "headquarters": 8946,
      "autistic": 8947,
      "regional": 8948,
      "reasoning": 8949,
      "daniel": 8950,
      "hugely": 8951,
      "collision": 8952,
      "digging": 8953,
      "symphony": 8954,
      "paths": 8955,
      "mapped": 8956,
      "convicted": 8957,
      "travels": 8958,
      "ethic": 8959,
      "prints": 8960,
      "smartphone": 8961,
      "adoption": 8962,
      "variable": 8963,
      "cleaning": 8964,
      "deserves": 8965,
      "scans": 8966,
      "brands": 8967,
      "preventing": 8968,
      "assumed": 8969,
      "delivering": 8970,
      "detected": 8971,
      "investigate": 8972,
      "prosthetic": 8973,
      "vegetable": 8974,
      "korean": 8975,
      "atlanta": 8976,
      "talented": 8977,
      "ingredient": 8978,
      "coordination": 8979,
      "rejected": 8980,
      "implemented": 8981,
      "prescription": 8982,
      "parasite": 8983,
      "thood": 8984,
      "thylac": 8985,
      "embracing": 8986,
      "distinguish": 8987,
      "deficit": 8988,
      "encountered": 8989,
      "scaf": 8990,
      "shorter": 8991,
      "lebanon": 8992,
      "rescued": 8993,
      "parachute": 8994,
      "affairs": 8995,
      "encyclopedia": 8996,
      "arbitr": 8997,
      "millennium": 8998,
      "violet": 8999,
      "eliza": 9000,
      "49": 9001,
      "ee": 9002,
      "fon": 9003,
      "fans": 9004,
      "gad": 9005,
      "gur": 9006,
      "osome": 9007,
      "thand": 9008,
      "inity": 9009,
      "returns": 9010,
      "reforms": 9011,
      "onds": 9012,
      "onstage": 9013,
      "toll": 9014,
      "tokyo": 9015,
      "envision": 9016,
      "alice": 9017,
      "alask": 9018,
      "escal": 9019,
      "stunt": 9020,
      "beef": 9021,
      "lified": 9022,
      "chin": 9023,
      "ching": 9024,
      "chasing": 9025,
      "idering": 9026,
      "pean": 9027,
      "neu": 9028,
      "decent": 9029,
      "ambul": 9030,
      "fru": 9031,
      "ules": 9032,
      "exquis": 9033,
      "ounce": 9034,
      "aggre": 9035,
      "tibet": 9036,
      "apples": 9037,
      "rena": 9038,
      "ette": 9039,
      "blan": 9040,
      "crum": 9041,
      "preach": 9042,
      "sier": 9043,
      "humility": 9044,
      "managing": 9045,
      "counsel": 9046,
      "oblig": 9047,
      "marrow": 9048,
      "reader": 9049,
      "carl": 9050,
      "surf": 9051,
      "systematic": 9052,
      "corps": 9053,
      "monster": 9054,
      "longest": 9055,
      "colom": 9056,
      "simulate": 9057,
      "archive": 9058,
      "producers": 9059,
      "curtain": 9060,
      "cheating": 9061,
      "checking": 9062,
      "norden": 9063,
      "compute": 9064,
      "generic": 9065,
      "greet": 9066,
      "gestures": 9067,
      "rises": 9068,
      "considering": 9069,
      "regul": 9070,
      "politan": 9071,
      "equals": 9072,
      "households": 9073,
      "cham": 9074,
      "hydr": 9075,
      "pays": 9076,
      "squid": 9077,
      "richest": 9078,
      "wore": 9079,
      "supernova": 9080,
      "marked": 9081,
      "practicing": 9082,
      "winners": 9083,
      "towers": 9084,
      "penis": 9085,
      "feeds": 9086,
      "planting": 9087,
      "revolutions": 9088,
      "deadly": 9089,
      "countless": 9090,
      "towns": 9091,
      "clips": 9092,
      "speeds": 9093,
      "texting": 9094,
      "progression": 9095,
      "washed": 9096,
      "aims": 9097,
      "authoritarian": 9098,
      "detector": 9099,
      "buddh": 9100,
      "habitats": 9101,
      "hoped": 9102,
      "celebration": 9103,
      "surveys": 9104,
      "journalism": 9105,
      "frogs": 9106,
      "translator": 9107,
      "itori": 9108,
      "folk": 9109,
      "tags": 9110,
      "roofs": 9111,
      "priorities": 9112,
      "macro": 9113,
      "grains": 9114,
      "koso": 9115,
      "negotiate": 9116,
      "alike": 9117,
      "disciplines": 9118,
      "revenues": 9119,
      "converted": 9120,
      "duty": 9121,
      "empowering": 9122,
      "fishermen": 9123,
      "portraits": 9124,
      "sarah": 9125,
      "craig": 9126,
      "promoting": 9127,
      "authenticity": 9128,
      "chromosome": 9129,
      "jungle": 9130,
      "cataly": 9131,
      "diamonds": 9132,
      "survivors": 9133,
      "condoms": 9134,
      "eighth": 9135,
      "cholera": 9136,
      "anniversary": 9137,
      "embodied": 9138,
      "hawaii": 9139,
      "angiogenesis": 9140,
      "copenhagen": 9141,
      "chemotherapy": 9142,
      "daddy": 9143,
      "eternal": 9144,
      "jay": 9145,
      "jup": 9146,
      "kan": 9147,
      "rl": 9148,
      "rank": 9149,
      "sul": 9150,
      "tues": 9151,
      "tangible": 9152,
      "wides": 9153,
[...]
