{
  "version": "1.0",
  "truncation": null,
  "padding": null,
  "added_tokens": [
    {
      "id": 0,
      "content": "<pad>",
      "single_word": false,
      "lstrip": false,
      "rstrip": false,
      "normalized": false,
      "special": true
    },
    {
      "id": 1,
      "content": "<sos>",
      "single_word": false,
      "lstrip": false,
      "rstrip": false,
      "normalized": false,
      "special": true
    },
    {
      "id": 2,
      "content": "<eos>",
      "single_word": false,
      "lstrip": false,
      "rstrip": false,
      "normalized": false,
      "special": true
    },
    {
      "id": 3,
      "content": "<unk>",
      "single_word": false,
      "lstrip": false,
      "rstrip": false,
      "normalized": false,
      "special": true
    }
  ],
  "normalizer": {
    "type": "Sequence",
    "normalizers": [
      {
        "type": "NFD"
      },
      {
        "type": "Lowercase"
      },
      {
        "type": "StripAccents"
      }
    ]
  },
  "pre_tokenizer": {
    "type": "Whitespace"
  },
  "post_processor": {
    "type": "TemplateProcessing",
    "single": [
      {
        "SpecialToken": {
          "id": "<sos>",
          "type_id": 0
        }
      },
      {
        "Sequence": {
          "id": "A",
          "type_id": 0
        }
      },
      {
        "SpecialToken": {
          "id": "<eos>",
          "type_id": 0
        }
      }
    ],
    "pair": [
      {
        "Sequence": {
          "id": "A",
          "type_id": 0
        }
      },
      {
        "Sequence": {
          "id": "B",
          "type_id": 1
        }
      }
    ],
    "special_tokens": {
      "<eos>": {
        "id": "<eos>",
        "ids": [
          2
        ],
        "tokens": [
          "<eos>"
        ]
      },
      "<sos>": {
        "id": "<sos>",
        "ids": [
          1
        ],
        "tokens": [
          "<sos>"
        ]
      }
    }
  },
  "decoder": null,
  "model": {
    "type": "BPE",
    "dropout": null,
    "unk_token": null,
    "continuing_subword_prefix": null,
    "end_of_word_suffix": null,
    "fuse_unk": false,
    "byte_fallback": false,
    "ignore_merges": false,
    "vocab": {
      "<pad>": 0,
      "<sos>": 1,
      "<eos>": 2,
      "<unk>": 3,
      "!": 4,
      "\"": 5,
      "#": 6,
      "$": 7,
      "%": 8,
      "&": 9,
      "'": 10,
      "(": 11,
      ")": 12,
      "*": 13,
      "+": 14,
      ",": 15,
      "-": 16,
      ".": 17,
      "/": 18,
      "0": 19,
      "1": 20,
      "2": 21,
      "3": 22,
      "4": 23,
      "5": 24,
      "6": 25,
      "7": 26,
      "8": 27,
      "9": 28,
      ":": 29,
      ";": 30,
      "=": 31,
      "?": 32,
      "@": 33,
      "[": 34,
      "]": 35,
      "^": 36,
      "_": 37,
      "`": 38,
      "a": 39,
      "b": 40,
      "c": 41,
      "d": 42,
      "e": 43,
      "f": 44,
      "g": 45,
      "h": 46,
      "i": 47,
      "j": 48,
      "k": 49,
      "l": 50,
      "m": 51,
      "n": 52,
      "o": 53,
      "p": 54,
      "q": 55,
      "r": 56,
      "s": 57,
      "t": 58,
      "u": 59,
      "v": 60,
      "w": 61,
      "x": 62,
      "y": 63,
      "z": 64,
      "": 65,
      "": 66,
      "": 67,
      "": 68,
      "¡": 69,
      "£": 70,
      "¥": 71,
      "©": 72,
      "«": 73,
      "­": 74,
      "®": 75,
      "°": 76,
      "²": 77,
      "³": 78,
      "´": 79,
      "¶": 80,
      "»": 81,
      "¼": 82,
      "½": 83,
      "¾": 84,
      "×": 85,
      "ß": 86,
      "ø": 87,
      "œ": 88,
      "β": 89,
      "а": 90,
      "к": 91,
      "‒": 92,
      "–": 93,
      "—": 94,
      "‘": 95,
      "’": 96,
      "‚": 97,
      "“": 98,
      "”": 99,
      "„": 100,
      "‟": 101,
      "…": 102,
      "‹": 103,
      "›": 104,
      "€": 105,
      "™": 106,
      "♪": 107,
      "♫": 108,
      "你": 109,
      "葱": 110,
      "送": 111,
      "﻿": 112,
      "，": 113,
      "en": 114,
      "er": 115,
      "ch": 116,
      "in": 117,
      "ie": 118,
      "un": 119,
      "ich": 120,
      "st": 121,
      "an": 122,
      "ein": 123,
      "es": 124,
      "as": 125,
      "die": 126,
      "ei": 127,
      "au": 128,
      "und": 129,
      "der": 130,
      "al": 131,
      "on": 132,
      "sch": 133,
      "ge": 134,
      "te": 135,
      "ar": 136,
      "das": 137,
      "wi": 138,
      "zu": 139,
      "den": 140,
      "gen": 141,
      "at": 142,
      "le": 143,
      "ur": 144,
      "or": 145,
      "wir": 146,
      "sie": 147,
      "de": 148,
      "ten": 149,
      "se": 150,
      "hr": 151,
      "ab": 152,
      "ist": 153,
      "it": 154,
      "eine": 155,
      "ach": 156,
      "icht": 157,
      "el": 158,
      "ver": 159,
      "be": 160,
      "lich": 161,
      "so": 162,
      "ier": 163,
      "men": 164,
      "ter": 165,
      "ro": 166,
      "ung": 167,
      "auf": 168,
      "re": 169,
      "am": 170,
      "sen": 171,
      "um": 172,
      "ig": 173,
      "von": 174,
      "nen": 175,
      "nicht": 176,
      "ol": 177,
      "ber": 178,
      "mit": 179,
      "war": 180,
      "im": 181,
      "dass": 182,
      "eit": 183,
      "aus": 184,
      "ben": 185,
      "wie": 186,
      "man": 187,
      "was": 188,
      "ck": 189,
      "ser": 190,
      "et": 191,
      "hab": 192,
      "len": 193,
      "ind": 194,
      "wei": 195,
      "kon": 196,
      "sp": 197,
      "ann": 198,
      "ion": 199,
      "wen": 200,
      "ahr": 201,
      "af": 202,
      "us": 203,
      "hen": 204,
      "om": 205,
      "sich": 206,
      "ges": 207,
      "ut": 208,
      "wer": 209,
      "ne": 210,
      "il": 211,
      "ag": 212,
      "kt": 213,
      "uber": 214,
      "isch": 215,
      "ent": 216,
      "ah": 217,
      "is": 218,
      "diese": 219,
      "ste": 220,
      "fur": 221,
      "hat": 222,
      "sind": 223,
      "als": 224,
      "aber": 225,
      "och": 226,
      "dem": 227,
      "haben": 228,
      "me": 229,
      "ander": 230,
      "ir": 231,
      "einen": 232,
      "wenn": 233,
      "vor": 234,
      "iel": 235,
      "ru": 236,
      "bei": 237,
      "des": 238,
      "ihr": 239,
      "all": 240,
      "pro": 241,
      "ik": 242,
      "and": 243,
      "her": 244,
      "auch": 245,
      "einer": 246,
      "nach": 247,
      "wur": 248,
      "br": 249,
      "je": 250,
      "tr": 251,
      "gr": 252,
      "fr": 253,
      "schen": 254,
      "mach": 255,
      "kom": 256,
      "sten": 257,
      "ze": 258,
      "he": 259,
      "da": 260,
      "ern": 261,
      "ff": 262,
      "mus": 263,
      "mo": 264,
      "uns": 265,
      "also": 266,
      "kl": 267,
      "wel": 268,
      "we": 269,
      "einem": 270,
      "jahr": 271,
      "ih": 272,
      "unser": 273,
      "uch": 274,
      "ieren": 275,
      "oder": 276,
      "ken": 277,
      "lo": 278,
      "bt": 279,
      "hal": 280,
      "konnen": 281,
      "kann": 282,
      "gan": 283,
      "zen": 284,
      "hier": 285,
      "ort": 286,
      "werden": 287,
      "ien": 288,
      "ute": 289,
      "stel": 290,
      "schaf": 291,
      "ungen": 292,
      "fu": 293,
      "lan": 294,
      "iert": 295,
      "mer": 296,
      "ll": 297,
      "unter": 298,
      "gro": 299,
      "dies": 300,
      "wo": 301,
      "ger": 302,
      "agen": 303,
      "ation": 304,
      "lie": 305,
      "dar": 306,
      "gesch": 307,
      "bes": 308,
      "ht": 309,
      "gi": 310,
      "groß": 311,
      "viel": 312,
      "mal": 313,
      "nur": 314,
      "leben": 315,
      "zt": 316,
      "wurde": 317,
      "dann": 318,
      "rei": 319,
      "ige": 320,
      "sehen": 321,
      "sehr": 322,
      "wird": 323,
      "iv": 324,
      "ssen": 325,
      "menschen": 326,
      "for": 327,
      "dur": 328,
      "lt": 329,
      "00": 330,
      "art": 331,
      "sein": 332,
      "igen": 333,
      "fen": 334,
      "mich": 335,
      "per": 336,
      "welt": 337,
      "gibt": 338,
      "--": 339,
      "gt": 340,
      "kr": 341,
      "noch": 342,
      "ihnen": 343,
      "ad": 344,
      "gl": 345,
      "durch": 346,
      "sel": 347,
      "alle": 348,
      "du": 349,
      "tei": 350,
      "hin": 351,
      "ot": 352,
      "oll": 353,
      "fin": 354,
      "wissen": 355,
      "op": 356,
      "mein": 357,
      "zeit": 358,
      "etwas": 359,
      "fe": 360,
      "son": 361,
      "vie": 362,
      "dieser": 363,
      "ft": 364,
      "sam": 365,
      "ruck": 366,
      "chen": 367,
      "schaft": 368,
      "konn": 369,
      "mehr": 370,
      "ihre": 371,
      "gel": 372,
      "ke": 373,
      "off": 374,
      "bl": 375,
      "mir": 376,
      "habe": 377,
      "eigen": 378,
      "fl": 379,
      "sag": 380,
      "wirk": 381,
      "ische": 382,
      "heit": 383,
      "age": 384,
      "din": 385,
      "bil": 386,
      "ob": 387,
      "ischen": 388,
      "sach": 389,
      "keit": 390,
      "lichen": 391,
      "vers": 392,
      "zwei": 393,
      "zum": 394,
      "geb": 395,
      "liche": 396,
      "ler": 397,
      "wahr": 398,
      ".\"": 399,
      "auen": 400,
      "kommen": 401,
      "unsere": 402,
      "meine": 403,
      "fach": 404,
      "weil": 405,
      "inn": 406,
      "immer": 407,
      "hatte": 408,
      "ap": 409,
      "zah": 410,
      "machen": 411,
      "inter": 412,
      "fahr": 413,
      "aten": 414,
      "str": 415,
      "ant": 416,
      "wirklich": 417,
      "di": 418,
      "mt": 419,
      "etzt": 420,
      "neu": 421,
      "tz": 422,
      "tet": 423,
      "macht": 424,
      "bar": 425,
      "og": 426,
      "einfach": 427,
      "dieses": 428,
      "han": 429,
      "grund": 430,
      "assen": 431,
      "nun": 432,
      "ass": 433,
      "aut": 434,
      "sy": 435,
      "dan": 436,
      "pr": 437,
      "che": 438,
      "ster": 439,
      "dam": 440,
      "schl": 441,
      "hei": 442,
      "bin": 443,
      "teil": 444,
      "ess": 445,
      "hl": 446,
      "tun": 447,
      "ungs": 448,
      "schon": 449,
      "os": 450,
      "zie": 451,
      "bis": 452,
      "ing": 453,
      "jetzt": 454,
      "bst": 455,
      "eines": 456,
      "tat": 457,
      "neh": 458,
      "ma": 459,
      "fuhr": 460,
      "waren": 461,
      "viele": 462,
      "spiel": 463,
      "oh": 464,
      "atur": 465,
      "gew": 466,
      "sagen": 467,
      "dern": 468,
      "stellen": 469,
      "schie": 470,
      "keine": 471,
      "ul": 472,
      "ktion": 473,
      "stand": 474,
      "leich": 475,
      "ast": 476,
      "ill": 477,
      "end": 478,
      "leicht": 479,
      "gehen": 480,
      "ide": 481,
      "leute": 482,
      "weg": 483,
      "dr": 484,
      "stu": 485,
      "selbst": 486,
      "arbei": 487,
      "weiter": 488,
      "konnte": 489,
      "kam": 490,
      "fan": 491,
      "cht": 492,
      "geh": 493,
      "ingen": 494,
      "wurden": 495,
      "soll": 496,
      "prob": 497,
      "ug": 498,
      "ichtig": 499,
      "denn": 500,
      "mussen": 501,
      "andere": 502,
      "mog": 503,
      "oren": 504,
      "gleich": 505,
      "chn": 506,
      "halten": 507,
      "diesem": 508,
      "hn": 509,
      "fall": 510,
      "gab": 511,
      "wieder": 512,
      "glau": 513,
      "tel": 514,
      "unden": 515,
      "ell": 516,
      "diesen": 517,
      "sagte": 518,
      "nie": 519,
      "alles": 520,
      "dinge": 521,
      "olog": 522,
      "ment": 523,
      "fun": 524,
      "sei": 525,
      "jahren": 526,
      "fol": 527,
      "ex": 528,
      "kin": 529,
      "ater": 530,
      "net": 531,
      "bo": 532,
      "gut": 533,
      "ho": 534,
      "ßen": 535,
      "erst": 536,
      "det": 537,
      "geben": 538,
      "itat": 539,
      "wor": 540,
      "proble": 541,
      "weise": 542,
      "spr": 543,
      "denken": 544,
      "nis": 545,
      "geht": 546,
      "brauch": 547,
      "anderen": 548,
      "nehmen": 549,
      "qu": 550,
      "zur": 551,
      "iz": 552,
      "gegen": 553,
      "natur": 554,
      "iger": 555,
      "damit": 556,
      "geschich": 557,
      "ert": 558,
      "alt": 559,
      "form": 560,
      "stehen": 561,
      "ionen": 562,
      "zusam": 563,
      "pa": 564,
      "gar": 565,
      "ok": 566,
      "zusammen": 567,
      "heraus": 568,
      "ja": 569,
      "lei": 570,
      "finden": 571,
      "arb": 572,
      "vielleicht": 573,
      "genau": 574,
      "pt": 575,
      "land": 576,
      "kun": 577,
      "aum": 578,
      "wick": 579,
      "moch": 580,
      "zent": 581,
      "ick": 582,
      "sol": 583,
      "hatten": 584,
      "na": 585,
      "pf": 586,
      "stim": 587,
      "aft": 588,
      "los": 589,
      "schn": 590,
      "mann": 591,
      "versuch": 592,
      "fre": 593,
      "techn": 594,
      "entwick": 595,
      "nah": 596,
      "mill": 597,
      "tatsach": 598,
      "pe": 599,
      "pl": 600,
      "del": 601,
      "akt": 602,
      "kor": 603,
      "jahre": 604,
      "bild": 605,
      "uten": 606,
      "ale": 607,
      "moglich": 608,
      "zuruck": 609,
      "zei": 610,
      "zi": 611,
      "beg": 612,
      "ak": 613,
      "mut": 614,
      "pass": 615,
      "zel": 616,
      "gend": 617,
      "reich": 618,
      "ganz": 619,
      "mei": 620,
      "wol": 621,
      "stell": 622,
      "muss": 623,
      "lassen": 624,
      "utzen": 625,
      "heute": 626,
      "arbeit": 627,
      "hau": 628,
      "mar": 629,
      "atz": 630,
      "syste": 631,
      "acht": 632,
      "to": 633,
      "besser": 634,
      "letz": 635,
      "ate": 636,
      "warum": 637,
      "schr": 638,
      "vol": 639,
      "tro": 640,
      "kinder": 641,
      "drei": 642,
      "mochte": 643,
      "tag": 644,
      "igkeit": 645,
      "dort": 646,
      "einige": 647,
      "ph": 648,
      "kur": 649,
      "doch": 650,
      "denen": 651,
      "lin": 652,
      "halb": 653,
      "ank": 654,
      "ku": 655,
      "konnten": 656,
      "lang": 657,
      "geschichte": 658,
      "wasser": 659,
      "wach": 660,
      "sicher": 661,
      "besch": 662,
      "ationen": 663,
      "rechen": 664,
      "ware": 665,
      "kommt": 666,
      "mensch": 667,
      "pu": 668,
      "davon": 669,
      "voll": 670,
      "tre": 671,
      "tatsachlich": 672,
      "halt": 673,
      "bede": 674,
      "hand": 675,
      "wichtig": 676,
      "tern": 677,
      "verander": 678,
      "schein": 679,
      "uck": 680,
      "lau": 681,
      "alen": 682,
      "stad": 683,
      "such": 684,
      "paar": 685,
      "will": 686,
      "mon": 687,
      "stat": 688,
      "ierte": 689,
      "uss": 690,
      "wort": 691,
      "agt": 692,
      "ade": 693,
      "eln": 694,
      "000": 695,
      "min": 696,
      "reg": 697,
      "star": 698,
      "schu": 699,
      "bi": 700,
      "allen": 701,
      "esen": 702,
      "..": 703,
      "wollen": 704,
      "spie": 705,
      "richt": 706,
      "weiß": 707,
      "ihn": 708,
      "person": 709,
      "meiner": 710,
      "su": 711,
      "problem": 712,
      "bringen": 713,
      "pen": 714,
      "unge": 715,
      "kre": 716,
      "buch": 717,
      "lauf": 718,
      "daruber": 719,
      "ika": 720,
      "funktion": 721,
      "nor": 722,
      "mand": 723,
      "ologie": 724,
      "pol": 725,
      "mu": 726,
      "achte": 727,
      "cken": 728,
      "gemein": 729,
      "eiten": 730,
      "druck": 731,
      "beispiel": 732,
      "itt": 733,
      "wischen": 734,
      "jeder": 735,
      "frage": 736,
      "woll": 737,
      "set": 738,
      "ihren": 739,
      "irn": 740,
      "werde": 741,
      "system": 742,
      "sieht": 743,
      "zwischen": 744,
      "betr": 745,
      "vielen": 746,
      "essen": 747,
      "daten": 748,
      "sondern": 749,
      "erzah": 750,
      "große": 751,
      "seine": 752,
      "wa": 753,
      "irgend": 754,
      "utz": 755,
      "chin": 756,
      "wohl": 757,
      "ahn": 758,
      "wus": 759,
      "?\"": 760,
      "wissenschaft": 761,
      "klar": 762,
      "plan": 763,
      "pun": 764,
      "rie": 765,
      "schei": 766,
      "ang": 767,
      "kte": 768,
      "20": 769,
      "haus": 770,
      "legen": 771,
      "neue": 772,
      "spe": 773,
      "dazu": 774,
      "let": 775,
      "iff": 776,
      "wahrend": 777,
      "stellt": 778,
      "kein": 779,
      "lebens": 780,
      "ko": 781,
      "unserer": 782,
      "interess": 783,
      "daf": 784,
      "ersten": 785,
      "naturlich": 786,
      "sogar": 787,
      "seit": 788,
      "hund": 789,
      "sicht": 790,
      "ange": 791,
      "em": 792,
      "produ": 793,
      "dien": 794,
      "vom": 795,
      "com": 796,
      "arbeiten": 797,
      "denke": 798,
      "sprechen": 799,
      "nichts": 800,
      "ehen": 801,
      "verb": 802,
      "kop": 803,
      "raum": 804,
      "19": 805,
      "gie": 806,
      "the": 807,
      "amm": 808,
      "lu": 809,
      "anz": 810,
      "achten": 811,
      "einmal": 812,
      "ive": 813,
      "vier": 814,
      "co": 815,
      "gemacht": 816,
      "gerade": 817,
      "ohne": 818,
      "mat": 819,
      "sa": 820,
      "wegen": 821,
      "glaube": 822,
      "ihrer": 823,
      "inner": 824,
      "ende": 825,
      "frauen": 826,
      "uni": 827,
      "fer": 828,
      "hoch": 829,
      "kennen": 830,
      "letzten": 831,
      "bau": 832,
      "kauf": 833,
      "sprach": 834,
      "ins": 835,
      "ele": 836,
      "verschie": 837,
      "gehirn": 838,
      "dafur": 839,
      "mittel": 840,
      "ign": 841,
      "recht": 842,
      "fragen": 843,
      "zeigen": 844,
      "ierung": 845,
      "weit": 846,
      "innen": 847,
      "ce": 848,
      "10": 849,
      "ker": 850,
      "auß": 851,
      "keiten": 852,
      "verstehen": 853,
      "wirt": 854,
      "prozent": 855,
      "lung": 856,
      "gefu": 857,
      "hel": 858,
      "zeu": 859,
      "steht": 860,
      "erste": 861,
      "kunst": 862,
      "licher": 863,
      "ener": 864,
      "meisten": 865,
      "sit": 866,
      "elt": 867,
      "amer": 868,
      "meinen": 869,
      "licht": 870,
      "ys": 871,
      "passiert": 872,
      "rup": 873,
      "fern": 874,
      "wohn": 875,
      "etwa": 876,
      "millionen": 877,
      "eigent": 878,
      "wirtschaft": 879,
      "par": 880,
      "organ": 881,
      "zin": 882,
      "dank": 883,
      "satz": 884,
      "dig": 885,
      "gef": 886,
      "ikan": 887,
      "ganze": 888,
      "daran": 889,
      "schaffen": 890,
      "seite": 891,
      "inform": 892,
      "ip": 893,
      "zeich": 894,
      "bel": 895,
      "unde": 896,
      "welche": 897,
      "fru": 898,
      "sollte": 899,
      "ha": 900,
      "ischer": 901,
      "gest": 902,
      "mlich": 903,
      "dab": 904,
      "idee": 905,
      "mor": 906,
      "punkt": 907,
      "kar": 908,
      "met": 909,
      "korper": 910,
      "komp": 911,
      "danke": 912,
      "sollten": 913,
      "dabei": 914,
      "tau": 915,
      "nt": 916,
      "ging": 917,
      "gesehen": 918,
      "geld": 919,
      "fel": 920,
      "wert": 921,
      "außer": 922,
      "frei": 923,
      "gluck": 924,
      "hol": 925,
      "bereit": 926,
      "andern": 927,
      "gang": 928,
      "schauen": 929,
      "asst": 930,
      "bekommen": 931,
      "fah": 932,
      "kunft": 933,
      "schlie": 934,
      "50": 935,
      "fort": 936,
      "jekt": 937,
      "ßt": 938,
      "ay": 939,
      "sagt": 940,
      "stadt": 941,
      "einander": 942,
      "unterschie": 943,
      "under": 944,
      "iere": 945,
      "offent": 946,
      "har": 947,
      "wah": 948,
      "offen": 949,
      "alter": 950,
      "meinem": 951,
      "hor": 952,
      "wan": 953,
      "wollte": 954,
      "fil": 955,
      "haupt": 956,
      "compu": 957,
      "einz": 958,
      "darauf": 959,
      "stan": 960,
      "fangen": 961,
      "fahren": 962,
      "krie": 963,
      "grup": 964,
      "technologie": 965,
      "bauen": 966,
      "zahl": 967,
      "mas": 968,
      "ziemlich": 969,
      "großen": 970,
      "bere": 971,
      "hil": 972,
      "po": 973,
      "wahrschein": 974,
      "jemand": 975,
      "statt": 976,
      "doll": 977,
      "kind": 978,
      "ic": 979,
      "zeigt": 980,
      "sozi": 981,
      "univers": 982,
      "dollar": 983,
      "setzen": 984,
      "utet": 985,
      "bur": 986,
      "ner": 987,
      "eben": 988,
      "sta": 989,
      "sache": 990,
      "lernen": 991,
      "fest": 992,
      "stru": 993,
      "energie": 994,
      "mutter": 995,
      "schwi": 996,
      "bs": 997,
      "nam": 998,
      "schrei": 999,
      "lehr": 1000,
      "nung": 1001,
      "zentr": 1002,
      "werk": 1003,
      "glauben": 1004,
      "afr": 1005,
      "entschei": 1006,
      "enz": 1007,
      "computer": 1008,
      "antwort": 1009,
      "ka": 1010,
      "design": 1011,
      "onder": 1012,
      "eigentlich": 1013,
      "laub": 1014,
      "ktur": 1015,
      "brauchen": 1016,
      "verwen": 1017,
      "zeug": 1018,
      "lange": 1019,
      "weniger": 1020,
      "rech": 1021,
      "amil": 1022,
      "ziel": 1023,
      "wahrscheinlich": 1024,
      "namen": 1025,
      "fuhren": 1026,
      "schle": 1027,
      "bestim": 1028,
      "bal": 1029,
      "win": 1030,
      "ve": 1031,
      "wunder": 1032,
      "kleinen": 1033,
      "besonder": 1034,
      "forsch": 1035,
      "elle": 1036,
      "krank": 1037,
      "famil": 1038,
      "genom": 1039,
      "pat": 1040,
      "großer": 1041,
      "res": 1042,
      "folgen": 1043,
      "zukunft": 1044,
      "itte": 1045,
      "igt": 1046,
      "jeden": 1047,
      "dachte": 1048,
      "ckt": 1049,
      "\".": 1050,
      "horen": 1051,
      "ffen": 1052,
      "bedeutet": 1053,
      "la": 1054,
      "funf": 1055,
      "ierten": 1056,
      "unseren": 1057,
      "gesell": 1058,
      "frau": 1059,
      "kleine": 1060,
      "jedes": 1061,
      "tete": 1062,
      "ganzen": 1063,
      "verl": 1064,
      "folg": 1065,
      "gesund": 1066,
      "nutzen": 1067,
      "organis": 1068,
      "ihm": 1069,
      "polit": 1070,
      "rich": 1071,
      "alten": 1072,
      "ativ": 1073,
      "mot": 1074,
      "menge": 1075,
      "ihrem": 1076,
      "gefuhl": 1077,
      "mag": 1078,
      "id": 1079,
      "schul": 1080,
      "trag": 1081,
      "spielen": 1082,
      "ta": 1083,
      "flie": 1084,
      "beim": 1085,
      "fang": 1086,
      "zer": 1087,
      "gute": 1088,
      "unterschied": 1089,
      "hinter": 1090,
      "schwer": 1091,
      "forder": 1092,
      "wenig": 1093,
      "woch": 1094,
      "stoff": 1095,
      "reichen": 1096,
      "moment": 1097,
      "kraft": 1098,
      "versuchen": 1099,
      "verbr": 1100,
      "fuhrt": 1101,
      "fuh": 1102,
      "ial": 1103,
      "tan": 1104,
      "maß": 1105,
      "ogen": 1106,
      "spater": 1107,
      "200": 1108,
      "gal": 1109,
      "sah": 1110,
      "beru": 1111,
      "uer": 1112,
      "\",": 1113,
      "mals": 1114,
      "ition": 1115,
      "schnell": 1116,
      "fast": 1117,
      "ingt": 1118,
      "sor": 1119,
      "ellen": 1120,
      "gesagt": 1121,
      "augen": 1122,
      "utzt": 1123,
      "hundert": 1124,
      "nein": 1125,
      "mel": 1126,
      "unglaub": 1127,
      "schaften": 1128,
      "io": 1129,
      "kult": 1130,
      "aller": 1131,
      "beweg": 1132,
      "blick": 1133,
      "keinen": 1134,
      "teilen": 1135,
      "fot": 1136,
      "stellung": 1137,
      "tie": 1138,
      "anders": 1139,
      "dung": 1140,
      "ra": 1141,
      "dent": 1142,
      "nation": 1143,
      "anzu": 1144,
      "tran": 1145,
      "iar": 1146,
      "musik": 1147,
      "dich": 1148,
      "indem": 1149,
      "oft": 1150,
      "versch": 1151,
      "bru": 1152,
      "flach": 1153,
      "stuck": 1154,
      "entde": 1155,
      "richtig": 1156,
      "dah": 1157,
      "jede": 1158,
      "jen": 1159,
      "ution": 1160,
      "ott": 1161,
      "zehn": 1162,
      "30": 1163,
      "kten": 1164,
      "mater": 1165,
      "blei": 1166,
      "alitat": 1167,
      "ding": 1168,
      "reis": 1169,
      "gesundheit": 1170,
      "ris": 1171,
      "arten": 1172,
      "unternehmen": 1173,
      "...": 1174,
      "dre": 1175,
      "probleme": 1176,
      "iges": 1177,
      "hung": 1178,
      "genommen": 1179,
      "ia": 1180,
      "kultur": 1181,
      "sau": 1182,
      "sinn": 1183,
      "erde": 1184,
      "heißt": 1185,
      "ismus": 1186,
      "fal": 1187,
      "funktioniert": 1188,
      "bewus": 1189,
      "bu": 1190,
      "ober": 1191,
      "grunde": 1192,
      "zellen": 1193,
      "falls": 1194,
      "vide": 1195,
      "eigenen": 1196,
      "milliar": 1197,
      "netz": 1198,
      "ts": 1199,
      "no": 1200,
      "normal": 1201,
      "schule": 1202,
      "yp": 1203,
      "liebe": 1204,
      "lichkeit": 1205,
      "helfen": 1206,
      "projekt": 1207,
      "deln": 1208,
      "mente": 1209,
      "gestellt": 1210,
      "eur": 1211,
      "kurz": 1212,
      "verhalten": 1213,
      "einzel": 1214,
      "verschieden": 1215,
      "gramm": 1216,
      "medi": 1217,
      "gener": 1218,
      "internet": 1219,
      "amerikan": 1220,
      "exper": 1221,
      "ton": 1222,
      "schwier": 1223,
      "fluss": 1224,
      "erzahlen": 1225,
      "aß": 1226,
      "lage": 1227,
      "ren": 1228,
      "zahlen": 1229,
      "kopf": 1230,
      "aktiv": 1231,
      "herum": 1232,
      "gesellschaft": 1233,
      "go": 1234,
      "hoff": 1235,
      "tage": 1236,
      "liches": 1237,
      "plane": 1238,
      "manch": 1239,
      "lex": 1240,
      "bevor": 1241,
      "kontro": 1242,
      "komm": 1243,
      "ca": 1244,
      "ziehen": 1245,
      "gu": 1246,
      "tausen": 1247,
      "seiner": 1248,
      "musste": 1249,
      "kol": 1250,
      "sto": 1251,
      "glo": 1252,
      "gesam": 1253,
      "maschin": 1254,
      "bas": 1255,
      "100": 1256,
      "do": 1257,
      "isches": 1258,
      "wachsen": 1259,
      "bewusst": 1260,
      "erfolg": 1261,
      "eff": 1262,
      "gebau": 1263,
      "mik": 1264,
      "tem": 1265,
      "nachsten": 1266,
      "nisse": 1267,
      "genug": 1268,
      "ungefahr": 1269,
      "neuen": 1270,
      "lern": 1271,
      "dro": 1272,
      "gangen": 1273,
      "elekt": 1274,
      "braucht": 1275,
      "usa": 1276,
      "suchen": 1277,
      "mad": 1278,
      "stab": 1279,
      "ite": 1280,
      "far": 1281,
      "darum": 1282,
      "zug": 1283,
      "losen": 1284,
      "ted": 1285,
      "heiten": 1286,
      "ord": 1287,
      "isten": 1288,
      "unserem": 1289,
      "rat": 1290,
      "manchmal": 1291,
      "lle": 1292,
      "chs": 1293,
      "volution": 1294,
      "oben": 1295,
      "ausge": 1296,
      "tragen": 1297,
      "itten": 1298,
      "reden": 1299,
      "not": 1300,
      "wal": 1301,
      "uberall": 1302,
      "gruppe": 1303,
      "sk": 1304,
      "eh": 1305,
      "vater": 1306,
      "erfahr": 1307,
      "begann": 1308,
      "gehort": 1309,
      "dau": 1310,
      "bereich": 1311,
      "hang": 1312,
      "erwar": 1313,
      "schau": 1314,
      "verandern": 1315,
      "blo": 1316,
      "okay": 1317,
      "ieb": 1318,
      "gott": 1319,
      "dessen": 1320,
      "liegt": 1321,
      "pras": 1322,
      "regel": 1323,
      "griff": 1324,
      "krieg": 1325,
      "new": 1326,
      "frag": 1327,
      "zess": 1328,
      "arch": 1329,
      "freund": 1330,
      "sche": 1331,
      "manner": 1332,
      "ideen": 1333,
      "gleichen": 1334,
      "planeten": 1335,
      "nutz": 1336,
      "informationen": 1337,
      "ks": 1338,
      "ras": 1339,
      "bekann": 1340,
      "sage": 1341,
      "angst": 1342,
      "kel": 1343,
      "leuten": 1344,
      "hren": 1345,
      "are": 1346,
      "euch": 1347,
      "ret": 1348,
      "affen": 1349,
      "ums": 1350,
      "bisschen": 1351,
      "gewalt": 1352,
      "hause": 1353,
      "kosten": 1354,
      "verstand": 1355,
      "rel": 1356,
      "deshalb": 1357,
      "aktion": 1358,
      "seinen": 1359,
      "kap": 1360,
      "afrika": 1361,
      "schnitt": 1362,
      "fir": 1363,
      "großart": 1364,
      "erkennen": 1365,
      "feh": 1366,
      "mis": 1367,
      "sagten": 1368,
      "mode": 1369,
      "gabe": 1370,
      "schließ": 1371,
      "sprache": 1372,
      "wand": 1373,
      "igkeiten": 1374,
      "part": 1375,
      "flug": 1376,
      "madchen": 1377,
      "welch": 1378,
      "lasst": 1379,
      "nennen": 1380,
      "auto": 1381,
      "geschichten": 1382,
      "standen": 1383,
      "fte": 1384,
      "film": 1385,
      "kamen": 1386,
      "chan": 1387,
      "meer": 1388,
      "findet": 1389,
      "leb": 1390,
      "graf": 1391,
      "hande": 1392,
      "milliarden": 1393,
      "krebs": 1394,
      "phys": 1395,
      "rad": 1396,
      "vorher": 1397,
      "fand": 1398,
      "entwickelt": 1399,
      "iker": 1400,
      "bilder": 1401,
      "ard": 1402,
      "ven": 1403,
      "sachen": 1404,
      "besonders": 1405,
      "video": 1406,
      "cke": 1407,
      "th": 1408,
      "inst": 1409,
      "dun": 1410,
      "machte": 1411,
      "ienten": 1412,
      "erklar": 1413,
      "stunden": 1414,
      "anderes": 1415,
      "teile": 1416,
      "treffen": 1417,
      "15": 1418,
      "bereits": 1419,
      "arbeitet": 1420,
      "fa": 1421,
      "bildung": 1422,
      "schritt": 1423,
      "gesicht": 1424,
      "sechs": 1425,
      "tur": 1426,
      "außen": 1427,
      "zept": 1428,
      "kan": 1429,
      "zun": 1430,
      "darin": 1431,
      "minuten": 1432,
      "erreichen": 1433,
      "anken": 1434,
      "stelle": 1435,
      "familie": 1436,
      "kaufen": 1437,
      "richten": 1438,
      "frie": 1439,
      "foto": 1440,
      "hu": 1441,
      "wesen": 1442,
      "markt": 1443,
      "vis": 1444,
      "beob": 1445,
      "struktur": 1446,
      "aun": 1447,
      "gebie": 1448,
      "eltern": 1449,
      "bezie": 1450,
      "inte": 1451,
      "vertr": 1452,
      "lander": 1453,
      "vir": 1454,
      "verbind": 1455,
      "asse": 1456,
      "pos": 1457,
      "benutzen": 1458,
      "medizin": 1459,
      "arm": 1460,
      "programm": 1461,
      "namens": 1462,
      "verschiedene": 1463,
      "eins": 1464,
      "test": 1465,
      "antwor": 1466,
      "mil": 1467,
      "robo": 1468,
      "tex": 1469,
      "merk": 1470,
      "if": 1471,
      "auszu": 1472,
      "herz": 1473,
      "gren": 1474,
      "hilfe": 1475,
      "fallen": 1476,
      "schwar": 1477,
      "langen": 1478,
      "erinn": 1479,
      "weis": 1480,
      "dire": 1481,
      "wachst": 1482,
      "ustr": 1483,
      "luft": 1484,
      "indien": 1485,
      "wahl": 1486,
      "eist": 1487,
      "deut": 1488,
      "besten": 1489,
      "tu": 1490,
      "chte": 1491,
      "dis": 1492,
      "fert": 1493,
      "leg": 1494,
      "beein": 1495,
      "gerne": 1496,
      "seinem": 1497,
      "publ": 1498,
      "ergeb": 1499,
      "onen": 1500,
      "einigen": 1501,
      "ome": 1502,
      "alis": 1503,
      "schreiben": 1504,
      "modell": 1505,
      "laufen": 1506,
      "stro": 1507,
      "komplex": 1508,
      "patienten": 1509,
      "experi": 1510,
      "heut": 1511,
      "bewegen": 1512,
      "spiele": 1513,
      "geset": 1514,
      "entwickeln": 1515,
      "setz": 1516,
      "bestimm": 1517,
      "ov": 1518,
      "wind": 1519,
      "nahmen": 1520,
      "regierung": 1521,
      "pflan": 1522,
      "dir": 1523,
      "gefunden": 1524,
      "demo": 1525,
      "irgendwie": 1526,
      "grei": 1527,
      "akter": 1528,
      "rot": 1529,
      "niemand": 1530,
      "platz": 1531,
      "bald": 1532,
      "bare": 1533,
      "beginn": 1534,
      "sex": 1535,
      "stre": 1536,
      "lossen": 1537,
      "moglichkeit": 1538,
      "material": 1539,
      "innerhalb": 1540,
      "wis": 1541,
      "ident": 1542,
      "krat": 1543,
      "jedem": 1544,
      "ucht": 1545,
      "att": 1546,
      "nim": 1547,
      "lebt": 1548,
      "neur": 1549,
      "mussten": 1550,
      "exist": 1551,
      "ries": 1552,
      "ift": 1553,
      "gebaut": 1554,
      "gleiche": 1555,
      "kal": 1556,
      "volker": 1557,
      "kat": 1558,
      "kn": 1559,
      "psy": 1560,
      "zeugen": 1561,
      "einzige": 1562,
      "reise": 1563,
      "samm": 1564,
      "daher": 1565,
      "schließlich": 1566,
      "echt": 1567,
      "gewohn": 1568,
      "jahrhundert": 1569,
      "gebaude": 1570,
      "vorstellen": 1571,
      "genann": 1572,
      "ett": 1573,
      "ager": 1574,
      "reicht": 1575,
      "roboter": 1576,
      "gebr": 1577,
      "erhalten": 1578,
      "verein": 1579,
      "rest": 1580,
      "tra": 1581,
      "elektr": 1582,
      "ium": 1583,
      "tier": 1584,
      "boden": 1585,
      "industr": 1586,
      "opa": 1587,
      "danken": 1588,
      "flache": 1589,
      "gaben": 1590,
      "prozess": 1591,
      "obwohl": 1592,
      "eig": 1593,
      "ged": 1594,
      "jeman": 1595,
      "fuhlen": 1596,
      "ju": 1597,
      "moglichkeiten": 1598,
      "namlich": 1599,
      "lab": 1600,
      "ital": 1601,
      "kommun": 1602,
      "bitte": 1603,
      "umwelt": 1604,
      "ian": 1605,
      "trei": 1606,
      "interessan": 1607,
      "40": 1608,
      "bie": 1609,
      "bab": 1610,
      "bemer": 1611,
      "aufzu": 1612,
      "eren": 1613,
      "mikro": 1614,
      "kamp": 1615,
      "verschiedenen": 1616,
      "beiden": 1617,
      "unterst": 1618,
      "ase": 1619,
      "tiere": 1620,
      "geschaft": 1621,
      "sicherheit": 1622,
      "beginnen": 1623,
      "schw": 1624,
      "aur": 1625,
      "teten": 1626,
      "psych": 1627,
      "kunden": 1628,
      "iken": 1629,
      "baren": 1630,
      "wollten": 1631,
      "kennt": 1632,
      "mathe": 1633,
      "landern": 1634,
      "gefahr": 1635,
      "damals": 1636,
      "plo": 1637,
      "esse": 1638,
      "leist": 1639,
      "heim": 1640,
      "nahr": 1641,
      "yor": 1642,
      "erf": 1643,
      "erinner": 1644,
      "anfang": 1645,
      "one": 1646,
      "med": 1647,
      "verandert": 1648,
      "lesen": 1649,
      "vo": 1650,
      "morgen": 1651,
      "eher": 1652,
      "unglaublich": 1653,
      "verbesser": 1654,
      "rau": 1655,
      "aren": 1656,
      "lehrer": 1657,
      "verwenden": 1658,
      "kindern": 1659,
      "menschlichen": 1660,
      "hiel": 1661,
      "entfern": 1662,
      "zieren": 1663,
      "ehmen": 1664,
      "dungen": 1665,
      "bewegung": 1666,
      "hauf": 1667,
      "eller": 1668,
      "interessant": 1669,
      "sym": 1670,
      "les": 1671,
      "ktiv": 1672,
      "bringt": 1673,
      "entwicklung": 1674,
      "trotz": 1675,
      "fliegen": 1676,
      "60": 1677,
      "publik": 1678,
      "fas": 1679,
      "engl": 1680,
      "technolog": 1681,
      "haft": 1682,
      "ere": 1683,
      "fahigkeit": 1684,
      "lieben": 1685,
      "18": 1686,
      "sterben": 1687,
      "lach": 1688,
      "schwe": 1689,
      "china": 1690,
      "tages": 1691,
      "pap": 1692,
      "getan": 1693,
      "standig": 1694,
      "stellte": 1695,
      "li": 1696,
      "vest": 1697,
      "direkt": 1698,
      "aden": 1699,
      "gegeben": 1700,
      "kehr": 1701,
      "losung": 1702,
      "falsch": 1703,
      "jung": 1704,
      "invest": 1705,
      "beste": 1706,
      "wusste": 1707,
      "hy": 1708,
      "uberhaupt": 1709,
      "wann": 1710,
      "staat": 1711,
      "langer": 1712,
      "tut": 1713,
      "cen": 1714,
      "schick": 1715,
      "muster": 1716,
      "gebracht": 1717,
      "kont": 1718,
      "san": 1719,
      "formen": 1720,
      "erweise": 1721,
      "kleiner": 1722,
      "ehr": 1723,
      "fisch": 1724,
      "neben": 1725,
      "richtung": 1726,
      "forschung": 1727,
      "ba": 1728,
      "umm": 1729,
      "fanden": 1730,
      "erstaun": 1731,
      "omen": 1732,
      "zwar": 1733,
      "denten": 1734,
      "uren": 1735,
      "mogen": 1736,
      "solche": 1737,
      "klim": 1738,
      "innov": 1739,
      "scheint": 1740,
      "bleiben": 1741,
      "zustellen": 1742,
      "nimmt": 1743,
      "wochen": 1744,
      "nahe": 1745,
      "ations": 1746,
      "finanz": 1747,
      "letzte": 1748,
      "wes": 1749,
      "allem": 1750,
      "herausforder": 1751,
      "staaten": 1752,
      "tief": 1753,
      "llen": 1754,
      "prof": 1755,
      "situ": 1756,
      "spir": 1757,
      "absol": 1758,
      "igten": 1759,
      "menschliche": 1760,
      "unten": 1761,
      "leiden": 1762,
      "wissenschaftler": 1763,
      "team": 1764,
      "versucht": 1765,
      "universum": 1766,
      "ivi": 1767,
      "haf": 1768,
      "wider": 1769,
      "treten": 1770,
      "erfahrung": 1771,
      "deren": 1772,
      "herr": 1773,
      "zweiten": 1774,
      "stark": 1775,
      "gol": 1776,
      "junge": 1777,
      "bevolker": 1778,
      "anderer": 1779,
      "gewor": 1780,
      "effe": 1781,
      "mathemat": 1782,
      "tele": 1783,
      "jedoch": 1784,
      "schlag": 1785,
      "nahm": 1786,
      "orie": 1787,
      "freunde": 1788,
      "gemeinschaft": 1789,
      "lett": 1790,
      "bat": 1791,
      "nachste": 1792,
      "koh": 1793,
      "bet": 1794,
      "bedeut": 1795,
      "nachdem": 1796,
      "flus": 1797,
      "80": 1798,
      "handeln": 1799,
      "prin": 1800,
      "gemeinsam": 1801,
      "meines": 1802,
      "moglichen": 1803,
      "burger": 1804,
      "sin": 1805,
      "fuß": 1806,
      "kranken": 1807,
      "demokrat": 1808,
      "tot": 1809,
      "schlus": 1810,
      "zogen": 1811,
      "klein": 1812,
      "weisen": 1813,
      "weitere": 1814,
      "tim": 1815,
      "dingen": 1816,
      "verfu": 1817,
      "betrachten": 1818,
      "sion": 1819,
      "line": 1820,
      "letzt": 1821,
      "gedanken": 1822,
      "eitet": 1823,
      "12": 1824,
      "ersch": 1825,
      "eis": 1826,
      "rieben": 1827,
      "dor": 1828,
      "genauso": 1829,
      "wun": 1830,
      "erlau": 1831,
      "ine": 1832,
      "bill": 1833,
      "glob": 1834,
      "oper": 1835,
      "uberras": 1836,
      "sieben": 1837,
      "cker": 1838,
      "maschine": 1839,
      "erinnern": 1840,
      "feld": 1841,
      "wandel": 1842,
      "archite": 1843,
      "ative": 1844,
      "jo": 1845,
      "schat": 1846,
      "job": 1847,
      "chten": 1848,
      "ummer": 1849,
      "jungen": 1850,
      "typ": 1851,
      "preis": 1852,
      "wicht": 1853,
      "geist": 1854,
      "hervor": 1855,
      "schluss": 1856,
      "bein": 1857,
      "tauch": 1858,
      "imm": 1859,
      "plotz": 1860,
      "entscheiden": 1861,
      "publikum": 1862,
      "gesetzt": 1863,
      "europa": 1864,
      "anal": 1865,
      "ont": 1866,
      "blut": 1867,
      "iziert": 1868,
      "aßen": 1869,
      "ball": 1870,
      "lungs": 1871,
      "danach": 1872,
      "metho": 1873,
      "char": 1874,
      "mitte": 1875,
      "manche": 1876,
      "sport": 1877,
      "eigene": 1878,
      "nacht": 1879,
      "grun": 1880,
      "app": 1881,
      "frieden": 1882,
      "erte": 1883,
      "regen": 1884,
      "sc": 1885,
      "york": 1886,
      "konzentr": 1887,
      "besit": 1888,
      "hohe": 1889,
      "worden": 1890,
      "langsam": 1891,
      "karte": 1892,
      "fragte": 1893,
      "ubr": 1894,
      "imp": 1895,
      "spro": 1896,
      "kamer": 1897,
      "eng": 1898,
      "vollig": 1899,
      "gefuhrt": 1900,
      "zuerst": 1901,
      "zip": 1902,
      "thema": 1903,
      "stie": 1904,
      "monate": 1905,
      "traum": 1906,
      "zean": 1907,
      "schlecht": 1908,
      "einzu": 1909,
      "labor": 1910,
      "dy": 1911,
      "izieren": 1912,
      "kampf": 1913,
      "erd": 1914,
      "verantwort": 1915,
      "flu": 1916,
      "technik": 1917,
      "sichtlich": 1918,
      "strom": 1919,
      "ient": 1920,
      "defin": 1921,
      "handelt": 1922,
      "nu": 1923,
      "zweite": 1924,
      "sollen": 1925,
      "lungen": 1926,
      "ieben": 1927,
      "woche": 1928,
      "zugang": 1929,
      "verbunden": 1930,
      "prasent": 1931,
      "welches": 1932,
      "falt": 1933,
      "ozean": 1934,
      "schutz": 1935,
      "liegen": 1936,
      "autos": 1937,
      "funktionieren": 1938,
      "gelern": 1939,
      "zerst": 1940,
      "fant": 1941,
      "hast": 1942,
      "besteht": 1943,
      "umgeb": 1944,
      "tod": 1945,
      "gern": 1946,
      "zw": 1947,
      "arz": 1948,
      "sour": 1949,
      "wech": 1950,
      "großte": 1951,
      "stimmt": 1952,
      "achtet": 1953,
      "systeme": 1954,
      "plotzlich": 1955,
      "guten": 1956,
      "iver": 1957,
      "werfen": 1958,
      "aße": 1959,
      "familien": 1960,
      "ban": 1961,
      "fragt": 1962,
      "zuvor": 1963,
      "aussehen": 1964,
      "selben": 1965,
      "großten": 1966,
      "zeuge": 1967,
      "medika": 1968,
      "hoher": 1969,
      "gesundheits": 1970,
      "kontroll": 1971,
      "mole": 1972,
      "studenten": 1973,
      "pflanzen": 1974,
      "relig": 1975,
      "kil": 1976,
      "mochten": 1977,
      "greifen": 1978,
      "klima": 1979,
      "bot": 1980,
      "weder": 1981,
      "schwierig": 1982,
      "sphar": 1983,
      "andert": 1984,
      "gruppen": 1985,
      "tausende": 1986,
      "legt": 1987,
      "sehe": 1988,
      "alte": 1989,
      "agieren": 1990,
      "egal": 1991,
      "mung": 1992,
      "neues": 1993,
      "ifft": 1994,
      "benot": 1995,
      "beschaft": 1996,
      "medien": 1997,
      "extre": 1998,
      "instit": 1999,
      "bekannt": 2000,
      "igung": 2001,
      "soft": 2002,
      "verbindung": 2003,
      "stern": 2004,
      "gerat": 2005,
      "messen": 2006,
      "inde": 2007,
      "seln": 2008,
      "nahme": 2009,
      "bucher": 2010,
      "rechts": 2011,
      "abhang": 2012,
      "daraus": 2013,
      "gelernt": 2014,
      "unseres": 2015,
      "ax": 2016,
      "verkauf": 2017,
      "glucklich": 2018,
      "gedacht": 2019,
      "gegenuber": 2020,
      "krankheit": 2021,
      "lligen": 2022,
      "setzt": 2023,
      "intelligen": 2024,
      "orte": 2025,
      "draußen": 2026,
      "erschaffen": 2027,
      "stein": 2028,
      "entschie": 2029,
      "geboren": 2030,
      "od": 2031,
      "technologien": 2032,
      "bist": 2033,
      "lieb": 2034,
      "durchschnitt": 2035,
      "gewesen": 2036,
      "herauszu": 2037,
      "entdeck": 2038,
      "telef": 2039,
      "dlich": 2040,
      "hig": 2041,
      "stimme": 2042,
      "freu": 2043,
      "gung": 2044,
      "fallt": 2045,
      "kle": 2046,
      "up": 2047,
      "emp": 2048,
      "ed": 2049,
      "lagen": 2050,
      "bung": 2051,
      "verur": 2052,
      "jekte": 2053,
      "super": 2054,
      "90": 2055,
      "sucht": 2056,
      "kunstler": 2057,
      "antworten": 2058,
      "ihres": 2059,
      "gros": 2060,
      "kul": 2061,
      "unbe": 2062,
      "revolution": 2063,
      "meter": 2064,
      "iko": 2065,
      "reihe": 2066,
      "lege": 2067,
      "veroffent": 2068,
      "perfe": 2069,
      "oberflache": 2070,
      "onnen": 2071,
      "gewis": 2072,
      "denkt": 2073,
      "aufgabe": 2074,
      "mark": 2075,
      "stadte": 2076,
      "25": 2077,
      "zeig": 2078,
      "bevolkerung": 2079,
      "aufge": 2080,
      "beide": 2081,
      "prochen": 2082,
      "straße": 2083,
      "sprung": 2084,
      "lust": 2085,
      "holen": 2086,
      "zeige": 2087,
      "passen": 2088,
      "sh": 2089,
      "amp": 2090,
      "trad": 2091,
      "stud": 2092,
      "mache": 2093,
      "experiment": 2094,
      "zimmer": 2095,
      "teilt": 2096,
      "fruher": 2097,
      "beeinflus": 2098,
      "falle": 2099,
      "anfangen": 2100,
      "opp": 2101,
      "sonst": 2102,
      "samkeit": 2103,
      "spekt": 2104,
      "stet": 2105,
      "ans": 2106,
      "ity": 2107,
      "drucken": 2108,
      "laden": 2109,
      "don": 2110,
      "anstatt": 2111,
      "wahrheit": 2112,
      "fehler": 2113,
      "schmer": 2114,
      "ruf": 2115,
      "firma": 2116,
      "verste": 2117,
      "trau": 2118,
      "col": 2119,
      "vergangen": 2120,
      "rolle": 2121,
      "zeitig": 2122,
      "schlaf": 2123,
      "situation": 2124,
      "evolution": 2125,
      "ult": 2126,
      "ings": 2127,
      "studie": 2128,
      "passieren": 2129,
      "straßen": 2130,
      "produkt": 2131,
      "wahlen": 2132,
      "verruck": 2133,
      "bilden": 2134,
      "geworden": 2135,
      "wart": 2136,
      "lam": 2137,
      "stei": 2138,
      "anwen": 2139,
      "erklaren": 2140,
      "posit": 2141,
      "sofort": 2142,
      "allein": 2143,
      "national": 2144,
      "prinzip": 2145,
      "verbin": 2146,
      "nachdenken": 2147,
      "sitzen": 2148,
      "gesetz": 2149,
      "miteinander": 2150,
      "inspir": 2151,
      "spricht": 2152,
      "tatsache": 2153,
      "gingen": 2154,
      "sum": 2155,
      "selt": 2156,
      "rede": 2157,
      "jemals": 2158,
      "bank": 2159,
      "umgebung": 2160,
      "iten": 2161,
      "gesprochen": 2162,
      "schrieb": 2163,
      "kreativ": 2164,
      "sphare": 2165,
      "anzahl": 2166,
      "itaten": 2167,
      "spit": 2168,
      "priv": 2169,
      "soziale": 2170,
      "bro": 2171,
      "bus": 2172,
      "iste": 2173,
      "gessen": 2174,
      "brachte": 2175,
      "kleines": 2176,
      "halfte": 2177,
      "amerika": 2178,
      "enden": 2179,
      "indivi": 2180,
      "folge": 2181,
      "verloren": 2182,
      "traf": 2183,
      "west": 2184,
      "handel": 2185,
      "70": 2186,
      "beginnt": 2187,
      "individu": 2188,
      "gelegen": 2189,
      "worter": 2190,
      "vortrag": 2191,
      "besuch": 2192,
      "arbeits": 2193,
      "vorstellung": 2194,
      "gere": 2195,
      "politik": 2196,
      "vogel": 2197,
      "bekommt": 2198,
      "sonnen": 2199,
      "az": 2200,
      "hnen": 2201,
      "ure": 2202,
      "links": 2203,
      "veranderung": 2204,
      "brit": 2205,
      "fuhl": 2206,
      "weltweit": 2207,
      "versor": 2208,
      "zeugt": 2209,
      "kurze": 2210,
      "moral": 2211,
      "sozial": 2212,
      "gebe": 2213,
      "werte": 2214,
      "seiten": 2215,
      "phil": 2216,
      "lauft": 2217,
      "ix": 2218,
      "aufmerk": 2219,
      "ernst": 2220,
      "ienen": 2221,
      "niemals": 2222,
      "industrie": 2223,
      "scht": 2224,
      "hinein": 2225,
      "glie": 2226,
      "ox": 2227,
      "berg": 2228,
      "rufen": 2229,
      "grap": 2230,
      "taten": 2231,
      "gezeigt": 2232,
      "hinaus": 2233,
      "diag": 2234,
      "schrift": 2235,
      "ergebnis": 2236,
      "zufall": 2237,
      "regier": 2238,
      "schließen": 2239,
      "krankheiten": 2240,
      "hne": 2241,
      "scho": 2242,
      "versuche": 2243,
      "ordnung": 2244,
      "gebiet": 2245,
      "text": 2246,
      "genannt": 2247,
      "baum": 2248,
      "stamm": 2249,
      "geschrieben": 2250,
      "verwendet": 2251,
      "bewe": 2252,
      "nachzu": 2253,
      "machten": 2254,
      "selbe": 2255,
      "grenzen": 2256,
      "11": 2257,
      "toll": 2258,
      "klin": 2259,
      "ror": 2260,
      "schre": 2261,
      "reaktion": 2262,
      "zelle": 2263,
      "erzahl": 2264,
      "anten": 2265,
      "zeiten": 2266,
      "bewer": 2267,
      "bezug": 2268,
      "entfernt": 2269,
      "ty": 2270,
      "ahl": 2271,
      "nachrichten": 2272,
      "ise": 2273,
      "raus": 2274,
      "richtige": 2275,
      "wachstum": 2276,
      "bedeutung": 2277,
      "urt": 2278,
      "gespr": 2279,
      "bestimmt": 2280,
      "bewusstsein": 2281,
      "papier": 2282,
      "uhr": 2283,
      "afte": 2284,
      "blau": 2285,
      "sahen": 2286,
      "komplett": 2287,
      "jemanden": 2288,
      "bekam": 2289,
      "web": 2290,
      "blu": 2291,
      "gewicht": 2292,
      "hungen": 2293,
      "my": 2294,
      "realitat": 2295,
      "fing": 2296,
      "absolut": 2297,
      "vent": 2298,
      "orten": 2299,
      "benutzt": 2300,
      "krit": 2301,
      "hinzu": 2302,
      "beschrei": 2303,
      "wussten": 2304,
      "faszin": 2305,
      "sal": 2306,
      "mitt": 2307,
      "ktor": 2308,
      "entwicklungs": 2309,
      "stau": 2310,
      "arbeiter": 2311,
      "zeichen": 2312,
      "regeln": 2313,
      "dna": 2314,
      "schlagen": 2315,
      "schneller": 2316,
      "hielt": 2317,
      "him": 2318,
      "atze": 2319,
      "kompl": 2320,
      "geschie": 2321,
      ".“": 2322,
      "bakter": 2323,
      "ator": 2324,
      "lag": 2325,
      "poten": 2326,
      "generation": 2327,
      "hoffe": 2328,
      "herausforderung": 2329,
      "kreis": 2330,
      "tol": 2331,
      "online": 2332,
      "istan": 2333,
      "dimen": 2334,
      "troffen": 2335,
      "vertrauen": 2336,
      "arzt": 2337,
      "studien": 2338,
      "voller": 2339,
      "handlung": 2340,
      "spezi": 2341,
      "itel": 2342,
      "rein": 2343,
      "schaut": 2344,
      "halte": 2345,
      "ohn": 2346,
      "muse": 2347,
      "entscheidungen": 2348,
      "emot": 2349,
      "aben": 2350,
      "meinung": 2351,
      "schulen": 2352,
      "finde": 2353,
      "fahigkeiten": 2354,
      "tradition": 2355,
      "chter": 2356,
      "fassen": 2357,
      "erreicht": 2358,
      "linie": 2359,
      "ahnlich": 2360,
      "erfolgreich": 2361,
      "wesent": 2362,
      "sign": 2363,
      "erkennt": 2364,
      "abzu": 2365,
      "information": 2366,
      "car": 2367,
      "ehe": 2368,
      "zutage": 2369,
      "krankenhaus": 2370,
      "las": 2371,
      "loch": 2372,
      "mau": 2373,
      "walt": 2374,
      "gekommen": 2375,
      "testen": 2376,
      "ore": 2377,
      "mechan": 2378,
      "uberleben": 2379,
      "lose": 2380,
      "kontrolle": 2381,
      "trotzdem": 2382,
      "ierend": 2383,
      "ct": 2384,
      "erwachsen": 2385,
      "steigen": 2386,
      "eisen": 2387,
      "fakt": 2388,
      "hie": 2389,
      "of": 2390,
      "chr": 2391,
      "konzept": 2392,
      "darf": 2393,
      "beziehung": 2394,
      "heutzutage": 2395,
      "band": 2396,
      "moder": 2397,
      "entwickel": 2398,
      "dachten": 2399,
      "habt": 2400,
      "iven": 2401,
      "sonne": 2402,
      "prakt": 2403,
      "fuhrung": 2404,
      "gleichzeitig": 2405,
      "monat": 2406,
      "samen": 2407,
      "zunehmen": 2408,
      "ubrigen": 2409,
      "pil": 2410,
      "beding": 2411,
      "stellten": 2412,
      "disk": 2413,
      "stam": 2414,
      "stens": 2415,
      "jahrzehn": 2416,
      "affe": 2417,
      "irgendwo": 2418,
      "theorie": 2419,
      "offensichtlich": 2420,
      "rechte": 2421,
      "spru": 2422,
      "komme": 2423,
      "interessiert": 2424,
      "kern": 2425,
      "ld": 2426,
      "hohen": 2427,
      "sorgen": 2428,
      "gesprach": 2429,
      "tal": 2430,
      "einfluss": 2431,
      "alien": 2432,
      "bedeuten": 2433,
      "wichtige": 2434,
      "mitgefuhl": 2435,
      "fruh": 2436,
      "jenigen": 2437,
      "firmen": 2438,
      "stur": 2439,
      "vielfalt": 2440,
      "gutes": 2441,
      "physik": 2442,
      "vereinigten": 2443,
      "software": 2444,
      "itar": 2445,
      "pekt": 2446,
      "sequ": 2447,
      "wirkungen": 2448,
      "chem": 2449,
      "cy": 2450,
      "top": 2451,
      "uelle": 2452,
      "einfache": 2453,
      "geschieht": 2454,
      "digen": 2455,
      "see": 2456,
      "ließ": 2457,
      "sozialen": 2458,
      "herauszufinden": 2459,
      "bewegt": 2460,
      "ghan": 2461,
      "objekt": 2462,
      "minist": 2463,
      "enor": 2464,
      "erkann": 2465,
      "gearbeitet": 2466,
      "stimmen": 2467,
      "stande": 2468,
      "goog": 2469,
      "fertig": 2470,
      "abend": 2471,
      "befinden": 2472,
      "feuer": 2473,
      "telefon": 2474,
      "hm": 2475,
      "ichten": 2476,
      "stor": 2477,
      "nennt": 2478,
      "miss": 2479,
      "buchstab": 2480,
      "vergessen": 2481,
      "began": 2482,
      "ologen": 2483,
      "dopp": 2484,
      "strate": 2485,
      "einge": 2486,
      "punkte": 2487,
      "normalerweise": 2488,
      "haut": 2489,
      "krei": 2490,
      "dete": 2491,
      "nehmer": 2492,
      "arme": 2493,
      "grad": 2494,
      "qualitat": 2495,
      "wichtiger": 2496,
      "wahn": 2497,
      "verg": 2498,
      "gesamte": 2499,
      "dorf": 2500,
      "keiner": 2501,
      "rop": 2502,
      "universitat": 2503,
      "maschinen": 2504,
      "fantast": 2505,
      "ep": 2506,
      "lass": 2507,
      "außerdem": 2508,
      "einzelne": 2509,
      "hoffnung": 2510,
      "beobachten": 2511,
      "wu": 2512,
      "werke": 2513,
      "log": 2514,
      "ressour": 2515,
      "begannen": 2516,
      "!\"": 2517,
      "stes": 2518,
      "sohn": 2519,
      "redu": 2520,
      "kannst": 2521,
      "zahlt": 2522,
      "personen": 2523,
      "effiz": 2524,
      "google": 2525,
      "schiff": 2526,
      "tren": 2527,
      "artik": 2528,
      "dienen": 2529,
      "sammeln": 2530,
      "train": 2531,
      "wunsch": 2532,
      "angen": 2533,
      "ansehen": 2534,
      "abge": 2535,
      "ahmen": 2536,
      "dadurch": 2537,
      "fuhrte": 2538,
      "fle": 2539,
      "lon": 2540,
      "geheim": 2541,
      "vorbei": 2542,
      "extrem": 2543,
      "deine": 2544,
      "hle": 2545,
      "hort": 2546,
      "verlassen": 2547,
      "voraus": 2548,
      "nachhalt": 2549,
      "fordern": 2550,
      "fahrt": 2551,
      "winden": 2552,
      "aufmerksamkeit": 2553,
      "mittler": 2554,
      "av": 2555,
      "sobald": 2556,
      "ausdruck": 2557,
      "toten": 2558,
      "ebene": 2559,
      "con": 2560,
      "ziert": 2561,
      "gewe": 2562,
      "genet": 2563,
      "begriff": 2564,
      "steu": 2565,
      "vorstell": 2566,
      "sprachen": 2567,
      "kommunik": 2568,
      "menten": 2569,
      "wieso": 2570,
      "rucken": 2571,
      "ubrigens": 2572,
      "bahn": 2573,
      "zuminde": 2574,
      "zeichnen": 2575,
      "bemerken": 2576,
      "lev": 2577,
      "speziel": 2578,
      "ime": 2579,
      "klasse": 2580,
      "einzelnen": 2581,
      "himmel": 2582,
      "neun": 2583,
      "großes": 2584,
      "passierte": 2585,
      "volle": 2586,
      "region": 2587,
      "produzieren": 2588,
      "amerikaner": 2589,
      "kampfen": 2590,
      "demokratie": 2591,
      "terror": 2592,
      "fotograf": 2593,
      "bestimmten": 2594,
      "model": 2595,
      "zentrum": 2596,
      "bleibt": 2597,
      "500": 2598,
      "schir": 2599,
      "gewinnen": 2600,
      "schuler": 2601,
      "bio": 2602,
      "karten": 2603,
      "afrikan": 2604,
      "global": 2605,
      "abr": 2606,
      "diesel": 2607,
      "landes": 2608,
      "hum": 2609,
      "rate": 2610,
      "sand": 2611,
      "armut": 2612,
      "gesp": 2613,
      "nete": 2614,
      "neuer": 2615,
      "monaten": 2616,
      "zeichnet": 2617,
      "buro": 2618,
      "arbeitete": 2619,
      "netzwerk": 2620,
      "zumindest": 2621,
      "16": 2622,
      "geschwind": 2623,
      "solch": 2624,
      "hi": 2625,
      "konfl": 2626,
      "klei": 2627,
      "versuchte": 2628,
      "dienst": 2629,
      "guter": 2630,
      "14": 2631,
      "jap": 2632,
      "starke": 2633,
      "poliz": 2634,
      "tagen": 2635,
      "ursprung": 2636,
      "untersuch": 2637,
      "biolog": 2638,
      "organisation": 2639,
      "interessante": 2640,
      "koch": 2641,
      "denk": 2642,
      "span": 2643,
      "nachbar": 2644,
      "gerau": 2645,
      "geschehen": 2646,
      "spezie": 2647,
      "profess": 2648,
      "ry": 2649,
      "ub": 2650,
      "wagen": 2651,
      "altern": 2652,
      "beispiele": 2653,
      "lost": 2654,
      "fro": 2655,
      "verstanden": 2656,
      "exp": 2657,
      "freiheit": 2658,
      "trans": 2659,
      "gor": 2660,
      "gegangen": 2661,
      "geschlossen": 2662,
      "bessere": 2663,
      "hunderte": 2664,
      "wirtschafts": 2665,
      "schreck": 2666,
      "gas": 2667,
      "ese": 2668,
      "sekunden": 2669,
      "fische": 2670,
      "tieren": 2671,
      "warten": 2672,
      "spaß": 2673,
      "methode": 2674,
      "brechen": 2675,
      "john": 2676,
      "rund": 2677,
      "ernahr": 2678,
      "richtigen": 2679,
      "schwim": 2680,
      "verbessern": 2681,
      "stieg": 2682,
      "hoh": 2683,
      "seh": 2684,
      "igte": 2685,
      "omat": 2686,
      "verhalt": 2687,
      "ille": 2688,
      "fuhrer": 2689,
      "menschheit": 2690,
      "designer": 2691,
      "baby": 2692,
      "spezies": 2693,
      "tisch": 2694,
      "zustand": 2695,
      "aufgrund": 2696,
      "hindern": 2697,
      "folgt": 2698,
      "einkommen": 2699,
      "spar": 2700,
      "herap": 2701,
      "strah": 2702,
      "oss": 2703,
      "naher": 2704,
      "amerikanischen": 2705,
      "partner": 2706,
      "geschafts": 2707,
      "ran": 2708,
      "schwach": 2709,
      "leider": 2710,
      "holz": 2711,
      "wald": 2712,
      "japan": 2713,
      "ib": 2714,
      "mitteln": 2715,
      "verlieren": 2716,
      "galax": 2717,
      "abel": 2718,
      "tas": 2719,
      "stunde": 2720,
      "ivil": 2721,
      "grunden": 2722,
      "press": 2723,
      "schone": 2724,
      "spiegel": 2725,
      "ativen": 2726,
      "anschauen": 2727,
      "deta": 2728,
      "kamera": 2729,
      "kunde": 2730,
      "liste": 2731,
      "zig": 2732,
      "ette": 2733,
      "glas": 2734,
      "handen": 2735,
      "retten": 2736,
      "geschwindigkeit": 2737,
      "nachricht": 2738,
      "produktion": 2739,
      "park": 2740,
      "verstandnis": 2741,
      "zwe": 2742,
      "erzeugen": 2743,
      "ielle": 2744,
      "mail": 2745,
      "spieler": 2746,
      "nummer": 2747,
      "tes": 2748,
      "zivil": 2749,
      "diejenigen": 2750,
      "ingenie": 2751,
      "kollegen": 2752,
      "ergebnisse": 2753,
      "hiv": 2754,
      "frem": 2755,
      "199": 2756,
      "kaum": 2757,
      "raten": 2758,
      "chris": 2759,
      "wit": 2760,
      "bestand": 2761,
      "heben": 2762,
      "entscheidung": 2763,
      "innovation": 2764,
      "pal": 2765,
      "wellen": 2766,
      "glaub": 2767,
      "worte": 2768,
      "farben": 2769,
      "bienen": 2770,
      "ressourcen": 2771,
      "fund": 2772,
      "gram": 2773,
      "mathematik": 2774,
      "var": 2775,
      "waffen": 2776,
      "mitglie": 2777,
      "durf": 2778,
      "meister": 2779,
      "erzahlt": 2780,
      "erlaubt": 2781,
      "sodass": 2782,
      "prot": 2783,
      "ebenso": 2784,
      "vergangenheit": 2785,
      "sweise": 2786,
      "bren": 2787,
      "kombin": 2788,
      "offnen": 2789,
      "schlussel": 2790,
      "abhangig": 2791,
      "bakterien": 2792,
      "ama": 2793,
      "aussieht": 2794,
      "farbe": 2795,
      "großartig": 2796,
      "yo": 2797,
      "vergleich": 2798,
      "wirklichkeit": 2799,
      "chines": 2800,
      "offentlich": 2801,
      "entdecken": 2802,
      "bestimmte": 2803,
      "arzte": 2804,
      "rum": 2805,
      "uell": 2806,
      "wege": 2807,
      "stoffe": 2808,
      "nachzudenken": 2809,
      "wuch": 2810,
      "spielt": 2811,
      "endlich": 2812,
      "hirn": 2813,
      "luck": 2814,
      "entweder": 2815,
      "krafte": 2816,
      "suche": 2817,
      "schlechte": 2818,
      "17": 2819,
      "gefang": 2820,
      "sowohl": 2821,
      "großartige": 2822,
      "kilome": 2823,
      "institut": 2824,
      "artikel": 2825,
      "laut": 2826,
      "konig": 2827,
      "gesamten": 2828,
      "por": 2829,
      "sim": 2830,
      "tum": 2831,
      "unmoglich": 2832,
      "asen": 2833,
      "wirken": 2834,
      "fehl": 2835,
      "standard": 2836,
      "nord": 2837,
      "digit": 2838,
      "riesige": 2839,
      "charakter": 2840,
      "internation": 2841,
      "haup": 2842,
      "meeres": 2843,
      "schmerz": 2844,
      "phan": 2845,
      "armen": 2846,
      "gene": 2847,
      "quad": 2848,
      "solchen": 2849,
      "statist": 2850,
      "beziehungen": 2851,
      "verbinden": 2852,
      "bom": 2853,
      "ierter": 2854,
      "bildet": 2855,
      "licherweise": 2856,
      "bol": 2857,
      "erfahren": 2858,
      "iti": 2859,
      "verwan": 2860,
      "jahres": 2861,
      "krise": 2862,
      "sud": 2863,
      "dreht": 2864,
      "zeigte": 2865,
      "regierungen": 2866,
      "runter": 2867,
      "verbrauch": 2868,
      "umzu": 2869,
      "leisten": 2870,
      "fotos": 2871,
      "kohlen": 2872,
      "lit": 2873,
      "nungen": 2874,
      "geg": 2875,
      "dasselbe": 2876,
      "plat": 2877,
      "hilft": 2878,
      "effekt": 2879,
      "fein": 2880,
      "okon": 2881,
      "som": 2882,
      "nenne": 2883,
      "lok": 2884,
      "untersuchen": 2885,
      "opfer": 2886,
      "recher": 2887,
      "stol": 2888,
      "full": 2889,
      "schlimm": 2890,
      "niedr": 2891,
      "risiko": 2892,
      "chance": 2893,
      "nahrung": 2894,
      "globalen": 2895,
      "inge": 2896,
      "atom": 2897,
      "delt": 2898,
      "optim": 2899,
      "dritte": 2900,
      "fo": 2901,
      "ereig": 2902,
      "ierende": 2903,
      "haltung": 2904,
      "flugzeug": 2905,
      "dach": 2906,
      "schutzen": 2907,
      "gefragt": 2908,
      "lebe": 2909,
      "mobil": 2910,
      "leistung": 2911,
      "eister": 2912,
      "trifft": 2913,
      "finger": 2914,
      "buhne": 2915,
      "tausend": 2916,
      "bieten": 2917,
      "fs": 2918,
      "ile": 2919,
      "herstellen": 2920,
      "horte": 2921,
      "einzig": 2922,
      "leidenschaft": 2923,
      "minister": 2924,
      "toch": 2925,
      "uellen": 2926,
      "geburt": 2927,
      "hangt": 2928,
      "bisher": 2929,
      "ferenz": 2930,
      "drogen": 2931,
      "welcher": 2932,
      "13": 2933,
      "pan": 2934,
      "infr": 2935,
      "sper": 2936,
      "peratur": 2937,
      "seits": 2938,
      "motor": 2939,
      "architektur": 2940,
      "passt": 2941,
      "zung": 2942,
      "scheinen": 2943,
      "verkehr": 2944,
      "rechn": 2945,
      "hinder": 2946,
      "heil": 2947,
      "notwen": 2948,
      "sinne": 2949,
      "schirm": 2950,
      "hart": 2951,
      "knoch": 2952,
      "leuch": 2953,
      "aufgaben": 2954,
      "mogl": 2955,
      "grundlegen": 2956,
      "million": 2957,
      "wechsel": 2958,
      "seltsam": 2959,
      "massen": 2960,
      "ers": 2961,
      "kenne": 2962,
      "version": 2963,
      "dritten": 2964,
      "instru": 2965,
      "veran": 2966,
      "auswirkungen": 2967,
      "serv": 2968,
      "gewinn": 2969,
      "arbeite": 2970,
      "erstens": 2971,
      "fass": 2972,
      "hall": 2973,
      "ym": 2974,
      "konstru": 2975,
      "spre": 2976,
      "klass": 2977,
      "teilung": 2978,
      "herausfinden": 2979,
      "nerven": 2980,
      "entschieden": 2981,
      "verm": 2982,
      "prim": 2983,
      "losungen": 2984,
      "produkte": 2985,
      "bruch": 2986,
      "ac": 2987,
      "pau": 2988,
      "bestehen": 2989,
      "interesse": 2990,
      "entdeckt": 2991,
      "kontin": 2992,
      "phanomen": 2993,
      "pop": 2994,
      "erweiter": 2995,
      "bedro": 2996,
      "trin": 2997,
      "drehen": 2998,
      "schicken": 2999,
      "erzahlte": 3000,
      "dat": 3001,
      "erleben": 3002,
      "afghan": 3003,
      "unterschei": 3004,
      "besondere": 3005,
      "ehrlich": 3006,
      "ds": 3007,
      "ermogl": 3008,
      "behandlung": 3009,
      "außerhalb": 3010,
      "fortschritt": 3011,
      "name": 3012,
      "englisch": 3013,
      "dein": 3014,
      "wett": 3015,
      "inten": 3016,
      "weib": 3017,
      "spann": 3018,
      "reisen": 3019,
      "maßen": 3020,
      "betrachtet": 3021,
      "cool": 3022,
      "offentlichen": 3023,
      "spitze": 3024,
      "bedingungen": 3025,
      "tochter": 3026,
      "ermoglicht": 3027,
      "kuch": 3028,
      "wohin": 3029,
      "organisationen": 3030,
      "brust": 3031,
      "kapital": 3032,
      "militar": 3033,
      "letztes": 3034,
      "herunter": 3035,
      "akzept": 3036,
      "flachen": 3037,
      "kontakt": 3038,
      "verursach": 3039,
      "gefangnis": 3040,
      "mes": 3041,
      "benutz": 3042,
      "utter": 3043,
      "gerate": 3044,
      "loss": 3045,
      "schnei": 3046,
      "temperatur": 3047,
      "face": 3048,
      "molekul": 3049,
      "geschaffen": 3050,
      "flei": 3051,
      "straf": 3052,
      "motiv": 3053,
      "dok": 3054,
      "nann": 3055,
      "ps": 3056,
      "ara": 3057,
      "warts": 3058,
      "weile": 3059,
      "astrop": 3060,
      "lachen": 3061,
      "inse": 3062,
      "spuren": 3063,
      "schafft": 3064,
      "speich": 3065,
      "beruhr": 3066,
      "km": 3067,
      "ms": 3068,
      "zusatz": 3069,
      "desto": 3070,
      "befindet": 3071,
      "forschen": 3072,
      "garten": 3073,
      "einzigen": 3074,
      "fordert": 3075,
      "unterstutzen": 3076,
      "schatzen": 3077,
      "ße": 3078,
      "gehe": 3079,
      "einfachen": 3080,
      "nieder": 3081,
      "wichtigste": 3082,
      "fuhlt": 3083,
      "virus": 3084,
      "mass": 3085,
      "isierung": 3086,
      "liebl": 3087,
      "leid": 3088,
      "fahig": 3089,
      "fabr": 3090,
      "sionen": 3091,
      "allge": 3092,
      "biologie": 3093,
      "fuhlte": 3094,
      "spreche": 3095,
      "doku": 3096,
      "geschle": 3097,
      "stadten": 3098,
      "katastrop": 3099,
      "zweitens": 3100,
      "flo": 3101,
      "westen": 3102,
      "co2": 3103,
      "rechten": 3104,
      "beit": 3105,
      "ina": 3106,
      "geschaf": 3107,
      "anti": 3108,
      "gegenwart": 3109,
      "ickt": 3110,
      "richtungen": 3111,
      "folgendes": 3112,
      "jene": 3113,
      "unterstutz": 3114,
      "dimension": 3115,
      "achst": 3116,
      "projekte": 3117,
      "boot": 3118,
      "veranderungen": 3119,
      "zunachst": 3120,
      "schwarz": 3121,
      "deswegen": 3122,
      "eigenschaften": 3123,
      "flucht": 3124,
      "brauchte": 3125,
      "gehirns": 3126,
      "transport": 3127,
      "dynam": 3128,
      "gs": 3129,
      "port": 3130,
      "mehrere": 3131,
      "mull": 3132,
      "unterschiede": 3133,
      "lebte": 3134,
      "position": 3135,
      "emotion": 3136,
      "knochen": 3137,
      "tru": 3138,
      "laufe": 3139,
      "druckt": 3140,
      "lernte": 3141,
      "ummern": 3142,
      "medikamente": 3143,
      "brot": 3144,
      "fak": 3145,
      "ith": 3146,
      "verletz": 3147,
      "mitten": 3148,
      "wenige": 3149,
      "steckt": 3150,
      "iellen": 3151,
      "zeitpunkt": 3152,
      "oko": 3153,
      "verbindungen": 3154,
      "21": 3155,
      "imin": 3156,
      "solar": 3157,
      "materialien": 3158,
      "freude": 3159,
      "kilometer": 3160,
      "300": 3161,
      "atmo": 3162,
      "bedurf": 3163,
      "stecken": 3164,
      "außergewohn": 3165,
      "result": 3166,
      "erfahrungen": 3167,
      "privat": 3168,
      "beteil": 3169,
      "worten": 3170,
      "filme": 3171,
      "klimawandel": 3172,
      "high": 3173,
      "detail": 3174,
      "titel": 3175,
      "altet": 3176,
      "getroffen": 3177,
      "vermut": 3178,
      "verkaufen": 3179,
      "wenden": 3180,
      "herzen": 3181,
      "fenster": 3182,
      "selten": 3183,
      "opt": 3184,
      "wirkung": 3185,
      "wunderbar": 3186,
      "erwarten": 3187,
      "lager": 3188,
      "real": 3189,
      "vollen": 3190,
      "stattdessen": 3191,
      "ebenfalls": 3192,
      "jemandem": 3193,
      "erinnere": 3194,
      "haufen": 3195,
      "hist": 3196,
      "steuer": 3197,
      "starken": 3198,
      "fleisch": 3199,
      "fig": 3200,
      "gier": 3201,
      "schatz": 3202,
      "behaup": 3203,
      "ids": 3204,
      "bruder": 3205,
      "gesamt": 3206,
      "jahrhunderts": 3207,
      "fett": 3208,
      "herzustellen": 3209,
      "mogliche": 3210,
      "baume": 3211,
      "unterschiedliche": 3212,
      "heutigen": 3213,
      "london": 3214,
      "oten": 3215,
      "rt": 3216,
      "sichtig": 3217,
      "auge": 3218,
      "ilien": 3219,
      "klang": 3220,
      "geru": 3221,
      "ulation": 3222,
      "studi": 3223,
      "mannern": 3224,
      "gesellschaften": 3225,
      "unglaubliche": 3226,
      "verantwortung": 3227,
      "effizien": 3228,
      "sommer": 3229,
      "oso": 3230,
      "riere": 3231,
      "tanz": 3232,
      "strei": 3233,
      "weite": 3234,
      "fangt": 3235,
      "quelle": 3236,
      "freunden": 3237,
      "ganzes": 3238,
      "dings": 3239,
      "treiben": 3240,
      "ikt": 3241,
      "kla": 3242,
      "verfug": 3243,
      "britann": 3244,
      "kommunikation": 3245,
      "echte": 3246,
      "inne": 3247,
      "deten": 3248,
      "heran": 3249,
      "linien": 3250,
      "null": 3251,
      "pp": 3252,
      "behandeln": 3253,
      "indung": 3254,
      "geschah": 3255,
      "barkeit": 3256,
      "cl": 3257,
      "ham": 3258,
      "ifor": 3259,
      "sens": 3260,
      "ignor": 3261,
      "astru": 3262,
      "seien": 3263,
      "naja": 3264,
      "schritte": 3265,
      "mult": 3266,
      "modelle": 3267,
      "fung": 3268,
      "szen": 3269,
      "ons": 3270,
      "itionen": 3271,
      "ford": 3272,
      "begeister": 3273,
      "werkzeuge": 3274,
      "forscher": 3275,
      "zy": 3276,
      "ansatz": 3277,
      "eitung": 3278,
      "autor": 3279,
      "masse": 3280,
      "haufig": 3281,
      "infrastru": 3282,
      "24": 3283,
      "fei": 3284,
      "hom": 3285,
      "lap": 3286,
      "ies": 3287,
      "einsatz": 3288,
      "teuer": 3289,
      "wiesen": 3290,
      "ließen": 3291,
      "schonheit": 3292,
      "nehme": 3293,
      "plast": 3294,
      "starker": 3295,
      "systems": 3296,
      "erfunden": 3297,
      "globale": 3298,
      "geschafft": 3299,
      "infrastruktur": 3300,
      "gil": 3301,
      "vermei": 3302,
      "hangen": 3303,
      "ahnung": 3304,
      "schwarze": 3305,
      "erstaunlich": 3306,
      "iforn": 3307,
      "dicht": 3308,
      "hit": 3309,
      "het": 3310,
      "weich": 3311,
      "ierenden": 3312,
      "offnet": 3313,
      "schonen": 3314,
      "religion": 3315,
      "verruckt": 3316,
      "gien": 3317,
      "trage": 3318,
      "polizei": 3319,
      "britannien": 3320,
      "stag": 3321,
      "stop": 3322,
      "stift": 3323,
      "isiert": 3324,
      "syn": 3325,
      "soldaten": 3326,
      "totet": 3327,
      "freien": 3328,
      "konzentrieren": 3329,
      "sur": 3330,
      "anc": 3331,
      "genutzt": 3332,
      "lektion": 3333,
      "wichtigsten": 3334,
      "angefangen": 3335,
      "elektro": 3336,
      "uberraschen": 3337,
      "dru": 3338,
      "mart": 3339,
      "argu": 3340,
      "verbringen": 3341,
      "front": 3342,
      "mars": 3343,
      "großere": 3344,
      "stabil": 3345,
      "existiert": 3346,
      "interessanter": 3347,
      "austr": 3348,
      "gefangen": 3349,
      "entstehen": 3350,
      "eigenes": 3351,
      "dient": 3352,
      "ziele": 3353,
      "gewach": 3354,
      "book": 3355,
      "mond": 3356,
      "kostet": 3357,
      "verfugung": 3358,
      "\"-": 3359,
      "fiel": 3360,
      "keln": 3361,
      "ri": 3362,
      "arab": 3363,
      "urn": 3364,
      "aufnahme": 3365,
      "ckte": 3366,
      "islam": 3367,
      "klu": 3368,
      "fugen": 3369,
      "erstes": 3370,
      "erstoff": 3371,
      "kreu": 3372,
      "gemeinde": 3373,
      "dauer": 3374,
      "hielten": 3375,
      "scher": 3376,
      "schil": 3377,
      "ausbildung": 3378,
      "konferenz": 3379,
      "gress": 3380,
      "unternehmer": 3381,
      "lied": 3382,
      "glaubt": 3383,
      "noten": 3384,
      "prasident": 3385,
      "philoso": 3386,
      "lekt": 3387,
      "isieren": 3388,
      "amerikanische": 3389,
      "dauern": 3390,
      "dunkel": 3391,
      "bett": 3392,
      "moleku": 3393,
      "gelegenheit": 3394,
      "tolle": 3395,
      "gewebe": 3396,
      "roten": 3397,
      "nachts": 3398,
      "nachstes": 3399,
      "hey": 3400,
      "stuhl": 3401,
      "gehir": 3402,
      "fruhen": 3403,
      "werkzeug": 3404,
      "sauerstoff": 3405,
      "diagno": 3406,
      "ament": 3407,
      "lad": 3408,
      "reprasent": 3409,
      "gestalten": 3410,
      "integr": 3411,
      "nahrungs": 3412,
      "zit": 3413,
      "erwahn": 3414,
      "ichtet": 3415,
      "get": 3416,
      "brie": 3417,
      "dav": 3418,
      "lief": 3419,
      "journ": 3420,
      "bemerkens": 3421,
      "stolz": 3422,
      "dennoch": 3423,
      "rem": 3424,
      "ameisen": 3425,
      "irur": 3426,
      "ippe": 3427,
      "basis": 3428,
      "gesetze": 3429,
      "auber": 3430,
      "drit": 3431,
      "weiterhin": 3432,
      "landwirtschaft": 3433,
      "todes": 3434,
      "fernsehen": 3435,
      "respekt": 3436,
      "politische": 3437,
      "allerdings": 3438,
      "aktivitat": 3439,
      "neuronen": 3440,
      "kontrollieren": 3441,
      "wuchs": 3442,
      "journal": 3443,
      "dom": 3444,
      "jam": 3445,
      "maus": 3446,
      "erzeugt": 3447,
      "angeb": 3448,
      "auseinander": 3449,
      "ikas": 3450,
      "sicherlich": 3451,
      "block": 3452,
      "jugend": 3453,
      "beeinflusst": 3454,
      "zo": 3455,
      "depress": 3456,
      "program": 3457,
      "seines": 3458,
      "fahrer": 3459,
      "begonnen": 3460,
      "irgendwann": 3461,
      "bud": 3462,
      "erwartet": 3463,
      "beitr": 3464,
      "osten": 3465,
      "aufgenommen": 3466,
      "mex": 3467,
      "gelassen": 3468,
      "politischen": 3469,
      "riesigen": 3470,
      "typen": 3471,
      "ram": 3472,
      "ske": 3473,
      "somit": 3474,
      "annt": 3475,
      "flas": 3476,
      "dingt": 3477,
      "kurs": 3478,
      "rett": 3479,
      "strukturen": 3480,
      "perfekt": 3481,
      "potent": 3482,
      "zog": 3483,
      "zusagen": 3484,
      "reagieren": 3485,
      "furcht": 3486,
      "brei": 3487,
      "klassen": 3488,
      "kehren": 3489,
      "hauser": 3490,
      "viertel": 3491,
      "gefuhle": 3492,
      "großeren": 3493,
      "lebten": 3494,
      "kreativitat": 3495,
      "einzigart": 3496,
      "by": 3497,
      "hon": 3498,
      "enzen": 3499,
      "erstellen": 3500,
      "irak": 3501,
      "klingt": 3502,
      "großbritannien": 3503,
      "gefallen": 3504,
      "museum": 3505,
      "rand": 3506,
      "roman": 3507,
      "annah": 3508,
      "intervie": 3509,
      "altung": 3510,
      "korallen": 3511,
      "letztendlich": 3512,
      "sho": 3513,
      "zufrieden": 3514,
      "utze": 3515,
      "neten": 3516,
      "entlang": 3517,
      "fullen": 3518,
      "wahren": 3519,
      "setzung": 3520,
      "kaliforn": 3521,
      "raume": 3522,
      "erlauben": 3523,
      "operation": 3524,
      "ki": 3525,
      "ermoglichen": 3526,
      "bras": 3527,
      "sterne": 3528,
      "schlei": 3529,
      "zieht": 3530,
      "gehor": 3531,
      "kuste": 3532,
      "produziert": 3533,
      "karriere": 3534,
      "fuhle": 3535,
      "fragten": 3536,
      "atmosphare": 3537,
      "gehalten": 3538,
      "anda": 3539,
      "dagegen": 3540,
      "male": 3541,
      "akte": 3542,
      "investieren": 3543,
      "wettbewer": 3544,
      "cor": 3545,
      "erhalt": 3546,
      "eien": 3547,
      "aler": 3548,
      "verfolgen": 3549,
      "iran": 3550,
      "trieben": 3551,
      "geln": 3552,
      "einfacher": 3553,
      "rael": 3554,
      "dahin": 3555,
      "elektron": 3556,
      "gewachsen": 3557,
      "zuge": 3558,
      "israel": 3559,
      "davor": 3560,
      "jahrigen": 3561,
      "zusammenhang": 3562,
      "beeinflussen": 3563,
      "verhaltnis": 3564,
      "bor": 3565,
      "fok": 3566,
      "sekunde": 3567,
      "begeg": 3568,
      "krimin": 3569,
      "teilchen": 3570,
      "dran": 3571,
      "taglich": 3572,
      "linken": 3573,
      "winz": 3574,
      "beine": 3575,
      "cent": 3576,
      "sil": 3577,
      "wein": 3578,
      "stil": 3579,
      "schwei": 3580,
      "trick": 3581,
      "ulieren": 3582,
      "dorthin": 3583,
      "minde": 3584,
      "bloß": 3585,
      "botschaft": 3586,
      "afghanistan": 3587,
      "gilt": 3588,
      "bit": 3589,
      "eindruck": 3590,
      "roll": 3591,
      "etten": 3592,
      "automat": 3593,
      "teles": 3594,
      "kuh": 3595,
      "wahrscheinlichkeit": 3596,
      "stock": 3597,
      "fehlen": 3598,
      "steuern": 3599,
      "ss": 3600,
      "erforschen": 3601,
      "cha": 3602,
      "unst": 3603,
      "bran": 3604,
      "unsicht": 3605,
      "großteil": 3606,
      "bildern": 3607,
      "osaur": 3608,
      "gestor": 3609,
      "versorgung": 3610,
      "kurzem": 3611,
      "sequenz": 3612,
      "schwimmen": 3613,
      "kund": 3614,
      "misch": 3615,
      "rit": 3616,
      "rahmen": 3617,
      "insel": 3618,
      "behandelt": 3619,
      "sogenann": 3620,
      "sparen": 3621,
      "tragt": 3622,
      "code": 3623,
      "verhaltens": 3624,
      "dauert": 3625,
      "verkauft": 3626,
      "fundament": 3627,
      "vermutlich": 3628,
      "city": 3629,
      "therap": 3630,
      "ue": 3631,
      "chirur": 3632,
      "behalten": 3633,
      "impf": 3634,
      "konsum": 3635,
      "neg": 3636,
      "neut": 3637,
      "musst": 3638,
      "landschaft": 3639,
      "handlungen": 3640,
      "sitz": 3641,
      "wohner": 3642,
      "bewegungen": 3643,
      "graph": 3644,
      "diskuss": 3645,
      "gestorben": 3646,
      "kir": 3647,
      "tor": 3648,
      "vi": 3649,
      "inen": 3650,
      "weiten": 3651,
      "klart": 3652,
      "naturliche": 3653,
      "kolon": 3654,
      "analy": 3655,
      "insekten": 3656,
      "algor": 3657,
      "leun": 3658,
      "entsteht": 3659,
      "alleine": 3660,
      "vollkommen": 3661,
      "stucke": 3662,
      "virtu": 3663,
      "bon": 3664,
      "jan": 3665,
      "schaden": 3666,
      "vermogen": 3667,
      "tritt": 3668,
      "graben": 3669,
      "besor": 3670,
      "betrifft": 3671,
      "hintergrund": 3672,
      "effektiv": 3673,
      "spektive": 3674,
      "dieselbe": 3675,
      "liter": 3676,
      "facebook": 3677,
      "unterstutzung": 3678,
      "david": 3679,
      "fi": 3680,
      "hoffentlich": 3681,
      "koll": 3682,
      "nan": 3683,
      "oge": 3684,
      "still": 3685,
      "derzeit": 3686,
      "schad": 3687,
      "zuhause": 3688,
      "demie": 3689,
      "gras": 3690,
      "pri": 3691,
      "izitat": 3692,
      "beschleun": 3693,
      "berechn": 3694,
      "materie": 3695,
      "grenze": 3696,
      "gewisse": 3697,
      "entwickelten": 3698,
      "ada": 3699,
      "ost": 3700,
      "ration": 3701,
      "genie": 3702,
      "ledig": 3703,
      "orig": 3704,
      "gerecht": 3705,
      "stress": 3706,
      "gewonnen": 3707,
      "weiteres": 3708,
      "wiederum": 3709,
      "wissenschaftliche": 3710,
      "schwester": 3711,
      "entschied": 3712,
      "veroffentlicht": 3713,
      "zivilis": 3714,
      "okonom": 3715,
      "intens": 3716,
      "drittel": 3717,
      "bund": 3718,
      "problemen": 3719,
      "saß": 3720,
      "meistens": 3721,
      "videos": 3722,
      "gebiete": 3723,
      "ften": 3724,
      "istisch": 3725,
      "jahrige": 3726,
      "bildungs": 3727,
      "handy": 3728,
      "metap": 3729,
      "dichte": 3730,
      "komplexitat": 3731,
      "identitat": 3732,
      "restaur": 3733,
      "kommunizieren": 3734,
      "mund": 3735,
      "nas": 3736,
      "schicht": 3737,
      "wirst": 3738,
      "red": 3739,
      "atem": 3740,
      "atell": 3741,
      "kriegen": 3742,
      "verbreitet": 3743,
      "augenblick": 3744,
      "tauchen": 3745,
      "intelligenz": 3746,
      "verursacht": 3747,
      "2000": 3748,
      "mess": 3749,
      "sowie": 3750,
      "eth": 3751,
      "proje": 3752,
      "wahrneh": 3753,
      "198": 3754,
      "theor": 3755,
      "beschreiben": 3756,
      "spruch": 3757,
      "dokument": 3758,
      "400": 3759,
      "aids": 3760,
      "pfen": 3761,
      "starb": 3762,
      "regend": 3763,
      "schlimmer": 3764,
      "bildschirm": 3765,
      "lette": 3766,
      "basiert": 3767,
      "vision": 3768,
      "jobs": 3769,
      "benotigen": 3770,
      "kompliz": 3771,
      "spannen": 3772,
      "quadrat": 3773,
      "plastik": 3774,
      "kalifornien": 3775,
      "ek": 3776,
      "van": 3777,
      "yn": 3778,
      "uberzeugen": 3779,
      "uberzeugt": 3780,
      "ahlt": 3781,
      "iell": 3782,
      "traur": 3783,
      "othe": 3784,
      "interaktion": 3785,
      "grundsatz": 3786,
      "worfen": 3787,
      "volk": 3788,
      "lautet": 3789,
      "gesichts": 3790,
      "steigt": 3791,
      "zufallig": 3792,
      "epi": 3793,
      "ble": 3794,
      "kummern": 3795,
      "satell": 3796,
      "spl": 3797,
      "frist": 3798,
      "durfen": 3799,
      "objekte": 3800,
      "stron": 3801,
      "leiten": 3802,
      "meilen": 3803,
      "gestern": 3804,
      "universums": 3805,
      "dreh": 3806,
      "vari": 3807,
      "bitten": 3808,
      "rig": 3809,
      "schimp": 3810,
      "gelan": 3811,
      "gezogen": 3812,
      "entwerfen": 3813,
      "liebt": 3814,
      "zeitalter": 3815,
      "sachlich": 3816,
      "zusammenarbeit": 3817,
      "zuruckzu": 3818,
      "post": 3819,
      "radio": 3820,
      "erinnert": 3821,
      "symbol": 3822,
      "hut": 3823,
      "ws": 3824,
      "asi": 3825,
      "wil": 3826,
      "wirkt": 3827,
      "abschluss": 3828,
      "ami": 3829,
      "umgehen": 3830,
      "issen": 3831,
      "sitzt": 3832,
      "beruf": 3833,
      "methoden": 3834,
      "mengen": 3835,
      "alltag": 3836,
      "welchen": 3837,
      "lieber": 3838,
      "neugier": 3839,
      "drin": 3840,
      "herausgefunden": 3841,
      "bauern": 3842,
      "beruh": 3843,
      "alisieren": 3844,
      "school": 3845,
      "einheit": 3846,
      "behor": 3847,
      "steller": 3848,
      "perspektive": 3849,
      "brauchten": 3850,
      "offentliche": 3851,
      "schuldig": 3852,
      "beschaftigt": 3853,
      "unbedingt": 3854,
      "modernen": 3855,
      "institutionen": 3856,
      "histor": 3857,
      "ecke": 3858,
      "kart": 3859,
      "verdienen": 3860,
      "wurzel": 3861,
      "sterb": 3862,
      "moglicherweise": 3863,
      "themen": 3864,
      "belieb": 3865,
      "schreibt": 3866,
      "herausforderungen": 3867,
      "konflikt": 3868,
      "lieblings": 3869,
      "gelt": 3870,
      "ubertragen": 3871,
      "chemik": 3872,
      "bestimmen": 3873,
      "deutlich": 3874,
      "experimente": 3875,
      "babys": 3876,
      "kampag": 3877,
      "besitzen": 3878,
      "buchstablich": 3879,
      "algorith": 3880,
      "niger": 3881,
      "gelangen": 3882,
      "verwand": 3883,
      "rochen": 3884,
      "frank": 3885,
      "woher": 3886,
      "gift": 3887,
      "nochmal": 3888,
      "durchgefuhrt": 3889,
      "falsche": 3890,
      "relativ": 3891,
      "profit": 3892,
      "restaurant": 3893,
      "aster": 3894,
      "ns": 3895,
      "pel": 3896,
      "orient": 3897,
      "bezahlen": 3898,
      "grenz": 3899,
      "ffer": 3900,
      "selber": 3901,
      "dringen": 3902,
      "arbeiteten": 3903,
      "freiwill": 3904,
      "unterschiedlichen": 3905,
      "experten": 3906,
      "molekule": 3907,
      "schimpan": 3908,
      "baut": 3909,
      "rauch": 3910,
      "russ": 3911,
      "erster": 3912,
      "erklart": 3913,
      "ala": 3914,
      "beton": 3915,
      "kontext": 3916,
      "klick": 3917,
      "wood": 3918,
      "geladen": 3919,
      "weiteren": 3920,
      "probieren": 3921,
      "schlechter": 3922,
      "mindestens": 3923,
      "dit": 3924,
      "inhalt": 3925,
      "schalten": 3926,
      "gedanke": 3927,
      "usw": 3928,
      "geschen": 3929,
      "gewahlt": 3930,
      "gehol": 3931,
      "gehoren": 3932,
      "anderem": 3933,
      "milliarde": 3934,
      "froh": 3935,
      "kohlenstoff": 3936,
      "kaffe": 3937,
      "erten": 3938,
      "asien": 3939,
      "sep": 3940,
      "vergleichen": 3941,
      "sozusagen": 3942,
      "tert": 3943,
      "hinweg": 3944,
      "stimm": 3945,
      "benotigt": 3946,
      "geschlecht": 3947,
      "150": 3948,
      "nei": 3949,
      "wet": 3950,
      "istische": 3951,
      "ungleich": 3952,
      "quellen": 3953,
      "schuld": 3954,
      "maßstab": 3955,
      "kriegs": 3956,
      "setzte": 3957,
      "golf": 3958,
      "argument": 3959,
      "anim": 3960,
      "geor": 3961,
      "willen": 3962,
      "vorteil": 3963,
      "vollstandig": 3964,
      "tiefe": 3965,
      "tember": 3966,
      "analys": 3967,
      "kos": 3968,
      "nutzt": 3969,
      "twit": 3970,
      "wild": 3971,
      "irgen": 3972,
      "daß": 3973,
      "musl": 3974,
      "streit": 3975,
      "gegenteil": 3976,
      "pfei": 3977,
      "toi": 3978,
      "besseren": 3979,
      "lebensmittel": 3980,
      "empf": 3981,
      "hauptsachlich": 3982,
      "gewisser": 3983,
      "strategie": 3984,
      "osaurier": 3985,
      "ice": 3986,
      "brachten": 3987,
      "konnt": 3988,
      "springen": 3989,
      "planet": 3990,
      "kohle": 3991,
      "king": 3992,
      "pas": 3993,
      "int": 3994,
      "einsetzen": 3995,
      "zuhoren": 3996,
      "bekamen": 3997,
      "senden": 3998,
      "lant": 3999,
      "blat": 4000,
      "kindheit": 4001,
      "tests": 4002,
      "weiss": 4003,
      "erkenntnis": 4004,
      "professor": 4005,
      "45": 4006,
      "deinen": 4007,
      "fischer": 4008,
      "jet": 4009,
      "endet": 4010,
      "gewissen": 4011,
      "bert": 4012,
      "unterricht": 4013,
      "ungskraft": 4014,
      "pak": 4015,
      "ahnliche": 4016,
      "schaute": 4017,
      "verstandlich": 4018,
      "mission": 4019,
      "erinnerung": 4020,
      "brenn": 4021,
      "leuchten": 4022,
      ",\"": 4023,
      "kummer": 4024,
      "gefahren": 4025,
      "verlust": 4026,
      "agiert": 4027,
      "dinosaurier": 4028,
      "interagieren": 4029,
      "ption": 4030,
      "holt": 4031,
      "patient": 4032,
      "sorg": 4033,
      "wechseln": 4034,
      "galaxien": 4035,
      "angriff": 4036,
      "werten": 4037,
      "tue": 4038,
      "gefahrlich": 4039,
      "uberrascht": 4040,
      "entwickelte": 4041,
      "verwandeln": 4042,
      "flex": 4043,
      "ote": 4044,
      "ses": 4045,
      "geo": 4046,
      "getotet": 4047,
      "rollen": 4048,
      "franz": 4049,
      "gegenseit": 4050,
      "achtung": 4051,
      "kurzen": 4052,
      "sub": 4053,
      "kauft": 4054,
      "element": 4055,
      "viren": 4056,
      "identif": 4057,
      "existieren": 4058,
      "praktisch": 4059,
      "philosoph": 4060,
      "jungs": 4061,
      "mc": 4062,
      "vertei": 4063,
      "hem": 4064,
      "grundet": 4065,
      "heimat": 4066,
      "genauer": 4067,
      "sorge": 4068,
      "lernt": 4069,
      "streben": 4070,
      "morgens": 4071,
      "junger": 4072,
      "gold": 4073,
      "wesentlichen": 4074,
      "verzwei": 4075,
      "weißen": 4076,
      "stufe": 4077,
      "hof": 4078,
      "organismen": 4079,
      "tausenden": 4080,
      "ratsel": 4081,
      "hafte": 4082,
      "verantwortlich": 4083,
      "laptop": 4084,
      "ack": 4085,
      "vin": 4086,
      "erkrank": 4087,
      "inger": 4088,
      "schne": 4089,
      "zucker": 4090,
      "verhindern": 4091,
      "ungluck": 4092,
      "aufbau": 4093,
      "klus": 4094,
      "woruber": 4095,
      "gegensatz": 4096,
      "personlich": 4097,
      "norden": 4098,
      "interessieren": 4099,
      "eure": 4100,
      "alisiert": 4101,
      "leistungen": 4102,
      "total": 4103,
      "fabrik": 4104,
      "wn": 4105,
      "zauber": 4106,
      "zubringen": 4107,
      "zuschau": 4108,
      "uberwach": 4109,
      "ahe": 4110,
      "webs": 4111,
      "open": 4112,
      "gelesen": 4113,
      "blatt": 4114,
      "flag": 4115,
      "wahre": 4116,
      "maßig": 4117,
      "verschwinden": 4118,
      "kurzlich": 4119,
      "blog": 4120,
      "bemerkt": 4121,
      "england": 4122,
      "begeistert": 4123,
      "irgendet": 4124,
      "35": 4125,
      "farb": 4126,
      "iden": 4127,
      "erzie": 4128,
      "scha": 4129,
      "teu": 4130,
      "glu": 4131,
      "aka": 4132,
      "dafr": 4133,
      "ippen": 4134,
      "winkel": 4135,
      "wunderbare": 4136,
      "verbracht": 4137,
      "beruhm": 4138,
      "irgendetwas": 4139,
      "erleb": 4140,
      "trend": 4141,
      "weißt": 4142,
      "erzahle": 4143,
      "tausch": 4144,
      "iften": 4145,
      "sammlung": 4146,
      "zerstor": 4147,
      "erkannte": 4148,
      "doppelt": 4149,
      "99": 4150,
      "pfl": 4151,
      "witz": 4152,
      "sichten": 4153,
      "versuchten": 4154,
      "helden": 4155,
      "magnet": 4156,
      "normale": 4157,
      "normalen": 4158,
      "bekannten": 4159,
      "neuro": 4160,
      "ingenieur": 4161,
      "satelliten": 4162,
      "september": 4163,
      "astron": 4164,
      "fischen": 4165,
      "kabel": 4166,
      "intel": 4167,
      "eingesetzt": 4168,
      "schien": 4169,
      "gehabt": 4170,
      "beweis": 4171,
      "gebrochen": 4172,
      "fuhrten": 4173,
      "drah": 4174,
      "pack": 4175,
      "batter": 4176,
      "wichtigen": 4177,
      "uner": 4178,
      "schar": 4179,
      "mittag": 4180,
      "gericht": 4181,
      "dia": 4182,
      "seitdem": 4183,
      "legte": 4184,
      "schlafen": 4185,
      "geheimnis": 4186,
      "hyp": 4187,
      "lat": 4188,
      "sst": 4189,
      "singen": 4190,
      "erlebt": 4191,
      "gemal": 4192,
      "hergestellt": 4193,
      "geschickt": 4194,
      "fingen": 4195,
      "schlage": 4196,
      "wegs": 4197,
      "hore": 4198,
      "grafik": 4199,
      "milch": 4200,
      "traume": 4201,
      "metapher": 4202,
      "75": 4203,
      "einiger": 4204,
      "verr": 4205,
      "rote": 4206,
      "wenigen": 4207,
      "ingu": 4208,
      "betrei": 4209,
      "beloh": 4210,
      "offentlichkeit": 4211,
      "sauber": 4212,
      "netzwerke": 4213,
      "stammt": 4214,
      "unterscheiden": 4215,
      "ston": 4216,
      "aufbauen": 4217,
      "spat": 4218,
      "entworfen": 4219,
      "geschlagen": 4220,
      "gton": 4221,
      "synt": 4222,
      "bogen": 4223,
      "brauche": 4224,
      "reiche": 4225,
      "forschungs": 4226,
      "medikament": 4227,
      "lustig": 4228,
      "zweck": 4229,
      "kuchen": 4230,
      "futter": 4231,
      "hoffen": 4232,
      "ramm": 4233,
      "tab": 4234,
      "wunden": 4235,
      "atmen": 4236,
      "behinder": 4237,
      "aufhoren": 4238,
      "washin": 4239,
      "notig": 4240,
      "bereiche": 4241,
      "leistungs": 4242,
      "gunst": 4243,
      "sl": 4244,
      "geber": 4245,
      "atoren": 4246,
      "ley": 4247,
      "verlangen": 4248,
      "beantworten": 4249,
      "welle": 4250,
      "ologische": 4251,
      "quanten": 4252,
      "schrank": 4253,
      "minute": 4254,
      "ungewohn": 4255,
      "richtet": 4256,
      "schneiden": 4257,
      "nannte": 4258,
      "fakten": 4259,
      "pruf": 4260,
      "erfinden": 4261,
      "inf": 4262,
      "anteil": 4263,
      "angenommen": 4264,
      "agement": 4265,
      "rief": 4266,
      "inneren": 4267,
      "elemente": 4268,
      "korpers": 4269,
      "verbreiten": 4270,
      "religio": 4271,
      "studieren": 4272,
      "twitter": 4273,
      "echten": 4274,
      "mm": 4275,
      "nit": 4276,
      "our": 4277,
      "piel": 4278,
      "pret": 4279,
      "zell": 4280,
      "zweit": 4281,
      "ansicht": 4282,
      "aufnahmen": 4283,
      "isse": 4284,
      "ielt": 4285,
      "ruh": 4286,
      "brach": 4287,
      "wissenschaften": 4288,
      "platt": 4289,
      "korru": 4290,
      "wissenschaftlichen": 4291,
      "politiker": 4292,
      "radik": 4293,
      "college": 4294,
      "human": 4295,
      "schimpansen": 4296,
      "washington": 4297,
      "isol": 4298,
      "pern": 4299,
      "ppe": 4300,
      "chip": 4301,
      "bedarf": 4302,
      "mitarbeiter": 4303,
      "allgemein": 4304,
      "wow": 4305,
      "blind": 4306,
      "student": 4307,
      "bauten": 4308,
      "richard": 4309,
      "sicherheits": 4310,
      "symmet": 4311,
      "erscheinen": 4312,
      "entdeckung": 4313,
      "christ": 4314,
      "moderne": 4315,
      "messer": 4316,
      "programme": 4317,
      "tom": 4318,
      "angel": 4319,
      "angesehen": 4320,
      "bereitet": 4321,
      "entspricht": 4322,
      "demon": 4323,
      "protot": 4324,
      "trieb": 4325,
      "hnt": 4326,
      "nieman": 4327,
      "bibl": 4328,
      "riesen": 4329,
      "verschmut": 4330,
      "schock": 4331,
      "vention": 4332,
      "kompliziert": 4333,
      "reduzieren": 4334,
      "gespielt": 4335,
      "australien": 4336,
      "gehirne": 4337,
      "domin": 4338,
      "wetter": 4339,
      "nationen": 4340,
      "intu": 4341,
      "start": 4342,
      "ausmaß": 4343,
      "spur": 4344,
      "entstanden": 4345,
      "kennung": 4346,
      "wobei": 4347,
      "heiß": 4348,
      "markte": 4349,
      "ucken": 4350,
      "zeichnungen": 4351,
      "medizinische": 4352,
      "mikroben": 4353,
      "schatten": 4354,
      "individuen": 4355,
      "erwachsenen": 4356,
      "website": 4357,
      "dutzen": 4358,
      "foss": 4359,
      "gru": 4360,
      "esch": 4361,
      "bezahlt": 4362,
      "franc": 4363,
      "malen": 4364,
      "schlau": 4365,
      "heißen": 4366,
      "starten": 4367,
      "belast": 4368,
      "schlechten": 4369,
      "unterschiedlich": 4370,
      "nutzung": 4371,
      "hafen": 4372,
      "fassung": 4373,
      "hallo": 4374,
      "kaffee": 4375,
      "klet": 4376,
      "last": 4377,
      "nungs": 4378,
      "riff": 4379,
      "anden": 4380,
      "eindeut": 4381,
      "vernun": 4382,
      "verfahren": 4383,
      "eting": 4384,
      "weltraum": 4385,
      "zweifel": 4386,
      "spielte": 4387,
      "aku": 4388,
      "wolken": 4389,
      "bereichen": 4390,
      "veroffentlich": 4391,
      "lebewesen": 4392,
      "brasilien": 4393,
      "wahrnehmung": 4394,
      "sterblichkeit": 4395,
      "vernunft": 4396,
      "fasst": 4397,
      "ennen": 4398,
      "atisch": 4399,
      "verwir": 4400,
      "repar": 4401,
      "usion": 4402,
      "stem": 4403,
      "vorhanden": 4404,
      "interpret": 4405,
      "dram": 4406,
      "gemeinden": 4407,
      "diskut": 4408,
      "gerausch": 4409,
      "internationale": 4410,
      "kaf": 4411,
      "kog": 4412,
      "schut": 4413,
      "vieler": 4414,
      "interessen": 4415,
      "presse": 4416,
      "box": 4417,
      "meiste": 4418,
      "systemen": 4419,
      "fernen": 4420,
      "haar": 4421,
      "ica": 4422,
      "folgende": 4423,
      "generationen": 4424,
      "gedicht": 4425,
      "betru": 4426,
      "bir": 4427,
      "kate": 4428,
      "nom": 4429,
      "ichte": 4430,
      "station": 4431,
      "bestat": 4432,
      "enthalt": 4433,
      "voran": 4434,
      "rust": 4435,
      "meist": 4436,
      "tauschen": 4437,
      "install": 4438,
      "vertraut": 4439,
      "faktoren": 4440,
      "kampagne": 4441,
      "demonstr": 4442,
      "aqu": 4443,
      "jon": 4444,
      "sar": 4445,
      "wund": 4446,
      "wander": 4447,
      "aspekt": 4448,
      "umfeld": 4449,
      "halbe": 4450,
      "geraten": 4451,
      "großmutter": 4452,
      "phone": 4453,
      "theater": 4454,
      "hai": 4455,
      "signal": 4456,
      "hlt": 4457,
      "hass": 4458,
      "unfall": 4459,
      "ordent": 4460,
      "istischen": 4461,
      "aufregend": 4462,
      "ruhe": 4463,
      "bares": 4464,
      "ular": 4465,
      "beschlossen": 4466,
      "beinahe": 4467,
      "gesundheitswesen": 4468,
      "chemie": 4469,
      "mittleren": 4470,
      "feind": 4471,
      "schild": 4472,
      "teleskop": 4473,
      "bruck": 4474,
      "hlen": 4475,
      "ossen": 4476,
      "skop": 4477,
      "zir": 4478,
      "amin": 4479,
      "bericht": 4480,
      "uberlegen": 4481,
      "hinsicht": 4482,
      "appen": 4483,
      "hotel": 4484,
      "verbrachte": 4485,
      "rennen": 4486,
      "bekannte": 4487,
      "schwarzen": 4488,
      "existenz": 4489,
      "italien": 4490,
      "beinhal": 4491,
      "positiv": 4492,
      "fantastisch": 4493,
      "details": 4494,
      ".,": 4495,
      "blieb": 4496,
      "zitat": 4497,
      "erin": 4498,
      "schwan": 4499,
      "agyp": 4500,
      "uberzeug": 4501,
      "entsprechen": 4502,
      "grippe": 4503,
      "opf": 4504,
      "naturlichen": 4505,
      "regionen": 4506,
      "tiefer": 4507,
      "hub": 4508,
      "komplexe": 4509,
      "elektrizitat": 4510,
      "signale": 4511,
      "ereignis": 4512,
      "veranst": 4513,
      "air": 4514,
      "ni": 4515,
      "arkt": 4516,
      "werbung": 4517,
      "entwur": 4518,
      "entgegen": 4519,
      "blin": 4520,
      "damer": 4521,
      "uliert": 4522,
      "ologischen": 4523,
      "sudafr": 4524,
      "situationen": 4525,
      "definition": 4526,
      "trennt": 4527,
      "zuschauer": 4528,
      "francis": 4529,
      "gei": 4530,
      "ales": 4531,
      "achter": 4532,
      "vorfahren": 4533,
      "wurdig": 4534,
      "ffe": 4535,
      "wissens": 4536,
      "machtig": 4537,
      "leichter": 4538,
      "que": 4539,
      "weiße": 4540,
      "wohlstand": 4541,
      "kulturen": 4542,
      "dunkle": 4543,
      "wisst": 4544,
      "definieren": 4545,
      "beschaftigen": 4546,
      "konflik": 4547,
      "brief": 4548,
      "diskussion": 4549,
      "korruption": 4550,
      "ga": 4551,
      "rhy": 4552,
      "geandert": 4553,
      "bemu": 4554,
      "relev": 4555,
      "konkur": 4556,
      "ahnen": 4557,
      "trat": 4558,
      "schland": 4559,
      "phase": 4560,
      "letten": 4561,
      "tonnen": 4562,
      "erklarung": 4563,
      "erstaunliche": 4564,
      "architekten": 4565,
      "flugel": 4566,
      "gross": 4567,
      "grosse": 4568,
      "diagramm": 4569,
      "level": 4570,
      "nachbarn": 4571,
      "instrument": 4572,
      "homo": 4573,
      "3d": 4574,
      "schaus": 4575,
      "spun": 4576,
      "igend": 4577,
      "biot": 4578,
      "produktiv": 4579,
      "kerl": 4580,
      "huhn": 4581,
      "zerstoren": 4582,
      "faktor": 4583,
      "angeneh": 4584,
      "internationalen": 4585,
      "trinken": 4586,
      "?“": 4587,
      "dieren": 4588,
      "genu": 4589,
      "beweise": 4590,
      "mangel": 4591,
      "komment": 4592,
      "pflege": 4593,
      "schriften": 4594,
      "kugel": 4595,
      "personliche": 4596,
      "komponen": 4597,
      "rake": 4598,
      "doktor": 4599,
      "beobachtet": 4600,
      "deutschland": 4601,
      "alisierung": 4602,
      "doppel": 4603,
      "grundlegende": 4604,
      "figur": 4605,
      "druben": 4606,
      "ida": 4607,
      "live": 4608,
      "satze": 4609,
      "erho": 4610,
      "unt": 4611,
      "steine": 4612,
      "bedenken": 4613,
      "ologe": 4614,
      "uberein": 4615,
      "grie": 4616,
      "darstellen": 4617,
      "pra": 4618,
      "gehend": 4619,
      "kore": 4620,
      "betrieben": 4621,
      "momentan": 4622,
      "erwart": 4623,
      "bietet": 4624,
      "schmerzen": 4625,
      "anwenden": 4626,
      "600": 4627,
      "hur": 4628,
      "ermut": 4629,
      "unabhangig": 4630,
      "schm": 4631,
      "gelost": 4632,
      "beweisen": 4633,
      "zep": 4634,
      "sonder": 4635,
      "blauen": 4636,
      "beschloss": 4637,
      "willst": 4638,
      "suß": 4639,
      "wirtschaftlichen": 4640,
      "nerv": 4641,
      "schwierigkeiten": 4642,
      "zerstort": 4643,
      "gedachtnis": 4644,
      "verbindet": 4645,
      "emotionen": 4646,
      "enorme": 4647,
      "mitglieder": 4648,
      "notwendig": 4649,
      "brucke": 4650,
      "leit": 4651,
      "mic": 4652,
      "winter": 4653,
      "sektor": 4654,
      "aussage": 4655,
      "landen": 4656,
      "malar": 4657,
      "leiter": 4658,
      "beschrieben": 4659,
      "wirtschaftliche": 4660,
      "risiken": 4661,
      "abhangigkeit": 4662,
      "entwicklungslandern": 4663,
      "traditionellen": 4664,
      "wesentlich": 4665,
      "buchstaben": 4666,
      "vorstellungen": 4667,
      "beruhrt": 4668,
      "rhyth": 4669,
      "azin": 4670,
      "dns": 4671,
      "ire": 4672,
      "iothe": 4673,
      "klen": 4674,
      "vard": 4675,
      "ersetzen": 4676,
      "erscheint": 4677,
      "erfull": 4678,
      "gefallt": 4679,
      "teen": 4680,
      "ierer": 4681,
      "annehmen": 4682,
      "gige": 4683,
      "beispielsweise": 4684,
      "ipp": 4685,
      "freundin": 4686,
      "times": 4687,
      "ubrig": 4688,
      "besuchen": 4689,
      "graphie": 4690,
      "verfugbar": 4691,
      "mexiko": 4692,
      "show": 4693,
      "pakistan": 4694,
      "schauspiel": 4695,
      "dacht": 4696,
      "jul": 4697,
      "prufen": 4698,
      "ypen": 4699,
      "erstellt": 4700,
      "inseln": 4701,
      "anrei": 4702,
      "einst": 4703,
      "debat": 4704,
      "verdam": 4705,
      "aufgebaut": 4706,
      "umgeben": 4707,
      "proben": 4708,
      "darunter": 4709,
      "fektion": 4710,
      "fuhrungs": 4711,
      "world": 4712,
      "arbeitspl": 4713,
      "gangs": 4714,
      "lehren": 4715,
      "jedenfalls": 4716,
      "back": 4717,
      "geistes": 4718,
      "kameras": 4719,
      "zwang": 4720,
      "erwahnt": 4721,
      "intellekt": 4722,
      "bibliothe": 4723,
      "bauch": 4724,
      "ewi": 4725,
      "hind": 4726,
      "mun": 4727,
      "ole": 4728,
      "pingu": 4729,
      "ube": 4730,
      "uben": 4731,
      "initi": 4732,
      "seele": 4733,
      "abstr": 4734,
      "verab": 4735,
      "ruft": 4736,
      "modern": 4737,
      "liefern": 4738,
      "zahn": 4739,
      "fahrrad": 4740,
      "qual": 4741,
      "beschei": 4742,
      "alters": 4743,
      "stoß": 4744,
      "aufzubauen": 4745,
      "zeigten": 4746,
      "inspiriert": 4747,
      "tumor": 4748,
      "allgemeinen": 4749,
      "george": 4750,
      "-,": 4751,
      "ace": 4752,
      "kei": 4753,
      "ergibt": 4754,
      "verteilt": 4755,
      "vermitteln": 4756,
      "beziehen": 4757,
      "betroffen": 4758,
      "solange": 4759,
      "bereiten": 4760,
      "stehe": 4761,
      "vorzu": 4762,
      "gerichtet": 4763,
      "mehrheit": 4764,
      "blasen": 4765,
      "tour": 4766,
      "planen": 4767,
      "harvard": 4768,
      "nutzlich": 4769,
      "wachstums": 4770,
      "stammzellen": 4771,
      "sequenzen": 4772,
      "wuste": 4773,
      "grundsatzlich": 4774,
      "ey": 4775,
      "gre": 4776,
      "ohren": 4777,
      "ragen": 4778,
      "iegen": 4779,
      "austau": 4780,
      "versicher": 4781,
      "ausland": 4782,
      "herren": 4783,
      "brut": 4784,
      "kannte": 4785,
      "liefer": 4786,
      "vieles": 4787,
      "quasi": 4788,
      "menschlicher": 4789,
      "chron": 4790,
      "erlebnis": 4791,
      ".«": 4792,
      "mr": 4793,
      "ppen": 4794,
      "erlaub": 4795,
      "erforsch": 4796,
      "cher": 4797,
      "rohr": 4798,
      "aufs": 4799,
      "vorne": 4800,
      "proz": 4801,
      "igem": 4802,
      "zeitung": 4803,
      "ulpt": 4804,
      "teln": 4805,
      "gegend": 4806,
      "schwieriger": 4807,
      "stoßen": 4808,
      "gebieten": 4809,
      "lacheln": 4810,
      "geworfen": 4811,
      "grunen": 4812,
      "solcher": 4813,
      "schrecklich": 4814,
      "bomben": 4815,
      "kontinent": 4816,
      "vermeiden": 4817,
      "mah": 4818,
      "pum": 4819,
      "rick": 4820,
      "ergie": 4821,
      "wid": 4822,
      "achse": 4823,
      "roh": 4824,
      "ame": 4825,
      "auswahl": 4826,
      "kongress": 4827,
      "ago": 4828,
      "untersucht": 4829,
      "geruch": 4830,
      "darwin": 4831,
      "ischem": 4832,
      "versagen": 4833,
      "anthr": 4834,
      "grundlage": 4835,
      "seid": 4836,
      "kurve": 4837,
      "kriege": 4838,
      "hilfs": 4839,
      "transpar": 4840,
      "setzten": 4841,
      "verbessert": 4842,
      "haften": 4843,
      "entdeckte": 4844,
      "anwendung": 4845,
      "positive": 4846,
      "westlichen": 4847,
      "gebeten": 4848,
      "bedurfnisse": 4849,
      "analyse": 4850,
      "big": 4851,
      "gig": 4852,
      "hul": 4853,
      "ky": 4854,
      "teste": 4855,
      "verkn": 4856,
      "konfront": 4857,
      "halter": 4858,
      "aturen": 4859,
      "kuhl": 4860,
      "langweil": 4861,
      "saal": 4862,
      "fernseh": 4863,
      "vorhersagen": 4864,
      "gewohnt": 4865,
      "zuganglich": 4866,
      "dimensionen": 4867,
      "erkannt": 4868,
      "kochen": 4869,
      "wettbewerb": 4870,
      "teufel": 4871,
      "ilen": 4872,
      "ron": 4873,
      "stahl": 4874,
      "itan": 4875,
      "versteht": 4876,
      "umge": 4877,
      "manip": 4878,
      "weih": 4879,
      "anderson": 4880,
      "quer": 4881,
      "losigkeit": 4882,
      "langfrist": 4883,
      "schuhe": 4884,
      "univer": 4885,
      "dahinter": 4886,
      "skulpt": 4887,
      "prinzipien": 4888,
      "blaue": 4889,
      "faszinierend": 4890,
      "erwachsene": 4891,
      "galaxie": 4892,
      "lokalen": 4893,
      "paul": 4894,
      "kognit": 4895,
      "65": 4896,
      "cal": 4897,
      "falten": 4898,
      "kalt": 4899,
      "za": 4900,
      "gehei": 4901,
      "berichten": 4902,
      "merken": 4903,
      "mannchen": 4904,
      "frequ": 4905,
      "scheinbar": 4906,
      "personlichen": 4907,
      "welchem": 4908,
      "widerstand": 4909,
      "durchschnittliche": 4910,
      "untersuchung": 4911,
      "digitalen": 4912,
      "literatur": 4913,
      "gerechtigkeit": 4914,
      "hell": 4915,
      "skla": 4916,
      "infektion": 4917,
      "unken": 4918,
      "urch": 4919,
      "decke": 4920,
      "versprechen": 4921,
      "verblu": 4922,
      "soviel": 4923,
      "aufen": 4924,
      "entstand": 4925,
      "herstellung": 4926,
      "welten": 4927,
      "lokal": 4928,
      "hinten": 4929,
      "flor": 4930,
      "worauf": 4931,
      "phot": 4932,
      "wasserstoff": 4933,
      "kredit": 4934,
      "buchern": 4935,
      "gemeinschaften": 4936,
      "hunde": 4937,
      "digital": 4938,
      "burg": 4939,
      "sympt": 4940,
      "grune": 4941,
      "verstehe": 4942,
      "mause": 4943,
      "afrikanischen": 4944,
      "kombination": 4945,
      "potential": 4946,
      "chemikalien": 4947,
      "aspe": 4948,
      "arger": 4949,
      "ath": 4950,
      "able": 4951,
      "absicht": 4952,
      "aufnehmen": 4953,
      "ausser": 4954,
      "entsch": 4955,
      "probe": 4956,
      "loser": 4957,
      "gange": 4958,
      "lebenser": 4959,
      "binden": 4960,
      "folie": 4961,
      "pfund": 4962,
      "stimmung": 4963,
      "besseres": 4964,
      "verbrechen": 4965,
      "parad": 4966,
      "reser": 4967,
      "magazin": 4968,
      "fließen": 4969,
      "beeindruck": 4970,
      "unterstutzt": 4971,
      "kilo": 4972,
      "blumen": 4973,
      "kreislauf": 4974,
      "locher": 4975,
      "gerufen": 4976,
      "camp": 4977,
      "mam": 4978,
      "sat": 4979,
      "einstellung": 4980,
      "verteilung": 4981,
      "rezept": 4982,
      "ausstellung": 4983,
      "etc": 4984,
      "kton": 4985,
      "momente": 4986,
      "wofur": 4987,
      "wohnen": 4988,
      "korre": 4989,
      "linge": 4990,
      "197": 4991,
      "informations": 4992,
      "horten": 4993,
      "feststellen": 4994,
      "maßnahmen": 4995,
      "aktivitaten": 4996,
      "physiker": 4997,
      "erinnerungen": 4998,
      "breite": 4999,
      "lediglich": 5000,
      "eindeutig": 5001,
      "konkurr": 5002,
      "nel": 5003,
      "nive": 5004,
      "chic": 5005,
      "eiter": 5006,
      "vergewalt": 5007,
      "utt": 5008,
      "entfernen": 5009,
      "ird": 5010,
      "lou": 5011,
      "drauf": 5012,
      "zusammenzu": 5013,
      "schrieben": 5014,
      "emis": 5015,
      "insbesondere": 5016,
      "lehrt": 5017,
      "liber": 5018,
      "besitzt": 5019,
      "trafen": 5020,
      "regierungs": 5021,
      "dieselben": 5022,
      "alternative": 5023,
      "transform": 5024,
      "blatter": 5025,
      "iein": 5026,
      "anlage": 5027,
      "gelegt": 5028,
      "verlauf": 5029,
      "begl": 5030,
      "bergen": 5031,
      "sprecher": 5032,
      "hierher": 5033,
      "besessen": 5034,
      "wirkliche": 5035,
      "suden": 5036,
      "ungehe": 5037,
      "tiefen": 5038,
      "fehlt": 5039,
      "echtzeit": 5040,
      "treibt": 5041,
      "erfindung": 5042,
      "jahrzehnte": 5043,
      "kreuz": 5044,
      "franzos": 5045,
      "beinhaltet": 5046,
      "erhielt": 5047,
      "iebs": 5048,
      "einstein": 5049,
      "weist": 5050,
      "besagt": 5051,
      "olly": 5052,
      "meinte": 5053,
      "teils": 5054,
      "mack": 5055,
      "außerst": 5056,
      "mikroskop": 5057,
      "kehrt": 5058,
      "gemeinsame": 5059,
      "yout": 5060,
      "statistiken": 5061,
      "origin": 5062,
      "hypot": 5063,
      "ain": 5064,
      "cam": 5065,
      "cap": 5066,
      "dige": 5067,
      "kette": 5068,
      "stick": 5069,
      "gelebt": 5070,
      "gegrundet": 5071,
      "seht": 5072,
      "beute": 5073,
      "sowas": 5074,
      "umfassen": 5075,
      "vorzustellen": 5076,
      "unterhalt": 5077,
      "barer": 5078,
      "freie": 5079,
      "suchte": 5080,
      "hunger": 5081,
      "imeter": 5082,
      "rechner": 5083,
      "james": 5084,
      "zivilisation": 5085,
      "draht": 5086,
      "23": 5087,
      "hese": 5088,
      "py": 5089,
      "erreich": 5090,
      "abhan": 5091,
      "itiv": 5092,
      "konsu": 5093,
      "gesamm": 5094,
      "ubernehmen": 5095,
      "wirklichen": 5096,
      "selbstverstandlich": 5097,
      "stellungen": 5098,
      "menschliches": 5099,
      "veranderte": 5100,
      "betrachte": 5101,
      "haie": 5102,
      "kasten": 5103,
      "2008": 5104,
      "ozeane": 5105,
      "liebte": 5106,
      "ernsthaft": 5107,
      "bezuglich": 5108,
      "webseite": 5109,
      "kreieren": 5110,
      "kleidung": 5111,
      "gerausche": 5112,
      "youtube": 5113,
      "eu": 5114,
      "nob": 5115,
      "odie": 5116,
      "erhohen": 5117,
      "chung": 5118,
      "anstr": 5119,
      "anfall": 5120,
      "alog": 5121,
      "gebrauch": 5122,
      "lektiv": 5123,
      "ubertrag": 5124,
      "vorteile": 5125,
      "jeweil": 5126,
      "unterhaltung": 5127,
      "sammel": 5128,
      "extra": 5129,
      "trocken": 5130,
      "status": 5131,
      "baute": 5132,
      "frustr": 5133,
      "schwestern": 5134,
      "charles": 5135,
      "spitzen": 5136,
      "geregt": 5137,
      "enorm": 5138,
      "steuert": 5139,
      "strahlung": 5140,
      "resultat": 5141,
      "multi": 5142,
      "bundes": 5143,
      "malaria": 5144,
      "ael": 5145,
      "has": 5146,
      "lar": 5147,
      "va": 5148,
      "stir": 5149,
      "einiges": 5150,
      "schalt": 5151,
      "bewohner": 5152,
      "warme": 5153,
      "werken": 5154,
      "uberwinden": 5155,
      "kenia": 5156,
      "unterrichten": 5157,
      "geschn": 5158,
      "blase": 5159,
      "heisst": 5160,
      "krieges": 5161,
      "rechnen": 5162,
      "schauten": 5163,
      "sprozess": 5164,
      "traumen": 5165,
      "jahrzehnt": 5166,
      "storungen": 5167,
      "digitale": 5168,
      "akzeptieren": 5169,
      "francisco": 5170,
      "aa": 5171,
      "dumm": 5172,
      "put": 5173,
      "ye": 5174,
      "anpass": 5175,
      "zugeben": 5176,
      "decken": 5177,
      "sech": 5178,
      "abfall": 5179,
      "manchen": 5180,
      "spenden": 5181,
      "dipl": 5182,
      "fanten": 5183,
      "bose": 5184,
      "lugen": 5185,
      "mord": 5186,
      "tanzen": 5187,
      "blicken": 5188,
      "sauge": 5189,
      "visu": 5190,
      "grenzt": 5191,
      "legten": 5192,
      "billionen": 5193,
      "stammen": 5194,
      "gesprache": 5195,
      "terrorismus": 5196,
      "ernahrung": 5197,
      "lokale": 5198,
      "kirche": 5199,
      "nasa": 5200,
      "beln": 5201,
      "dungs": 5202,
      "ios": 5203,
      "nase": 5204,
      "anstelle": 5205,
      "seel": 5206,
      "vern": 5207,
      "aufregen": 5208,
      "realen": 5209,
      "igsten": 5210,
      "herein": 5211,
      "fressen": 5212,
      "kenn": 5213,
      "utete": 5214,
      "artige": 5215,
      "einfaches": 5216,
      "teilweise": 5217,
      "schones": 5218,
      "funktionen": 5219,
      "funktionierte": 5220,
      "irgendjemand": 5221,
      "ahnlichen": 5222,
      "metall": 5223,
      "schaue": 5224,
      "großartigen": 5225,
      "chancen": 5226,
      "innovationen": 5227,
      "zwungen": 5228,
      "fasziniert": 5229,
      "glaubte": 5230,
      "verwandelt": 5231,
      "speicher": 5232,
      "bedurfnis": 5233,
      "niveau": 5234,
      "ling": 5235,
      "rus": 5236,
      "val": 5237,
      "stap": 5238,
      "stoffen": 5239,
      "schte": 5240,
      "getragen": 5241,
      "bekomme": 5242,
      "enthalten": 5243,
      "steve": 5244,
      "iron": 5245,
      "langt": 5246,
      "michael": 5247,
      "arbeitung": 5248,
      "kurzer": 5249,
      "innere": 5250,
      "zeichnung": 5251,
      "organisieren": 5252,
      "unglaublichen": 5253,
      "falschen": 5254,
      "gottes": 5255,
      "medizinischen": 5256,
      "knall": 5257,
      "jahrzehnten": 5258,
      "profession": 5259,
      "tasche": 5260,
      "erweitern": 5261,
      "trug": 5262,
      "automatisch": 5263,
      "gegenseitig": 5264,
      "verteidig": 5265,
      "rustung": 5266,
      "sudafrika": 5267,
      "eg": 5268,
      "mischen": 5269,
      "ohr": 5270,
      "anhand": 5271,
      "gebraucht": 5272,
      "refle": 5273,
      "oma": 5274,
      "brid": 5275,
      "damen": 5276,
      "darstellung": 5277,
      "sternen": 5278,
      "schlug": 5279,
      "max": 5280,
      "weiterer": 5281,
      "elefanten": 5282,
      "gesichter": 5283,
      "raumen": 5284,
      "center": 5285,
      "erdbe": 5286,
      "biologische": 5287,
      "mitglied": 5288,
      "uberraschend": 5289,
      "annahme": 5290,
      "russland": 5291,
      "chicago": 5292,
      "cel": 5293,
      "fau": 5294,
      "jener": 5295,
      "mi": 5296,
      "nat": 5297,
      "zz": 5298,
      "eitete": 5299,
      "alex": 5300,
      "wiki": 5301,
      "vert": 5302,
      "bezeichnen": 5303,
      "rock": 5304,
      "lenken": 5305,
      "grab": 5306,
      "liefert": 5307,
      "reihen": 5308,
      "feu": 5309,
      "autom": 5310,
      "spielzeug": 5311,
      "nett": 5312,
      "okol": 5313,
      "zipl": 5314,
      "marken": 5315,
      "folgenden": 5316,
      "musiker": 5317,
      "dauerte": 5318,
      "kapitel": 5319,
      "hyper": 5320,
      "teams": 5321,
      "taucht": 5322,
      "armee": 5323,
      "speziellen": 5324,
      "taschen": 5325,
      "epidemie": 5326,
      "geschenk": 5327,
      "debatte": 5328,
      "cart": 5329,
      "gur": 5330,
      "ii": 5331,
      "imit": 5332,
      "erneuer": 5333,
      "eingesch": 5334,
      "asie": 5335,
      "schuss": 5336,
      "gestar": 5337,
      "lem": 5338,
      "ckten": 5339,
      "serie": 5340,
      "konserv": 5341,
      "ney": 5342,
      "anderung": 5343,
      "ike": 5344,
      "beschr": 5345,
      "betracht": 5346,
      "hunderten": 5347,
      "felder": 5348,
      "fortschritte": 5349,
      "wandeln": 5350,
      "griffen": 5351,
      "programmieren": 5352,
      "moralische": 5353,
      "katastrophen": 5354,
      "algorithmen": 5355,
      "cm": 5356,
      "hir": 5357,
      "hop": 5358,
      "viert": 5359,
      "ana": 5360,
      "ansieht": 5361,
      "vergroß": 5362,
      "soweit": 5363,
      "muskeln": 5364,
      "gipf": 5365,
      "adam": 5366,
      "zweimal": 5367,
      "international": 5368,
      "fahrzeug": 5369,
      "garant": 5370,
      "pedia": 5371,
      "zial": 5372,
      "2010": 5373,
      "zentrale": 5374,
      "afrikas": 5375,
      "antwortet": 5376,
      "institution": 5377,
      "fremden": 5378,
      "geburtstag": 5379,
      "zusatzlich": 5380,
      "behaupten": 5381,
      "bemerkenswert": 5382,
      "flasche": 5383,
      "nigeria": 5384,
      "schnee": 5385,
      "zerstorung": 5386,
      "anthrop": 5387,
      "22": 5388,
      "digkeit": 5389,
      "mio": 5390,
      "pul": 5391,
      "steig": 5392,
      "anon": 5393,
      "anlagen": 5394,
      "anfing": 5395,
      "einhalb": 5396,
      "leucht": 5397,
      "abet": 5398,
      "bezogen": 5399,
      "aufgewachsen": 5400,
      "amaz": 5401,
      "wem": 5402,
      "gering": 5403,
      "dargestellt": 5404,
      "durchfuhren": 5405,
      "gewand": 5406,
      "woran": 5407,
      "drucker": 5408,
      "ics": 5409,
      "lehre": 5410,
      "magie": 5411,
      "transp": 5412,
      "verschwen": 5413,
      "fair": 5414,
      "treib": 5415,
      "interessantes": 5416,
      "spirit": 5417,
      "schlussen": 5418,
      "besitz": 5419,
      "prasentation": 5420,
      "perfekte": 5421,
      "explos": 5422,
      "katastrophe": 5423,
      "studio": 5424,
      "beruhmt": 5425,
      "angeles": 5426,
      "teenager": 5427,
      "[\"": 5428,
      "bart": 5429,
      "dsch": 5430,
      "okt": 5431,
      "phen": 5432,
      "raf": 5433,
      "watt": 5434,
      "erwah": 5435,
      "esie": 5436,
      "ursache": 5437,
      "beruck": 5438,
      "anderungen": 5439,
      "beibringen": 5440,
      "wehr": 5441,
      "unteren": 5442,
      "gerung": 5443,
      "lebendig": 5444,
      "durchzu": 5445,
      "bstoff": 5446,
      "letzter": 5447,
      "starben": 5448,
      "erzahler": 5449,
      "plant": 5450,
      "glucklicherweise": 5451,
      "kanada": 5452,
      "antwortete": 5453,
      "diszipl": 5454,
      "staats": 5455,
      "weshalb": 5456,
      "zwingen": 5457,
      "kontrolliert": 5458,
      "strahlen": 5459,
      "mails": 5460,
      "chinesische": 5461,
      "batterie": 5462,
      "micro": 5463,
      "cin": 5464,
      "cle": 5465,
      "dh": 5466,
      "mama": 5467,
      "wuten": 5468,
      "zert": 5469,
      "erhe": 5470,
      "amour": 5471,
      "umher": 5472,
      "warf": 5473,
      "wieviel": 5474,
      "isst": 5475,
      "island": 5476,
      "muskel": 5477,
      "geschmack": 5478,
      "zahne": 5479,
      "leib": 5480,
      "gemeinsamen": 5481,
      "sichtbar": 5482,
      "mittels": 5483,
      "verschwunden": 5484,
      "walder": 5485,
      "kostenlos": 5486,
      "beobachte": 5487,
      "psychologie": 5488,
      "schicksal": 5489,
      "verglichen": 5490,
      "stoppen": 5491,
      "flagge": 5492,
      "amazon": 5493,
      "knie": 5494,
      "mig": 5495,
      "mern": 5496,
      "ny": 5497,
      "pho": 5498,
      "anen": 5499,
      "schach": 5500,
      "scham": 5501,
      "itz": 5502,
      "konne": 5503,
      "geschaut": 5504,
      "formt": 5505,
      "glamour": 5506,
      "hinunter": 5507,
      "pazi": 5508,
      "platze": 5509,
      "treu": 5510,
      "horiz": 5511,
      "verbreitung": 5512,
      "turen": 5513,
      "bemerkte": 5514,
      "entfernung": 5515,
      "konzentriert": 5516,
      "source": 5517,
      "reaktionen": 5518,
      "talent": 5519,
      "physikal": 5520,
      "sogenannte": 5521,
      "geholfen": 5522,
      "genugend": 5523,
      "zepte": 5524,
      "27": 5525,
      "hob": 5526,
      "kand": 5527,
      "anstieg": 5528,
      "einrichtungen": 5529,
      "ordin": 5530,
      "wirft": 5531,
      "wartet": 5532,
      "bril": 5533,
      "breiten": 5534,
      "lebenden": 5535,
      "nahen": 5536,
      "klaren": 5537,
      "gestaltung": 5538,
      "wenigstens": 5539,
      "general": 5540,
      "gebauden": 5541,
      "komplexen": 5542,
      "nachhaltigkeit": 5543,
      "mittlerweile": 5544,
      "ursprunglich": 5545,
      "instrumente": 5546,
      "diagnost": 5547,
      "besorgt": 5548,
      "verschmutzung": 5549,
      "nommen": 5550,
      "erhoht": 5551,
      "kab": 5552,
      "pet": 5553,
      "erkennung": 5554,
      "unmittel": 5555,
      "attr": 5556,
      "ativer": 5557,
      "stechn": 5558,
      "provis": 5559,
      "brand": 5560,
      "grau": 5561,
      "half": 5562,
      "dick": 5563,
      "worum": 5564,
      "zusammenarbeiten": 5565,
      "phon": 5566,
      "offenen": 5567,
      "wande": 5568,
      "berech": 5569,
      "designs": 5570,
      "unternehmens": 5571,
      "sexu": 5572,
      "street": 5573,
      "schweden": 5574,
      "entscheidend": 5575,
      "nukle": 5576,
      "mechanismus": 5577,
      "strategien": 5578,
      "ereignisse": 5579,
      "fokus": 5580,
      "genießen": 5581,
      "verbluff": 5582,
      "clu": 5583,
      "nar": 5584,
      "ulen": 5585,
      "anfuhrer": 5586,
      "tee": 5587,
      "vertre": 5588,
      "omet": 5589,
      "wovon": 5590,
      "darstellt": 5591,
      "offiz": 5592,
      "diabet": 5593,
      "wolf": 5594,
      "minder": 5595,
      "insgesamt": 5596,
      "langsamer": 5597,
      "marketing": 5598,
      "versteckt": 5599,
      "klinik": 5600,
      "wunschte": 5601,
      "vorstellungskraft": 5602,
      "hohlen": 5603,
      "protein": 5604,
      "okosystem": 5605,
      "effizienz": 5606,
      "interview": 5607,
      "aspekte": 5608,
      "\"]": 5609,
      "rin": 5610,
      "erneut": 5611,
      "itation": 5612,
      "beachten": 5613,
      "ettet": 5614,
      "furs": 5615,
      "zenz": 5616,
      "llt": 5617,
      "geschafte": 5618,
      "apfel": 5619,
      "fahrzeuge": 5620,
      "heilen": 5621,
      "boston": 5622,
      "marke": 5623,
      "koordin": 5624,
      "196": 5625,
      "frucht": 5626,
      "harte": 5627,
      "computern": 5628,
      "2007": 5629,
      "faden": 5630,
      "veroffentlichen": 5631,
      "sonnenlicht": 5632,
      "wahnsinn": 5633,
      "ingenieure": 5634,
      "nannten": 5635,
      "antibiot": 5636,
      "klassenzimmer": 5637,
      "branche": 5638,
      "frankreich": 5639,
      "empfind": 5640,
      "betreiben": 5641,
      "gipfel": 5642,
      "est": 5643,
      "fik": 5644,
      "identen": 5645,
      "iphone": 5646,
      "ther": 5647,
      "vierte": 5648,
      "eise": 5649,
      "legend": 5650,
      "verdient": 5651,
      "berge": 5652,
      "ausgesetzt": 5653,
      "nest": 5654,
      "brun": 5655,
      "bricht": 5656,
      "macher": 5657,
      "schlacht": 5658,
      "reicher": 5659,
      "handys": 5660,
      "partei": 5661,
      "lacher": 5662,
      "spektrum": 5663,
      "oxid": 5664,
      "spezial": 5665,
      "bedeutend": 5666,
      "training": 5667,
      "expon": 5668,
      "proteine": 5669,
      "beteiligt": 5670,
      "chaos": 5671,
      "gemalde": 5672,
      "plattform": 5673,
      "emissionen": 5674,
      "1000": 5675,
      "bay": 5676,
      "fon": 5677,
      "jer": 5678,
      "kas": 5679,
      "kreise": 5680,
      "mur": 5681,
      "ose": 5682,
      "wat": 5683,
      "eier": 5684,
      "schichten": 5685,
      "tech": 5686,
      "abgesehen": 5687,
      "voneinander": 5688,
      "ward": 5689,
      "ethn": 5690,
      "omas": 5691,
      "vorbereitet": 5692,
      "ruhig": 5693,
      "prop": 5694,
      "nachgedacht": 5695,
      "freit": 5696,
      "grossen": 5697,
      "durfte": 5698,
      "teilnehmer": 5699,
      "marsch": 5700,
      "vollstand": 5701,
      "ahnliches": 5702,
      "hormon": 5703,
      "kindes": 5704,
      "basierend": 5705,
      "letztlich": 5706,
      "waltigen": 5707,
      "cyber": 5708,
      "drittens": 5709,
      "ymp": 5710,
      "begegnen": 5711,
      "akadem": 5712,
      "pflicht": 5713,
      "agypten": 5714,
      "wikipedia": 5715,
      "bos": 5716,
      "deiner": 5717,
      "idi": 5718,
      "nes": 5719,
      "gekauft": 5720,
      "seher": 5721,
      "bewirken": 5722,
      "ros": 5723,
      "reagiert": 5724,
      "unterwegs": 5725,
      "artig": 5726,
      "artigen": 5727,
      "kra": 5728,
      "zeitraum": 5729,
      "geleitet": 5730,
      "auton": 5731,
      "leihen": 5732,
      "icken": 5733,
      "phant": 5734,
      "personlichkeit": 5735,
      "scheitern": 5736,
      "organe": 5737,
      "schließt": 5738,
      "university": 5739,
      "patent": 5740,
      "fliegt": 5741,
      "hinterlassen": 5742,
      "gult": 5743,
      "fried": 5744,
      "knapp": 5745,
      "lese": 5746,
      "vergangenen": 5747,
      "hinzufugen": 5748,
      "potenzial": 5749,
      "reduziert": 5750,
      "fokuss": 5751,
      "chirurg": 5752,
      "ollywood": 5753,
      "banken": 5754,
      "fie": 5755,
      "gps": 5756,
      "zone": 5757,
      "inzwischen": 5758,
      "anspru": 5759,
      "anscheinen": 5760,
      "derselben": 5761,
      "getrennt": 5762,
      "leer": 5763,
      "ores": 5764,
      "ierungen": 5765,
      "ierungs": 5766,
      "amt": 5767,
      "ausdrucken": 5768,
      "uberqu": 5769,
      "vorgang": 5770,
      "vorsichtig": 5771,
      "rufe": 5772,
      "heorie": 5773,
      "vielmehr": 5774,
      "maler": 5775,
      "hinauf": 5776,
      "finder": 5777,
      "appar": 5778,
      "strand": 5779,
      "grundlegend": 5780,
      "prag": 5781,
      "chef": 5782,
      "fanger": 5783,
      "gegenden": 5784,
      "irgendeine": 5785,
      "belie": 5786,
      "schwierige": 5787,
      "kollektiv": 5788,
      "kapaz": 5789,
      "sexuelle": 5790,
      "bevolkerungs": 5791,
      "wartung": 5792,
      "speziell": 5793,
      "platten": 5794,
      "studium": 5795,
      "sensoren": 5796,
      "stiftung": 5797,
      "arabischen": 5798,
      "depression": 5799,
      "romant": 5800,
      "therapie": 5801,
      "intensiv": 5802,
      "projekten": 5803,
      "ieinhalb": 5804,
      "deinem": 5805,
      "diert": 5806,
      "gat": 5807,
      "jag": 5808,
      "preise": 5809,
      "sing": 5810,
      "waffe": 5811,
      "ergeben": 5812,
      "ines": 5813,
      "unruh": 5814,
      "anschaut": 5815,
      "gemuse": 5816,
      "atische": 5817,
      "beenden": 5818,
      "bekampfen": 5819,
      "begrenz": 5820,
      "auftrag": 5821,
      "aufgeregt": 5822,
      "omie": 5823,
      "isierte": 5824,
      "vorder": 5825,
      "grav": 5826,
      "ience": 5827,
      "weltweiten": 5828,
      "schießen": 5829,
      "wiederholen": 5830,
      "nordamer": 5831,
      "wissenschaftlern": 5832,
      "wertvoll": 5833,
      "offenbar": 5834,
      "organisiert": 5835,
      "schwere": 5836,
      "misst": 5837,
      "elektrische": 5838,
      "impul": 5839,
      "grosser": 5840,
      "versorgen": 5841,
      "einkommens": 5842,
      "palast": 5843,
      "glaubten": 5844,
      "sperson": 5845,
      "feiern": 5846,
      "traurig": 5847,
      "bg": 5848,
      "hst": 5849,
      "ias": 5850,
      "ius": 5851,
      "pin": 5852,
      "rut": 5853,
      "unver": 5854,
      "stich": 5855,
      "geteilt": 5856,
      "best": 5857,
      "indischen": 5858,
      "ller": 5859,
      "womit": 5860,
      "mehreren": 5861,
      "eigenschaft": 5862,
      "aktive": 5863,
      "minen": 5864,
      "angelegen": 5865,
      "alteren": 5866,
      "zentren": 5867,
      "zentral": 5868,
      "2005": 5869,
      "party": 5870,
      "thun": 5871,
      "dunklen": 5872,
      "friedens": 5873,
      "salz": 5874,
      "zunehmend": 5875,
      "fantastische": 5876,
      "dynamik": 5877,
      "option": 5878,
      "ritu": 5879,
      "niemanden": 5880,
      "geschnitten": 5881,
      "erdbeben": 5882,
      "anscheinend": 5883,
      "250": 5884,
      "cra": 5885,
      "isen": 5886,
      "kro": 5887,
      "knoten": 5888,
      "sms": 5889,
      "vag": 5890,
      "unend": 5891,
      "derer": 5892,
      "bewahr": 5893,
      "ausgaben": 5894,
      "konsequenzen": 5895,
      "beseit": 5896,
      "dul": 5897,
      "bohr": 5898,
      "wichtiges": 5899,
      "verliert": 5900,
      "nimm": 5901,
      "katze": 5902,
      "andererseits": 5903,
      "inspirieren": 5904,
      "staub": 5905,
      "humor": 5906,
      "schatzung": 5907,
      "prior": 5908,
      "horizont": 5909,
      "can": 5910,
      "uar": 5911,
      "gelang": 5912,
      "gehalt": 5913,
      "begreifen": 5914,
      "recy": 5915,
      "bern": 5916,
      "spinnen": 5917,
      "usse": 5918,
      "gesucht": 5919,
      "autob": 5920,
      "techniken": 5921,
      "bedeutete": 5922,
      "biom": 5923,
      "pollen": 5924,
      "planung": 5925,
      "punkten": 5926,
      "kost": 5927,
      "sichtweise": 5928,
      "windet": 5929,
      "besonderen": 5930,
      "schulter": 5931,
      "weisheit": 5932,
      "erfassen": 5933,
      "nebenbei": 5934,
      "sproble": 5935,
      "definiert": 5936,
      "hieß": 5937,
      "rankt": 5938,
      "szene": 5939,
      "theoret": 5940,
      "schwanger": 5941,
      "symptome": 5942,
      "gesammelt": 5943,
      "ci": 5944,
      "juni": 5945,
      "angeht": 5946,
      "anpassen": 5947,
      "eingeladen": 5948,
      "urban": 5949,
      "beherr": 5950,
      "robot": 5951,
      "olymp": 5952,
      "spon": 5953,
      "spart": 5954,
      "spaten": 5955,
      "machst": 5956,
      "ganger": 5957,
      "gerettet": 5958,
      "gelb": 5959,
      "dame": 5960,
      "schoner": 5961,
      "boten": 5962,
      "haushalt": 5963,
      "kaufte": 5964,
      "filmen": 5965,
      "schreiten": 5966,
      "winzig": 5967,
      "wunderbaren": 5968,
      "ratet": 5969,
      "kulturelle": 5970,
      "oberen": 5971,
      "now": 5972,
      "kanal": 5973,
      "reichtum": 5974,
      "investiert": 5975,
      "investitionen": 5976,
      "billig": 5977,
      "hohere": 5978,
      "entdeckungen": 5979,
      "verursachen": 5980,
      "inspiration": 5981,
      "besuchte": 5982,
      "chemische": 5983,
      "kommunikations": 5984,
      "szenar": 5985,
      "diagnose": 5986,
      "budget": 5987,
      "astero": 5988,
      "muslim": 5989,
      "komponenten": 5990,
      "erwartungen": 5991,
      "nobel": 5992,
      "schlussendlich": 5993,
      "ehren": 5994,
      "lasse": 5995,
      "rang": 5996,
      "vas": 5997,
      "wale": 5998,
      "einheiten": 5999,
      "denz": 6000,
      "bezeichnet": 6001,
      "robert": 6002,
      "auftreten": 6003,
      "ausrustung": 6004,
      "metern": 6005,
      "vorhin": 6006,
      "jeg": 6007,
      "lot": 6008,
      "feed": 6009,
      "same": 6010,
      "stufen": 6011,
      "dreidimension": 6012,
      "problems": 6013,
      "polar": 6014,
      "eigentliche": 6015,
      "paris": 6016,
      "oberflachen": 6017,
      "nutzer": 6018,
      "visuelle": 6019,
      "ifiz": 6020,
      "science": 6021,
      "besitzer": 6022,
      "verruckte": 6023,
      "genetische": 6024,
      "terroristen": 6025,
      "umzugehen": 6026,
      "bedrohung": 6027,
      "kapitalismus": 6028,
      "klavier": 6029,
      "ladung": 6030,
      "skelett": 6031,
      "drehte": 6032,
      "latein": 6033,
      "konflikte": 6034,
      "frequenz": 6035,
      "exponent": 6036,
      "brech": 6037,
      "nern": 6038,
      "rann": 6039,
      "anruf": 6040,
      "eingefuhrt": 6041,
      "atomen": 6042,
      "leber": 6043,
      "verfolgt": 6044,
      "kommer": 6045,
      "klingen": 6046,
      "well": 6047,
      "besp": 6048,
      "viet": 6049,
      "wahrnehmen": 6050,
      "technischen": 6051,
      "minim": 6052,
      "chinesen": 6053,
      "hochst": 6054,
      "verwendung": 6055,
      "organismus": 6056,
      "2009": 6057,
      "thomas": 6058,
      "instin": 6059,
      "80ern": 6060,
      "uberraschung": 6061,
      "nugen": 6062,
      "myth": 6063,
      "spezielle": 6064,
      "ernahren": 6065,
      "schlimmste": 6066,
      "grundlegenden": 6067,
      "weibchen": 6068,
      "figuren": 6069,
      "theorien": 6070,
      "kummert": 6071,
      "konsumenten": 6072,
      "berechnen": 6073,
      "26": 6074,
      "ech": 6075,
      "ront": 6076,
      "ender": 6077,
      "zurecht": 6078,
      "atik": 6079,
      "umstanden": 6080,
      "mitnehmen": 6081,
      "ausgeben": 6082,
      "werbe": 6083,
      "ison": 6084,
      "nachmittag": 6085,
      "obama": 6086,
      "gebur": 6087,
      "gebunden": 6088,
      "appl": 6089,
      "asth": 6090,
      "pflich": 6091,
      "pferd": 6092,
      "linke": 6093,
      "wortlich": 6094,
      "hacker": 6095,
      "filter": 6096,
      "verlass": 6097,
      "nationale": 6098,
      "hoffnungs": 6099,
      "lernten": 6100,
      "pflanze": 6101,
      "yorker": 6102,
      "life": 6103,
      "mittelt": 6104,
      "higgs": 6105,
      "studiert": 6106,
      "toler": 6107,
      "effizient": 6108,
      "nachbarschaft": 6109,
      "dunkelheit": 6110,
      "bibliothek": 6111,
      "reflekt": 6112,
      "800": 6113,
      "act": 6114,
      "bier": 6115,
      "iat": 6116,
      "keines": 6117,
      "vel": 6118,
      "erfullen": 6119,
      "anhalten": 6120,
      "verfolg": 6121,
      "verwalt": 6122,
      "beunruh": 6123,
      "waschen": 6124,
      "entschuldig": 6125,
      "vorgehen": 6126,
      "beides": 6127,
      "dazwischen": 6128,
      "merkt": 6129,
      "weltkrieg": 6130,
      "privi": 6131,
      "wiederhol": 6132,
      "zuruckkehren": 6133,
      "bip": 6134,
      "bibel": 6135,
      "subst": 6136,
      "letzen": 6137,
      "angemessen": 6138,
      "fliege": 6139,
      "forderung": 6140,
      "anzusehen": 6141,
      "prasidenten": 6142,
      "grafie": 6143,
      "interessanten": 6144,
      "kreativen": 6145,
      "pilz": 6146,
      "denkweise": 6147,
      "hindert": 6148,
      "brustkrebs": 6149,
      "negativ": 6150,
      "sorgfalt": 6151,
      "korea": 6152,
      "austausch": 6153,
      "prozesse": 6154,
      "diabetes": 6155,
      "privileg": 6156,
      "ades": 6157,
      "bien": 6158,
      "cir": 6159,
      "glet": 6160,
      "iam": 6161,
      "kg": 6162,
      "mie": 6163,
      "oo": 6164,
      "rien": 6165,
      "ray": 6166,
      "gemaß": 6167,
      "denselben": 6168,
      "romo": 6169,
      "rekor": 6170,
      "sender": 6171,
      "lenk": 6172,
      "bron": 6173,
      "wozu": 6174,
      "flut": 6175,
      "chester": 6176,
      "ideal": 6177,
      "gleichgewicht": 6178,
      "packen": 6179,
      "jack": 6180,
      "pfer": 6181,
      "ped": 6182,
      "zeilen": 6183,
      "biologen": 6184,
      "karik": 6185,
      "fließt": 6186,
      "archie": 6187,
      "ifik": 6188,
      "katzen": 6189,
      "schwanz": 6190,
      "widerspruch": 6191,
      "wunsche": 6192,
      "summen": 6193,
      "abenteuer": 6194,
      "vergnugen": 6195,
      "herapie": 6196,
      "schwachen": 6197,
      "kuche": 6198,
      "streifen": 6199,
      "hitze": 6200,
      "erkrankungen": 6201,
      "nervos": 6202,
      "lebenserwartung": 6203,
      "bungen": 6204,
      "ly": 6205,
      "mahl": 6206,
      "neigen": 6207,
      "ya": 6208,
      "enkel": 6209,
      "schop": 6210,
      "gebildet": 6211,
      "gezwungen": 6212,
      "verst": 6213,
      "verlang": 6214,
      "improvis": 6215,
      "aff": 6216,
      "vorschlag": 6217,
      "breit": 6218,
      "braun": 6219,
      "großvater": 6220,
      "alley": 6221,
      "schlagt": 6222,
      "seil": 6223,
      "landlichen": 6224,
      "kreative": 6225,
      "vierten": 6226,
      "saßen": 6227,
      "eigentum": 6228,
      "dankbar": 6229,
      "fels": 6230,
      "glucklicher": 6231,
      "hilf": 6232,
      "universitaten": 6233,
      "politisch": 6234,
      "beruhren": 6235,
      "grundete": 6236,
      "erklarte": 6237,
      "mathematiker": 6238,
      "empfinden": 6239,
      "ghana": 6240,
      "biologischen": 6241,
      "bombe": 6242,
      "seltsame": 6243,
      "außergewohnlich": 6244,
      "interessanterweise": 6245,
      "flaschen": 6246,
      "sogenannten": 6247,
      "ungleichheit": 6248,
      "verknup": 6249,
      "wutend": 6250,
      "32": 6251,
      "bord": 6252,
      "okl": 6253,
      "simp": 6254,
      "wut": 6255,
      "erfinder": 6256,
      "ande": 6257,
      "gemessen": 6258,
      "bewahren": 6259,
      "vorwarts": 6260,
      "beigebracht": 6261,
      "logen": 6262,
      "besucht": 6263,
      "weltbevolkerung": 6264,
      "hinblick": 6265,
      "heiraten": 6266,
      "gewan": 6267,
      "gleichung": 6268,
      "delfin": 6269,
      "tain": 6270,
      "jenen": 6271,
      "medium": 6272,
      "flughafen": 6273,
      "ianer": 6274,
      "fantasie": 6275,
      "handels": 6276,
      "oxy": 6277,
      "sturm": 6278,
      "afrikaner": 6279,
      "niedrig": 6280,
      "konstruktion": 6281,
      "privatsphare": 6282,
      "ppich": 6283,
      "januar": 6284,
      "identifizieren": 6285,
      "gluh": 6286,
      "erforscht": 6287,
      "langweilig": 6288,
      "gestartet": 6289,
      "antibiotika": 6290,
      "rontgen": 6291,
      "bell": 6292,
      "dos": 6293,
      "sw": 6294,
      "erhoh": 6295,
      "iness": 6296,
      "teppich": 6297,
      "wirbel": 6298,
      "bezir": 6299,
      "aufstieg": 6300,
      "ausmachen": 6301,
      "wasch": 6302,
      "kongo": 6303,
      "gesunden": 6304,
      "aham": 6305,
      "isierten": 6306,
      "mosk": 6307,
      "klap": 6308,
      "klug": 6309,
      "iertes": 6310,
      "gigen": 6311,
      "teilten": 6312,
      "gewann": 6313,
      "funk": 6314,
      "exakt": 6315,
      "explo": 6316,
      "packt": 6317,
      "peter": 6318,
      "polio": 6319,
      "fruhe": 6320,
      "ischerweise": 6321,
      "tauscht": 6322,
      "altere": 6323,
      "nationalen": 6324,
      "risk": 6325,
      "erfolgs": 6326,
      "ratten": 6327,
      "regelmaßig": 6328,
      "flugzeuge": 6329,
      "physische": 6330,
      "schwing": 6331,
      "fuße": 6332,
      "erschre": 6333,
      "wunschen": 6334,
      "medikamenten": 6335,
      "beschreibt": 6336,
      "ofter": 6337,
      "stamme": 6338,
      "genetischen": 6339,
      "verletzungen": 6340,
      "analysieren": 6341,
      "konfrontiert": 6342,
      "stirbt": 6343,
      "dum": 6344,
      "jur": 6345,
      "pon": 6346,
      "schokol": 6347,
      "atlant": 6348,
      "afel": 6349,
      "mem": 6350,
      "klat": 6351,
      "schaffung": 6352,
      "darm": 6353,
      "ota": 6354,
      "geblieben": 6355,
      "neuigkeiten": 6356,
      "prax": 6357,
      "probiert": 6358,
      "altes": 6359,
      "aktuelle": 6360,
      "kopfe": 6361,
      "1960": 6362,
      "1990": 6363,
      "lux": 6364,
      "hochsten": 6365,
      "wundervolle": 6366,
      "anzug": 6367,
      "jenseits": 6368,
      "verschiedener": 6369,
      "daumen": 6370,
      "echtes": 6371,
      "eignet": 6372,
      "verkehrs": 6373,
      "streiten": 6374,
      "nano": 6375,
      "wurzeln": 6376,
      "prototypen": 6377,
      "ungeheuer": 6378,
      "beliebt": 6379,
      "120": 6380,
      "29": 6381,
      "hals": 6382,
      "hassen": 6383,
      "mist": 6384,
      "nick": 6385,
      "pad": 6386,
      "wacht": 6387,
      "stille": 6388,
      "angehen": 6389,
      "angesichts": 6390,
      "zukommen": 6391,
      "deck": 6392,
      "bewert": 6393,
      "reform": 6394,
      "umso": 6395,
      "gesunde": 6396,
      "jahriger": 6397,
      "reißen": 6398,
      "einfachheit": 6399,
      "autismus": 6400,
      "zuruckgehen": 6401,
      "tote": 6402,
      "haiti": 6403,
      "wunderschone": 6404,
      "galer": 6405,
      "melzen": 6406,
      "sky": 6407,
      "knopf": 6408,
      "verbesserung": 6409,
      "storung": 6410,
      "dienstleistungen": 6411,
      "chinesischen": 6412,
      "population": 6413,
      "weibliche": 6414,
      "spanne": 6415,
      "kollab": 6416,
      "belohnung": 6417,
      "infiziert": 6418,
      "raketen": 6419,
      "entschlossen": 6420,
      "gewandt": 6421,
      "microsoft": 6422,
      "700": 6423,
      "95": 6424,
      "flog": 6425,
      "kie": 6426,
      "out": 6427,
      "ral": 6428,
      "weinen": 6429,
      "unabhan": 6430,
      "stiz": 6431,
      "zuzu": 6432,
      "genen": 6433,
      "verarbeiten": 6434,
      "vertrag": 6435,
      "benutze": 6436,
      "management": 6437,
      "cks": 6438,
      "ubersetzen": 6439,
      "nachfrage": 6440,
      "graus": 6441,
      "diesmal": 6442,
      "wahrhaft": 6443,
      "teilte": 6444,
      "fange": 6445,
      "willkommen": 6446,
      "bia": 6447,
      "paralle": 6448,
      "zeichnete": 6449,
      "ebenen": 6450,
      "musikal": 6451,
      "base": 6452,
      "ordnet": 6453,
      "testet": 6454,
      "greift": 6455,
      "strecken": 6456,
      "schweine": 6457,
      "ehre": 6458,
      "analog": 6459,
      "schlechtes": 6460,
      "verstecken": 6461,
      "myster": 6462,
      "trennen": 6463,
      "okonomen": 6464,
      "winzigen": 6465,
      "philosophie": 6466,
      "kafer": 6467,
      "diplomat": 6468,
      "28": 6469,
      "diger": 6470,
      "ec": 6471,
      "kus": 6472,
      "ubung": 6473,
      "vit": 6474,
      "wandern": 6475,
      "ance": 6476,
      "eingehen": 6477,
      "alkoh": 6478,
      "begrenzt": 6479,
      "tere": 6480,
      "umstande": 6481,
      "aussterben": 6482,
      "ausnahme": 6483,
      "konzepte": 6484,
      "lob": 6485,
      "lebende": 6486,
      "markten": 6487,
      "kooper": 6488,
      "angetrieben": 6489,
      "dienste": 6490,
      "wundervoll": 6491,
      "kaputt": 6492,
      "armsten": 6493,
      "englischen": 6494,
      "hoheren": 6495,
      "anwendungen": 6496,
      "moralischen": 6497,
      "traditionelle": 6498,
      "hiop": 6499,
      "statistik": 6500,
      "ministerium": 6501,
      "ignorieren": 6502,
      "dichter": 6503,
      "angebot": 6504,
      "zufriedenheit": 6505,
      "kolonie": 6506,
      "geschlechts": 6507,
      "toiletten": 6508,
      "schadel": 6509,
      "hindurch": 6510,
      "erwahnen": 6511,
      "%.": 6512,
      "33": 6513,
      "bob": 6514,
      "ego": 6515,
      "ikon": 6516,
      "mp": 6517,
      "ring": 6518,
      "yl": 6519,
      "“.": 6520,
      "erle": 6521,
      "union": 6522,
      "einschrank": 6523,
      "sensor": 6524,
      "indungen": 6525,
      "wende": 6526,
      "sichern": 6527,
      "gesunder": 6528,
      "lowen": 6529,
      "fache": 6530,
      "strahl": 6531,
      "ungssystem": 6532,
      "volks": 6533,
      "gemeinnutz": 6534,
      "irgendeinem": 6535,
      "bauer": 6536,
      "ruppen": 6537,
      "pathie": 6538,
      "schwerer": 6539,
      "jenem": 6540,
      "aktiven": 6541,
      "riesiges": 6542,
      "elektrischen": 6543,
      "treibstoff": 6544,
      "schickte": 6545,
      "kleinere": 6546,
      "apple": 6547,
      "positiven": 6548,
      "privaten": 6549,
      "brochen": 6550,
      "bush": 6551,
      "mauer": 6552,
      "abends": 6553,
      "hohle": 6554,
      "strafe": 6555,
      "motivation": 6556,
      "beitragen": 6557,
      "behorden": 6558,
      "flexi": 6559,
      "reparieren": 6560,
      "arktis": 6561,
      "entwurf": 6562,
      "ffekt": 6563,
      "ewig": 6564,
      "pinguine": 6565,
      "bridge": 6566,
      "alkohol": 6567,
      "dist": 6568,
      "event": 6569,
      "gase": 6570,
      "jagen": 6571,
      "leitung": 6572,
      "tv": 6573,
      "tja": 6574,
      "erlangen": 6575,
      "inklus": 6576,
      "anweis": 6577,
      "eil": 6578,
      "geomet": 6579,
      "zustande": 6580,
      "atischen": 6581,
      "achen": 6582,
      "reakt": 6583,
      "umfang": 6584,
      "mitzu": 6585,
      "ckend": 6586,
      "anderte": 6587,
      "mos": 6588,
      "low": 6589,
      "kraf": 6590,
      "dinger": 6591,
      "autoren": 6592,
      "ohlen": 6593,
      "sprit": 6594,
      "freich": 6595,
      "technische": 6596,
      "peten": 6597,
      "akten": 6598,
      "wolke": 6599,
      "tropfen": 6600,
      "suchten": 6601,
      "coun": 6602,
      "hard": 6603,
      "offene": 6604,
      "wanden": 6605,
      "stanford": 6606,
      "hilfreich": 6607,
      "erwarmung": 6608,
      "schließend": 6609,
      "meere": 6610,
      "hervorragen": 6611,
      "hohepunkt": 6612,
      "zwanz": 6613,
      "arznei": 6614,
      "logik": 6615,
      "schlimmsten": 6616,
      "pause": 6617,
      "emotionale": 6618,
      "spannend": 6619,
      "neugierig": 6620,
      "tauschung": 6621,
      "symmetrie": 6622,
      "dutzend": 6623,
      "transparenz": 6624,
      "kommerziel": 6625,
      "brett": 6626,
      "git": 6627,
      "got": 6628,
      "pc": 6629,
      "wall": 6630,
      "zund": 6631,
      "zet": 6632,
      "invol": 6633,
      "schme": 6634,
      "zugleich": 6635,
      "deckt": 6636,
      "befreien": 6637,
      "warte": 6638,
      "anne": 6639,
      "uberfluss": 6640,
      "jahrlich": 6641,
      "illusion": 6642,
      "drang": 6643,
      "uckt": 6644,
      "regul": 6645,
      "195": 6646,
      "kunstliche": 6647,
      "sinnvoll": 6648,
      "flussigkeit": 6649,
      "greif": 6650,
      "nahezu": 6651,
      "ballon": 6652,
      "kreisen": 6653,
      "unsichtbar": 6654,
      "behorde": 6655,
      "disziplin": 6656,
      "cre": 6657,
      "ti": 6658,
      "tin": 6659,
      "tlich": 6660,
      "vul": 6661,
      "engen": 6662,
      "assozi": 6663,
      "atome": 6664,
      "verteilen": 6665,
      "aufrecht": 6666,
      "sendung": 6667,
      "bene": 6668,
      "iss": 6669,
      "irr": 6670,
      "vortrage": 6671,
      "hingehen": 6672,
      "strich": 6673,
      "dialog": 6674,
      "authen": 6675,
      "teilnehmen": 6676,
      "asthet": 6677,
      "hou": 6678,
      "mannes": 6679,
      "handlungs": 6680,
      "personal": 6681,
      "betriebs": 6682,
      "außerordent": 6683,
      "hugel": 6684,
      "direktor": 6685,
      "investition": 6686,
      "entscheidende": 6687,
      "arzten": 6688,
      "telefone": 6689,
      "bewusstseins": 6690,
      "benutzten": 6691,
      "resultate": 6692,
      "beitrag": 6693,
      "fischerei": 6694,
      "diskutieren": 6695,
      "relevant": 6696,
      "anstreng": 6697,
      "carto": 6698,
      "pazifik": 6699,
      "bre": 6700,
      "ever": 6701,
      "fut": 6702,
      "phin": 6703,
      "titan": 6704,
      "ystem": 6705,
      "auben": 6706,
      "orchester": 6707,
      "verließ": 6708,
      "verarbeitung": 6709,
      "verpflich": 6710,
      "beam": 6711,
      "aussen": 6712,
      "ausgehen": 6713,
      "ktar": 6714,
      "ahmt": 6715,
      "stete": 6716,
      "demut": 6717,
      "hersteller": 6718,
      "bra": 6719,
      "kompeten": 6720,
      "weh": 6721,
      "dikt": 6722,
      "heimlich": 6723,
      "gleichheit": 6724,
      "wiederholt": 6725,
      "gegenstand": 6726,
      "alem": 6727,
      "sicherer": 6728,
      "monie": 6729,
      "kreb": 6730,
      "way": 6731,
      "1950": 6732,
      "hochste": 6733,
      "ikaner": 6734,
      "haare": 6735,
      "gestaltet": 6736,
      "offensicht": 6737,
      "schreibe": 6738,
      "ordnen": 6739,
      "texas": 6740,
      "effekte": 6741,
      "sozialer": 6742,
      "laser": 6743,
      "fleder": 6744,
      "journalisten": 6745,
      "berechnungen": 6746,
      "komplizierter": 6747,
      "klicken": 6748,
      "erziehung": 6749,
      "weihnachts": 6750,
      "beeindruckend": 6751,
      "jeweils": 6752,
      "maxim": 6753,
      "treibhaus": 6754,
      "praxis": 6755,
      "kraften": 6756,
      "85": 6757,
      "amen": 6758,
      "jh": 6759,
      "larm": 6760,
      "tung": 6761,
      "valley": 6762,
      "eroffnet": 6763,
      "unehmen": 6764,
      "anwalt": 6765,
      "esien": 6766,
      "schall": 6767,
      "schnur": 6768,
      "zucht": 6769,
      "verzer": 6770,
      "becken": 6771,
      "manager": 6772,
      "nachdenkt": 6773,
      "grat": 6774,
      "unterwasser": 6775,
      "hinsichtlich": 6776,
      "bosen": 6777,
      "wortern": 6778,
      "sprich": 6779,
      "gegenstande": 6780,
      "nadel": 6781,
      "hausern": 6782,
      "elegan": 6783,
      "lichter": 6784,
      "besonderes": 6785,
      "lament": 6786,
      "tranen": 6787,
      "visuellen": 6788,
      "heutige": 6789,
      "scan": 6790,
      "shir": 6791,
      "enormen": 6792,
      "afrikanische": 6793,
      "martin": 6794,
      "stabilitat": 6795,
      "schauspieler": 6796,
      "explosion": 6797,
      "vietnam": 6798,
      "balle": 6799,
      "brucken": 6800,
      "dop": 6801,
      "gin": 6802,
      "hip": 6803,
      "keinem": 6804,
      "lk": 6805,
      "pre": 6806,
      "ugen": 6807,
      "wich": 6808,
      "ichert": 6809,
      "ane": 6810,
      "anwesen": 6811,
      "gedichte": 6812,
      "getestet": 6813,
      "teur": 6814,
      "athiop": 6815,
      "orien": 6816,
      "verliebt": 6817,
      "bezahl": 6818,
      "befest": 6819,
      "aufeinander": 6820,
      "umgang": 6821,
      "konvention": 6822,
      "wendet": 6823,
      "entste": 6824,
      "ish": 6825,
      "furchten": 6826,
      "vorn": 6827,
      "vorkommen": 6828,
      "vorgestellt": 6829,
      "mod": 6830,
      "wohlt": 6831,
      "ots": 6832,
      "sonn": 6833,
      "dioxid": 6834,
      "board": 6835,
      "reichend": 6836,
      "lebensraum": 6837,
      "kopfen": 6838,
      "amerikas": 6839,
      "parks": 6840,
      "festgestellt": 6841,
      "verlor": 6842,
      "2004": 6843,
      "bewegungs": 6844,
      "anzugehen": 6845,
      "gebaudes": 6846,
      "erwartete": 6847,
      "elektronen": 6848,
      "europaischen": 6849,
      "fruheren": 6850,
      "stets": 6851,
      "entwicklungslander": 6852,
      "mechanik": 6853,
      "schreckliche": 6854,
      "schwache": 6855,
      "varian": 6856,
      "kontinu": 6857,
      "spannung": 6858,
      "reprasentiert": 6859,
      "spunkt": 6860,
      "verdammt": 6861,
      "gte": 6862,
      "gast": 6863,
      "kiste": 6864,
      "oster": 6865,
      "oßen": 6866,
      "vat": 6867,
      "ente": 6868,
      "erhielten": 6869,
      "anbieten": 6870,
      "ald": 6871,
      "alp": 6872,
      "onkel": 6873,
      "schiz": 6874,
      "getrieben": 6875,
      "verletzt": 6876,
      "beur": 6877,
      "sow": 6878,
      "aufwand": 6879,
      "igungen": 6880,
      "manhat": 6881,
      "werdet": 6882,
      "beizu": 6883,
      "zenten": 6884,
      "gerissen": 6885,
      "lieder": 6886,
      "weltall": 6887,
      "hinweis": 6888,
      "gelaufen": 6889,
      "neulich": 6890,
      "heimer": 6891,
      "ologisch": 6892,
      "bedeckt": 6893,
      "statten": 6894,
      "poly": 6895,
      "irgendwelche": 6896,
      "produkten": 6897,
      "einziges": 6898,
      "power": 6899,
      "2001": 6900,
      "2006": 6901,
      "kulturellen": 6902,
      "alisierte": 6903,
      "burgermeister": 6904,
      "intelligente": 6905,
      "britischen": 6906,
      "fabriken": 6907,
      "nahrungsmittel": 6908,
      "komplizierte": 6909,
      "korrekt": 6910,
      "feedback": 6911,
      "gletscher": 6912,
      "manhattan": 6913,
      "47": 6914,
      "felt": 6915,
      "glan": 6916,
      "kalten": 6917,
      "rio": 6918,
      "erschein": 6919,
      "erzeug": 6920,
      "ino": 6921,
      "anfangt": 6922,
      "einkauf": 6923,
      "schel": 6924,
      "geoffnet": 6925,
      "zuletzt": 6926,
      "leeren": 6927,
      "abl": 6928,
      "achel": 6929,
      "vermehr": 6930,
      "vernetz": 6931,
      "befassen": 6932,
      "umfrage": 6933,
      "uberlebt": 6934,
      "ismen": 6935,
      "liebes": 6936,
      "gib": 6937,
      "wurdest": 6938,
      "krab": 6939,
      "kram": 6940,
      "durcheinander": 6941,
      "hinweise": 6942,
      "ingern": 6943,
      "tater": 6944,
      "nack": 6945,
      "schritten": 6946,
      "william": 6947,
      "betrieb": 6948,
      "?\",": 6949,
      "sitze": 6950,
      "fernseher": 6951,
      "gefasst": 6952,
      "fruhl": 6953,
      "gestoßen": 6954,
      "felsen": 6955,
      "horer": 6956,
      "energieverbrauch": 6957,
      "schulern": 6958,
      "rader": 6959,
      "internets": 6960,
      "auszudrucken": 6961,
      "strecke": 6962,
      "industrielle": 6963,
      "jud": 6964,
      "ianischen": 6965,
      "fußball": 6966,
      "operationen": 6967,
      "cola": 6968,
      "business": 6969,
      "70ern": 6970,
      "ehemann": 6971,
      "begriffen": 6972,
      "wirtschaftswachstum": 6973,
      "lucke": 6974,
      "simul": 6975,
      "leuchtet": 6976,
      "benutzte": 6977,
      "bemerkenswerte": 6978,
      "schweigen": 6979,
      "gelangt": 6980,
      "muslime": 6981,
      "toilette": 6982,
      "trends": 6983,
      "kategor": 6984,
      "griechen": 6985,
      "green": 6986,
      "yeah": 6987,
      "anony": 6988,
      "oxyto": 6989,
      "sowjet": 6990,
      "kum": 6991,
      "ketten": 6992,
      "mol": 6993,
      "oel": 6994,
      "tank": 6995,
      "stin": 6996,
      "ansichten": 6997,
      "alb": 6998,
      "lehnen": 6999,
      "abdruck": 7000,
      "istenz": 7001,
      "verdien": 7002,
      "repl": 7003,
      "ausmacht": 7004,
      "auswirkung": 7005,
      "bracht": 7006,
      "tracht": 7007,
      "gert": 7008,
      "uganda": 7009,
      "extr": 7010,
      "schnelle": 7011,
      "wachen": 7012,
      "betragt": 7013,
      "wissenschaftlich": 7014,
      "baumen": 7015,
      "parlament": 7016,
      "poster": 7017,
      "verschwindet": 7018,
      "note": 7019,
      "ausgegeben": 7020,
      "skal": 7021,
      "physischen": 7022,
      "setzungen": 7023,
      "kreiert": 7024,
      "nachhaltig": 7025,
      "nachhaltige": 7026,
      "globalisierung": 7027,
      "untersuchungen": 7028,
      "alternativen": 7029,
      "allgemeine": 7030,
      "außergewohnliche": 7031,
      "effizienter": 7032,
      "korallenriff": 7033,
      "tricks": 7034,
      "gelande": 7035,
      "algorithmus": 7036,
      "verringern": 7037,
      "synthet": 7038,
      "bescheid": 7039,
      "zwanzig": 7040,
      "ket": 7041,
      "pm": 7042,
      "ruber": 7043,
      "rieren": 7044,
      "smit": 7045,
      "une": 7046,
      "einwohner": 7047,
      "gepr": 7048,
      "gelehrt": 7049,
      "arma": 7050,
      "leger": 7051,
      "termin": 7052,
      "ausschließlich": 7053,
      "ubergang": 7054,
      "kompro": 7055,
      "lande": 7056,
      "unterhalb": 7057,
      "geschr": 7058,
      "weltweite": 7059,
      "krist": 7060,
      "durchs": 7061,
      "tatigkeit": 7062,
      "mai": 7063,
      "drangen": 7064,
      "plus": 7065,
      "aktuellen": 7066,
      "korn": 7067,
      "wolle": 7068,
      "holle": 7069,
      "berecht": 7070,
      "pocken": 7071,
      "wunderschon": 7072,
      "ski": 7073,
      "videospiele": 7074,
      "kampft": 7075,
      "anfangs": 7076,
      "sinken": 7077,
      "immern": 7078,
      "engagement": 7079,
      "entdeckten": 7080,
      "private": 7081,
      "handelte": 7082,
      "oxford": 7083,
      "wusten": 7084,
      "niedriger": 7085,
      "geograph": 7086,
      "skulptur": 7087,
      "pyram": 7088,
      "leuchtung": 7089,
      "spontan": 7090,
      "schizop": 7091,
      "oxytocin": 7092,
      "smith": 7093,
      "bf": 7094,
      "beinen": 7095,
      "hollywood": 7096,
      "jim": 7097,
      "rap": 7098,
      "sir": 7099,
      "wom": 7100,
      "enten": 7101,
      "erkunden": 7102,
      "ersetzt": 7103,
      "chromo": 7104,
      "schmut": 7105,
      "atzt": 7106,
      "uropa": 7107,
      "abteilung": 7108,
      "ight": 7109,
      "benzin": 7110,
      "wiegen": 7111,
      "sprech": 7112,
      "uberprufen": 7113,
      "vorles": 7114,
      "proth": 7115,
      "unterhalten": 7116,
      "geringer": 7117,
      "ival": 7118,
      "zuruckkommen": 7119,
      "tags": 7120,
      "wohlbefinden": 7121,
      "endete": 7122,
      "gefullt": 7123,
      "paras": 7124,
      "lehrern": 7125,
      "zielt": 7126,
      "bewegte": 7127,
      "generieren": 7128,
      "basierte": 7129,
      "tempo": 7130,
      "skala": 7131,
      "blogs": 7132,
      "komplexer": 7133,
      "gewohnlich": 7134,
      "institute": 7135,
      "summe": 7136,
      "schriftsteller": 7137,
      "carol": 7138,
      "ehemal": 7139,
      "fremde": 7140,
      "standards": 7141,
      "verbraucher": 7142,
      "umzusetzen": 7143,
      "trink": 7144,
      "behaupte": 7145,
      "kluft": 7146,
      "journalist": 7147,
      "rauchen": 7148,
      "religiosen": 7149,
      "produktivitat": 7150,
      "original": 7151,
      "moskit": 7152,
      "erledigen": 7153,
      "inklusive": 7154,
      "vulkan": 7155,
      "neig": 7156,
      "pein": 7157,
      "zheimer": 7158,
      "inhalte": 7159,
      "einblick": 7160,
      "gefr": 7161,
      "gegessen": 7162,
      "dene": 7163,
      "verse": 7164,
      "betreten": 7165,
      "bedauern": 7166,
      "ausfuhren": 7167,
      "afe": 7168,
      "ubersetzt": 7169,
      "prog": 7170,
      "ernd": 7171,
      "mobi": 7172,
      "schaffte": 7173,
      "geschutzt": 7174,
      "perio": 7175,
      "glades": 7176,
      "ruckgang": 7177,
      "mac": 7178,
      "schieben": 7179,
      "standpunkt": 7180,
      "korpern": 7181,
      "pharma": 7182,
      "kusten": 7183,
      "richter": 7184,
      "irgendwas": 7185,
      "kopie": 7186,
      "sack": 7187,
      "zukunftige": 7188,
      "zukunftigen": 7189,
      "motoren": 7190,
      "schulden": 7191,
      "blickwinkel": 7192,
      "dreie": 7193,
      "euro": 7194,
      "nutzten": 7195,
      "fertigen": 7196,
      "vereinten": 7197,
      "billiger": 7198,
      "fuhlten": 7199,
      "aufmerksam": 7200,
      "tolles": 7201,
      "chemischen": 7202,
      "benutzer": 7203,
      "einzigartig": 7204,
      "virtuellen": 7205,
      "prazi": 7206,
      "rhythmus": 7207,
      "campus": 7208,
      "clever": 7209,
      "kapazitat": 7210,
      "entschuldigung": 7211,
      "circa": 7212,
      "baseball": 7213,
      "entstehung": 7214,
      "wohltat": 7215,
      "gand": 7216,
      "hus": 7217,
      "kau": 7218,
      "kit": 7219,
      "lein": 7220,
      "oc": 7221,
      "pie": 7222,
      "rab": 7223,
      "ril": 7224,
      "smart": 7225,
      "wag": 7226,
      "zwolf": 7227,
      "eroff": 7228,
      "unfalle": 7229,
      "ante": 7230,
      "antrieb": 7231,
      "einrichtung": 7232,
      "zulassen": 7233,
      "urknall": 7234,
      "orn": 7235,
      "amy": 7236,
      "senken": 7237,
      "ahm": 7238,
      "herab": 7239,
      "jekten": 7240,
      "wecken": 7241,
      "uchtern": 7242,
      "liest": 7243,
      "besie": 7244,
      "reiste": 7245,
      "feucht": 7246,
      "aps": 7247,
      "stere": 7248,
      "heiße": 7249,
      "spiels": 7250,
      "schief": 7251,
      "aktiver": 7252,
      "zelt": 7253,
      "tode": 7254,
      "beschad": 7255,
      "schuf": 7256,
      "gefugt": 7257,
      "schwerkraft": 7258,
      "verbrennen": 7259,
      "maße": 7260,
      "ogenese": 7261,
      "sammelt": 7262,
      "fasern": 7263,
      "papa": 7264,
      "einzusetzen": 7265,
      "westliche": 7266,
      "soziales": 7267,
      "nervenzellen": 7268,
      "fettleib": 7269,
      "winzige": 7270,
      "impfstoff": 7271,
      "gewissermaßen": 7272,
      "dramatisch": 7273,
      "gigant": 7274,
      "beutel": 7275,
      "beschrank": 7276,
      "oktober": 7277,
      "48": 7278,
      "cur": 7279,
      "euer": 7280,
      "gon": 7281,
      "non": 7282,
      "satur": 7283,
      "ufer": 7284,
      "errichten": 7285,
      "algen": 7286,
      "alzheimer": 7287,
      "zugen": 7288,
      "urhe": 7289,
      "verhei": 7290,
      "verbrauchen": 7291,
      "vermittelt": 7292,
      "soc": 7293,
      "rom": 7294,
      "aufzeichnungen": 7295,
      "warst": 7296,
      "immen": 7297,
      "konkre": 7298,
      "konzer": 7299,
      "zem": 7300,
      "schafften": 7301,
      "wodurch": 7302,
      "zeitungen": 7303,
      "hanger": 7304,
      "spielten": 7305,
      "gewinner": 7306,
      "quant": 7307,
      "kurse": 7308,
      "beschutzen": 7309,
      "datenbank": 7310,
      "wohlhaben": 7311,
      "kooperation": 7312,
      "angekommen": 7313,
      "matr": 7314,
      "schreib": 7315,
      "berufs": 7316,
      "bruche": 7317,
      "ausgebildet": 7318,
      "merkmale": 7319,
      "gewohnliche": 7320,
      "prozesses": 7321,
      "lehrerin": 7322,
      "flusse": 7323,
      "gesundheitssystem": 7324,
      "durchschnitts": 7325,
      "freuen": 7326,
      "lampe": 7327,
      "bewerten": 7328,
      "beschreibung": 7329,
      "kohlendioxid": 7330,
      "rechnung": 7331,
      "service": 7332,
      "gewinnt": 7333,
      "vermute": 7334,
      "bedroht": 7335,
      "mischung": 7336,
      "fundamental": 7337,
      "profitieren": 7338,
      "animation": 7339,
      "uberwachung": 7340,
      "angenehm": 7341,
      "florida": 7342,
      "ubertragung": 7343,
      "vagina": 7344,
      "geschritten": 7345,
      "42": 7346,
      "gam": 7347,
      "shar": 7348,
      "erledig": 7349,
      "espe": 7350,
      "gewasser": 7351,
      "abgeschlossen": 7352,
      "verbraucht": 7353,
      "berat": 7354,
      "wasche": 7355,
      "aggress": 7356,
      "ruanda": 7357,
      "protest": 7358,
      "frisch": 7359,
      "klop": 7360,
      "meint": 7361,
      "obdach": 7362,
      "differ": 7363,
      "ulare": 7364,
      "weitermachen": 7365,
      "menschlichkeit": 7366,
      "handler": 7367,
      "lebensqualitat": 7368,
      "wohnung": 7369,
      "glucks": 7370,
      "forschungen": 7371,
      "folgender": 7372,
      "schweren": 7373,
      "schwierigen": 7374,
      "kommst": 7375,
      "drohnen": 7376,
      "physi": 7377,
      "industriellen": 7378,
      "erinnerte": 7379,
      "schlusse": 7380,
      "joe": 7381,
      "blutgef": 7382,
      "worterbuch": 7383,
      "strateg": 7384,
      "geheimnisse": 7385,
      "brennen": 7386,
      "konigin": 7387,
      "konstruieren": 7388,
      "unterscheidet": 7389,
      "speichern": 7390,
      "zusatzliche": 7391,
      "gerust": 7392,
      "herangehen": 7393,
      "elektronik": 7394,
      "primit": 7395,
      "rational": 7396,
      "kosm": 7397,
      "ungewohnlich": 7398,
      "wundern": 7399,
      "arbeitsplatz": 7400,
      "zwangs": 7401,
      "vertik": 7402,
      "gluhbir": 7403,
      "schizophren": 7404,
      "progno": 7405,
      "bam": 7406,
      "biz": 7407,
      "bahnen": 7408,
      "gorie": 7409,
      "litt": 7410,
      "prem": 7411,
      "vem": 7412,
      "won": 7413,
      "erfordert": 7414,
      "inmitten": 7415,
      "state": 7416,
      "schalter": 7417,
      "schlange": 7418,
      "arer": 7419,
      "sied": 7420,
      "republ": 7421,
      "igma": 7422,
      "olit": 7423,
      "warm": 7424,
      "kontr": 7425,
      "komisch": 7426,
      "jahrel": 7427,
      "kran": 7428,
      "fluch": 7429,
      "zahlung": 7430,
      "strager": 7431,
      "zielen": 7432,
      "tatig": 7433,
      "elles": 7434,
      "seide": 7435,
      "zentimeter": 7436,
      "schnitte": 7437,
      "mary": 7438,
      "dreimal": 7439,
      "schuh": 7440,
      "schufen": 7441,
      "wissenschafts": 7442,
      "hauses": 7443,
      "angestellten": 7444,
      "empathie": 7445,
      "tax": 7446,
      "partik": 7447,
      "sexuell": 7448,
      "schatze": 7449,
      "spektak": 7450,
      "ultim": 7451,
      "erzahlten": 7452,
      "pilot": 7453,
      "kombinieren": 7454,
      "zyklus": 7455,
      "depressionen": 7456,
      "budd": 7457,
      "skept": 7458,
      "schleim": 7459,
      "kolonien": 7460,
      "origami": 7461,
      "prufung": 7462,
      "zweites": 7463,
      "prototyp": 7464,
      "intuition": 7465,
      "asteroiden": 7466,
      "urheber": 7467,
      "vember": 7468,
      "gumm": 7469,
      "hh": 7470,
      "idaten": 7471,
      "mall": 7472,
      "tast": 7473,
      "sti": 7474,
      "anerkennung": 7475,
      "zuchten": 7476,
      "ats": 7477,
      "selektion": 7478,
      "abstand": 7479,
      "bedienen": 7480,
      "beendet": 7481,
      "ausgabe": 7482,
      "habet": 7483,
      "ktoren": 7484,
      "allzu": 7485,
      "andau": 7486,
      "grauen": 7487,
      "bildeten": 7488,
      "syl": 7489,
      "heilung": 7490,
      "mais": 7491,
      "sicherstellen": 7492,
      "regist": 7493,
      "irgendein": 7494,
      "energien": 7495,
      "gestalt": 7496,
      "offenheit": 7497,
      "einziger": 7498,
      "2003": 7499,
      "sorgt": 7500,
      "jenige": 7501,
      "media": 7502,
      "regenwald": 7503,
      "vortrags": 7504,
      "tollen": 7505,
      "spezifische": 7506,
      "mechanismen": 7507,
      "conne": 7508,
      "genetisch": 7509,
      "sichtigt": 7510,
      "rettung": 7511,
      "rollstuhl": 7512,
      "virtuelle": 7513,
      "right": 7514,
      "brennstoff": 7515,
      "erzielen": 7516,
      "verwirr": 7517,
      "widerstands": 7518,
      "phosp": 7519,
      "brillan": 7520,
      "vertreter": 7521,
      "55": 7522,
      "].": 7523,
      "bindung": 7524,
      "cas": 7525,
      "clou": 7526,
      "eten": 7527,
      "fix": 7528,
      "tar": 7529,
      "wette": 7530,
      "ermoglich": 7531,
      "ansprechen": 7532,
      "anzeichen": 7533,
      "anhanger": 7534,
      "verei": 7535,
      "befrie": 7536,
      "bestau": 7537,
      "bewaltigen": 7538,
      "rob": 7539,
      "reag": 7540,
      "mittages": 7541,
      "warfen": 7542,
      "aussah": 7543,
      "mandel": 7544,
      "spa": 7545,
      "spaz": 7546,
      "illeg": 7547,
      "kannten": 7548,
      "gerin": 7549,
      "nochmals": 7550,
      "gehoben": 7551,
      "hosen": 7552,
      "freut": 7553,
      "beginne": 7554,
      "kindersterblichkeit": 7555,
      "regung": 7556,
      "starkt": 7557,
      "...\"": 7558,
      "come": 7559,
      "held": 7560,
      "holte": 7561,
      "tragodie": 7562,
      "stoffwechsel": 7563,
      "beobachtung": 7564,
      "programmiert": 7565,
      "psychop": 7566,
      "psychologen": 7567,
      "haufiger": 7568,
      "leser": 7569,
      "kehrte": 7570,
      "finanzieren": 7571,
      "stiegen": 7572,
      "definitiv": 7573,
      "umgebungen": 7574,
      "verruckten": 7575,
      "trainieren": 7576,
      "ursprungliche": 7577,
      "detaill": 7578,
      "simulation": 7579,
      "liebling": 7580,
      "autoritat": 7581,
      "weichen": 7582,
      "schreibtisch": 7583,
      "verwandten": 7584,
      "erfullt": 7585,
      "gates": 7586,
      "nordamerika": 7587,
      "geburts": 7588,
      "echter": 7589,
      "iban": 7590,
      "lim": 7591,
      "ng": 7592,
      "osen": 7593,
      "rassen": 7594,
      "takt": 7595,
      "umen": 7596,
      "ville": 7597,
      "yon": 7598,
      "erb": 7599,
      "erfuhr": 7600,
      "unwahrscheinlich": 7601,
      "ankommen": 7602,
      "einstellen": 7603,
      "esser": 7604,
      "zusehen": 7605,
      "ursachen": 7606,
      "abschließen": 7607,
      "verw": 7608,
      "robu": 7609,
      "aufgeben": 7610,
      "etabl": 7611,
      "uth": 7612,
      "andre": 7613,
      "herzin": 7614,
      "herkunft": 7615,
      "mobel": 7616,
      "loschen": 7617,
      "fußen": 7618,
      "landete": 7619,
      "liefen": 7620,
      "illa": 7621,
      "genaue": 7622,
      "taglichen": 7623,
      "stadium": 7624,
      "startete": 7625,
      "norwegen": 7626,
      "angepasst": 7627,
      "bellen": 7628,
      "gestiegen": 7629,
      "fortgeschritten": 7630,
      "stattfinden": 7631,
      "trager": 7632,
      "anzuschauen": 7633,
      "archiv": 7634,
      "aktionen": 7635,
      "beobacht": 7636,
      "vertrau": 7637,
      "gesetzen": 7638,
      "raub": 7639,
      "erschien": 7640,
      "architekt": 7641,
      "supermarkt": 7642,
      "perfekten": 7643,
      "glied": 7644,
      "schrecken": 7645,
      "abendessen": 7646,
      "kleider": 7647,
      "zweieinhalb": 7648,
      "panik": 7649,
      "feier": 7650,
      "vermeid": 7651,
      "verringer": 7652,
      "religiose": 7653,
      "klettern": 7654,
      "kommentar": 7655,
      "verabschie": 7656,
      "steigern": 7657,
      "amazonas": 7658,
      "rekord": 7659,
      "distanz": 7660,
      "fruhling": 7661,
      "cop": 7662,
      "kb": 7663,
      "pur": 7664,
      "rische": 7665,
      "sas": 7666,
      "uhren": 7667,
      "“,": 7668,
      "enge": 7669,
      "endes": 7670,
      "eric": 7671,
      "erober": 7672,
      "erforschung": 7673,
      "unsicher": 7674,
      "unendlich": 7675,
      "anson": 7676,
      "angeschaut": 7677,
      "einnehmen": 7678,
      "eingriff": 7679,
      "leere": 7680,
      "siehst": 7681,
      "dezem": 7682,
      "iter": 7683,
      "vertreten": 7684,
      "bedien": 7685,
      "rohren": 7686,
      "auflosung": 7687,
      "ausgewahlt": 7688,
      "konzert": 7689,
      "uberlebens": 7690,
      "uberwalt": 7691,
      "isa": 7692,
      "hebt": 7693,
      "halben": 7694,
      "vielzahl": 7695,
      "weltbank": 7696,
      "ado": 7697,
      "meinungen": 7698,
      "bildete": 7699,
      "lichem": 7700,
      "grundlagen": 7701,
      "gleicher": 7702,
      "bole": 7703,
      "boote": 7704,
      "izit": 7705,
      "begru": 7706,
      "reichweite": 7707,
      "menschlich": 7708,
      "geflogen": 7709,
      "hack": 7710,
      "kompon": 7711,
      "wahler": 7712,
      "icon": 7713,
      "wunderschonen": 7714,
      "aktivieren": 7715,
      "farm": 7716,
      "rasse": 7717,
      "bezieht": 7718,
      "neuron": 7719,
      "vereinbar": 7720,
      "umweltschutz": 7721,
      "symbole": 7722,
      "finanziert": 7723,
      "schatzt": 7724,
      "religionen": 7725,
      "altesten": 7726,
      "liebten": 7727,
      "durchschnittlich": 7728,
      "geredet": 7729,
      "kritik": 7730,
      "sturz": 7731,
      "story": 7732,
      "missbrauch": 7733,
      "zigar": 7734,
      "nullsummen": 7735,
      "synchron": 7736,
      "honig": 7737,
      "chirurgen": 7738,
      "restaurants": 7739,
      "freiwilligen": 7740,
      "beruhmte": 7741,
      "gunstig": 7742,
      "radikal": 7743,
      "chips": 7744,
      "vielerlei": 7745,
      "blinden": 7746,
      "anreize": 7747,
      "initiative": 7748,
      "sklaven": 7749,
      "cambridge": 7750,
      "durchzufuhren": 7751,
      "erheb": 7752,
      "uberqueren": 7753,
      "schokolade": 7754,
      "hardware": 7755,
      "arzneimittel": 7756,
      "matrix": 7757,
      "ansonsten": 7758,
      "dezember": 7759,
      "'.": 7760,
      "hagen": 7761,
      "jes": 7762,
      "nik": 7763,
      "nieren": 7764,
      "nirgendwo": 7765,
      "sun": 7766,
      "sang": 7767,
      "vaku": 7768,
      "anstellen": 7769,
      "gesteuert": 7770,
      "arr": 7771,
      "sieb": 7772,
      "elte": 7773,
      "verdoppelt": 7774,
      "verlangt": 7775,
      "verboten": 7776,
      "verhindert": 7777,
      "behandlungen": 7778,
      "auftauchen": 7779,
      "sende": 7780,
      "mitteilen": 7781,
      "wieviele": 7782,
      "mani": 7783,
      "annahmen": 7784,
      "furchte": 7785,
      "locken": 7786,
      "febru": 7787,
      "gelder": 7788,
      "bilde": 7789,
      "machtige": 7790,
      "arbeitern": 7791,
      "netze": 7792,
      "nav": 7793,
      "technisch": 7794,
      "aktuell": 7795,
      "mutig": 7796,
      "paare": 7797,
      "kreaturen": 7798,
      "irgendeiner": 7799,
      "kopieren": 7800,
      "stadtischen": 7801,
      "horn": 7802,
      "balance": 7803,
      "basieren": 7804,
      "freundlich": 7805,
      "parteien": 7806,
      "herrscht": 7807,
      "intelligent": 7808,
      "liebsten": 7809,
      "individuelle": 7810,
      "sonnensystem": 7811,
      "bandbreite": 7812,
      "erkannten": 7813,
      "optimistisch": 7814,
      "clip": 7815,
      "geholt": 7816,
      "akust": 7817,
      "schutteln": 7818,
      "uberzeugung": 7819,
      "griech": 7820,
      "rohre": 7821,
      "umgekehrt": 7822,
      "vergroßern": 7823,
      "impuls": 7824,
      "involviert": 7825,
      "erledigt": 7826,
      "mittagessen": 7827,
      "februar": 7828,
      "brem": 7829,
      "cro": 7830,
      "iro": 7831,
      "kase": 7832,
      "lunge": 7833,
      "uzin": 7834,
      "era": 7835,
      "angi": 7836,
      "einschließlich": 7837,
      "schienen": 7838,
      "schloss": 7839,
      "getr": 7840,
      "leder": 7841,
      "beten": 7842,
      "bewohn": 7843,
      "unger": 7844,
      "redet": 7845,
      "reale": 7846,
      "ameise": 7847,
      "ume": 7848,
      "berichte": 7849,
      "ausgang": 7850,
      "auswahlen": 7851,
      "haber": 7852,
      "splan": 7853,
      "profil": 7854,
      "schenken": 7855,
      "klagen": 7856,
      "großeltern": 7857,
      "ives": 7858,
      "song": 7859,
      "samer": 7860,
      "black": 7861,
      "flung": 7862,
      "objekten": 7863,
      "zieh": 7864,
      "master": 7865,
      "exped": 7866,
      "play": 7867,
      "igkeits": 7868,
      "beschaffen": 7869,
      "lauter": 7870,
      "mittelpunkt": 7871,
      "außerird": 7872,
      "wundervollen": 7873,
      "hunderttausende": 7874,
      "gesellschaftlichen": 7875,
      "großartiges": 7876,
      "vorherseh": 7877,
      "turkei": 7878,
      "robotern": 7879,
      "erfasst": 7880,
      "schwefel": 7881,
      "staatlichen": 7882,
      "schickten": 7883,
      "tiefst": 7884,
      "immuns": 7885,
      "konzentration": 7886,
      "sprogramm": 7887,
      "studierenden": 7888,
      "experimentieren": 7889,
      "taliban": 7890,
      "fotografie": 7891,
      "ursprunglichen": 7892,
      "illegal": 7893,
      "wuchsen": 7894,
      "schwarzes": 7895,
      "beschleunigen": 7896,
      "passte": 7897,
      "verzweifelt": 7898,
      "verzweiflung": 7899,
      "beruhmten": 7900,
      "dutzende": 7901,
      "versicherung": 7902,
      "photo": 7903,
      "konkurrenz": 7904,
      "hypothese": 7905,
      "beobachtete": 7906,
      "lacherlich": 7907,
      "zettel": 7908,
      "athiopien": 7909,
      "bul": 7910,
      "crick": 7911,
      "feln": 7912,
      "hill": 7913,
      "pruft": 7914,
      "sus": 7915,
      "tion": 7916,
      "tafel": 7917,
      "ubt": 7918,
      "anliegen": 7919,
      "anzeige": 7920,
      "augu": 7921,
      "derek": 7922,
      "schwellen": 7923,
      "gedreht": 7924,
      "geeignet": 7925,
      "arist": 7926,
      "dehn": 7927,
      "vereinfach": 7928,
      "bewirkt": 7929,
      "behalter": 7930,
      "aufklar": 7931,
      "auffassung": 7932,
      "berichtet": 7933,
      "mithilfe": 7934,
      "wies": 7935,
      "spender": 7936,
      "anner": 7937,
      "uberlassen": 7938,
      "entzund": 7939,
      "vorschlagen": 7940,
      "brill": 7941,
      "zehen": 7942,
      "heft": 7943,
      "loscht": 7944,
      "hierfur": 7945,
      "orth": 7946,
      "fugt": 7947,
      "reifen": 7948,
      "forman": 7949,
      "ruckwarts": 7950,
      "blitz": 7951,
      "schlicht": 7952,
      "astro": 7953,
      "dring": 7954,
      "hole": 7955,
      "mannliche": 7956,
      "koran": 7957,
      "link": 7958,
      "scheibe": 7959,
      "coole": 7960,
      "harten": 7961,
      "stattfindet": 7962,
      "unglaubliches": 7963,
      "aktivisten": 7964,
      "kollekt": 7965,
      "dose": 7966,
      "tedtal": 7967,
      "gewaltige": 7968,
      "großartiger": 7969,
      "kalte": 7970,
      "kalorien": 7971,
      "trait": 7972,
      "schwamm": 7973,
      "ktiven": 7974,
      "jungfrau": 7975,
      "bai": 7976,
      "finanziellen": 7977,
      "verfugen": 7978,
      "70er": 7979,
      "kritiker": 7980,
      "lagern": 7981,
      "ropie": 7982,
      "hindernisse": 7983,
      "effektiver": 7984,
      "optimismus": 7985,
      "trugen": 7986,
      "verletzung": 7987,
      "ignoranz": 7988,
      "verwandt": 7989,
      "uberwachen": 7990,
      "eschon": 7991,
      "kommentare": 7992,
      "saugetiere": 7993,
      "verwaltung": 7994,
      "phosphor": 7995,
      "blen": 7996,
      "blieben": 7997,
      "fit": 7998,
      "gten": 7999,
      "jor": 8000,
      "kok": 8001,
      "swert": 8002,
      "tiger": 8003,
      "uver": 8004,
      "waff": 8005,
      "zonen": 8006,
      "invas": 8007,
      "ankommt": 8008,
      "eingenommen": 8009,
      "eingeschlossen": 8010,
      "getrei": 8011,
      "zudem": 8012,
      "athei": 8013,
      "versehen": 8014,
      "behaupt": 8015,
      "beangst": 8016,
      "befehl": 8017,
      "ierbar": 8018,
      "aufstehen": 8019,
      "auftritt": 8020,
      "ols": 8021,
      "berater": 8022,
      "benen": 8023,
      "wiegt": 8024,
      "kons": 8025,
      "werben": 8026,
      "ision": 8027,
      "ieller": 8028,
      "grand": 8029,
      "kler": 8030,
      "jahrhunderte": 8031,
      "unterrichtet": 8032,
      "vielmals": 8033,
      "duld": 8034,
      "hing": 8035,
      "opfern": 8036,
      "vieh": 8037,
      "hange": 8038,
      "grundung": 8039,
      "nehmern": 8040,
      "gewahl": 8041,
      "trock": 8042,
      "treff": 8043,
      "setze": 8044,
      "chinas": 8045,
      "poesie": 8046,
      "fuhrenden": 8047,
      "balken": 8048,
      "schuldigen": 8049,
      "verbren": 8050,
      "zehntausende": 8051,
      "kenntnis": 8052,
      "englische": 8053,
      "investoren": 8054,
      "erstaunlichen": 8055,
      "tiefgreifen": 8056,
      "europaische": 8057,
      "prasentieren": 8058,
      "verkaufte": 8059,
      "verurteilt": 8060,
      "gewiss": 8061,
      "individuellen": 8062,
      "klinische": 8063,
      "vertrauens": 8064,
      "bestandteil": 8065,
      "konigreich": 8066,
      "heiligen": 8067,
      "syndro": 8068,
      "chaot": 8069,
      "diskussionen": 8070,
      "betonen": 8071,
      "kategorie": 8072,
      "widmen": 8073,
      "transplant": 8074,
      "kandidaten": 8075,
      "club": 8076,
      "anweisungen": 8077,
      "trinkwasser": 8078,
      "',": 8079,
      "?«": 8080,
      "pru": 8081,
      "pft": 8082,
      "panz": 8083,
      "rungen": 8084,
      "zwill": 8085,
      "unen": 8086,
      "unabhangigkeit": 8087,
      "dert": 8088,
      "ardo": 8089,
      "wischt": 8090,
      "seg": 8091,
      "istent": 8092,
      "verletzen": 8093,
      "sendet": 8094,
      "indische": 8095,
      "weizen": 8096,
      "wendig": 8097,
      "kommenden": 8098,
      "diat": 8099,
      "dilem": 8100,
      "daneben": 8101,
      "dritt": 8102,
      "drinnen": 8103,
      "meile": 8104,
      "sicherzustellen": 8105,
      "großem": 8106,
      "2011": 8107,
      "verbor": 8108,
      "raumschiff": 8109,
      "hochzeit": 8110,
      "ipod": 8111,
      "komplette": 8112,
      "zere": 8113,
      "normales": 8114,
      "projekts": 8115,
      "aktiviert": 8116,
      "herumzu": 8117,
      "kollege": 8118,
      "tempor": 8119,
      "vene": 8120,
      "merkwurdig": 8121,
      "herzlichen": 8122,
      "erfindungen": 8123,
      "finanzielle": 8124,
      "fluores": 8125,
      "erkenntnisse": 8126,
      "logisch": 8127,
      "voraussagen": 8128,
      "fotografiert": 8129,
      "produktions": 8130,
      "klassische": 8131,
      "bedroh": 8132,
      "transportieren": 8133,
      "einzigartige": 8134,
      "berechnet": 8135,
      "interaktionen": 8136,
      "laptops": 8137,
      "erkrankung": 8138,
      "synthese": 8139,
      "anreiz": 8140,
      "paradox": 8141,
      "reihenfolge": 8142,
      "bronx": 8143,
      "gewandelt": 8144,
      "luxus": 8145,
      "kategorien": 8146,
      "saturn": 8147,
      "connect": 8148,
      "fes": 8149,
      "iums": 8150,
      "jager": 8151,
      "uel": 8152,
      "uter": 8153,
      "ypt": 8154,
      "zart": 8155,
      "erbe": 8156,
      "erfand": 8157,
      "eroffnen": 8158,
      "chtet": 8159,
      "unklar": 8160,
      "derart": 8161,
      "teure": 8162,
      "zuverlass": 8163,
      "zutiefst": 8164,
      "tendenz": 8165,
      "verstor": 8166,
      "bege": 8167,
      "begab": 8168,
      "bekampf": 8169,
      "bestes": 8170,
      "lichkeiten": 8171,
      "reflex": 8172,
      "umsetzen": 8173,
      "vorbild": 8174,
      "ierender": 8175,
      "halle": 8176,
      "merkte": 8177,
      "menschenrechte": 8178,
      "gelbe": 8179,
      "gelben": 8180,
      "dampf": 8181,
      "ktionen": 8182,
      "druber": 8183,
      "erstre": 8184,
      "zusammenfassen": 8185,
      "aker": 8186,
      "wachte": 8187,
      "stattet": 8188,
      "buches": 8189,
      "muhe": 8190,
      "saison": 8191,
      "wohnungen": 8192,
      "wahrscheinlicher": 8193,
      "werkzeugen": 8194,
      "enzy": 8195,
      "großeres": 8196,
      "netzwerken": 8197,
      "down": 8198,
      "skiz": 8199,
      "programmierer": 8200,
      "babies": 8201,
      "erstaunt": 8202,
      "studierte": 8203,
      "lampen": 8204,
      "spezifischen": 8205,
      "trenn": 8206,
      "biologisch": 8207,
      "platte": 8208,
      "food": 8209,
      "flogen": 8210,
      "steuerung": 8211,
      "islamischen": 8212,
      "angeboten": 8213,
      "ueber": 8214,
      "vibr": 8215,
      "berechnung": 8216,
      "freiwillige": 8217,
      "unglucklicherweise": 8218,
      "ermutigen": 8219,
      "stickstoff": 8220,
      "anpassung": 8221,
      "aufregende": 8222,
      "raffin": 8223,
      "phantom": 8224,
      "substanz": 8225,
      "atlantik": 8226,
      "gitter": 8227,
      "fettleibigkeit": 8228,
      "cloud": 8229,
      "36": 8230,
      "cafe": 8231,
      "gy": 8232,
      "gore": 8233,
      "ider": 8234,
      "listen": 8235,
      "lings": 8236,
      "piz": 8237,
      "squ": 8238,
      "snow": 8239,
      "wh": 8240,
      "unsicherheit": 8241,
      "anziehen": 8242,
      "gemisch": 8243,
      "gelenk": 8244,
      "ares": 8245,
      "zugehor": 8246,
      "led": 8247,
      "lego": 8248,
      "sey": 8249,
      "absor": 8250,
      "abschnitt": 8251,
      "verpflicht": 8252,
      "betreffen": 8253,
      "aufzunehmen": 8254,
      "ausprobieren": 8255,
      "uther": 8256,
      "entropie": 8257,
      "beizubringen": 8258,
      "proto": 8259,
      "wurfel": 8260,
      "bringe": 8261,
      "day": 8262,
      "darzustellen": 8263,
      "seins": 8264,
      "schafts": 8265,
      "fachen": 8266,
      "fahre": 8267,
      "kins": 8268,
      "zurzeit": 8269,
      "landschaften": 8270,
      "kortex": 8271,
      "passworter": 8272,
      "suppe": 8273,
      "erzahlung": 8274,
      "2012": 8275,
      "raumes": 8276,
      "anzunehmen": 8277,
      "dankeschon": 8278,
      "methan": 8279,
      "bereitung": 8280,
      "schreien": 8281,
      "glaubens": 8282,
      "law": 8283,
      "motto": 8284,
      "zerbrech": 8285,
      "verbreitete": 8286,
      "saule": 8287,
      "kolum": 8288,
      "newton": 8289,
      "dunn": 8290,
      "gefahrliche": 8291,
      "schlagzeilen": 8292,
      "wechselt": 8293,
      "extreme": 8294,
      "individuum": 8295,
      "moralisch": 8296,
      "feuerwehr": 8297,
      "fremd": 8298,
      "kombiniert": 8299,
      "portrait": 8300,
      "halluzin": 8301,
      "primaten": 8302,
      "beruhrung": 8303,
      "solarenergie": 8304,
      "beteiligen": 8305,
      "gefangenen": 8306,
      "briefe": 8307,
      "interviews": 8308,
      "kriminalitat": 8309,
      "konsumieren": 8310,
      "dringend": 8311,
      "niemandem": 8312,
      "belastung": 8313,
      "erlaubnis": 8314,
      "hilfsmittel": 8315,
      "sammelten": 8316,
      "fokussieren": 8317,
      "apparat": 8318,
      "sorgfaltig": 8319,
      "dopamin": 8320,
      "jahrelang": 8321,
      "37": 8322,
      "],": 8323,
      "ae": 8324,
      "ai": 8325,
      "bzw": 8326,
      "jos": 8327,
      "ofen": 8328,
      "pion": 8329,
      "vio": 8330,
      "eingestellt": 8331,
      "einfuhrung": 8332,
      "gefordert": 8333,
      "urlaub": 8334,
      "urteile": 8335,
      "abkommen": 8336,
      "bewiesen": 8337,
      "auftauch": 8338,
      "ahme": 8339,
      "ikationen": 8340,
      "hero": 8341,
      "nachlass": 8342,
      "hierbei": 8343,
      "unterbrochen": 8344,
      "gerie": 8345,
      "durchmesser": 8346,
      "hinweisen": 8347,
      "gelingt": 8348,
      "bislang": 8349,
      "astisch": 8350,
      "draussen": 8351,
      "netzen": 8352,
      "boy": 8353,
      "techniker": 8354,
      "wollt": 8355,
      "phasen": 8356,
      "jedermann": 8357,
      "kose": 8358,
      "cous": 8359,
      "eigentlichen": 8360,
      "gefil": 8361,
      "gestohlen": 8362,
      "gluckliche": 8363,
      "allererst": 8364,
      "anzuwenden": 8365,
      "tsun": 8366,
      "wachsenden": 8367,
      "wachsende": 8368,
      "walte": 8369,
      "virgin": 8370,
      "technologische": 8371,
      "schweben": 8372,
      "mathematische": 8373,
      "demokratischen": 8374,
      "immun": 8375,
      "freue": 8376,
      "britische": 8377,
      "graphen": 8378,
      "kliniken": 8379,
      "keinerlei": 8380,
      "genetik": 8381,
      "himmels": 8382,
      "globaler": 8383,
      "denkst": 8384,
      "spanien": 8385,
      "chinesisch": 8386,
      "massive": 8387,
      "klimawandels": 8388,
      "jugendlichen": 8389,
      "cortex": 8390,
      "neutr": 8391,
      "beschleunigt": 8392,
      "entsprechend": 8393,
      "rakete": 8394,
      "arbeitsplatze": 8395,
      "skulpturen": 8396,
      "kognitive": 8397,
      "sklaverei": 8398,
      "verschwendung": 8399,
      "karikatur": 8400,
      "klappt": 8401,
      "schmutz": 8402,
      "differenz": 8403,
      "aristo": 8404,
      ".:": 8405,
      "fusion": 8406,
      "iale": 8407,
      "runde": 8408,
      "tuch": 8409,
      "uc": 8410,
      "uen": 8411,
      "vok": 8412,
      "steinen": 8413,
      "stheorie": 8414,
      "anrufen": 8415,
      "altete": 8416,
      "gefolgt": 8417,
      "atta": 8418,
      "leon": 8419,
      "abweich": 8420,
      "elend": 8421,
      "versagt": 8422,
      "versetzen": 8423,
      "verraten": 8424,
      "verdacht": 8425,
      "reformen": 8426,
      "ausgestorben": 8427,
      "ausreichend": 8428,
      "enthu": 8429,
      "einerseits": 8430,
      "nachten": 8431,
      "ihad": 8432,
      "halfen": 8433,
      "gereist": 8434,
      "großzug": 8435,
      "mala": 8436,
      "kraten": 8437,
      "feder": 8438,
      "gelahmt": 8439,
      "gebung": 8440,
      "machtigen": 8441,
      "prie": 8442,
      "ungslos": 8443,
      "kammer": 8444,
      "seiden": 8445,
      "howard": 8446,
      "naturschutz": 8447,
      "jazz": 8448,
      "delphin": 8449,
      "zeile": 8450,
      "besserer": 8451,
      "wichtigkeit": 8452,
      "miner": 8453,
      "richtlinien": 8454,
      "lud": 8455,
      "insul": 8456,
      "gestop": 8457,
      "fahigen": 8458,
      "offentlicher": 8459,
      "zentralen": 8460,
      "sinnes": 8461,
      "vaters": 8462,
      "indiens": 8463,
      "deutschen": 8464,
      "alisierten": 8465,
      "raubt": 8466,
      "finanzierung": 8467,
      "starksten": 8468,
      "bedeutsam": 8469,
      "krankheits": 8470,
      "empfanger": 8471,
      "suchtig": 8472,
      "brow": 8473,
      "gelegenheiten": 8474,
      "stammes": 8475,
      "faszinierende": 8476,
      "erfolgreiche": 8477,
      "bedeutende": 8478,
      "fantastischen": 8479,
      "durften": 8480,
      "fullt": 8481,
      "foot": 8482,
      "notwendigkeit": 8483,
      "vermisch": 8484,
      "transportiert": 8485,
      "portion": 8486,
      "erwahnte": 8487,
      "redner": 8488,
      "interpretation": 8489,
      "betrug": 8490,
      "leitungen": 8491,
      "pumpen": 8492,
      "stapel": 8493,
      "verbluffend": 8494,
      "szenario": 8495,
      "toleranz": 8496,
      "bezirk": 8497,
      "teurer": 8498,
      "verheiratet": 8499,
      "schizophrenie": 8500,
      "/&": 8501,
      "bad": 8502,
      "baten": 8503,
      "dome": 8504,
      "ecken": 8505,
      "fbi": 8506,
      "flossen": 8507,
      "lor": 8508,
      "magen": 8509,
      "paten": 8510,
      "rier": 8511,
      "ens": 8512,
      "erung": 8513,
      "inder": 8514,
      "stirn": 8515,
      "einig": 8516,
      "eingebaut": 8517,
      "undation": 8518,
      "schwelle": 8519,
      "geplant": 8520,
      "genossen": 8521,
      "orbit": 8522,
      "abgesch": 8523,
      "verlu": 8524,
      "beantwortet": 8525,
      "terte": 8526,
      "ausger": 8527,
      "aussagen": 8528,
      "ausschnitt": 8529,
      "konto": 8530,
      "agr": 8531,
      "uberdenken": 8532,
      "ruder": 8533,
      "herstellt": 8534,
      "fran": 8535,
      "heter": 8536,
      "schafter": 8537,
      "durchlaufen": 8538,
      "bluten": 8539,
      "flam": 8540,
      "zweiter": 8541,
      "wahrgenommen": 8542,
      "hattest": 8543,
      "interface": 8544,
      "stritten": 8545,
      "dio": 8546,
      "grunder": 8547,
      "tunnel": 8548,
      "ungsweise": 8549,
      "gewinne": 8550,
      "leichen": 8551,
      "boom": 8552,
      "erstmals": 8553,
      "springt": 8554,
      "formel": 8555,
      "leise": 8556,
      "leitet": 8557,
      "plak": 8558,
      "beschrankt": 8559,
      "paaren": 8560,
      "mont": 8561,
      "gemeint": 8562,
      "sichtigen": 8563,
      "angezogen": 8564,
      "lichts": 8565,
      "digt": 8566,
      "digung": 8567,
      "buros": 8568,
      "festhalten": 8569,
      "dreck": 8570,
      "grafische": 8571,
      "beeintracht": 8572,
      "attung": 8573,
      "kampfe": 8574,
      "gefahrdet": 8575,
      "rauschen": 8576,
      "nebenwirkungen": 8577,
      "absolute": 8578,
      "80er": 8579,
      "dorfer": 8580,
      "architekton": 8581,
      "jose": 8582,
      "sprodu": 8583,
      "benotigte": 8584,
      "beschaftigte": 8585,
      "90ern": 8586,
      "klinischen": 8587,
      "ventionen": 8588,
      "krankenhauser": 8589,
      "strahlt": 8590,
      "gegner": 8591,
      "foundation": 8592,
      "erweitert": 8593,
      "akzeptiert": 8594,
      "reprasentieren": 8595,
      "elektronische": 8596,
      "negative": 8597,
      "flaggen": 8598,
      "scharf": 8599,
      "burgh": 8600,
      "mammo": 8601,
      "nelson": 8602,
      "alexander": 8603,
      "anspruchs": 8604,
      "jagd": 8605,
      "dosis": 8606,
      "membran": 8607,
      "unabhangige": 8608,
      "analogie": 8609,
      "authent": 8610,
      "alphabet": 8611,
      "jesus": 8612,
      "but": 8613,
      "mum": 8614,
      "nutze": 8615,
      "rb": 8616,
      "rischen": 8617,
      "ric": 8618,
      "sort": 8619,
      "zten": 8620,
      "erschwing": 8621,
      "anzen": 8622,
      "anspruch": 8623,
      "esst": 8624,
      "ause": 8625,
      "zueinander": 8626,
      "genial": 8627,
      "abgelegen": 8628,
      "elf": 8629,
      "versen": 8630,
      "befrei": 8631,
      "aufwarts": 8632,
      "amate": 8633,
      "ausbr": 8634,
      "weiger": 8635,
      "neandert": 8636,
      "aha": 8637,
      "stehlen": 8638,
      "steuropa": 8639,
      "vortragen": 8640,
      "ruhr": 8641,
      "wurf": 8642,
      "brian": 8643,
      "ernte": 8644,
      "lock": 8645,
      "hingegen": 8646,
      "gelten": 8647,
      "offnete": 8648,
      "antarktis": 8649,
      "stucken": 8650,
      "kame": 8651,
      "seife": 8652,
      "aterial": 8653,
      "soldat": 8654,
      "entwicklungen": 8655,
      "millimeter": 8656,
      "haust": 8657,
      "sicheren": 8658,
      "treppe": 8659,
      "willkur": 8660,
      "monster": 8661,
      "wortes": 8662,
      "mustern": 8663,
      "druckte": 8664,
      "rieb": 8665,
      "2050": 8666,
      "naturlicher": 8667,
      "commun": 8668,
      "wirtschaftlich": 8669,
      "belei": 8670,
      "fruchte": 8671,
      "haw": 8672,
      "freizeit": 8673,
      "großenordnung": 8674,
      "pool": 8675,
      "verwendeten": 8676,
      "veget": 8677,
      "forschern": 8678,
      "jenes": 8679,
      "generell": 8680,
      "ausgedruckt": 8681,
      "bekannter": 8682,
      "gewohnheiten": 8683,
      "ktivitat": 8684,
      "kleineren": 8685,
      "ehrgei": 8686,
      "innovativ": 8687,
      "tiefsee": 8688,
      "hafter": 8689,
      "typische": 8690,
      "stieß": 8691,
      "kampfer": 8692,
      "großtenteils": 8693,
      "kritische": 8694,
      "wesentliche": 8695,
      "trainiert": 8696,
      "polizisten": 8697,
      "frosch": 8698,
      "spiegeln": 8699,
      "popul": 8700,
      "motivieren": 8701,
      "insekt": 8702,
      "fluchtlinge": 8703,
      "elektroden": 8704,
      "programmen": 8705,
      "einzigartigen": 8706,
      "drangt": 8707,
      "unsichtbare": 8708,
      "stimmte": 8709,
      "fossilen": 8710,
      "veranstaltung": 8711,
      "hulle": 8712,
      "vergewaltigt": 8713,
      "erreichte": 8714,
      "beherrschen": 8715,
      "herzinfar": 8716,
      "insulin": 8717,
      "belt": 8718,
      "clin": 8719,
      "dv": 8720,
      "hot": 8721,
      "iq": 8722,
      "mix": 8723,
      "ness": 8724,
      "pir": 8725,
      "rid": 8726,
      "shang": 8727,
      "via": 8728,
      "iebe": 8729,
      "stit": 8730,
      "stopp": 8731,
      "einges": 8732,
      "eingang": 8733,
      "einfuhren": 8734,
      "einnahmen": 8735,
      "asch": 8736,
      "alarm": 8737,
      "schten": 8738,
      "schott": 8739,
      "schlangen": 8740,
      "teller": 8741,
      "denker": 8742,
      "genoss": 8743,
      "urspr": 8744,
      "sell": 8745,
      "secon": 8746,
      "verwund": 8747,
      "mitgebracht": 8748,
      "ets": 8749,
      "indon": 8750,
      "space": 8751,
      "entsetz": 8752,
      "steck": 8753,
      "furchter": 8754,
      "wurm": 8755,
      "brille": 8756,
      "hektar": 8757,
      "lohnt": 8758,
      "zens": 8759,
      "woanders": 8760,
      "durchaus": 8761,
      "durchgehen": 8762,
      "durchbruch": 8763,
      "blume": 8764,
      "wirksam": 8765,
      "strasse": 8766,
      "schlauch": 8767,
      "dringt": 8768,
      "konntest": 8769,
      "izierten": 8770,
      "garage": 8771,
      "passwort": 8772,
      "kuhe": 8773,
      "personlicher": 8774,
      "wohnzimmer": 8775,
      "folgte": 8776,
      "hinterher": 8777,
      "anderswo": 8778,
      "mike": 8779,
      "nutzte": 8780,
      "vorhersage": 8781,
      "riesiger": 8782,
      "entfernten": 8783,
      "sinkt": 8784,
      "fußganger": 8785,
      "demokratische": 8786,
      "time": 8787,
      "erschutter": 8788,
      "typischen": 8789,
      "intelligenten": 8790,
      "empfangen": 8791,
      "traditionen": 8792,
      "brookl": 8793,
      "sturzen": 8794,
      "long": 8795,
      "fotografieren": 8796,
      "globales": 8797,
      "solches": 8798,
      "schrecklichen": 8799,
      "rande": 8800,
      "gegenwartig": 8801,
      "emotionalen": 8802,
      "drusen": 8803,
      "austral": 8804,
      "wettbewerbs": 8805,
      "silber": 8806,
      "silicon": 8807,
      "kuhlt": 8808,
      "okonomischen": 8809,
      "subjekt": 8810,
      "slums": 8811,
      "quantenmechanik": 8812,
      "erlaubte": 8813,
      "dschihad": 8814,
      "angelegenheit": 8815,
      "autobahn": 8816,
      "nobelpreis": 8817,
      "jegliche": 8818,
      "pyramide": 8819,
      "prazise": 8820,
      "manifest": 8821,
      "getreide": 8822,
      "31": 8823,
      "bach": 8824,
      "eb": 8825,
      "iser": 8826,
      "laf": 8827,
      "runden": 8828,
      "tippen": 8829,
      "ubel": 8830,
      "engel": 8831,
      "erlebte": 8832,
      "unbekannte": 8833,
      "anhoren": 8834,
      "angewandt": 8835,
      "einfallen": 8836,
      "arden": 8837,
      "arter": 8838,
      "armer": 8839,
      "zugehen": 8840,
      "sehn": 8841,
      "ablauf": 8842,
      "vereinen": 8843,
      "verdeut": 8844,
      "befand": 8845,
      "roy": 8846,
      "aufwuchs": 8847,
      "umfasst": 8848,
      "umines": 8849,
      "warmer": 8850,
      "wartete": 8851,
      "etik": 8852,
      "ila": 8853,
      "ikation": 8854,
      "ernten": 8855,
      "untere": 8856,
      "geschwi": 8857,
      "arth": 8858,
      "opfe": 8859,
      "key": 8860,
      "wahrung": 8861,
      "dium": 8862,
      "barm": 8863,
      "gehst": 8864,
      "kino": 8865,
      "erstmal": 8866,
      "nackt": 8867,
      "tatsachlichen": 8868,
      "korrig": 8869,
      "lincol": 8870,
      "sichere": 8871,
      "statte": 8872,
      "klare": 8873,
      "spekul": 8874,
      "produz": 8875,
      "ferne": 8876,
      "innenstadt": 8877,
      "kunststoff": 8878,
      "haken": 8879,
      "daraufhin": 8880,
      "kriegt": 8881,
      "point": 8882,
      "2002": 8883,
      "risik": 8884,
      "tempel": 8885,
      "ratte": 8886,
      "notfall": 8887,
      "gewaltigen": 8888,
      "relation": 8889,
      "fehle": 8890,
      "physisch": 8891,
      "turm": 8892,
      "programmier": 8893,
      "direkte": 8894,
      "beeindruckt": 8895,
      "psychische": 8896,
      "nahrstoffe": 8897,
      "hydro": 8898,
      "staatliche": 8899,
      "shak": 8900,
      "trennung": 8901,
      "gewehr": 8902,
      "abraham": 8903,
      "johnson": 8904,
      "ible": 8905,
      "zwecke": 8906,
      "1998": 8907,
      "bestandteile": 8908,
      "meeresspiegel": 8909,
      "strafen": 8910,
      "wunderbares": 8911,
      "jugendliche": 8912,
      "rettungs": 8913,
      "furchtbar": 8914,
      "brasil": 8915,
      "therapien": 8916,
      "negativen": 8917,
      "okonomische": 8918,
      "angriffe": 8919,
      "heimatstadt": 8920,
      "veroffentlichte": 8921,
      "huhner": 8922,
      "thunfisch": 8923,
      "mythos": 8924,
      "kollabor": 8925,
      "parallel": 8926,
      "eventuell": 8927,
      "reaktor": 8928,
      "futtern": 8929,
      "premier": 8930,
      "gummi": 8931,
      "august": 8932,
      "syndrom": 8933,
      "second": 8934,
      "38": 8935,
      "bun": 8936,
      "kter": 8937,
      "kleben": 8938,
      "risch": 8939,
      "rass": 8940,
      "srate": 8941,
      "twe": 8942,
      "truppen": 8943,
      "ßend": 8944,
      "chol": 8945,
      "unvorstell": 8946,
      "stationen": 8947,
      "angesicht": 8948,
      "anatom": 8949,
      "anwalte": 8950,
      "einbringen": 8951,
      "eineinhalb": 8952,
      "eiteten": 8953,
      "schmet": 8954,
      "schuchtern": 8955,
      "gesteuer": 8956,
      "gewiesen": 8957,
      "geduld": 8958,
      "ary": 8959,
      "zuvers": 8960,
      "zutaten": 8961,
      "leug": 8962,
      "def": 8963,
      "deprim": 8964,
      "dehnt": 8965,
      "abhangt": 8966,
      "itor": 8967,
      "elten": 8968,
      "verdopp": 8969,
      "verpack": 8970,
      "sowieso": 8971,
      "aufgestellt": 8972,
      "reda": 8973,
      "umlauf": 8974,
      "berich": 8975,
      "immt": 8976,
      "auslosen": 8977,
      "benjam": 8978,
      "nebel": 8979,
      "agern": 8980,
      "ubergreifen": 8981,
      "provin": 8982,
      "landet": 8983,
[...]
