{
  "version": "1.0",
  "truncation": null,
  "padding": null,
  "added_tokens": [
    {
      "id": 0,
      "content": "[UNK]",
      "single_word": false,
      "lstrip": false,
      "rstrip": false,
      "normalized": false,
      "special": true
    },
    {
      "id": 1,
      "content": "[PAD]",
      "single_word": false,
      "lstrip": false,
      "rstrip": false,
      "normalized": false,
      "special": true
    },
    {
      "id": 2,
      "content": "[CLS]",
      "single_word": false,
      "lstrip": false,
      "rstrip": false,
      "normalized": false,
      "special": true
    },
    {
      "id": 3,
      "content": "[SEP]",
      "single_word": false,
      "lstrip": false,
      "rstrip": false,
      "normalized": false,
      "special": true
    },
    {
      "id": 4,
      "content": "[MASK]",
      "single_word": false,
      "lstrip": false,
      "rstrip": false,
      "normalized": false,
      "special": true
    }
  ],
  "normalizer": {
    "type": "Sequence",
    "normalizers": [
      {
        "type": "NFD"
      },
      {
        "type": "Lowercase"
      },
      {
        "type": "StripAccents"
      }
    ]
  },
  "pre_tokenizer": {
    "type": "Whitespace"
  },
  "post_processor": {
    "type": "TemplateProcessing",
    "single": [
      {
        "SpecialToken": {
          "id": "[CLS]",
          "type_id": 0
        }
      },
      {
        "Sequence": {
          "id": "A",
          "type_id": 0
        }
      },
      {
        "SpecialToken": {
          "id": "[SEP]",
          "type_id": 0
        }
      }
    ],
    "pair": [
      {
        "SpecialToken": {
          "id": "[CLS]",
          "type_id": 0
        }
      },
      {
        "Sequence": {
          "id": "A",
          "type_id": 0
        }
      },
      {
        "SpecialToken": {
          "id": "[SEP]",
          "type_id": 0
        }
      },
      {
        "Sequence": {
          "id": "B",
          "type_id": 1
        }
      },
      {
        "SpecialToken": {
          "id": "[SEP]",
          "type_id": 1
        }
      }
    ],
    "special_tokens": {
      "[CLS]": {
        "id": "[CLS]",
        "ids": [
          2
        ],
        "tokens": [
          "[CLS]"
        ]
      },
      "[SEP]": {
        "id": "[SEP]",
        "ids": [
          3
        ],
        "tokens": [
          "[SEP]"
        ]
      }
    }
  },
  "decoder": null,
  "model": {
    "type": "BPE",
    "dropout": null,
    "unk_token": "[UNK]",
    "continuing_subword_prefix": null,
    "end_of_word_suffix": null,
    "fuse_unk": false,
    "byte_fallback": false,
    "ignore_merges": false,
    "vocab": {
      "[UNK]": 0,
      "[PAD]": 1,
      "[CLS]": 2,
      "[SEP]": 3,
      "[MASK]": 4,
      "!": 5,
      "\"": 6,
      "#": 7,
      "$": 8,
      "%": 9,
      "&": 10,
      "'": 11,
      "(": 12,
      ")": 13,
      "*": 14,
      "+": 15,
      ",": 16,
      "-": 17,
      ".": 18,
      "/": 19,
      "0": 20,
      "1": 21,
      "2": 22,
      "3": 23,
      "4": 24,
      "5": 25,
      "6": 26,
      "7": 27,
      "8": 28,
      "9": 29,
      ":": 30,
      ";": 31,
      "<": 32,
      "=": 33,
      ">": 34,
      "?": 35,
      "@": 36,
      "[": 37,
      "\\": 38,
      "]": 39,
      "^": 40,
      "_": 41,
      "`": 42,
      "a": 43,
      "b": 44,
      "c": 45,
      "d": 46,
      "e": 47,
      "f": 48,
      "g": 49,
      "h": 50,
      "i": 51,
      "j": 52,
      "k": 53,
      "l": 54,
      "m": 55,
      "n": 56,
      "o": 57,
      "p": 58,
      "q": 59,
      "r": 60,
      "s": 61,
      "t": 62,
      "u": 63,
      "v": 64,
      "w": 65,
      "x": 66,
      "y": 67,
      "z": 68,
      "|": 69,
      "}": 70,
      "~": 71,
      "": 72,
      "": 73,
      "¡": 74,
      "¢": 75,
      "£": 76,
      "¥": 77,
      "§": 78,
      "°": 79,
      "±": 80,
      "²": 81,
      "³": 82,
      "´": 83,
      "µ": 84,
      "·": 85,
      "º": 86,
      "½": 87,
      "¿": 88,
      "×": 89,
      "ß": 90,
      "æ": 91,
      "ð": 92,
      "ø": 93,
      "þ": 94,
      "đ": 95,
      "ħ": 96,
      "ı": 97,
      "ł": 98,
      "œ": 99,
      "ɐ": 100,
      "ɑ": 101,
      "ɒ": 102,
      "ɔ": 103,
      "ə": 104,
      "ɛ": 105,
      "ɜ": 106,
      "ɡ": 107,
      "ɢ": 108,
      "ɪ": 109,
      "ɫ": 110,
      "ɳ": 111,
      "ɽ": 112,
      "ɾ": 113,
      "ʁ": 114,
      "ʃ": 115,
      "ʊ": 116,
      "ʋ": 117,
      "ʒ": 118,
      "ʔ": 119,
      "ʕ": 120,
      "ʲ": 121,
      "ʻ": 122,
      "ʼ": 123,
      "ʾ": 124,
      "ʿ": 125,
      "ˈ": 126,
      "ˌ": 127,
      "ː": 128,
      "α": 129,
      "β": 130,
      "γ": 131,
      "δ": 132,
      "ε": 133,
      "η": 134,
      "θ": 135,
      "ι": 136,
      "κ": 137,
      "λ": 138,
      "μ": 139,
      "ν": 140,
      "ξ": 141,
      "ο": 142,
      "π": 143,
      "ρ": 144,
      "ς": 145,
      "σ": 146,
      "τ": 147,
      "υ": 148,
      "φ": 149,
      "χ": 150,
      "ψ": 151,
      "ω": 152,
      "а": 153,
      "б": 154,
      "в": 155,
      "г": 156,
      "д": 157,
      "е": 158,
      "ж": 159,
      "з": 160,
      "и": 161,
      "к": 162,
      "л": 163,
      "м": 164,
      "н": 165,
      "о": 166,
      "п": 167,
      "р": 168,
      "с": 169,
      "т": 170,
      "у": 171,
      "х": 172,
      "ц": 173,
      "ш": 174,
      "ъ": 175,
      "ы": 176,
      "ь": 177,
      "ю": 178,
      "я": 179,
      "є": 180,
      "א": 181,
      "ב": 182,
      "ג": 183,
      "ה": 184,
      "ו": 185,
      "ז": 186,
      "ח": 187,
      "י": 188,
      "ל": 189,
      "ם": 190,
      "מ": 191,
      "ן": 192,
      "נ": 193,
      "ס": 194,
      "ף": 195,
      "פ": 196,
      "צ": 197,
      "ר": 198,
      "ש": 199,
      "ת": 200,
      "ء": 201,
      "ا": 202,
      "ب": 203,
      "ة": 204,
      "ت": 205,
      "ث": 206,
      "ج": 207,
      "ح": 208,
      "خ": 209,
      "د": 210,
      "ذ": 211,
      "ر": 212,
      "س": 213,
      "ش": 214,
      "ص": 215,
      "ع": 216,
      "ف": 217,
      "ق": 218,
      "ك": 219,
      "ل": 220,
      "م": 221,
      "ن": 222,
      "ه": 223,
      "و": 224,
      "ي": 225,
      "ܐ": 226,
      "ܕ": 227,
      "ܗ": 228,
      "ܝ": 229,
      "ܠ": 230,
      "ܢ": 231,
      "ܬ": 232,
      "अ": 233,
      "ई": 234,
      "क": 235,
      "ग": 236,
      "ण": 237,
      "त": 238,
      "द": 239,
      "न": 240,
      "प": 241,
      "ब": 242,
      "म": 243,
      "य": 244,
      "र": 245,
      "ल": 246,
      "व": 247,
      "स": 248,
      "ह": 249,
      "আ": 250,
      "ল": 251,
      "হ": 252,
      "ਅ": 253,
      "ਲ": 254,
      "ਹ": 255,
      "അ": 256,
      "ള": 257,
      "ഹ": 258,
      "ก": 259,
      "ค": 260,
      "ง": 261,
      "ช": 262,
      "ซ": 263,
      "ญ": 264,
      "ฐ": 265,
      "ณ": 266,
      "ด": 267,
      "ต": 268,
      "น": 269,
      "บ": 270,
      "ป": 271,
      "พ": 272,
      "ภ": 273,
      "ม": 274,
      "ย": 275,
      "ร": 276,
      "ล": 277,
      "ว": 278,
      "ศ": 279,
      "ษ": 280,
      "ส": 281,
      "ห": 282,
      "อ": 283,
      "ฮ": 284,
      "ะ": 285,
      "า": 286,
      "เ": 287,
      "แ": 288,
      "ไ": 289,
      "ა": 290,
      "ბ": 291,
      "გ": 292,
      "დ": 293,
      "ე": 294,
      "ვ": 295,
      "ზ": 296,
      "თ": 297,
      "ი": 298,
      "კ": 299,
      "ლ": 300,
      "მ": 301,
      "ნ": 302,
      "ო": 303,
      "პ": 304,
      "ჟ": 305,
      "რ": 306,
      "ს": 307,
      "ტ": 308,
      "უ": 309,
      "ფ": 310,
      "ქ": 311,
      "ღ": 312,
      "ყ": 313,
      "შ": 314,
      "ჩ": 315,
      "ც": 316,
      "ძ": 317,
      "წ": 318,
      "ჭ": 319,
      "ხ": 320,
      "ჯ": 321,
      "ჰ": 322,
      "ჱ": 323,
      "ჲ": 324,
      "ჳ": 325,
      "ჴ": 326,
      "ჵ": 327,
      "ჶ": 328,
      "ჷ": 329,
      "ჸ": 330,
      "ჹ": 331,
      "ჺ": 332,
      "჻": 333,
      "ᄃ": 334,
      "ᄅ": 335,
      "ᄇ": 336,
      "ᄋ": 337,
      "ᄌ": 338,
      "ᅡ": 339,
      "ᅢ": 340,
      "ᅦ": 341,
      "ᅧ": 342,
      "ᅩ": 343,
      "ᅮ": 344,
      "ᅵ": 345,
      "ᆨ": 346,
      "ᆫ": 347,
      "ᆯ": 348,
      "ᆸ": 349,
      "ᆼ": 350,
      "ᵻ": 351,
      "​": 352,
      "‐": 353,
      "‑": 354,
      "–": 355,
      "—": 356,
      "―": 357,
      "‘": 358,
      "’": 359,
      "“": 360,
      "”": 361,
      "„": 362,
      "†": 363,
      "‡": 364,
      "•": 365,
      "…": 366,
      "′": 367,
      "″": 368,
      "⁄": 369,
      "₣": 370,
      "₤": 371,
      "€": 372,
      "₹": 373,
      "⅓": 374,
      "⅔": 375,
      "→": 376,
      "−": 377,
      "≡": 378,
      "≤": 379,
      "①": 380,
      "☉": 381,
      "☫": 382,
      "♀": 383,
      "♭": 384,
      "♯": 385,
      "⚳": 386,
      "ⴀ": 387,
      "ⴂ": 388,
      "ⴃ": 389,
      "ⴈ": 390,
      "ⴌ": 391,
      "ⴕ": 392,
      "ⴟ": 393,
      "〈": 394,
      "〉": 395,
      "〜": 396,
      "あ": 397,
      "い": 398,
      "う": 399,
      "お": 400,
      "か": 401,
      "き": 402,
      "く": 403,
      "け": 404,
      "こ": 405,
      "さ": 406,
      "し": 407,
      "す": 408,
      "せ": 409,
      "た": 410,
      "ち": 411,
      "っ": 412,
      "つ": 413,
      "と": 414,
      "な": 415,
      "に": 416,
      "の": 417,
      "は": 418,
      "ひ": 419,
      "ふ": 420,
      "ほ": 421,
      "ま": 422,
      "み": 423,
      "め": 424,
      "も": 425,
      "ゃ": 426,
      "ゆ": 427,
      "ょ": 428,
      "ら": 429,
      "り": 430,
      "る": 431,
      "れ": 432,
      "わ": 433,
      "を": 434,
      "ん": 435,
      "ァ": 436,
      "ア": 437,
      "ィ": 438,
      "イ": 439,
      "ゥ": 440,
      "ウ": 441,
      "ェ": 442,
      "エ": 443,
      "ォ": 444,
      "オ": 445,
      "カ": 446,
      "キ": 447,
      "ク": 448,
      "ケ": 449,
      "コ": 450,
      "サ": 451,
      "シ": 452,
      "ス": 453,
      "セ": 454,
      "タ": 455,
      "チ": 456,
      "ッ": 457,
      "ツ": 458,
      "テ": 459,
      "ト": 460,
      "ナ": 461,
      "ニ": 462,
      "ネ": 463,
      "ノ": 464,
      "ハ": 465,
      "フ": 466,
      "ヘ": 467,
      "マ": 468,
      "ミ": 469,
      "ム": 470,
      "モ": 471,
      "ャ": 472,
      "ュ": 473,
      "ョ": 474,
      "ラ": 475,
      "リ": 476,
      "ル": 477,
      "レ": 478,
      "ロ": 479,
      "ン": 480,
      "・": 481,
      "ー": 482,
      "一": 483,
      "七": 484,
      "下": 485,
      "世": 486,
      "丙": 487,
      "中": 488,
      "主": 489,
      "乃": 490,
      "之": 491,
      "乙": 492,
      "九": 493,
      "二": 494,
      "云": 495,
      "人": 496,
      "今": 497,
      "付": 498,
      "作": 499,
      "侗": 500,
      "依": 501,
      "信": 502,
      "傳": 503,
      "儚": 504,
      "充": 505,
      "光": 506,
      "全": 507,
      "兵": 508,
      "其": 509,
      "具": 510,
      "円": 511,
      "再": 512,
      "出": 513,
      "判": 514,
      "前": 515,
      "剛": 516,
      "劇": 517,
      "劉": 518,
      "動": 519,
      "化": 520,
      "北": 521,
      "华": 522,
      "厂": 523,
      "去": 524,
      "古": 525,
      "可": 526,
      "台": 527,
      "史": 528,
      "同": 529,
      "名": 530,
      "君": 531,
      "吳": 532,
      "周": 533,
      "命": 534,
      "和": 535,
      "咲": 536,
      "善": 537,
      "四": 538,
      "國": 539,
      "園": 540,
      "圣": 541,
      "在": 542,
      "坂": 543,
      "堤": 544,
      "場": 545,
      "塘": 546,
      "夕": 547,
      "大": 548,
      "天": 549,
      "夫": 550,
      "女": 551,
      "妙": 552,
      "姚": 553,
      "子": 554,
      "孟": 555,
      "守": 556,
      "安": 557,
      "宋": 558,
      "完": 559,
      "宗": 560,
      "宝": 561,
      "宫": 562,
      "寝": 563,
      "寺": 564,
      "小": 565,
      "少": 566,
      "尾": 567,
      "山": 568,
      "岳": 569,
      "川": 570,
      "州": 571,
      "巳": 572,
      "市": 573,
      "師": 574,
      "平": 575,
      "广": 576,
      "庆": 577,
      "府": 578,
      "座": 579,
      "廬": 580,
      "建": 581,
      "式": 582,
      "張": 583,
      "彌": 584,
      "彩": 585,
      "彼": 586,
      "後": 587,
      "御": 588,
      "德": 589,
      "思": 590,
      "愛": 591,
      "憑": 592,
      "憶": 593,
      "應": 594,
      "懷": 595,
      "战": 596,
      "戦": 597,
      "扈": 598,
      "技": 599,
      "拉": 600,
      "拳": 601,
      "挑": 602,
      "揺": 603,
      "攻": 604,
      "放": 605,
      "政": 606,
      "散": 607,
      "斯": 608,
      "方": 609,
      "日": 610,
      "旦": 611,
      "旭": 612,
      "昌": 613,
      "明": 614,
      "星": 615,
      "春": 616,
      "晋": 617,
      "景": 618,
      "曦": 619,
      "月": 620,
      "望": 621,
      "未": 622,
      "本": 623,
      "李": 624,
      "村": 625,
      "杜": 626,
      "束": 627,
      "来": 628,
      "林": 629,
      "桜": 630,
      "梶": 631,
      "棘": 632,
      "椎": 633,
      "楊": 634,
      "楚": 635,
      "榮": 636,
      "橘": 637,
      "機": 638,
      "正": 639,
      "殻": 640,
      "殿": 641,
      "母": 642,
      "水": 643,
      "汉": 644,
      "沂": 645,
      "沙": 646,
      "河": 647,
      "泗": 648,
      "波": 649,
      "泣": 650,
      "洪": 651,
      "淹": 652,
      "清": 653,
      "湯": 654,
      "漢": 655,
      "澄": 656,
      "澤": 657,
      "火": 658,
      "灯": 659,
      "灵": 660,
      "灼": 661,
      "焼": 662,
      "熱": 663,
      "物": 664,
      "狐": 665,
      "狸": 666,
      "玄": 667,
      "王": 668,
      "玩": 669,
      "珂": 670,
      "珙": 671,
      "球": 672,
      "理": 673,
      "琦": 674,
      "琪": 675,
      "瓊": 676,
      "生": 677,
      "田": 678,
      "畢": 679,
      "番": 680,
      "瘡": 681,
      "白": 682,
      "皮": 683,
      "真": 684,
      "砲": 685,
      "礮": 686,
      "祈": 687,
      "神": 688,
      "祠": 689,
      "秋": 690,
      "空": 691,
      "立": 692,
      "精": 693,
      "約": 694,
      "絵": 695,
      "織": 696,
      "義": 697,
      "翠": 698,
      "者": 699,
      "耕": 700,
      "肖": 701,
      "胡": 702,
      "膀": 703,
      "臂": 704,
      "興": 705,
      "良": 706,
      "花": 707,
      "芳": 708,
      "芽": 709,
      "若": 710,
      "英": 711,
      "藕": 712,
      "藥": 713,
      "蘄": 714,
      "蘇": 715,
      "行": 716,
      "裁": 717,
      "規": 718,
      "覺": 719,
      "观": 720,
      "解": 721,
      "記": 722,
      "誓": 723,
      "誡": 724,
      "誰": 725,
      "謎": 726,
      "许": 727,
      "谭": 728,
      "豪": 729,
      "豫": 730,
      "費": 731,
      "贵": 732,
      "赤": 733,
      "趙": 734,
      "足": 735,
      "跡": 736,
      "転": 737,
      "辛": 738,
      "逆": 739,
      "遇": 740,
      "運": 741,
      "過": 742,
      "遠": 743,
      "選": 744,
      "邦": 745,
      "邱": 746,
      "部": 747,
      "郭": 748,
      "都": 749,
      "酈": 750,
      "里": 751,
      "野": 752,
      "金": 753,
      "銃": 754,
      "鋼": 755,
      "錄": 756,
      "錡": 757,
      "鍵": 758,
      "鐵": 759,
      "钱": 760,
      "铁": 761,
      "關": 762,
      "防": 763,
      "阿": 764,
      "陈": 765,
      "陳": 766,
      "陽": 767,
      "隊": 768,
      "階": 769,
      "集": 770,
      "雪": 771,
      "雲": 772,
      "霖": 773,
      "霹": 774,
      "靂": 775,
      "韓": 776,
      "願": 777,
      "顯": 778,
      "颜": 779,
      "马": 780,
      "高": 781,
      "龍": 782,
      "ﷲ": 783,
      "ﻋ": 784,
      "﻿": 785,
      "／": 786,
      "３": 787,
      "～": 788,
      "�": 789,
      "th": 790,
      "in": 791,
      "the": 792,
      "an": 793,
      "er": 794,
      "on": 795,
      "re": 796,
      "ed": 797,
      "at": 798,
      "en": 799,
      "st": 800,
      "or": 801,
      "al": 802,
      "ar": 803,
      "and": 804,
      "as": 805,
      "of": 806,
      "is": 807,
      "es": 808,
      "ing": 809,
      "it": 810,
      "to": 811,
      "ro": 812,
      "ic": 813,
      "ou": 814,
      "ion": 815,
      "le": 816,
      "ch": 817,
      "se": 818,
      "am": 819,
      "il": 820,
      "ent": 821,
      "ad": 822,
      "el": 823,
      "ac": 824,
      "om": 825,
      "be": 826,
      "for": 827,
      "de": 828,
      "was": 829,
      "ur": 830,
      "ly": 831,
      "un": 832,
      "ol": 833,
      "wh": 834,
      "im": 835,
      "iv": 836,
      "ir": 837,
      "ig": 838,
      "-@": 839,
      "@-@": 840,
      "ow": 841,
      "he": 842,
      "wi": 843,
      "ter": 844,
      "con": 845,
      "ay": 846,
      "ce": 847,
      "ver": 848,
      "with": 849,
      "ag": 850,
      "ation": 851,
      "us": 852,
      "that": 853,
      "by": 854,
      "ct": 855,
      "id": 856,
      "ot": 857,
      "ap": 858,
      "su": 859,
      "com": 860,
      "te": 861,
      "pl": 862,
      "tr": 863,
      "op": 864,
      "rom": 865,
      "av": 866,
      "mo": 867,
      "ul": 868,
      "ne": 869,
      "ab": 870,
      "19": 871,
      "all": 872,
      "sh": 873,
      "ain": 874,
      "are": 875,
      "pe": 876,
      "ist": 877,
      "ers": 878,
      "ut": 879,
      "ere": 880,
      "res": 881,
      "00": 882,
      "pro": 883,
      "um": 884,
      "em": 885,
      "cl": 886,
      "from": 887,
      "his": 888,
      "ther": 889,
      "et": 890,
      "oun": 891,
      "ies": 892,
      "po": 893,
      "art": 894,
      "if": 895,
      "est": 896,
      "ill": 897,
      "lo": 898,
      "ex": 899,
      "so": 900,
      "man": 901,
      "af": 902,
      "ak": 903,
      "were": 904,
      "ri": 905,
      "igh": 906,
      "ast": 907,
      "ber": 908,
      "ong": 909,
      "ate": 910,
      "ard": 911,
      "ich": 912,
      "od": 913,
      "ant": 914,
      "qu": 915,
      "per": 916,
      "ish": 917,
      "gh": 918,
      "tw": 919,
      "ity": 920,
      "ated": 921,
      "ame": 922,
      "one": 923,
      "au": 924,
      "ess": 925,
      "ort": 926,
      "out": 927,
      "ear": 928,
      "ive": 929,
      "co": 930,
      "end": 931,
      "red": 932,
      "ack": 933,
      "ie": 934,
      "ld": 935,
      "br": 936,
      "had": 937,
      "fe": 938,
      "ge": 939,
      "ment": 940,
      "not": 941,
      "der": 942,
      "up": 943,
      "which": 944,
      "bo": 945,
      "ip": 946,
      "ian": 947,
      "but": 948,
      "her": 949,
      "our": 950,
      "ud": 951,
      "act": 952,
      "str": 953,
      "wor": 954,
      "ine": 955,
      "ial": 956,
      "sp": 957,
      "ell": 958,
      "its": 959,
      "ia": 960,
      "du": 961,
      "ical": 962,
      "ave": 963,
      "bl": 964,
      "ight": 965,
      "fir": 966,
      "ary": 967,
      "ass": 968,
      "ach": 969,
      "cor": 970,
      "this": 971,
      "gr": 972,
      "200": 973,
      "aw": 974,
      "over": 975,
      "no": 976,
      "land": 977,
      "ser": 978,
      "cr": 979,
      "20": 980,
      "their": 981,
      "ous": 982,
      "first": 983,
      "tim": 984,
      "fo": 985,
      "mar": 986,
      "own": 987,
      "pr": 988,
      "other": 989,
      "si": 990,
      "ke": 991,
      "after": 992,
      "age": 993,
      "port": 994,
      "gu": 995,
      "ire": 996,
      "me": 997,
      "ould": 998,
      "pt": 999,
      "ind": 1000,
      "they": 1001,
      "form": 1002,
      "also": 1003,
      "ve": 1004,
      "sc": 1005,
      "ition": 1006,
      "play": 1007,
      "int": 1008,
      "comm": 1009,
      "ater": 1010,
      "comp": 1011,
      "new": 1012,
      "part": 1013,
      "ction": 1014,
      "ign": 1015,
      "ound": 1016,
      "has": 1017,
      "pres": 1018,
      "oc": 1019,
      "cent": 1020,
      "des": 1021,
      "att": 1022,
      "ure": 1023,
      "two": 1024,
      "li": 1025,
      "ev": 1026,
      "who": 1027,
      "pre": 1028,
      "have": 1029,
      "we": 1030,
      "cre": 1031,
      "18": 1032,
      "low": 1033,
      "pos": 1034,
      "off": 1035,
      "dis": 1036,
      "ok": 1037,
      "ally": 1038,
      "ence": 1039,
      "been": 1040,
      "nor": 1041,
      "ome": 1042,
      "rou": 1043,
      "she": 1044,
      ".@": 1045,
      "@.@": 1046,
      "ile": 1047,
      "ough": 1048,
      "year": 1049,
      "uring": 1050,
      "ph": 1051,
      "ite": 1052,
      "ang": 1053,
      "ree": 1054,
      "col": 1055,
      "cont": 1056,
      "ade": 1057,
      "ory": 1058,
      "vi": 1059,
      "inter": 1060,
      "jo": 1061,
      "can": 1062,
      "201": 1063,
      "fl": 1064,
      "ren": 1065,
      "old": 1066,
      "fin": 1067,
      "cord": 1068,
      "ck": 1069,
      "dr": 1070,
      "ely": 1071,
      "incl": 1072,
      "ance": 1073,
      "ved": 1074,
      "ace": 1075,
      "ations": 1076,
      "mon": 1077,
      "ship": 1078,
      "spe": 1079,
      "air": 1080,
      "ice": 1081,
      "able": 1082,
      ",@": 1083,
      "@,@": 1084,
      "urn": 1085,
      "fer": 1086,
      "eng": 1087,
      "during": 1088,
      "gro": 1089,
      "time": 1090,
      "most": 1091,
      "par": 1092,
      "when": 1093,
      "ans": 1094,
      "ted": 1095,
      "sou": 1096,
      "iz": 1097,
      "fr": 1098,
      "ty": 1099,
      "vel": 1100,
      "go": 1101,
      "min": 1102,
      "more": 1103,
      "gen": 1104,
      "ts": 1105,
      "song": 1106,
      "tem": 1107,
      "und": 1108,
      "sion": 1109,
      "ever": 1110,
      "ced": 1111,
      "work": 1112,
      "ail": 1113,
      "rough": 1114,
      "into": 1115,
      "coun": 1116,
      "ep": 1117,
      "ath": 1118,
      "fore": 1119,
      "ces": 1120,
      "rit": 1121,
      "reg": 1122,
      "ick": 1123,
      "way": 1124,
      "ied": 1125,
      "char": 1126,
      "bec": 1127,
      "main": 1128,
      "ue": 1129,
      "cond": 1130,
      "ten": 1131,
      "would": 1132,
      "ason": 1133,
      "amp": 1134,
      "sy": 1135,
      "though": 1136,
      "him": 1137,
      "used": 1138,
      "car": 1139,
      "ann": 1140,
      "ma": 1141,
      "ited": 1142,
      "cted": 1143,
      "day": 1144,
      "bu": 1145,
      "ings": 1146,
      "while": 1147,
      "ased": 1148,
      "under": 1149,
      "game": 1150,
      "ents": 1151,
      "een": 1152,
      "war": 1153,
      "includ": 1154,
      "pu": 1155,
      "some": 1156,
      "ates": 1157,
      "only": 1158,
      "fil": 1159,
      "os": 1160,
      "any": 1161,
      "rel": 1162,
      "ase": 1163,
      "may": 1164,
      "med": 1165,
      "son": 1166,
      "ican": 1167,
      "mi": 1168,
      "ake": 1169,
      "gan": 1170,
      "kn": 1171,
      "cess": 1172,
      "je": 1173,
      "ions": 1174,
      "ild": 1175,
      "fol": 1176,
      "how": 1177,
      "sing": 1178,
      "ju": 1179,
      "there": 1180,
      "ble": 1181,
      "les": 1182,
      "mus": 1183,
      "als": 1184,
      "record": 1185,
      "lar": 1186,
      "do": 1187,
      "ra": 1188,
      "them": 1189,
      "ict": 1190,
      "three": 1191,
      "about": 1192,
      "ret": 1193,
      "later": 1194,
      "vis": 1195,
      "high": 1196,
      "ens": 1197,
      "tow": 1198,
      "ss": 1199,
      "publ": 1200,
      "sel": 1201,
      "ors": 1202,
      "season": 1203,
      "than": 1204,
      "through": 1205,
      "cap": 1206,
      "produ": 1207,
      "my": 1208,
      "eld": 1209,
      "ful": 1210,
      "vie": 1211,
      "199": 1212,
      "tween": 1213,
      "between": 1214,
      "again": 1215,
      "west": 1216,
      "follow": 1217,
      "stru": 1218,
      "og": 1219,
      "num": 1220,
      "ger": 1221,
      "spec": 1222,
      "amer": 1223,
      "ational": 1224,
      "writ": 1225,
      "film": 1226,
      "where": 1227,
      "bro": 1228,
      "king": 1229,
      "ular": 1230,
      "call": 1231,
      "rele": 1232,
      "sch": 1233,
      "sub": 1234,
      "led": 1235,
      "ste": 1236,
      "ating": 1237,
      "ton": 1238,
      "pol": 1239,
      "ics": 1240,
      "gre": 1241,
      "cer": 1242,
      "second": 1243,
      "ames": 1244,
      "set": 1245,
      "view": 1246,
      "10": 1247,
      "north": 1248,
      "ult": 1249,
      "io": 1250,
      "alb": 1251,
      "then": 1252,
      "back": 1253,
      "sur": 1254,
      "made": 1255,
      "four": 1256,
      "ished": 1257,
      "ry": 1258,
      "well": 1259,
      "bar": 1260,
      "tain": 1261,
      "ury": 1262,
      "ele": 1263,
      "ci": 1264,
      "city": 1265,
      "many": 1266,
      "world": 1267,
      "riv": 1268,
      "mu": 1269,
      "arch": 1270,
      "appe": 1271,
      "fi": 1272,
      "such": 1273,
      "ered": 1274,
      "sa": 1275,
      "album": 1276,
      "ho": 1277,
      "south": 1278,
      "before": 1279,
      "000": 1280,
      "ose": 1281,
      "ters": 1282,
      "bel": 1283,
      "ards": 1284,
      "cons": 1285,
      "gener": 1286,
      "cur": 1287,
      "national": 1288,
      "hist": 1289,
      "series": 1290,
      "mis": 1291,
      "ning": 1292,
      "sup": 1293,
      "loc": 1294,
      "ek": 1295,
      "add": 1296,
      "16": 1297,
      "pop": 1298,
      "sever": 1299,
      "ily": 1300,
      "ific": 1301,
      "ank": 1302,
      "..": 1303,
      "ual": 1304,
      "both": 1305,
      "being": 1306,
      "years": 1307,
      "sim": 1308,
      "ca": 1309,
      "these": 1310,
      "ob": 1311,
      "urch": 1312,
      "found": 1313,
      "12": 1314,
      "stud": 1315,
      "ious": 1316,
      "star": 1317,
      "point": 1318,
      "long": 1319,
      "cri": 1320,
      "ale": 1321,
      "will": 1322,
      "15": 1323,
      "div": 1324,
      "however": 1325,
      "line": 1326,
      "oper": 1327,
      "az": 1328,
      "17": 1329,
      "rop": 1330,
      "known": 1331,
      "dire": 1332,
      "down": 1333,
      "ef": 1334,
      "let": 1335,
      "number": 1336,
      "cle": 1337,
      "ins": 1338,
      "unt": 1339,
      "ven": 1340,
      "rece": 1341,
      "serv": 1342,
      "lan": 1343,
      "ities": 1344,
      "ird": 1345,
      "state": 1346,
      "side": 1347,
      "ub": 1348,
      "mill": 1349,
      "orig": 1350,
      "batt": 1351,
      "ause": 1352,
      "music": 1353,
      "east": 1354,
      "ince": 1355,
      "mem": 1356,
      "row": 1357,
      "mat": 1358,
      "hn": 1359,
      "stor": 1360,
      "ii": 1361,
      "ived": 1362,
      "velop": 1363,
      "early": 1364,
      "ines": 1365,
      "like": 1366,
      "charac": 1367,
      "epis": 1368,
      "brit": 1369,
      "several": 1370,
      "inv": 1371,
      "jor": 1372,
      "sul": 1373,
      "ern": 1374,
      "olog": 1375,
      "descri": 1376,
      "including": 1377,
      "against": 1378,
      "develop": 1379,
      "show": 1380,
      "hy": 1381,
      "origin": 1382,
      "head": 1383,
      "team": 1384,
      "became": 1385,
      "uary": 1386,
      "sm": 1387,
      "rol": 1388,
      "ode": 1389,
      "feat": 1390,
      "bed": 1391,
      "cover": 1392,
      "ped": 1393,
      "ident": 1394,
      "united": 1395,
      "ond": 1396,
      "crit": 1397,
      "lif": 1398,
      "ham": 1399,
      "198": 1400,
      "ai": 1401,
      "ise": 1402,
      "ft": 1403,
      "cy": 1404,
      "mil": 1405,
      "try": 1406,
      "30": 1407,
      "lead": 1408,
      "ms": 1409,
      "ative": 1410,
      "leg": 1411,
      "hel": 1412,
      "although": 1413,
      "contin": 1414,
      "ball": 1415,
      "mer": 1416,
      "peri": 1417,
      "care": 1418,
      "dif": 1419,
      "chr": 1420,
      "suc": 1421,
      "john": 1422,
      "met": 1423,
      "ised": 1424,
      "nam": 1425,
      "century": 1426,
      "dist": 1427,
      "ures": 1428,
      "open": 1429,
      "hou": 1430,
      "run": 1431,
      "bor": 1432,
      "var": 1433,
      "ib": 1434,
      "sign": 1435,
      "following": 1436,
      "eu": 1437,
      "ley": 1438,
      "ting": 1439,
      "vem": 1440,
      "present": 1441,
      "fam": 1442,
      "194": 1443,
      "called": 1444,
      "ared": 1445,
      "gover": 1446,
      "por": 1447,
      "town": 1448,
      "church": 1449,
      "mark": 1450,
      "near": 1451,
      "along": 1452,
      "ments": 1453,
      "cial": 1454,
      "ually": 1455,
      "use": 1456,
      "began": 1457,
      "196": 1458,
      "pers": 1459,
      "jun": 1460,
      "197": 1461,
      "ide": 1462,
      "because": 1463,
      "ross": 1464,
      "remain": 1465,
      "public": 1466,
      "dam": 1467,
      "ject": 1468,
      "pass": 1469,
      "could": 1470,
      "did": 1471,
      "road": 1472,
      "roy": 1473,
      "men": 1474,
      "six": 1475,
      "ended": 1476,
      "dep": 1477,
      "episode": 1478,
      "self": 1479,
      "tre": 1480,
      "ah": 1481,
      "val": 1482,
      "ision": 1483,
      "dec": 1484,
      "book": 1485,
      "dom": 1486,
      "ork": 1487,
      "ople": 1488,
      "area": 1489,
      "prote": 1490,
      "aking": 1491,
      "field": 1492,
      "said": 1493,
      "until": 1494,
      "jan": 1495,
      "bre": 1496,
      "gg": 1497,
      "group": 1498,
      "tit": 1499,
      "success": 1500,
      "13": 1501,
      "american": 1502,
      "states": 1503,
      "now": 1504,
      "vide": 1505,
      "pow": 1506,
      "less": 1507,
      "grap": 1508,
      "design": 1509,
      "ress": 1510,
      "people": 1511,
      "start": 1512,
      "position": 1513,
      "gust": 1514,
      "appear": 1515,
      "sk": 1516,
      "light": 1517,
      "tal": 1518,
      "ized": 1519,
      "life": 1520,
      "ica": 1521,
      "ital": 1522,
      "offic": 1523,
      "water": 1524,
      "you": 1525,
      "plac": 1526,
      "return": 1527,
      "14": 1528,
      "cour": 1529,
      "stem": 1530,
      "released": 1531,
      "since": 1532,
      "xt": 1533,
      "cept": 1534,
      "ange": 1535,
      "british": 1536,
      "50": 1537,
      "cast": 1538,
      "di": 1539,
      "trans": 1540,
      "each": 1541,
      "company": 1542,
      "same": 1543,
      "ash": 1544,
      "ple": 1545,
      "ys": 1546,
      "ided": 1547,
      "del": 1548,
      "thern": 1549,
      "bod": 1550,
      "around": 1551,
      "come": 1552,
      "def": 1553,
      "ists": 1554,
      "la": 1555,
      "km": 1556,
      "win": 1557,
      "mag": 1558,
      "lit": 1559,
      "ool": 1560,
      "million": 1561,
      "major": 1562,
      "fect": 1563,
      "formed": 1564,
      "har": 1565,
      "fur": 1566,
      "wal": 1567,
      "week": 1568,
      "just": 1569,
      "five": 1570,
      "track": 1571,
      "read": 1572,
      "camp": 1573,
      "best": 1574,
      "soci": 1575,
      "ling": 1576,
      "pen": 1577,
      "august": 1578,
      "what": 1579,
      "support": 1580,
      "command": 1581,
      "attack": 1582,
      "school": 1583,
      "govern": 1584,
      "sep": 1585,
      "stand": 1586,
      "small": 1587,
      "final": 1588,
      "ground": 1589,
      "character": 1590,
      "ore": 1591,
      "adv": 1592,
      "system": 1593,
      "ather": 1594,
      "ze": 1595,
      "hum": 1596,
      "ood": 1597,
      "another": 1598,
      "river": 1599,
      "class": 1600,
      "rest": 1601,
      "mor": 1602,
      "consid": 1603,
      "direct": 1604,
      "gun": 1605,
      "ons": 1606,
      "mid": 1607,
      "continu": 1608,
      "get": 1609,
      "ves": 1610,
      "stral": 1611,
      "even": 1612,
      "ured": 1613,
      "ivers": 1614,
      "ner": 1615,
      "comple": 1616,
      "top": 1617,
      "great": 1618,
      "prom": 1619,
      "tember": 1620,
      "september": 1621,
      "hav": 1622,
      "gy": 1623,
      "report": 1624,
      "house": 1625,
      "games": 1626,
      "hal": 1627,
      "ward": 1628,
      "ord": 1629,
      "large": 1630,
      "aim": 1631,
      "dy": 1632,
      "requ": 1633,
      "austral": 1634,
      "child": 1635,
      "order": 1636,
      "lish": 1637,
      "ural": 1638,
      "resul": 1639,
      "leag": 1640,
      "ages": 1641,
      "band": 1642,
      "hur": 1643,
      "build": 1644,
      "black": 1645,
      "due": 1646,
      "white": 1647,
      "ae": 1648,
      "den": 1649,
      "species": 1650,
      "last": 1651,
      "contr": 1652,
      "constru": 1653,
      "ically": 1654,
      "name": 1655,
      "rican": 1656,
      "11": 1657,
      "ru": 1658,
      "cut": 1659,
      "ium": 1660,
      "list": 1661,
      "sol": 1662,
      "aged": 1663,
      "short": 1664,
      "played": 1665,
      "ont": 1666,
      "history": 1667,
      "ism": 1668,
      "bers": 1669,
      "home": 1670,
      "allow": 1671,
      "june": 1672,
      "tle": 1673,
      "turn": 1674,
      "appro": 1675,
      "won": 1676,
      "apr": 1677,
      "giv": 1678,
      "storm": 1679,
      "0s": 1680,
      "organ": 1681,
      "government": 1682,
      "review": 1683,
      "dest": 1684,
      "prov": 1685,
      "ately": 1686,
      "25": 1687,
      "reach": 1688,
      "hor": 1689,
      "ier": 1690,
      "partic": 1691,
      "ina": 1692,
      "island": 1693,
      "pat": 1694,
      "power": 1695,
      "ional": 1696,
      "ement": 1697,
      "gl": 1698,
      "ined": 1699,
      "ained": 1700,
      "received": 1701,
      "christ": 1702,
      "fall": 1703,
      "stre": 1704,
      "resp": 1705,
      "club": 1706,
      "bus": 1707,
      "ired": 1708,
      "took": 1709,
      "accord": 1710,
      "colle": 1711,
      "late": 1712,
      "place": 1713,
      "ask": 1714,
      "described": 1715,
      "ron": 1716,
      "family": 1717,
      "ility": 1718,
      "much": 1719,
      "hand": 1720,
      "within": 1721,
      "moun": 1722,
      "god": 1723,
      "named": 1724,
      "incre": 1725,
      "cas": 1726,
      "ilt": 1727,
      "march": 1728,
      "death": 1729,
      "fic": 1730,
      "league": 1731,
      "general": 1732,
      "octo": 1733,
      "gin": 1734,
      "tech": 1735,
      "october": 1736,
      "fort": 1737,
      "sl": 1738,
      "moved": 1739,
      "wood": 1740,
      "ats": 1741,
      "ali": 1742,
      "na": 1743,
      "very": 1744,
      "times": 1745,
      "according": 1746,
      "rote": 1747,
      "ropical": 1748,
      "sed": 1749,
      "ants": 1750,
      "sequ": 1751,
      "third": 1752,
      "ude": 1753,
      "vo": 1754,
      "pri": 1755,
      "ively": 1756,
      "wrote": 1757,
      "vious": 1758,
      "single": 1759,
      "july": 1760,
      "york": 1761,
      "story": 1762,
      "gar": 1763,
      "control": 1764,
      "fle": 1765,
      "video": 1766,
      "event": 1767,
      "person": 1768,
      "ony": 1769,
      "ha": 1770,
      "aft": 1771,
      "posed": 1772,
      "differ": 1773,
      "ians": 1774,
      "som": 1775,
      "univers": 1776,
      "ni": 1777,
      "pa": 1778,
      "based": 1779,
      "right": 1780,
      "ink": 1781,
      "ships": 1782,
      "far": 1783,
      "ler": 1784,
      "tempt": 1785,
      "euro": 1786,
      "april": 1787,
      "sport": 1788,
      "fri": 1789,
      "belie": 1790,
      "...": 1791,
      "sen": 1792,
      "ery": 1793,
      "estab": 1794,
      "included": 1795,
      "division": 1796,
      "addition": 1797,
      "cus": 1798,
      "german": 1799,
      "195": 1800,
      "real": 1801,
      "foot": 1802,
      "built": 1803,
      "nat": 1804,
      "sent": 1805,
      "tropical": 1806,
      "those": 1807,
      "version": 1808,
      "expl": 1809,
      "january": 1810,
      "que": 1811,
      "left": 1812,
      "commun": 1813,
      "force": 1814,
      "ified": 1815,
      "akes": 1816,
      "sci": 1817,
      "attempt": 1818,
      "england": 1819,
      "pect": 1820,
      "original": 1821,
      "fed": 1822,
      "vol": 1823,
      "claim": 1824,
      "period": 1825,
      "vill": 1826,
      "rock": 1827,
      "fac": 1828,
      "dece": 1829,
      "previous": 1830,
      "gram": 1831,
      "law": 1832,
      "dan": 1833,
      "itch": 1834,
      "cup": 1835,
      "auth": 1836,
      "ilar": 1837,
      "thing": 1838,
      "issu": 1839,
      "ness": 1840,
      "centr": 1841,
      "heav": 1842,
      "ops": 1843,
      "make": 1844,
      "flu": 1845,
      "champ": 1846,
      "ament": 1847,
      "production": 1848,
      "193": 1849,
      "novem": 1850,
      "november": 1851,
      "kill": 1852,
      "wom": 1853,
      "sum": 1854,
      "ulation": 1855,
      "ially": 1856,
      "player": 1857,
      "ned": 1858,
      "month": 1859,
      "bat": 1860,
      "ets": 1861,
      "ives": 1862,
      "europe": 1863,
      "match": 1864,
      "mber": 1865,
      "tour": 1866,
      "ains": 1867,
      "mal": 1868,
      "init": 1869,
      "ety": 1870,
      "vision": 1871,
      "similar": 1872,
      "once": 1873,
      "action": 1874,
      "rad": 1875,
      "december": 1876,
      "bur": 1877,
      "tele": 1878,
      "ption": 1879,
      "wind": 1880,
      "milit": 1881,
      "among": 1882,
      "songs": 1883,
      "hurrican": 1884,
      "indu": 1885,
      "don": 1886,
      "polit": 1887,
      "lim": 1888,
      "squ": 1889,
      "sco": 1890,
      "lat": 1891,
      "still": 1892,
      "local": 1893,
      "further": 1894,
      "ny": 1895,
      "rench": 1896,
      "park": 1897,
      "post": 1898,
      "bert": 1899,
      "ences": 1900,
      "ute": 1901,
      "sw": 1902,
      "using": 1903,
      "ides": 1904,
      "histor": 1905,
      "24": 1906,
      "inst": 1907,
      "vict": 1908,
      "ime": 1909,
      "bill": 1910,
      "say": 1911,
      "next": 1912,
      "feder": 1913,
      "mc": 1914,
      "quar": 1915,
      "2009": 1916,
      "fact": 1917,
      "youn": 1918,
      "trad": 1919,
      "26": 1920,
      "ring": 1921,
      "role": 1922,
      "former": 1923,
      "2008": 1924,
      "2010": 1925,
      "site": 1926,
      "fire": 1927,
      "ison": 1928,
      "plan": 1929,
      "half": 1930,
      "21": 1931,
      "test": 1932,
      "ently": 1933,
      "forman": 1934,
      "put": 1935,
      "import": 1936,
      "possi": 1937,
      "28": 1938,
      "bas": 1939,
      "brig": 1940,
      "draw": 1941,
      "body": 1942,
      "sty": 1943,
      "ark": 1944,
      "came": 1945,
      "love": 1946,
      "round": 1947,
      "common": 1948,
      "23": 1949,
      "lab": 1950,
      "sal": 1951,
      "vent": 1952,
      "performan": 1953,
      "ends": 1954,
      "night": 1955,
      "vir": 1956,
      "every": 1957,
      "often": 1958,
      "pet": 1959,
      "career": 1960,
      "university": 1961,
      "fun": 1962,
      "100": 1963,
      "without": 1964,
      "chang": 1965,
      "aken": 1966,
      "recorded": 1967,
      "ba": 1968,
      "see": 1969,
      "blo": 1970,
      "ese": 1971,
      "chart": 1972,
      "effect": 1973,
      "flo": 1974,
      "sit": 1975,
      "ico": 1976,
      "hurricane": 1977,
      "prof": 1978,
      "ending": 1979,
      "considered": 1980,
      "military": 1981,
      "refer": 1982,
      "sugg": 1983,
      "continued": 1984,
      "suggest": 1985,
      "els": 1986,
      "sem": 1987,
      "battal": 1988,
      "few": 1989,
      "ster": 1990,
      "stri": 1991,
      "army": 1992,
      "seven": 1993,
      "ution": 1994,
      "take": 1995,
      "associ": 1996,
      "moder": 1997,
      "release": 1998,
      "published": 1999,
      "2007": 2000,
      "graph": 2001,
      "oy": 2002,
      "rich": 2003,
      "sold": 2004,
      "level": 2005,
      "ford": 2006,
      "nav": 2007,
      "search": 2008,
      "written": 2009,
      "placed": 2010,
      "held": 2011,
      "bird": 2012,
      "english": 2013,
      "inc": 2014,
      "strong": 2015,
      "french": 2016,
      "never": 2017,
      "award": 2018,
      "struct": 2019,
      "battle": 2020,
      "burn": 2021,
      "author": 2022,
      "days": 2023,
      "different": 2024,
      "tro": 2025,
      "ator": 2026,
      "aining": 2027,
      "ving": 2028,
      "cult": 2029,
      "stat": 2030,
      "gal": 2031,
      "forces": 2032,
      "larg": 2033,
      "tor": 2034,
      "stead": 2035,
      "aur": 2036,
      "project": 2037,
      "manag": 2038,
      "app": 2039,
      "ric": 2040,
      "ada": 2041,
      "international": 2042,
      "hol": 2043,
      "itar": 2044,
      "champion": 2045,
      "route": 2046,
      "27": 2047,
      "whe": 2048,
      "lost": 2049,
      "jack": 2050,
      "board": 2051,
      "good": 2052,
      "popular": 2053,
      "augh": 2054,
      "ston": 2055,
      "activ": 2056,
      "minist": 2057,
      "22": 2058,
      "find": 2059,
      "non": 2060,
      "uc": 2061,
      "ben": 2062,
      "pur": 2063,
      "nes": 2064,
      "sound": 2065,
      "iment": 2066,
      "super": 2067,
      "gold": 2068,
      "having": 2069,
      "idge": 2070,
      "county": 2071,
      "concer": 2072,
      "mix": 2073,
      "children": 2074,
      "roman": 2075,
      "western": 2076,
      "bal": 2077,
      "ga": 2078,
      "hold": 2079,
      "aster": 2080,
      "throughout": 2081,
      "enter": 2082,
      "2011": 2083,
      "clear": 2084,
      "development": 2085,
      "construction": 2086,
      "young": 2087,
      "elt": 2088,
      "desp": 2089,
      "fan": 2090,
      "face": 2091,
      "grand": 2092,
      "ta": 2093,
      "become": 2094,
      "away": 2095,
      "writing": 2096,
      "2006": 2097,
      "craft": 2098,
      "key": 2099,
      "particular": 2100,
      "pal": 2101,
      "total": 2102,
      "scen": 2103,
      "liv": 2104,
      "ology": 2105,
      "title": 2106,
      "ock": 2107,
      "uk": 2108,
      "members": 2109,
      "look": 2110,
      "program": 2111,
      "country": 2112,
      "highway": 2113,
      "human": 2114,
      "gn": 2115,
      "ps": 2116,
      "central": 2117,
      "fem": 2118,
      "cell": 2119,
      "rang": 2120,
      "atch": 2121,
      "despite": 2122,
      "cal": 2123,
      "live": 2124,
      "represent": 2125,
      "father": 2126,
      "decl": 2127,
      "ush": 2128,
      "given": 2129,
      "nu": 2130,
      "want": 2131,
      "ances": 2132,
      "little": 2133,
      "southern": 2134,
      "produced": 2135,
      "bruary": 2136,
      "february": 2137,
      "capt": 2138,
      "critic": 2139,
      "successful": 2140,
      "reported": 2141,
      "tran": 2142,
      "geor": 2143,
      "gave": 2144,
      "tom": 2145,
      "cru": 2146,
      "dylan": 2147,
      "wn": 2148,
      "bi": 2149,
      "served": 2150,
      "fre": 2151,
      "ination": 2152,
      "novel": 2153,
      "influ": 2154,
      "ising": 2155,
      "cou": 2156,
      "sure": 2157,
      "ailed": 2158,
      "free": 2159,
      "ior": 2160,
      "television": 2161,
      "modern": 2162,
      "cu": 2163,
      "equ": 2164,
      "ices": 2165,
      "ney": 2166,
      "coast": 2167,
      "2012": 2168,
      "bri": 2169,
      "mich": 2170,
      "covered": 2171,
      "dou": 2172,
      "service": 2173,
      "cop": 2174,
      "nd": 2175,
      "hero": 2176,
      "ctions": 2177,
      "apan": 2178,
      "van": 2179,
      "president": 2180,
      "close": 2181,
      "northern": 2182,
      "respon": 2183,
      "sun": 2184,
      "seen": 2185,
      "mass": 2186,
      "ama": 2187,
      "making": 2188,
      "station": 2189,
      "building": 2190,
      "too": 2191,
      "word": 2192,
      "scri": 2193,
      "room": 2194,
      "guitar": 2195,
      "invol": 2196,
      "signific": 2197,
      "japan": 2198,
      "include": 2199,
      "ably": 2200,
      "29": 2201,
      "stone": 2202,
      "intro": 2203,
      "front": 2204,
      "xim": 2205,
      "royal": 2206,
      "mot": 2207,
      "hu": 2208,
      "battalion": 2209,
      "bit": 2210,
      "dav": 2211,
      "pression": 2212,
      "bs": 2213,
      "ged": 2214,
      "const": 2215,
      "trav": 2216,
      "went": 2217,
      "should": 2218,
      "developed": 2219,
      "ext": 2220,
      "eastern": 2221,
      "iam": 2222,
      "stated": 2223,
      "ried": 2224,
      "bow": 2225,
      "cross": 2226,
      "occur": 2227,
      "viet": 2228,
      "ken": 2229,
      "ran": 2230,
      "sea": 2231,
      "ots": 2232,
      "2013": 2233,
      "fig": 2234,
      "depend": 2235,
      "fif": 2236,
      "rap": 2237,
      "antic": 2238,
      "ours": 2239,
      "40": 2240,
      "agre": 2241,
      "full": 2242,
      "destroy": 2243,
      "mit": 2244,
      "change": 2245,
      "ull": 2246,
      "exp": 2247,
      "eight": 2248,
      "coming": 2249,
      "tru": 2250,
      "prim": 2251,
      "mother": 2252,
      "press": 2253,
      "lished": 2254,
      "ns": 2255,
      "wall": 2256,
      "established": 2257,
      "introdu": 2258,
      "instead": 2259,
      "across": 2260,
      "returned": 2261,
      "lin": 2262,
      "typ": 2263,
      "vic": 2264,
      "itions": 2265,
      "suf": 2266,
      "ploy": 2267,
      "earli": 2268,
      "mean": 2269,
      "aren": 2270,
      "han": 2271,
      "hind": 2272,
      "population": 2273,
      "190": 2274,
      "ensive": 2275,
      "america": 2276,
      "ither": 2277,
      "announ": 2278,
      "broad": 2279,
      "style": 2280,
      "civ": 2281,
      "noted": 2282,
      "cho": 2283,
      "ades": 2284,
      "court": 2285,
      "aver": 2286,
      "cro": 2287,
      "thought": 2288,
      "result": 2289,
      "reached": 2290,
      "tar": 2291,
      "official": 2292,
      "football": 2293,
      "pan": 2294,
      "ref": 2295,
      "ireland": 2296,
      "phil": 2297,
      "elect": 2298,
      "teen": 2299,
      "players": 2300,
      "brigade": 2301,
      "ument": 2302,
      "rent": 2303,
      "important": 2304,
      "works": 2305,
      "various": 2306,
      "lond": 2307,
      "rul": 2308,
      "aint": 2309,
      "engine": 2310,
      "significant": 2311,
      "mm": 2312,
      "william": 2313,
      "ey": 2314,
      "ibut": 2315,
      "range": 2316,
      "miles": 2317,
      "street": 2318,
      "london": 2319,
      "felt": 2320,
      "ief": 2321,
      "performance": 2322,
      "cir": 2323,
      "acy": 2324,
      "unch": 2325,
      "sex": 2326,
      "himself": 2327,
      "kingdom": 2328,
      "arriv": 2329,
      "need": 2330,
      "performed": 2331,
      "san": 2332,
      "tur": 2333,
      "formation": 2334,
      "ban": 2335,
      "cil": 2336,
      "ways": 2337,
      "hen": 2338,
      "hot": 2339,
      "wil": 2340,
      "ission": 2341,
      "rain": 2342,
      "idence": 2343,
      "born": 2344,
      "australia": 2345,
      "iness": 2346,
      "interest": 2347,
      "located": 2348,
      "feet": 2349,
      "scot": 2350,
      "60": 2351,
      "hill": 2352,
      "areas": 2353,
      "mission": 2354,
      "experi": 2355,
      "events": 2356,
      "relation": 2357,
      "does": 2358,
      "civil": 2359,
      "base": 2360,
      "upon": 2361,
      "hon": 2362,
      "era": 2363,
      "begin": 2364,
      "dre": 2365,
      "poem": 2366,
      "died": 2367,
      "hab": 2368,
      "conne": 2369,
      "earth": 2370,
      "relig": 2371,
      "brown": 2372,
      "ino": 2373,
      "pra": 2374,
      "got": 2375,
      "ones": 2376,
      "hom": 2377,
      "hop": 2378,
      "mad": 2379,
      "anim": 2380,
      "abo": 2381,
      "surv": 2382,
      "appeared": 2383,
      "others": 2384,
      "know": 2385,
      "aign": 2386,
      "cing": 2387,
      "ago": 2388,
      "appoint": 2389,
      "originally": 2390,
      "grad": 2391,
      "member": 2392,
      "campaign": 2393,
      "stars": 2394,
      "ram": 2395,
      "oliv": 2396,
      "started": 2397,
      "ense": 2398,
      "toge": 2399,
      "ization": 2400,
      "james": 2401,
      "profess": 2402,
      "mp": 2403,
      "nal": 2404,
      "characters": 2405,
      "women": 2406,
      "political": 2407,
      "together": 2408,
      "dev": 2409,
      "lik": 2410,
      "fight": 2411,
      "ges": 2412,
      "che": 2413,
      "anti": 2414,
      "pho": 2415,
      "net": 2416,
      "created": 2417,
      "special": 2418,
      "promot": 2419,
      "tra": 2420,
      "ological": 2421,
      "director": 2422,
      "nar": 2423,
      "bet": 2424,
      "vert": 2425,
      "tradition": 2426,
      "nom": 2427,
      "fav": 2428,
      "sat": 2429,
      "center": 2430,
      "caused": 2431,
      "vari": 2432,
      "count": 2433,
      "eventually": 2434,
      "bey": 2435,
      "189": 2436,
      "region": 2437,
      "research": 2438,
      "union": 2439,
      "atl": 2440,
      "alth": 2441,
      "critics": 2442,
      "nia": 2443,
      "saw": 2444,
      "ival": 2445,
      "bir": 2446,
      "bay": 2447,
      "lu": 2448,
      "ality": 2449,
      "entire": 2450,
      "aves": 2451,
      "ik": 2452,
      "2004": 2453,
      "ample": 2454,
      "taken": 2455,
      "yard": 2456,
      "ability": 2457,
      "2005": 2458,
      "grow": 2459,
      "sar": 2460,
      "dem": 2461,
      "colon": 2462,
      "magaz": 2463,
      "mac": 2464,
      "sts": 2465,
      "aff": 2466,
      "independ": 2467,
      "theast": 2468,
      "lower": 2469,
      "break": 2470,
      "sil": 2471,
      "ida": 2472,
      "commission": 2473,
      "exist": 2474,
      "card": 2475,
      "sess": 2476,
      "iting": 2477,
      "move": 2478,
      "guns": 2479,
      "chap": 2480,
      "meet": 2481,
      "playing": 2482,
      "langu": 2483,
      "heavy": 2484,
      "debut": 2485,
      "cogn": 2486,
      "crow": 2487,
      "asing": 2488,
      "loss": 2489,
      "commer": 2490,
      "diffic": 2491,
      "completed": 2492,
      "case": 2493,
      "lines": 2494,
      "names": 2495,
      "voc": 2496,
      "cret": 2497,
      "remained": 2498,
      "depart": 2499,
      "gress": 2500,
      "mach": 2501,
      "ping": 2502,
      "ray": 2503,
      "compan": 2504,
      "regular": 2505,
      "scored": 2506,
      "ars": 2507,
      "ille": 2508,
      "vement": 2509,
      "announced": 2510,
      "jour": 2511,
      "ature": 2512,
      "process": 2513,
      "fourth": 2514,
      "australian": 2515,
      "ming": 2516,
      "rail": 2517,
      "ivid": 2518,
      "atic": 2519,
      "almost": 2520,
      "wide": 2521,
      "vers": 2522,
      "current": 2523,
      "possible": 2524,
      "cul": 2525,
      "fa": 2526,
      "fly": 2527,
      "arm": 2528,
      "itive": 2529,
      "comment": 2530,
      "peak": 2531,
      "damage": 2532,
      "tv": 2533,
      "inated": 2534,
      "behind": 2535,
      "aper": 2536,
      "party": 2537,
      "added": 2538,
      "hard": 2539,
      "least": 2540,
      "ids": 2541,
      "rought": 2542,
      "condom": 2543,
      "bc": 2544,
      "enced": 2545,
      "ctor": 2546,
      "fran": 2547,
      "bes": 2548,
      "hall": 2549,
      "sele": 2550,
      "wife": 2551,
      "utes": 2552,
      "study": 2553,
      "territ": 2554,
      "emp": 2555,
      "bly": 2556,
      "saf": 2557,
      "termin": 2558,
      "goal": 2559,
      "followed": 2560,
      "fleet": 2561,
      "killed": 2562,
      "months": 2563,
      "pitch": 2564,
      "sour": 2565,
      "attr": 2566,
      "ota": 2567,
      "consist": 2568,
      "ox": 2569,
      "leading": 2570,
      "squad": 2571,
      "recogn": 2572,
      "ches": 2573,
      "individ": 2574,
      "section": 2575,
      "pie": 2576,
      "awards": 2577,
      "commit": 2578,
      "type": 2579,
      "medi": 2580,
      "points": 2581,
      "friend": 2582,
      "david": 2583,
      "chest": 2584,
      "birds": 2585,
      "mun": 2586,
      "ues": 2587,
      "estim": 2588,
      "features": 2589,
      "opened": 2590,
      "35": 2591,
      "comb": 2592,
      "flight": 2593,
      "aircraft": 2594,
      "stage": 2595,
      "uses": 2596,
      "france": 2597,
      "nine": 2598,
      "rid": 2599,
      "bridge": 2600,
      "spir": 2601,
      "assist": 2602,
      "2003": 2603,
      "bon": 2604,
      "hit": 2605,
      "odes": 2606,
      "big": 2607,
      "ff": 2608,
      "accept": 2609,
      "tempor": 2610,
      "here": 2611,
      "lack": 2612,
      "thre": 2613,
      "forced": 2614,
      "soon": 2615,
      "2015": 2616,
      "ering": 2617,
      "subsequ": 2618,
      "sis": 2619,
      "rose": 2620,
      "sho": 2621,
      "archae": 2622,
      "championship": 2623,
      "gir": 2624,
      "ible": 2625,
      "rank": 2626,
      "decided": 2627,
      "either": 2628,
      "mary": 2629,
      "mater": 2630,
      "separ": 2631,
      "proble": 2632,
      "forms": 2633,
      "recording": 2634,
      "transport": 2635,
      "mph": 2636,
      "stop": 2637,
      "parli": 2638,
      "osaur": 2639,
      "towards": 2640,
      "writer": 2641,
      "operations": 2642,
      "graphy": 2643,
      "mel": 2644,
      "past": 2645,
      "mountain": 2646,
      "ky": 2647,
      "native": 2648,
      "race": 2649,
      "ane": 2650,
      "ought": 2651,
      "flor": 2652,
      "operation": 2653,
      "icated": 2654,
      "respect": 2655,
      "finished": 2656,
      "elements": 2657,
      "fund": 2658,
      "ker": 2659,
      "infan": 2660,
      "boy": 2661,
      "scre": 2662,
      "claimed": 2663,
      "fell": 2664,
      "records": 2665,
      "magazine": 2666,
      "commercial": 2667,
      "31": 2668,
      "tell": 2669,
      "generally": 2670,
      "carey": 2671,
      "believed": 2672,
      "ith": 2673,
      "tail": 2674,
      "ana": 2675,
      "compet": 2676,
      "appearance": 2677,
      "flood": 2678,
      "parliament": 2679,
      "acc": 2680,
      "meas": 2681,
      "council": 2682,
      "ael": 2683,
      "mex": 2684,
      "compl": 2685,
      "female": 2686,
      "ples": 2687,
      "example": 2688,
      "syn": 2689,
      "launch": 2690,
      "midd": 2691,
      "2nd": 2692,
      "ks": 2693,
      "regard": 2694,
      "certain": 2695,
      "cycl": 2696,
      "manager": 2697,
      "infantry": 2698,
      "80": 2699,
      "date": 2700,
      "ply": 2701,
      "help": 2702,
      "business": 2703,
      "jam": 2704,
      "ls": 2705,
      "pred": 2706,
      "yards": 2707,
      "educ": 2708,
      "igned": 2709,
      "iction": 2710,
      "weeks": 2711,
      "70": 2712,
      "nis": 2713,
      "ata": 2714,
      "space": 2715,
      "rather": 2716,
      "treat": 2717,
      "robert": 2718,
      "european": 2719,
      "industr": 2720,
      "concl": 2721,
      "tex": 2722,
      "exe": 2723,
      "outside": 2724,
      "lands": 2725,
      "directed": 2726,
      "ready": 2727,
      "federer": 2728,
      "jew": 2729,
      "brought": 2730,
      "fish": 2731,
      "depression": 2732,
      "employ": 2733,
      "standing": 2734,
      "approach": 2735,
      "cam": 2736,
      "term": 2737,
      "blue": 2738,
      "achie": 2739,
      "working": 2740,
      "bio": 2741,
      "pac": 2742,
      "sam": 2743,
      "lear": 2744,
      "defe": 2745,
      "condu": 2746,
      "ceed": 2747,
      "social": 2748,
      "invest": 2749,
      "wales": 2750,
      "pot": 2751,
      "thus": 2752,
      "teach": 2753,
      "earlier": 2754,
      "iers": 2755,
      "pair": 2756,
      "parts": 2757,
      "featured": 2758,
      "techn": 2759,
      "tou": 2760,
      "imes": 2761,
      "redu": 2762,
      "priv": 2763,
      "horse": 2764,
      "victory": 2765,
      "ators": 2766,
      "stay": 2767,
      "pract": 2768,
      "muse": 2769,
      "sus": 2770,
      "ald": 2771,
      "impro": 2772,
      "counter": 2773,
      "opening": 2774,
      "summer": 2775,
      "radio": 2776,
      "mur": 2777,
      "ris": 2778,
      "spo": 2779,
      "netw": 2780,
      "wheel": 2781,
      "bank": 2782,
      "ories": 2783,
      "jordan": 2784,
      "labor": 2785,
      "45": 2786,
      "jud": 2787,
      "lad": 2788,
      "deal": 2789,
      "quest": 2790,
      "contract": 2791,
      "provided": 2792,
      "association": 2793,
      "wanted": 2794,
      "george": 2795,
      "xon": 2796,
      "reason": 2797,
      "allowed": 2798,
      "village": 2799,
      "atlantic": 2800,
      "lie": 2801,
      "leng": 2802,
      "nel": 2803,
      "thom": 2804,
      "reve": 2805,
      "ung": 2806,
      "quarter": 2807,
      "secret": 2808,
      "ential": 2809,
      "plann": 2810,
      "istic": 2811,
      "crew": 2812,
      "museum": 2813,
      "network": 2814,
      "gi": 2815,
      "particularly": 2816,
      "winds": 2817,
      "troops": 2818,
      "mult": 2819,
      "rus": 2820,
      "tee": 2821,
      "arts": 2822,
      "2014": 2823,
      "minor": 2824,
      "worked": 2825,
      "christian": 2826,
      "initially": 2827,
      "instit": 2828,
      "ties": 2829,
      "complet": 2830,
      "evidence": 2831,
      "office": 2832,
      "middle": 2833,
      "ient": 2834,
      "kil": 2835,
      "alter": 2836,
      "chan": 2837,
      "largest": 2838,
      "38": 2839,
      "hi": 2840,
      "pi": 2841,
      "rat": 2842,
      "joined": 2843,
      "issue": 2844,
      "stren": 2845,
      "aving": 2846,
      "19th": 2847,
      "creek": 2848,
      "viol": 2849,
      "bul": 2850,
      "shap": 2851,
      "prob": 2852,
      "above": 2853,
      "bell": 2854,
      "pain": 2855,
      "thod": 2856,
      "erous": 2857,
      "mont": 2858,
      "500": 2859,
      "acad": 2860,
      "conf": 2861,
      "emy": 2862,
      "critical": 2863,
      "material": 2864,
      "shot": 2865,
      "ister": 2866,
      "feel": 2867,
      "liter": 2868,
      "florida": 2869,
      "econ": 2870,
      "ka": 2871,
      "mart": 2872,
      "cts": 2873,
      "regiment": 2874,
      "prior": 2875,
      "saying": 2876,
      "difficult": 2877,
      "econom": 2878,
      "185": 2879,
      "brother": 2880,
      "host": 2881,
      "paul": 2882,
      "streng": 2883,
      "hours": 2884,
      "mir": 2885,
      "anal": 2886,
      "ify": 2887,
      "captain": 2888,
      "sky": 2889,
      "somet": 2890,
      "script": 2891,
      "drop": 2892,
      "fut": 2893,
      "vest": 2894,
      "watch": 2895,
      "ara": 2896,
      "quick": 2897,
      "complete": 2898,
      "length": 2899,
      "taking": 2900,
      "whom": 2901,
      "queen": 2902,
      "fru": 2903,
      "missou": 2904,
      "natural": 2905,
      "bish": 2906,
      "ds": 2907,
      "hest": 2908,
      "reception": 2909,
      "missouri": 2910,
      "seem": 2911,
      "avail": 2912,
      "poor": 2913,
      "pool": 2914,
      "2001": 2915,
      "food": 2916,
      "188": 2917,
      "police": 2918,
      "society": 2919,
      "suffer": 2920,
      "bol": 2921,
      "hig": 2922,
      "hous": 2923,
      "wr": 2924,
      "ington": 2925,
      "oney": 2926,
      "discus": 2927,
      "designed": 2928,
      "community": 2929,
      "jin": 2930,
      "going": 2931,
      "iii": 2932,
      "previously": 2933,
      "ita": 2934,
      "ention": 2935,
      "box": 2936,
      "angel": 2937,
      "goals": 2938,
      "michael": 2939,
      "praised": 2940,
      "argu": 2941,
      "assem": 2942,
      "coach": 2943,
      "hosp": 2944,
      "doc": 2945,
      "jer": 2946,
      "units": 2947,
      "bra": 2948,
      "remains": 2949,
      "structure": 2950,
      "theat": 2951,
      "recent": 2952,
      "amoun": 2953,
      "plat": 2954,
      "capital": 2955,
      "must": 2956,
      "appointed": 2957,
      "ded": 2958,
      "hib": 2959,
      "mas": 2960,
      "pay": 2961,
      "indian": 2962,
      "towns": 2963,
      "increased": 2964,
      "actions": 2965,
      "colum": 2966,
      "anna": 2967,
      "media": 2968,
      "green": 2969,
      "travel": 2970,
      "execut": 2971,
      "ax": 2972,
      "lam": 2973,
      "sec": 2974,
      "dead": 2975,
      "clo": 2976,
      "iff": 2977,
      "interview": 2978,
      "36": 2979,
      "dig": 2980,
      "egy": 2981,
      "clos": 2982,
      "pressed": 2983,
      "forest": 2984,
      "background": 2985,
      "commander": 2986,
      "woman": 2987,
      "relationship": 2988,
      "hair": 2989,
      "studio": 2990,
      "dol": 2991,
      "lor": 2992,
      "uel": 2993,
      "replaced": 2994,
      "proper": 2995,
      "active": 2996,
      "passed": 2997,
      "bom": 2998,
      "lock": 2999,
      "occup": 3000,
      "cially": 3001,
      "situ": 3002,
      "richard": 3003,
      "90": 3004,
      "bound": 3005,
      "ctive": 3006,
      "comes": 3007,
      "ize": 3008,
      "maintain": 3009,
      "block": 3010,
      "navy": 3011,
      "industry": 3012,
      "75": 3013,
      "lot": 3014,
      "nation": 3015,
      "rac": 3016,
      "tolo": 3017,
      "plot": 3018,
      "cost": 3019,
      "186": 3020,
      "carol": 3021,
      "approxim": 3022,
      "establish": 3023,
      "mixed": 3024,
      "aut": 3025,
      "fit": 3026,
      "iving": 3027,
      "canada": 3028,
      "signed": 3029,
      "college": 3030,
      "habit": 3031,
      "religious": 3032,
      "estimated": 3033,
      "bot": 3034,
      "give": 3035,
      "mort": 3036,
      "reviews": 3037,
      "henry": 3038,
      "highest": 3039,
      "kan": 3040,
      "lay": 3041,
      "usually": 3042,
      "moving": 3043,
      "except": 3044,
      "introduced": 3045,
      "beginning": 3046,
      "cad": 3047,
      "flow": 3048,
      "lord": 3049,
      "arab": 3050,
      "lyr": 3051,
      "pole": 3052,
      "premi": 3053,
      "stories": 3054,
      "kel": 3055,
      "told": 3056,
      "usion": 3057,
      "canad": 3058,
      "oldham": 3059,
      "observ": 3060,
      "limited": 3061,
      "involved": 3062,
      "available": 3063,
      "cav": 3064,
      "pit": 3065,
      "ration": 3066,
      "mos": 3067,
      "scene": 3068,
      "japanese": 3069,
      "average": 3070,
      "touch": 3071,
      "gree": 3072,
      "greg": 3073,
      "ored": 3074,
      "vin": 3075,
      "ville": 3076,
      "training": 3077,
      "phys": 3078,
      "joy": 3079,
      "suggested": 3080,
      "cred": 3081,
      "increasing": 3082,
      "link": 3083,
      "oly": 3084,
      "itself": 3085,
      "immedi": 3086,
      "los": 3087,
      "transfer": 3088,
      "turned": 3089,
      "likely": 3090,
      "sometimes": 3091,
      "today": 3092,
      "forward": 3093,
      "irish": 3094,
      "athlet": 3095,
      "friends": 3096,
      "olivier": 3097,
      "revol": 3098,
      "size": 3099,
      "india": 3100,
      "stein": 3101,
      "mexico": 3102,
      "pul": 3103,
      "sn": 3104,
      "aries": 3105,
      "tery": 3106,
      "apo": 3107,
      "text": 3108,
      "zeal": 3109,
      "respond": 3110,
      "responsi": 3111,
      "sor": 3112,
      "yer": 3113,
      "airport": 3114,
      "additional": 3115,
      "egypt": 3116,
      "lake": 3117,
      "ened": 3118,
      "sey": 3119,
      "wid": 3120,
      "corpor": 3121,
      "intens": 3122,
      "changes": 3123,
      "language": 3124,
      "oid": 3125,
      "defin": 3126,
      "notes": 3127,
      "whose": 3128,
      "nearly": 3129,
      "fifth": 3130,
      "wis": 3131,
      "object": 3132,
      "temporary": 3133,
      "thomas": 3134,
      "bass": 3135,
      "dut": 3136,
      "lou": 3137,
      "male": 3138,
      "onic": 3139,
      "arily": 3140,
      "achel": 3141,
      "shows": 3142,
      "approximately": 3143,
      "hap": 3144,
      "haw": 3145,
      "already": 3146,
      "icted": 3147,
      "nest": 3148,
      "peter": 3149,
      "surround": 3150,
      "marked": 3151,
      "damaged": 3152,
      "asked": 3153,
      "bad": 3154,
      "ius": 3155,
      "lap": 3156,
      "iter": 3157,
      "occas": 3158,
      "prevent": 3159,
      "related": 3160,
      "cathe": 3161,
      "britain": 3162,
      "winning": 3163,
      "broadcast": 3164,
      "cali": 3165,
      "daugh": 3166,
      "sip": 3167,
      "aled": 3168,
      "appl": 3169,
      "tries": 3170,
      "subst": 3171,
      "particip": 3172,
      "probably": 3173,
      "cathedr": 3174,
      "fest": 3175,
      "might": 3176,
      "zz": 3177,
      "ander": 3178,
      "agon": 3179,
      "sym": 3180,
      "listed": 3181,
      "espe": 3182,
      "une": 3183,
      "ishing": 3184,
      "iple": 3185,
      "news": 3186,
      "visit": 3187,
      "better": 3188,
      "cath": 3189,
      "atory": 3190,
      "administ": 3191,
      "cele": 3192,
      "exam": 3193,
      "twent": 3194,
      "students": 3195,
      "pacific": 3196,
      "hus": 3197,
      "rd": 3198,
      "wing": 3199,
      "enon": 3200,
      "ication": 3201,
      "pected": 3202,
      "ateg": 3203,
      "running": 3204,
      "breed": 3205,
      "oce": 3206,
      "comed": 3207,
      "overall": 3208,
      "inese": 3209,
      "birth": 3210,
      "especially": 3211,
      "mr": 3212,
      "enough": 3213,
      "ilities": 3214,
      "deep": 3215,
      "aker": 3216,
      "audi": 3217,
      "upper": 3218,
      "ordered": 3219,
      "1st": 3220,
      "bing": 3221,
      "failed": 3222,
      "slow": 3223,
      "throw": 3224,
      "chinese": 3225,
      "erson": 3226,
      "reser": 3227,
      "ody": 3228,
      "musical": 3229,
      "zealand": 3230,
      "48": 3231,
      "gul": 3232,
      "hip": 3233,
      "ification": 3234,
      "books": 3235,
      "mounted": 3236,
      "science": 3237,
      "wheeler": 3238,
      "bud": 3239,
      "concept": 3240,
      "traf": 3241,
      "mention": 3242,
      "spent": 3243,
      "2002": 3244,
      "fully": 3245,
      "threat": 3246,
      "33": 3247,
      "fail": 3248,
      "gs": 3249,
      "master": 3250,
      "rica": 3251,
      "staff": 3252,
      "aring": 3253,
      "market": 3254,
      "positions": 3255,
      "future": 3256,
      "saint": 3257,
      "wel": 3258,
      "asy": 3259,
      "includes": 3260,
      "remaining": 3261,
      "virgin": 3262,
      "arrived": 3263,
      "department": 3264,
      "education": 3265,
      "39": 3266,
      "cm": 3267,
      "ll": 3268,
      "ency": 3269,
      "perform": 3270,
      "aud": 3271,
      "larger": 3272,
      "tons": 3273,
      "sett": 3274,
      "quarters": 3275,
      "canadian": 3276,
      "cathedral": 3277,
      "cathol": 3278,
      "47": 3279,
      "wards": 3280,
      "amed": 3281,
      "grant": 3282,
      "icket": 3283,
      "decision": 3284,
      "frequ": 3285,
      "mic": 3286,
      "rup": 3287,
      "imp": 3288,
      "guard": 3289,
      "187": 3290,
      "required": 3291,
      "latter": 3292,
      "rif": 3293,
      "rhy": 3294,
      "ises": 3295,
      "keep": 3296,
      "location": 3297,
      "voice": 3298,
      "changed": 3299,
      "favor": 3300,
      "entolo": 3301,
      "orial": 3302,
      "model": 3303,
      "africa": 3304,
      "riage": 3305,
      "2000": 3306,
      "color": 3307,
      "ference": 3308,
      "schol": 3309,
      "distri": 3310,
      "nature": 3311,
      "scientolo": 3312,
      "response": 3313,
      "olymp": 3314,
      "ami": 3315,
      "contribut": 3316,
      "culture": 3317,
      "professional": 3318,
      "dum": 3319,
      "ko": 3320,
      "money": 3321,
      "uan": 3322,
      "health": 3323,
      "ifa": 3324,
      "centre": 3325,
      "feature": 3326,
      "defeated": 3327,
      "bid": 3328,
      "nations": 3329,
      "acted": 3330,
      "span": 3331,
      "web": 3332,
      "films": 3333,
      "distr": 3334,
      "groups": 3335,
      "score": 3336,
      "rachel": 3337,
      "ultim": 3338,
      "positive": 3339,
      "idea": 3340,
      "supported": 3341,
      "constructed": 3342,
      "captured": 3343,
      "territory": 3344,
      "gent": 3345,
      "mou": 3346,
      "anch": 3347,
      "beat": 3348,
      "pose": 3349,
      "assigned": 3350,
      "pressure": 3351,
      "syl": 3352,
      "billboard": 3353,
      "living": 3354,
      "scott": 3355,
      "mom": 3356,
      "inal": 3357,
      "acqu": 3358,
      "access": 3359,
      "becoming": 3360,
      "demon": 3361,
      "iding": 3362,
      "exten": 3363,
      "finally": 3364,
      "frank": 3365,
      "squadron": 3366,
      "uals": 3367,
      "think": 3368,
      "chief": 3369,
      "demo": 3370,
      "compe": 3371,
      "discovered": 3372,
      "drum": 3373,
      "temper": 3374,
      "charles": 3375,
      "tower": 3376,
      "surface": 3377,
      "agreed": 3378,
      "anth": 3379,
      "always": 3380,
      "unit": 3381,
      "trade": 3382,
      "shown": 3383,
      "provide": 3384,
      "fox": 3385,
      "protest": 3386,
      "smaller": 3387,
      "experience": 3388,
      "bility": 3389,
      "fill": 3390,
      "scor": 3391,
      "actor": 3392,
      "plays": 3393,
      "temple": 3394,
      "1995": 3395,
      "penn": 3396,
      "private": 3397,
      "makes": 3398,
      "pian": 3399,
      "paren": 3400,
      "rate": 3401,
      "inj": 3402,
      "uments": 3403,
      "exper": 3404,
      "minutes": 3405,
      "mith": 3406,
      "selves": 3407,
      "subject": 3408,
      "domin": 3409,
      "shortly": 3410,
      "square": 3411,
      "pon": 3412,
      "print": 3413,
      "hood": 3414,
      "dark": 3415,
      "anci": 3416,
      "arrang": 3417,
      "andy": 3418,
      "castle": 3419,
      "personal": 3420,
      "subsequently": 3421,
      "37": 3422,
      "dj": 3423,
      "din": 3424,
      "ios": 3425,
      "kick": 3426,
      "rare": 3427,
      "writers": 3428,
      "collection": 3429,
      "effects": 3430,
      "ocean": 3431,
      "distribut": 3432,
      "ases": 3433,
      "cting": 3434,
      "emer": 3435,
      "intended": 3436,
      "bishop": 3437,
      "cat": 3438,
      "da": 3439,
      "gins": 3440,
      "tic": 3441,
      "defeat": 3442,
      "rael": 3443,
      "greater": 3444,
      "constit": 3445,
      "celebr": 3446,
      "scientology": 3447,
      "pil": 3448,
      "iron": 3449,
      "percent": 3450,
      "indic": 3451,
      "mostly": 3452,
      "teams": 3453,
      "course": 3454,
      "gods": 3455,
      "problems": 3456,
      "wa": 3457,
      "itz": 3458,
      "adap": 3459,
      "iva": 3460,
      "idents": 3461,
      "numbers": 3462,
      "haifa": 3463,
      "largely": 3464,
      "machine": 3465,
      "ror": 3466,
      "tu": 3467,
      "va": 3468,
      "via": 3469,
      "uded": 3470,
      "northeast": 3471,
      "themselves": 3472,
      "metres": 3473,
      "valley": 3474,
      "referred": 3475,
      "constant": 3476,
      "primary": 3477,
      "ranked": 3478,
      "califor": 3479,
      "aer": 3480,
      "cit": 3481,
      "xenon": 3482,
      "yet": 3483,
      "ener": 3484,
      "unk": 3485,
      "tray": 3486,
      "method": 3487,
      "whole": 3488,
      "create": 3489,
      "2016": 3490,
      "leader": 3491,
      "croat": 3492,
      "companies": 3493,
      "edge": 3494,
      "chic": 3495,
      "entered": 3496,
      "fighting": 3497,
      "traffic": 3498,
      "49": 3499,
      "cause": 3500,
      "fant": 3501,
      "gall": 3502,
      "information": 3503,
      "andre": 3504,
      "iss": 3505,
      "israel": 3506,
      "ump": 3507,
      "bled": 3508,
      "portu": 3509,
      "closed": 3510,
      "mig": 3511,
      "takes": 3512,
      "ales": 3513,
      "worth": 3514,
      "contains": 3515,
      "jected": 3516,
      "baby": 3517,
      "adop": 3518,
      "aging": 3519,
      "spring": 3520,
      "scul": 3521,
      "settle": 3522,
      "headquarters": 3523,
      "majority": 3524,
      "morning": 3525,
      "greatest": 3526,
      "equip": 3527,
      "brief": 3528,
      "bowl": 3529,
      "lyrics": 3530,
      "fred": 3531,
      "republic": 3532,
      "leaving": 3533,
      "bring": 3534,
      "discover": 3535,
      "jose": 3536,
      "1999": 3537,
      "studies": 3538,
      "starting": 3539,
      "appears": 3540,
      "thick": 3541,
      "insp": 3542,
      "escap": 3543,
      "load": 3544,
      "married": 3545,
      "election": 3546,
      "officers": 3547,
      "galvest": 3548,
      "whether": 3549,
      "journal": 3550,
      "osaurus": 3551,
      "screen": 3552,
      "galveston": 3553,
      "fans": 3554,
      "lis": 3555,
      "vot": 3556,
      "tourn": 3557,
      "secut": 3558,
      "heart": 3559,
      "mole": 3560,
      "1950": 3561,
      "shell": 3562,
      "ume": 3563,
      "aust": 3564,
      "brad": 3565,
      "prison": 3566,
      "competition": 3567,
      "jewish": 3568,
      "lady": 3569,
      "step": 3570,
      "newsp": 3571,
      "deliv": 3572,
      "bin": 3573,
      "fast": 3574,
      "beach": 3575,
      "determin": 3576,
      "confl": 3577,
      "neg": 3578,
      "poly": 3579,
      "runs": 3580,
      "aught": 3581,
      "concert": 3582,
      "ners": 3583,
      "zhou": 3584,
      "theme": 3585,
      "atops": 3586,
      "image": 3587,
      "plans": 3588,
      "proposed": 3589,
      "ements": 3590,
      "ously": 3591,
      "focus": 3592,
      "vey": 3593,
      "episodes": 3594,
      "standard": 3595,
      "stream": 3596,
      "soldiers": 3597,
      "liver": 3598,
      "iation": 3599,
      "lived": 3600,
      "mast": 3601,
      "mind": 3602,
      "rison": 3603,
      "your": 3604,
      "refle": 3605,
      "shire": 3606,
      "artist": 3607,
      "entertain": 3608,
      "influence": 3609,
      "meaning": 3610,
      "independent": 3611,
      "launched": 3612,
      "gam": 3613,
      "anz": 3614,
      "true": 3615,
      "movement": 3616,
      "singles": 3617,
      "tracks": 3618,
      "increase": 3619,
      "blood": 3620,
      "mitted": 3621,
      "dream": 3622,
      "traditional": 3623,
      "amount": 3624,
      "california": 3625,
      "plant": 3626,
      "illery": 3627,
      "acting": 3628,
      "compared": 3629,
      "speed": 3630,
      "minute": 3631,
      "consider": 3632,
      "girl": 3633,
      "quickly": 3634,
      "revolution": 3635,
      "catholic": 3636,
      "76": 3637,
      "hun": 3638,
      "things": 3639,
      "ands": 3640,
      "andon": 3641,
      "artillery": 3642,
      "affe": 3643,
      "meant": 3644,
      "sixth": 3645,
      "trees": 3646,
      "onym": 3647,
      "villa": 3648,
      "double": 3649,
      "occurred": 3650,
      "piece": 3651,
      "daughter": 3652,
      "chicago": 3653,
      "done": 3654,
      "wat": 3655,
      "iny": 3656,
      "inside": 3657,
      "leave": 3658,
      "chem": 3659,
      "corps": 3660,
      "legal": 3661,
      "attacks": 3662,
      "nucle": 3663,
      "chester": 3664,
      "hospital": 3665,
      "kind": 3666,
      "pag": 3667,
      "onto": 3668,
      "deb": 3669,
      "uni": 3670,
      "spac": 3671,
      "serious": 3672,
      "relat": 3673,
      "services": 3674,
      "governor": 3675,
      "request": 3676,
      "latin": 3677,
      "victor": 3678,
      "destroyed": 3679,
      "condoms": 3680,
      "investig": 3681,
      "bury": 3682,
      "fow": 3683,
      "kr": 3684,
      "kin": 3685,
      "uter": 3686,
      "rein": 3687,
      "alice": 3688,
      "chann": 3689,
      "contemporary": 3690,
      "sched": 3691,
      "archite": 3692,
      "longer": 3693,
      "bodies": 3694,
      "schools": 3695,
      "cruis": 3696,
      "circ": 3697,
      "400": 3698,
      "gian": 3699,
      "hund": 3700,
      "wild": 3701,
      "trial": 3702,
      "carried": 3703,
      "complex": 3704,
      "initial": 3705,
      "awarded": 3706,
      "scenes": 3707,
      "safe": 3708,
      "source": 3709,
      "hundred": 3710,
      "mes": 3711,
      "pup": 3712,
      "path": 3713,
      "purch": 3714,
      "ulated": 3715,
      "african": 3716,
      "weight": 3717,
      "something": 3718,
      "proteins": 3719,
      "associated": 3720,
      "rapid": 3721,
      "cyclone": 3722,
      "district": 3723,
      "32": 3724,
      "3rd": 3725,
      "bour": 3726,
      "ost": 3727,
      "beer": 3728,
      "otto": 3729,
      "ellow": 3730,
      "marriage": 3731,
      "finan": 3732,
      "1998": 3733,
      "buildings": 3734,
      "issued": 3735,
      "conducted": 3736,
      "gas": 3737,
      "lb": 3738,
      "zo": 3739,
      "stad": 3740,
      "alkan": 3741,
      "ites": 3742,
      "wash": 3743,
      "rome": 3744,
      "annual": 3745,
      "specific": 3746,
      "polish": 3747,
      "burns": 3748,
      "status": 3749,
      "twenty": 3750,
      "ancient": 3751,
      "ging": 3752,
      "mile": 3753,
      "sav": 3754,
      "chall": 3755,
      "adel": 3756,
      "necess": 3757,
      "1930": 3758,
      "20th": 3759,
      "spect": 3760,
      "defense": 3761,
      "minister": 3762,
      "empire": 3763,
      "husband": 3764,
      "44": 3765,
      "dail": 3766,
      "fair": 3767,
      "edit": 3768,
      "unable": 3769,
      "conserv": 3770,
      "conference": 3771,
      "oda": 3772,
      "1993": 3773,
      "albums": 3774,
      "commented": 3775,
      "inspired": 3776,
      "cot": 3777,
      "len": 3778,
      "scr": 3779,
      "tay": 3780,
      "sets": 3781,
      "suit": 3782,
      "prince": 3783,
      "possess": 3784,
      "numerous": 3785,
      "somer": 3786,
      "nixon": 3787,
      "management": 3788,
      "individual": 3789,
      "liverpool": 3790,
      "ding": 3791,
      "pick": 3792,
      "asi": 3793,
      "esh": 3794,
      "expected": 3795,
      "anta": 3796,
      "elled": 3797,
      "producer": 3798,
      "advant": 3799,
      "giving": 3800,
      "scient": 3801,
      "photo": 3802,
      "glo": 3803,
      "ix": 3804,
      "istics": 3805,
      "bery": 3806,
      "polic": 3807,
      "committee": 3808,
      "texas": 3809,
      "dollar": 3810,
      "terms": 3811,
      "earned": 3812,
      "portion": 3813,
      "advent": 3814,
      "sports": 3815,
      "looking": 3816,
      "nuclear": 3817,
      "mosley": 3818,
      "somerset": 3819,
      "300": 3820,
      "begins": 3821,
      "combat": 3822,
      "tri": 3823,
      "perfect": 3824,
      "join": 3825,
      "historical": 3826,
      "figure": 3827,
      "planned": 3828,
      "piano": 3829,
      "daily": 3830,
      "cand": 3831,
      "ses": 3832,
      "swe": 3833,
      "winter": 3834,
      "yellow": 3835,
      "thunder": 3836,
      "creation": 3837,
      "1996": 3838,
      "portray": 3839,
      "advance": 3840,
      "directly": 3841,
      "busch": 3842,
      "variety": 3843,
      "document": 3844,
      "sac": 3845,
      "wound": 3846,
      "withdraw": 3847,
      "core": 3848,
      "prep": 3849,
      "metal": 3850,
      "organization": 3851,
      "christmas": 3852,
      "performances": 3853,
      "activity": 3854,
      "immediately": 3855,
      "cel": 3856,
      "gard": 3857,
      "pict": 3858,
      "paper": 3859,
      "trib": 3860,
      "sons": 3861,
      "border": 3862,
      "places": 3863,
      "sequence": 3864,
      "spanish": 3865,
      "taylor": 3866,
      "dated": 3867,
      "spl": 3868,
      "armed": 3869,
      "forts": 3870,
      "abandon": 3871,
      "gue": 3872,
      "offensive": 3873,
      "helped": 3874,
      "allowing": 3875,
      "fowler": 3876,
      "slight": 3877,
      "thir": 3878,
      "genus": 3879,
      "casual": 3880,
      "suffered": 3881,
      "assembly": 3882,
      "peace": 3883,
      "progress": 3884,
      "presence": 3885,
      "contro": 3886,
      "folk": 3887,
      "continue": 3888,
      "nearby": 3889,
      "rule": 3890,
      "types": 3891,
      "fruit": 3892,
      "34": 3893,
      "cin": 3894,
      "really": 3895,
      "detail": 3896,
      "imag": 3897,
      "clim": 3898,
      "paris": 3899,
      "raised": 3900,
      "presented": 3901,
      "jane": 3902,
      "advan": 3903,
      "federal": 3904,
      "cultural": 3905,
      "vania": 3906,
      "target": 3907,
      "athen": 3908,
      "bond": 3909,
      "ki": 3910,
      "sand": 3911,
      "rev": 3912,
      "composed": 3913,
      "share": 3914,
      "meyer": 3915,
      "weap": 3916,
      "maxim": 3917,
      "extended": 3918,
      "figures": 3919,
      "vocals": 3920,
      "dar": 3921,
      "jim": 3922,
      "rick": 3923,
      "inn": 3924,
      "aly": 3925,
      "anded": 3926,
      "itude": 3927,
      "confir": 3928,
      "antim": 3929,
      "boat": 3930,
      "famil": 3931,
      "attempts": 3932,
      "houses": 3933,
      "carolina": 3934,
      "virginia": 3935,
      "mouth": 3936,
      "pennsyl": 3937,
      "dress": 3938,
      "fiction": 3939,
      "hang": 3940,
      "kar": 3941,
      "china": 3942,
      "below": 3943,
      "aha": 3944,
      "eye": 3945,
      "beyonce": 3946,
      "nico": 3947,
      "smith": 3948,
      "aspect": 3949,
      "ado": 3950,
      "sumed": 3951,
      "dise": 3952,
      "phy": 3953,
      "athan": 3954,
      "relief": 3955,
      "singer": 3956,
      "aired": 3957,
      "appearances": 3958,
      "officer": 3959,
      "vocal": 3960,
      "selected": 3961,
      "analys": 3962,
      "architect": 3963,
      "hour": 3964,
      "happ": 3965,
      "kak": 3966,
      "sin": 3967,
      "sir": 3968,
      "wy": 3969,
      "extre": 3970,
      "essa": 3971,
      "acts": 3972,
      "marine": 3973,
      "higher": 3974,
      "1997": 3975,
      "distin": 3976,
      "promin": 3977,
      "issues": 3978,
      "sexual": 3979,
      "russ": 3980,
      "strength": 3981,
      "ottoman": 3982,
      "hic": 3983,
      "rush": 3984,
      "wear": 3985,
      "account": 3986,
      "uries": 3987,
      "opin": 3988,
      "emper": 3989,
      "berg": 3990,
      "ipal": 3991,
      "assa": 3992,
      "nov": 3993,
      "anger": 3994,
      "countries": 3995,
      "miami": 3996,
      "germany": 3997,
      "needed": 3998,
      "shoot": 3999,
      "theatre": 4000,
      "die": 4001,
      "rh": 4002,
      "ti": 4003,
      "aware": 4004,
      "highly": 4005,
      "northwest": 4006,
      "protein": 4007,
      "attacked": 4008,
      "mount": 4009,
      "murder": 4010,
      "question": 4011,
      "situation": 4012,
      "fat": 4013,
      "nick": 4014,
      "rect": 4015,
      "edition": 4016,
      "neu": 4017,
      "bob": 4018,
      "owned": 4019,
      "render": 4020,
      "southeast": 4021,
      "distance": 4022,
      "cougar": 4023,
      "words": 4024,
      "responsible": 4025,
      "festival": 4026,
      "comedy": 4027,
      "5th": 4028,
      "6th": 4029,
      "aid": 4030,
      "eth": 4031,
      "hanna": 4032,
      "pun": 4033,
      "offered": 4034,
      "mium": 4035,
      "opera": 4036,
      "silver": 4037,
      "cadmium": 4038,
      "pennsylvania": 4039,
      "cis": 4040,
      "dro": 4041,
      "removed": 4042,
      "ils": 4043,
      "movie": 4044,
      "qual": 4045,
      "finals": 4046,
      "foreign": 4047,
      "150": 4048,
      "voy": 4049,
      "historic": 4050,
      "jackson": 4051,
      "academy": 4052,
      "widely": 4053,
      "energy": 4054,
      "tel": 4055,
      "wit": 4056,
      "thous": 4057,
      "ert": 4058,
      "rot": 4059,
      "entr": 4060,
      "grass": 4061,
      "means": 4062,
      "cert": 4063,
      "horn": 4064,
      "sites": 4065,
      "levels": 4066,
      "copies": 4067,
      "scotland": 4068,
      "peaked": 4069,
      "scoring": 4070,
      "parents": 4071,
      "sister": 4072,
      "ya": 4073,
      "alex": 4074,
      "secur": 4075,
      "elle": 4076,
      "olf": 4077,
      "opport": 4078,
      "branch": 4079,
      "mond": 4080,
      "1991": 4081,
      "calling": 4082,
      "lane": 4083,
      "chris": 4084,
      "powerful": 4085,
      "hands": 4086,
      "rights": 4087,
      "attempted": 4088,
      "window": 4089,
      "typically": 4090,
      "honor": 4091,
      "meeting": 4092,
      "combined": 4093,
      "respectively": 4094,
      "opportun": 4095,
      "46": 4096,
      "lers": 4097,
      "mess": 4098,
      "envir": 4099,
      "adam": 4100,
      "verse": 4101,
      "quality": 4102,
      "peron": 4103,
      "raid": 4104,
      "themes": 4105,
      "drew": 4106,
      "touchdown": 4107,
      "stadium": 4108,
      "cere": 4109,
      "wave": 4110,
      "enn": 4111,
      "stock": 4112,
      "anderson": 4113,
      "trail": 4114,
      "ope": 4115,
      "ender": 4116,
      "observed": 4117,
      "describes": 4118,
      "islands": 4119,
      "patter": 4120,
      "matches": 4121,
      "activities": 4122,
      "candid": 4123,
      "oh": 4124,
      "tun": 4125,
      "instr": 4126,
      "reign": 4127,
      "enjoy": 4128,
      "isation": 4129,
      "itation": 4130,
      "tric": 4131,
      "mental": 4132,
      "vehic": 4133,
      "intell": 4134,
      "preser": 4135,
      "pret": 4136,
      "offer": 4137,
      "izing": 4138,
      "1992": 4139,
      "ledge": 4140,
      "missed": 4141,
      "helm": 4142,
      "chronic": 4143,
      "heavily": 4144,
      "sales": 4145,
      "completely": 4146,
      "braathen": 4147,
      "audience": 4148,
      "kakapo": 4149,
      "security": 4150,
      "jac": 4151,
      "jul": 4152,
      "repe": 4153,
      "behav": 4154,
      "mob": 4155,
      "sole": 4156,
      "managed": 4157,
      "charge": 4158,
      "vised": 4159,
      "1994": 4160,
      "defence": 4161,
      "faced": 4162,
      "reduced": 4163,
      "channel": 4164,
      "ores": 4165,
      "lee": 4166,
      "sha": 4167,
      "etres": 4168,
      "excl": 4169,
      "cricket": 4170,
      "minnes": 4171,
      "carry": 4172,
      "domest": 4173,
      "italian": 4174,
      "resulted": 4175,
      "concluded": 4176,
      "affected": 4177,
      "intellig": 4178,
      "minnesota": 4179,
      "bia": 4180,
      "nic": 4181,
      "ridge": 4182,
      "sid": 4183,
      "stating": 4184,
      "advert": 4185,
      "iver": 4186,
      "residents": 4187,
      "prepar": 4188,
      "wealth": 4189,
      "cks": 4190,
      "conditions": 4191,
      "titles": 4192,
      "reports": 4193,
      "contrast": 4194,
      "initi": 4195,
      "spirit": 4196,
      "write": 4197,
      "townsend": 4198,
      "environ": 4199,
      "42": 4200,
      "aj": 4201,
      "dun": 4202,
      "foun": 4203,
      "sof": 4204,
      "leon": 4205,
      "chair": 4206,
      "trip": 4207,
      "emot": 4208,
      "stra": 4209,
      "athus": 4210,
      "efforts": 4211,
      "featuring": 4212,
      "borough": 4213,
      "declared": 4214,
      "rosebery": 4215,
      "separate": 4216,
      "revealed": 4217,
      "categ": 4218,
      "yue": 4219,
      "inch": 4220,
      "amy": 4221,
      "sust": 4222,
      "shiva": 4223,
      "artists": 4224,
      "liber": 4225,
      "eva": 4226,
      "specim": 4227,
      "description": 4228,
      "refused": 4229,
      "symbol": 4230,
      "meyerbeer": 4231,
      "4th": 4232,
      "kir": 4233,
      "smo": 4234,
      "incorpor": 4235,
      "bles": 4236,
      "finkel": 4237,
      "therefore": 4238,
      "strugg": 4239,
      "1970": 4240,
      "walpole": 4241,
      "techni": 4242,
      "planet": 4243,
      "independence": 4244,
      "extens": 4245,
      "finkelstein": 4246,
      "dur": 4247,
      "fear": 4248,
      "ield": 4249,
      "nast": 4250,
      "phas": 4251,
      "tessa": 4252,
      "shr": 4253,
      "weather": 4254,
      "job": 4255,
      "seasons": 4256,
      "legis": 4257,
      "naval": 4258,
      "practice": 4259,
      "impact": 4260,
      "casualties": 4261,
      "emperor": 4262,
      "cab": 4263,
      "eigh": 4264,
      "rum": 4265,
      "tree": 4266,
      "inner": 4267,
      "ari": 4268,
      "illu": 4269,
      "illino": 4270,
      "excav": 4271,
      "weaken": 4272,
      "mainly": 4273,
      "bute": 4274,
      "broken": 4275,
      "saur": 4276,
      "hait": 4277,
      "sense": 4278,
      "hope": 4279,
      "nicole": 4280,
      "oz": 4281,
      "pine": 4282,
      "sr": 4283,
      "alle": 4284,
      "alone": 4285,
      "ionally": 4286,
      "becomes": 4287,
      "aven": 4288,
      "log": 4289,
      "manu": 4290,
      "actually": 4291,
      "spot": 4292,
      "prise": 4293,
      "scale": 4294,
      "attention": 4295,
      "struck": 4296,
      "letters": 4297,
      "europ": 4298,
      "organized": 4299,
      "priest": 4300,
      "demonstr": 4301,
      "antimony": 4302,
      "khan": 4303,
      "restr": 4304,
      "apple": 4305,
      "neigh": 4306,
      "soviet": 4307,
      "ria": 4308,
      "note": 4309,
      "crim": 4310,
      "workers": 4311,
      "produce": 4312,
      "soundtrack": 4313,
      "capture": 4314,
      "mentioned": 4315,
      "sculpt": 4316,
      "tournament": 4317,
      "advantage": 4318,
      "braathens": 4319,
      "gang": 4320,
      "push": 4321,
      "tailed": 4322,
      "insul": 4323,
      "roles": 4324,
      "cher": 4325,
      "actress": 4326,
      "computer": 4327,
      "function": 4328,
      "vietnam": 4329,
      "primarily": 4330,
      "hotel": 4331,
      "commissioned": 4332,
      "ultimately": 4333,
      "entertainment": 4334,
      "manufact": 4335,
      "gad": 4336,
      "hors": 4337,
      "wed": 4338,
      "ays": 4339,
      "actors": 4340,
      "serve": 4341,
      "cannot": 4342,
      "1990": 4343,
      "elected": 4344,
      "johnson": 4345,
      "farm": 4346,
      "tax": 4347,
      "arent": 4348,
      "accepted": 4349,
      "achieved": 4350,
      "portugu": 4351,
      "9th": 4352,
      "ovic": 4353,
      "ws": 4354,
      "ications": 4355,
      "urban": 4356,
      "ape": 4357,
      "ula": 4358,
      "shore": 4359,
      "artic": 4360,
      "loy": 4361,
      "perman": 4362,
      "fey": 4363,
      "guest": 4364,
      "180": 4365,
      "colony": 4366,
      "foundation": 4367,
      "paid": 4368,
      "graphic": 4369,
      "authority": 4370,
      "rainfall": 4371,
      "measure": 4372,
      "newspaper": 4373,
      "illustr": 4374,
      "portuguese": 4375,
      "ked": 4376,
      "mn": 4377,
      "sides": 4378,
      "tint": 4379,
      "wise": 4380,
      "alab": 4381,
      "exped": 4382,
      "iana": 4383,
      "spain": 4384,
      "spread": 4385,
      "princ": 4386,
      "kept": 4387,
      "alongside": 4388,
      "authorities": 4389,
      "electron": 4390,
      "flooding": 4391,
      "moment": 4392,
      "slightly": 4393,
      "96": 4394,
      "cities": 4395,
      "data": 4396,
      "alty": 4397,
      "dete": 4398,
      "composition": 4399,
      "auto": 4400,
      "phen": 4401,
      "1986": 4402,
      "titled": 4403,
      "battery": 4404,
      "cers": 4405,
      "py": 4406,
      "thr": 4407,
      "inches": 4408,
      "ero": 4409,
      "rear": 4410,
      "item": 4411,
      "igan": 4412,
      "concentr": 4413,
      "ulations": 4414,
      "expressed": 4415,
      "twice": 4416,
      "mechan": 4417,
      "founded": 4418,
      "direction": 4419,
      "varan": 4420,
      "defensive": 4421,
      "males": 4422,
      "flying": 4423,
      "ceeded": 4424,
      "physical": 4425,
      "louis": 4426,
      "conflict": 4427,
      "onymous": 4428,
      "ceremon": 4429,
      "domestic": 4430,
      "53": 4431,
      "kare": 4432,
      "recomm": 4433,
      "arms": 4434,
      "ura": 4435,
      "height": 4436,
      "apart": 4437,
      "avoid": 4438,
      "frag": 4439,
      "doing": 4440,
      "ceres": 4441,
      "barrow": 4442,
      "clean": 4443,
      "battles": 4444,
      "showed": 4445,
      "ordin": 4446,
      "nesbit": 4447,
      "officials": 4448,
      "currently": 4449,
      "welsh": 4450,
      "disease": 4451,
      "analysis": 4452,
      "tintin": 4453,
      "cited": 4454,
      "ec": 4455,
      "ech": 4456,
      "iro": 4457,
      "oil": 4458,
      "snow": 4459,
      "enathus": 4460,
      "isions": 4461,
      "resol": 4462,
      "poet": 4463,
      "content": 4464,
      "toward": 4465,
      "divided": 4466,
      "roll": 4467,
      "roads": 4468,
      "officially": 4469,
      "apparent": 4470,
      "represented": 4471,
      "varanasi": 4472,
      "55": 4473,
      "7th": 4474,
      "hl": 4475,
      "ono": 4476,
      "arth": 4477,
      "admir": 4478,
      "cook": 4479,
      "feed": 4480,
      "ella": 4481,
      "miner": 4482,
      "identified": 4483,
      "says": 4484,
      "influenced": 4485,
      "angeles": 4486,
      "neutr": 4487,
      "nesbitt": 4488,
      "lives": 4489,
      "thin": 4490,
      "encour": 4491,
      "continues": 4492,
      "earliest": 4493,
      "narrow": 4494,
      "francis": 4495,
      "individuals": 4496,
      "dumont": 4497,
      "financial": 4498,
      "odaenathus": 4499,
      "illinois": 4500,
      "56": 4501,
      "eat": 4502,
      "map": 4503,
      "mut": 4504,
      "oth": 4505,
      "ying": 4506,
      "else": 4507,
      "conver": 4508,
      "convent": 4509,
      "oppon": 4510,
      "mogad": 4511,
      "1920": 4512,
      "shel": 4513,
      "illa": 4514,
      "extr": 4515,
      "exhib": 4516,
      "bru": 4517,
      "18th": 4518,
      "collabor": 4519,
      "singing": 4520,
      "viewers": 4521,
      "pedo": 4522,
      "resulting": 4523,
      "torpedo": 4524,
      "engineer": 4525,
      "sarnia": 4526,
      "chapel": 4527,
      "journey": 4528,
      "digital": 4529,
      "olympic": 4530,
      "adopted": 4531,
      "determined": 4532,
      "dance": 4533,
      "raf": 4534,
      "tank": 4535,
      "remix": 4536,
      "cham": 4537,
      "boats": 4538,
      "simp": 4539,
      "student": 4540,
      "studios": 4541,
      "letter": 4542,
      "basis": 4543,
      "golden": 4544,
      "sources": 4545,
      "potential": 4546,
      "dedicated": 4547,
      "executive": 4548,
      "cub": 4549,
      "zed": 4550,
      "chel": 4551,
      "agric": 4552,
      "tried": 4553,
      "uled": 4554,
      "ift": 4555,
      "losing": 4556,
      "manchester": 4557,
      "contain": 4558,
      "max": 4559,
      "visited": 4560,
      "americ": 4561,
      "rug": 4562,
      "cust": 4563,
      "wilhelm": 4564,
      "gradu": 4565,
      "surrounding": 4566,
      "assault": 4567,
      "camer": 4568,
      "altar": 4569,
      "opt": 4570,
      "proved": 4571,
      "clark": 4572,
      "extra": 4573,
      "awa": 4574,
      "ounds": 4575,
      "normal": 4576,
      "drive": 4577,
      "medical": 4578,
      "effort": 4579,
      "passing": 4580,
      "vessel": 4581,
      "require": 4582,
      "transferred": 4583,
      "relatively": 4584,
      "washington": 4585,
      "maximum": 4586,
      "95": 4587,
      "fal": 4588,
      "trou": 4589,
      "inth": 4590,
      "recon": 4591,
      "chor": 4592,
      "unlike": 4593,
      "older": 4594,
      "prin": 4595,
      "attended": 4596,
      "flag": 4597,
      "osen": 4598,
      "ologist": 4599,
      "1988": 4600,
      "aith": 4601,
      "systems": 4602,
      "females": 4603,
      "fresh": 4604,
      "freeway": 4605,
      "archaeological": 4606,
      "agricult": 4607,
      "dv": 4608,
      "stan": 4609,
      "omaha": 4610,
      "images": 4611,
      "plum": 4612,
      "opposed": 4613,
      "aret": 4614,
      "ishu": 4615,
      "notable": 4616,
      "flank": 4617,
      "visual": 4618,
      "survey": 4619,
      "invas": 4620,
      "helms": 4621,
      "orders": 4622,
      "glass": 4623,
      "buried": 4624,
      "possibly": 4625,
      "agreement": 4626,
      "meanwhile": 4627,
      "beyond": 4628,
      "economic": 4629,
      "joseph": 4630,
      "alabama": 4631,
      "kent": 4632,
      "lic": 4633,
      "nur": 4634,
      "pack": 4635,
      "rise": 4636,
      "sle": 4637,
      "ust": 4638,
      "innis": 4639,
      "edward": 4640,
      "argent": 4641,
      "ador": 4642,
      "poe": 4643,
      "cold": 4644,
      "fields": 4645,
      "designated": 4646,
      "believe": 4647,
      "motor": 4648,
      "baseball": 4649,
      "animal": 4650,
      "pieces": 4651,
      "shape": 4652,
      "literature": 4653,
      "intensity": 4654,
      "kg": 4655,
      "kh": 4656,
      "mand": 4657,
      "deploy": 4658,
      "iven": 4659,
      "coal": 4660,
      "timore": 4661,
      "evol": 4662,
      "dissip": 4663,
      "follows": 4664,
      "suppl": 4665,
      "azz": 4666,
      "memorial": 4667,
      "1940": 4668,
      "1960s": 4669,
      "results": 4670,
      "charts": 4671,
      "institute": 4672,
      "horses": 4673,
      "mogadishu": 4674,
      "51": 4675,
      "bie": 4676,
      "jup": 4677,
      "kore": 4678,
      "ov": 4679,
      "paint": 4680,
      "uck": 4681,
      "seas": 4682,
      "express": 4683,
      "craz": 4684,
      "prime": 4685,
      "scar": 4686,
      "simply": 4687,
      "1980s": 4688,
      "famous": 4689,
      "1964": 4690,
      "returning": 4691,
      "weekly": 4692,
      "supporting": 4693,
      "restaur": 4694,
      "solo": 4695,
      "cases": 4696,
      "historian": 4697,
      "mccall": 4698,
      "structures": 4699,
      "stones": 4700,
      "homes": 4701,
      "growing": 4702,
      "emphas": 4703,
      "treaty": 4704,
      "64": 4705,
      "gate": 4706,
      "hell": 4707,
      "md": 4708,
      "task": 4709,
      "reaction": 4710,
      "alleg": 4711,
      "ros": 4712,
      "mod": 4713,
      "condition": 4714,
      "underground": 4715,
      "publish": 4716,
      "miss": 4717,
      "claims": 4718,
      "importance": 4719,
      "projects": 4720,
      "holds": 4721,
      "successfully": 4722,
      "couple": 4723,
      "knowledge": 4724,
      "narr": 4725,
      "technology": 4726,
      "secretary": 4727,
      "equipment": 4728,
      "necessary": 4729,
      "entrance": 4730,
      "rugby": 4731,
      "97": 4732,
      "bull": 4733,
      "eag": 4734,
      "gained": 4735,
      "nie": 4736,
      "train": 4737,
      "propos": 4738,
      "playstation": 4739,
      "selling": 4740,
      "filming": 4741,
      "grew": 4742,
      "passes": 4743,
      "depth": 4744,
      "transl": 4745,
      "connected": 4746,
      "promotion": 4747,
      "growth": 4748,
      "railway": 4749,
      "argued": 4750,
      "micro": 4751,
      "djed": 4752,
      "bard": 4753,
      "imper": 4754,
      "rihanna": 4755,
      "landing": 4756,
      "weak": 4757,
      "draft": 4758,
      "hamels": 4759,
      "publication": 4760,
      "suggests": 4761,
      "baltimore": 4762,
      "crown": 4763,
      "attribut": 4764,
      "breeding": 4765,
      "website": 4766,
      "600": 4767,
      "cd": 4768,
      "dock": 4769,
      "ji": 4770,
      "jon": 4771,
      "jay": 4772,
      "ral": 4773,
      "tact": 4774,
      "xe": 4775,
      "ched": 4776,
      "accoun": 4777,
      "consecut": 4778,
      "utions": 4779,
      "rence": 4780,
      "icks": 4781,
      "sell": 4782,
      "belong": 4783,
      "supply": 4784,
      "causing": 4785,
      "vements": 4786,
      "placement": 4787,
      "plement": 4788,
      "campus": 4789,
      "versions": 4790,
      "volume": 4791,
      "reference": 4792,
      "benef": 4793,
      "palest": 4794,
      "criticized": 4795,
      "religion": 4796,
      "premier": 4797,
      "escape": 4798,
      "adelph": 4799,
      "advanced": 4800,
      "jupiter": 4801,
      "43": 4802,
      "faith": 4803,
      "tan": 4804,
      "ye": 4805,
      "atter": 4806,
      "ening": 4807,
      "enemy": 4808,
      "outer": 4809,
      "lev": 4810,
      "chosen": 4811,
      "beth": 4812,
      "beaut": 4813,
      "usa": 4814,
      "oph": 4815,
      "abu": 4816,
      "uten": 4817,
      "astic": 4818,
      "elling": 4819,
      "newly": 4820,
      "containing": 4821,
      "speak": 4822,
      "door": 4823,
      "calls": 4824,
      "element": 4825,
      "dynast": 4826,
      "reaching": 4827,
      "label": 4828,
      "strike": 4829,
      "truth": 4830,
      "debuted": 4831,
      "multiple": 4832,
      "property": 4833,
      "democr": 4834,
      "settlement": 4835,
      "abandoned": 4836,
      "prominent": 4837,
      "djedkare": 4838,
      "65": 4839,
      "hart": 4840,
      "theory": 4841,
      "err": 4842,
      "ato": 4843,
      "aling": 4844,
      "cler": 4845,
      "sphere": 4846,
      "ached": 4847,
      "owner": 4848,
      "joint": 4849,
      "regions": 4850,
      "broke": 4851,
      "obtain": 4852,
      "operated": 4853,
      "1947": 4854,
      "haven": 4855,
      "personnel": 4856,
      "torres": 4857,
      "administration": 4858,
      "rupt": 4859,
      "andrew": 4860,
      "wounded": 4861,
      "41": 4862,
      "ahead": 4863,
      "nich": 4864,
      "rejected": 4865,
      "ingu": 4866,
      "unknown": 4867,
      "ira": 4868,
      "resist": 4869,
      "compar": 4870,
      "1987": 4871,
      "marks": 4872,
      "ski": 4873,
      "youth": 4874,
      "slam": 4875,
      "pursu": 4876,
      "cells": 4877,
      "seems": 4878,
      "granted": 4879,
      "confirmed": 4880,
      "consecutive": 4881,
      "cake": 4882,
      "gil": 4883,
      "wick": 4884,
      "yo": 4885,
      "yan": 4886,
      "deities": 4887,
      "quake": 4888,
      "brid": 4889,
      "corn": 4890,
      "commonly": 4891,
      "dram": 4892,
      "seconds": 4893,
      "secondary": 4894,
      "address": 4895,
      "1941": 4896,
      "controlled": 4897,
      "chapter": 4898,
      "academ": 4899,
      "increasingly": 4900,
      "scottish": 4901,
      "prepared": 4902,
      "straight": 4903,
      "applewhite": 4904,
      "dvd": 4905,
      "crazy": 4906,
      "120": 4907,
      "bbc": 4908,
      "dal": 4909,
      "fash": 4910,
      "sund": 4911,
      "anonymous": 4912,
      "atmo": 4913,
      "stations": 4914,
      "arrest": 4915,
      "asc": 4916,
      "iced": 4917,
      "icts": 4918,
      "istan": 4919,
      "odon": 4920,
      "dog": 4921,
      "fix": 4922,
      "generation": 4923,
      "senior": 4924,
      "killing": 4925,
      "install": 4926,
      "promoted": 4927,
      "nominated": 4928,
      "risk": 4929,
      "temperature": 4930,
      "waters": 4931,
      "phase": 4932,
      "adelphia": 4933,
      "ez": 4934,
      "lum": 4935,
      "save": 4936,
      "vul": 4937,
      "atom": 4938,
      "chi": 4939,
      "crus": 4940,
      "attend": 4941,
      "crete": 4942,
      "fired": 4943,
      "1970s": 4944,
      "glas": 4945,
      "explained": 4946,
      "philos": 4947,
      "biography": 4948,
      "multi": 4949,
      "greek": 4950,
      "egyptian": 4951,
      "scholar": 4952,
      "fantasy": 4953,
      "chemical": 4954,
      "unique": 4955,
      "cruiser": 4956,
      "families": 4957,
      "dim": 4958,
      "fame": 4959,
      "gor": 4960,
      "gain": 4961,
      "gia": 4962,
      "hunt": 4963,
      "kur": 4964,
      "rating": 4965,
      "sie": 4966,
      "oured": 4967,
      "plate": 4968,
      "oppos": 4969,
      "nothing": 4970,
      "guy": 4971,
      "mike": 4972,
      "elev": 4973,
      "1984": 4974,
      "1989": 4975,
      "1972": 4976,
      "prompt": 4977,
      "bush": 4978,
      "burg": 4979,
      "croatia": 4980,
      "8th": 4981,
      "catch": 4982,
      "gord": 4983,
      "kang": 4984,
      "wer": 4985,
      "zy": 4986,
      "isol": 4987,
      "chains": 4988,
      "semi": 4989,
      "adult": 4990,
      "myth": 4991,
      "writes": 4992,
      "rolling": 4993,
      "1985": 4994,
      "swed": 4995,
      "choice": 4996,
      "experienced": 4997,
      "animals": 4998,
      "devot": 4999,
      "synthe": 5000,
      "regarded": 5001,
      "employed": 5002,
      "strengthen": 5003,
      "130": 5004,
      "hms": 5005,
      "ires": 5006,
      "arc": 5007,
      "resc": 5008,
      "worship": 5009,
      "interchange": 5010,
      "drama": 5011,
      "sions": 5012,
      "filmed": 5013,
      "brook": 5014,
      "1960": 5015,
      "ideas": 5016,
      "defend": 5017,
      "cardiff": 5018,
      "subsequent": 5019,
      "mortal": 5020,
      "happen": 5021,
      "budget": 5022,
      "poetry": 5023,
      "bask": 5024,
      "dates": 5025,
      "stood": 5026,
      "elim": 5027,
      "congress": 5028,
      "cool": 5029,
      "iance": 5030,
      "herself": 5031,
      "firm": 5032,
      "grade": 5033,
      "landfall": 5034,
      "keats": 5035,
      "southwest": 5036,
      "1944": 5037,
      "value": 5038,
      "laid": 5039,
      "humans": 5040,
      "gives": 5041,
      "belief": 5042,
      "michigan": 5043,
      "rooms": 5044,
      "walls": 5045,
      "suffic": 5046,
      "philadelphia": 5047,
      "pitched": 5048,
      "consisted": 5049,
      "ifying": 5050,
      "dropped": 5051,
      "frequently": 5052,
      "rapidly": 5053,
      "weapons": 5054,
      "invasion": 5055,
      "eas": 5056,
      "kit": 5057,
      "mist": 5058,
      "nas": 5059,
      "ole": 5060,
      "yl": 5061,
      "resem": 5062,
      "asia": 5063,
      "decor": 5064,
      "decre": 5065,
      "ulty": 5066,
      "clock": 5067,
      "illo": 5068,
      "mann": 5069,
      "maria": 5070,
      "creating": 5071,
      "collap": 5072,
      "dry": 5073,
      "minim": 5074,
      "highlight": 5075,
      "1990s": 5076,
      "matter": 5077,
      "heads": 5078,
      "continent": 5079,
      "powers": 5080,
      "skill": 5081,
      "transit": 5082,
      "magn": 5083,
      "dani": 5084,
      "industri": 5085,
      "battalions": 5086,
      "seventh": 5087,
      "kilom": 5088,
      "maintained": 5089,
      "failure": 5090,
      "injury": 5091,
      "aspects": 5092,
      "happy": 5093,
      "extensive": 5094,
      "87": 5095,
      "94": 5096,
      "egg": 5097,
      "fict": 5098,
      "oon": 5099,
      "rab": 5100,
      "ries": 5101,
      "inations": 5102,
      "why": 5103,
      "usual": 5104,
      "ults": 5105,
      "ieval": 5106,
      "mush": 5107,
      "retired": 5108,
      "ceratops": 5109,
      "protection": 5110,
      "province": 5111,
      "explor": 5112,
      "popularity": 5113,
      "electric": 5114,
      "teenth": 5115,
      "bottom": 5116,
      "dutch": 5117,
      "gulf": 5118,
      "basket": 5119,
      "cart": 5120,
      "dd": 5121,
      "dial": 5122,
      "none": 5123,
      "naz": 5124,
      "nathan": 5125,
      "sens": 5126,
      "wolf": 5127,
      "recover": 5128,
      "ala": 5129,
      "iguan": 5130,
      "cole": 5131,
      "grav": 5132,
      "medieval": 5133,
      "steve": 5134,
      "bari": 5135,
      "italy": 5136,
      "km2": 5137,
      "allows": 5138,
      "criticism": 5139,
      "victim": 5140,
      "significantly": 5141,
      "recognized": 5142,
      "pilot": 5143,
      "sustained": 5144,
      "custom": 5145,
      "ja": 5146,
      "sail": 5147,
      "vice": 5148,
      "yu": 5149,
      "thor": 5150,
      "stal": 5151,
      "alan": 5152,
      "plain": 5153,
      "astron": 5154,
      "anton": 5155,
      "perhap": 5156,
      "bron": 5157,
      "cry": 5158,
      "producers": 5159,
      "starts": 5160,
      "peninsul": 5161,
      "facilities": 5162,
      "finding": 5163,
      "motion": 5164,
      "lieuten": 5165,
      "scheduled": 5166,
      "intelligence": 5167,
      "americans": 5168,
      "jes": 5169,
      "kon": 5170,
      "kes": 5171,
      "sought": 5172,
      "chose": 5173,
      "aml": 5174,
      "comic": 5175,
      "proto": 5176,
      "etic": 5177,
      "aston": 5178,
      "attor": 5179,
      "libr": 5180,
      "monument": 5181,
      "steam": 5182,
      "surrender": 5183,
      "simple": 5184,
      "distingu": 5185,
      "skin": 5186,
      "delay": 5187,
      "incident": 5188,
      "surviv": 5189,
      "nett": 5190,
      "losses": 5191,
      "regarding": 5192,
      "treatment": 5193,
      "martin": 5194,
      "occupied": 5195,
      "filled": 5196,
      "conservation": 5197,
      "industrial": 5198,
      "perhaps": 5199,
      "fought": 5200,
      "mine": 5201,
      "psy": 5202,
      "rated": 5203,
      "rub": 5204,
      "table": 5205,
      "wrest": 5206,
      "theless": 5207,
      "ancy": 5208,
      "store": 5209,
      "isy": 5210,
      "accompan": 5211,
      "allied": 5212,
      "shop": 5213,
      "clou": 5214,
      "crash": 5215,
      "izes": 5216,
      "frame": 5217,
      "setting": 5218,
      "160": 5219,
      "1981": 5220,
      "collected": 5221,
      "apping": 5222,
      "vietnames": 5223,
      "fellow": 5224,
      "recently": 5225,
      "nucleus": 5226,
      "policy": 5227,
      "witness": 5228,
      "nichol": 5229,
      "gordon": 5230,
      "vietnamese": 5231,
      "66": 5232,
      "advis": 5233,
      "degree": 5234,
      "moon": 5235,
      "prop": 5236,
      "twel": 5237,
      "dub": 5238,
      "blin": 5239,
      "marines": 5240,
      "17th": 5241,
      "pleas": 5242,
      "finds": 5243,
      "cros": 5244,
      "gradually": 5245,
      "cambod": 5246,
      "shaped": 5247,
      "thunderbirds": 5248,
      "fashion": 5249,
      "bart": 5250,
      "cia": 5251,
      "oke": 5252,
      "eda": 5253,
      "stages": 5254,
      "rob": 5255,
      "acu": 5256,
      "contest": 5257,
      "embar": 5258,
      "iang": 5259,
      "gray": 5260,
      "presents": 5261,
      "prefer": 5262,
      "contained": 5263,
      "juan": 5264,
      "rival": 5265,
      "justice": 5266,
      "1939": 5267,
      "missions": 5268,
      "safety": 5269,
      "oxford": 5270,
      "problem": 5271,
      "habitat": 5272,
      "distribution": 5273,
      "peninsula": 5274,
      "iot": 5275,
      "mate": 5276,
      "rical": 5277,
      "wins": 5278,
      "inde": 5279,
      "chess": 5280,
      "dean": 5281,
      "heard": 5282,
      "trap": 5283,
      "bright": 5284,
      "awn": 5285,
      "partner": 5286,
      "canal": 5287,
      "finish": 5288,
      "gameplay": 5289,
      "capable": 5290,
      "ogy": 5291,
      "worldwide": 5292,
      "severe": 5293,
      "serving": 5294,
      "hydro": 5295,
      "1942": 5296,
      "macle": 5297,
      "improved": 5298,
      "athletes": 5299,
      "contributed": 5300,
      "negative": 5301,
      "editor": 5302,
      "cinem": 5303,
      "arthur": 5304,
      "98": 5305,
      "gab": 5306,
      "gest": 5307,
      "nba": 5308,
      "pic": 5309,
      "rising": 5310,
      "zone": 5311,
      "sections": 5312,
      "acres": 5313,
      "unte": 5314,
      "iments": 5315,
      "hem": 5316,
      "terror": 5317,
      "concrete": 5318,
      "agent": 5319,
      "moves": 5320,
      "ulate": 5321,
      "neither": 5322,
      "negot": 5323,
      "1918": 5324,
      "allah": 5325,
      "ansas": 5326,
      "sses": 5327,
      "metro": 5328,
      "portra": 5329,
      "solid": 5330,
      "turner": 5331,
      "volunte": 5332,
      "faces": 5333,
      "drawn": 5334,
      "effective": 5335,
      "floor": 5336,
      "championships": 5337,
      "purpose": 5338,
      "programs": 5339,
      "philip": 5340,
      "williams": 5341,
      "entirely": 5342,
      "economy": 5343,
      "lisa": 5344,
      "1950s": 5345,
      "challeng": 5346,
      "dynasty": 5347,
      "fictional": 5348,
      "lieutenant": 5349,
      "54": 5350,
      "700": 5351,
      "bann": 5352,
      "dden": 5353,
      "dota": 5354,
      "fare": 5355,
      "jain": 5356,
      "kat": 5357,
      "ug": 5358,
      "inspir": 5359,
      "rox": 5360,
      "lewis": 5361,
      "agu": 5362,
      "shed": 5363,
      "prot": 5364,
      "boise": 5365,
      "boston": 5366,
      "mario": 5367,
      "centuries": 5368,
      "display": 5369,
      "engaged": 5370,
      "goes": 5371,
      "muslim": 5372,
      "retre": 5373,
      "eleven": 5374,
      "12th": 5375,
      "headed": 5376,
      "1968": 5377,
      "1969": 5378,
      "sentence": 5379,
      "brian": 5380,
      "expanded": 5381,
      "turk": 5382,
      "favour": 5383,
      "reasons": 5384,
      "responded": 5385,
      "hawai": 5386,
      "slowly": 5387,
      "adapt": 5388,
      "exclus": 5389,
      "soft": 5390,
      "europium": 5391,
      "items": 5392,
      "imperial": 5393,
      "kilometres": 5394,
      "bath": 5395,
      "dor": 5396,
      "gw": 5397,
      "gill": 5398,
      "mul": 5399,
      "pap": 5400,
      "anne": 5401,
      "rey": 5402,
      "atives": 5403,
      "ented": 5404,
      "neck": 5405,
      "shar": 5406,
      "quite": 5407,
      "udes": 5408,
      "marsh": 5409,
      "liu": 5410,
      "paralle": 5411,
      "roughly": 5412,
      "charter": 5413,
      "holy": 5414,
      "1975": 5415,
      "decade": 5416,
      "decades": 5417,
      "classified": 5418,
      "deaths": 5419,
      "possibility": 5420,
      "massive": 5421,
      "scription": 5422,
      "munic": 5423,
      "planning": 5424,
      "violence": 5425,
      "gully": 5426,
      "russian": 5427,
      "mobile": 5428,
      "expedition": 5429,
      "dang": 5430,
      "rig": 5431,
      "sort": 5432,
      "ona": 5433,
      "stret": 5434,
      "roof": 5435,
      "ads": 5436,
      "pty": 5437,
      "evil": 5438,
      "evita": 5439,
      "steel": 5440,
      "appeal": 5441,
      "pope": 5442,
      "1965": 5443,
      "1974": 5444,
      "didn": 5445,
      "evening": 5446,
      "organiz": 5447,
      "eyes": 5448,
      "girls": 5449,
      "transportation": 5450,
      "confess": 5451,
      "occasionally": 5452,
      "avenue": 5453,
      "61": 5454,
      "gus": 5455,
      "kings": 5456,
      "tam": 5457,
      "erc": 5458,
      "arsen": 5459,
      "isab": 5460,
      "sector": 5461,
      "adow": 5462,
      "lywood": 5463,
      "hear": 5464,
      "utz": 5465,
      "norm": 5466,
      "speaking": 5467,
      "adding": 5468,
      "azil": 5469,
      "churches": 5470,
      "passeng": 5471,
      "falls": 5472,
      "additionally": 5473,
      "holding": 5474,
      "learned": 5475,
      "competit": 5476,
      "purchased": 5477,
      "legisl": 5478,
      "khanh": 5479,
      "negoti": 5480,
      "800": 5481,
      "jurch": 5482,
      "jump": 5483,
      "knot": 5484,
      "rebel": 5485,
      "anda": 5486,
      "tot": 5487,
      "wides": 5488,
      "quot": 5489,
      "formula": 5490,
      "anny": 5491,
      "struction": 5492,
      "rivers": 5493,
      "belt": 5494,
      "simon": 5495,
      "leaders": 5496,
      "declined": 5497,
      "jamal": 5498,
      "wedding": 5499,
      "59": 5500,
      "85": 5501,
      "citing": 5502,
      "ule": 5503,
      "zen": 5504,
      "rever": 5505,
      "reli": 5506,
      "remn": 5507,
      "ena": 5508,
      "inger": 5509,
      "aman": 5510,
      "iled": 5511,
      "accompl": 5512,
      "begun": 5513,
      "lying": 5514,
      "usal": 5515,
      "ctors": 5516,
      "compr": 5517,
      "iful": 5518,
      "dublin": 5519,
      "assass": 5520,
      "foc": 5521,
      "guide": 5522,
      "lide": 5523,
      "prec": 5524,
      "contact": 5525,
      "gene": 5526,
      "tenny": 5527,
      "longest": 5528,
      "1946": 5529,
      "clubs": 5530,
      "authors": 5531,
      "politics": 5532,
      "doub": 5533,
      "arrival": 5534,
      "crowd": 5535,
      "applied": 5536,
      "performing": 5537,
      "experiment": 5538,
      "briefly": 5539,
      "sweet": 5540,
      "details": 5541,
      "category": 5542,
      "permanent": 5543,
      "paintings": 5544,
      "attorney": 5545,
      "macleod": 5546,
      "protagon": 5547,
      "tennyson": 5548,
      "crop": 5549,
      "fel": 5550,
      "hired": 5551,
      "kits": 5552,
      "sight": 5553,
      "wart": 5554,
      "infr": 5555,
      "reput": 5556,
      "acre": 5557,
      "rian": 5558,
      "herit": 5559,
      "crime": 5560,
      "desc": 5561,
      "interior": 5562,
      "warm": 5563,
      "simone": 5564,
      "developing": 5565,
      "somal": 5566,
      "billion": 5567,
      "basin": 5568,
      "accident": 5569,
      "technical": 5570,
      "literary": 5571,
      "settlers": 5572,
      "thirty": 5573,
      "instrument": 5574,
      "astronom": 5575,
      "dating": 5576,
      "lings": 5577,
      "wic": 5578,
      "witch": 5579,
      "yle": 5580,
      "repl": 5581,
      "stable": 5582,
      "routes": 5583,
      "bean": 5584,
      "abor": 5585,
      "1919": 5586,
      "pregn": 5587,
      "phill": 5588,
      "visible": 5589,
      "16th": 5590,
      "populations": 5591,
      "1966": 5592,
      "walk": 5593,
      "1952": 5594,
      "1936": 5595,
      "freed": 5596,
      "engineering": 5597,
      "earthquake": 5598,
      "existing": 5599,
      "existence": 5600,
      "funding": 5601,
      "banks": 5602,
      "participated": 5603,
      "scholars": 5604,
      "discovery": 5605,
      "enjoyed": 5606,
      "accompanied": 5607,
      "110": 5608,
      "52": 5609,
      "bone": 5610,
      "fuel": 5611,
      "jazz": 5612,
      "ogue": 5613,
      "pir": 5614,
      "pus": 5615,
      "page": 5616,
      "uly": 5617,
      "wish": 5618,
      "repair": 5619,
      "edar": 5620,
      "ati": 5621,
      "aser": 5622,
      "oldest": 5623,
      "aine": 5624,
      "ifically": 5625,
      "aug": 5626,
      "correct": 5627,
      "ictions": 5628,
      "grapher": 5629,
      "characteristics": 5630,
      "lasted": 5631,
      "explo": 5632,
      "typical": 5633,
      "combination": 5634,
      "competitions": 5635,
      "painting": 5636,
      "brothers": 5637,
      "credited": 5638,
      "anthony": 5639,
      "freder": 5640,
      "reinforce": 5641,
      "ulysses": 5642,
      "kins": 5643,
      "mud": 5644,
      "nell": 5645,
      "pav": 5646,
      "von": 5647,
      "zer": 5648,
      "inity": 5649,
      "uss": 5650,
      "apt": 5651,
      "ette": 5652,
      "aka": 5653,
      "aked": 5654,
      "rio": 5655,
      "rier": 5656,
      "fee": 5657,
      "pread": 5658,
      "carib": 5659,
      "oslo": 5660,
      "grey": 5661,
      "consists": 5662,
      "missing": 5663,
      "locations": 5664,
      "1973": 5665,
      "dominated": 5666,
      "protected": 5667,
      "magic": 5668,
      "classic": 5669,
      "turning": 5670,
      "reviewers": 5671,
      "glades": 5672,
      "younger": 5673,
      "virt": 5674,
      "changing": 5675,
      "coastal": 5676,
      "hills": 5677,
      "cardinal": 5678,
      "session": 5679,
      "reserve": 5680,
      "thousands": 5681,
      "opportunity": 5682,
      "fountain": 5683,
      "chorus": 5684,
      "turkish": 5685,
      "widespread": 5686,
      "caught": 5687,
      "albert": 5688,
      "ingly": 5689,
      "chance": 5690,
      "seat": 5691,
      "entially": 5692,
      "aded": 5693,
      "acid": 5694,
      "iday": 5695,
      "supre": 5696,
      "ares": 5697,
      "istol": 5698,
      "resident": 5699,
      "eman": 5700,
      "forming": 5701,
      "cked": 5702,
      "anything": 5703,
      "divisions": 5704,
      "receiving": 5705,
      "1967": 5706,
      "appearing": 5707,
      "reading": 5708,
      "greatly": 5709,
      "reality": 5710,
      "everything": 5711,
      "closely": 5712,
      "expans": 5713,
      "stopped": 5714,
      "mountains": 5715,
      "tells": 5716,
      "rhyth": 5717,
      "hornung": 5718,
      "vehicles": 5719,
      "technique": 5720,
      "weakened": 5721,
      "ceremony": 5722,
      "iguanodon": 5723,
      "focused": 5724,
      "62": 5725,
      "77": 5726,
      "dod": 5727,
      "nc": 5728,
      "rural": 5729,
      "zam": 5730,
      "ione": 5731,
      "amate": 5732,
      "entry": 5733,
      "1914": 5734,
      "perry": 5735,
      "derived": 5736,
      "boys": 5737,
      "spin": 5738,
      "noisy": 5739,
      "creator": 5740,
      "colour": 5741,
      "monarch": 5742,
      "viewed": 5743,
      "serves": 5744,
      "invited": 5745,
      "legacy": 5746,
      "diam": 5747,
      "provides": 5748,
      "storyline": 5749,
      "similarly": 5750,
      "decline": 5751,
      "rules": 5752,
      "colonial": 5753,
      "affair": 5754,
      "assistant": 5755,
      "races": 5756,
      "establishment": 5757,
      "1930s": 5758,
      "innings": 5759,
      "chelsea": 5760,
      "restaurant": 5761,
      "81": 5762,
      "bought": 5763,
      "cort": 5764,
      "fu": 5765,
      "gone": 5766,
      "iet": 5767,
      "jen": 5768,
      "kom": 5769,
      "kno": 5770,
      "rag": 5771,
      "tig": 5772,
      "vac": 5773,
      "reven": 5774,
      "encounter": 5775,
      "orchest": 5776,
      "urb": 5777,
      "resour": 5778,
      "aste": 5779,
      "outs": 5780,
      "ips": 5781,
      "bling": 5782,
      "iza": 5783,
      "supposed": 5784,
      "ifications": 5785,
      "download": 5786,
      "breaking": 5787,
      "alien": 5788,
      "palace": 5789,
      "looked": 5790,
      "douglas": 5791,
      "survived": 5792,
      "satis": 5793,
      "flights": 5794,
      "substant": 5795,
      "haiti": 5796,
      "electronic": 5797,
      "battleship": 5798,
      "dissipated": 5799,
      "caribbean": 5800,
      "cies": 5801,
      "fold": 5802,
      "gon": 5803,
      "tend": 5804,
      "ining": 5805,
      "seg": 5806,
      "accur": 5807,
      "ola": 5808,
      "conve": 5809,
      "consul": 5810,
      "abol": 5811,
      "shared": 5812,
      "umes": 5813,
      "exh": 5814,
      "rie": 5815,
      "geo": 5816,
      "intend": 5817,
      "compon": 5818,
      "evacu": 5819,
      "flash": 5820,
      "regional": 5821,
      "maeda": 5822,
      "puzz": 5823,
      "capac": 5824,
      "suppor": 5825,
      "receive": 5826,
      "describing": 5827,
      "trying": 5828,
      "1945": 5829,
      "1971": 5830,
      "destiny": 5831,
      "seeing": 5832,
      "entering": 5833,
      "georgian": 5834,
      "novels": 5835,
      "demand": 5836,
      "colonel": 5837,
      "hibari": 5838,
      "ratings": 5839,
      "watched": 5840,
      "secure": 5841,
      "acquired": 5842,
      "arranged": 5843,
      "constantine": 5844,
      "opinion": 5845,
      "repeated": 5846,
      "eagle": 5847,
      "atmosphere": 5848,
      "250": 5849,
      "79": 5850,
      "89": 5851,
      "boliv": 5852,
      "fine": 5853,
      "hindu": 5854,
      "jones": 5855,
      "lon": 5856,
      "mtv": 5857,
      "qedar": 5858,
      "tie": 5859,
      "inte": 5860,
      "ario": 5861,
      "elder": 5862,
      "irt": 5863,
      "opposition": 5864,
      "abs": 5865,
      "exact": 5866,
      "exerc": 5867,
      "ighter": 5868,
      "correspond": 5869,
      "attached": 5870,
      "preced": 5871,
      "everglades": 5872,
      "whereas": 5873,
      "willing": 5874,
      "venus": 5875,
      "1982": 5876,
      "legend": 5877,
      "penalty": 5878,
      "dynam": 5879,
      "facing": 5880,
      "champions": 5881,
      "romani": 5882,
      "brien": 5883,
      "rane": 5884,
      "trust": 5885,
      "introduction": 5886,
      "ruli": 5887,
      "phoen": 5888,
      "franch": 5889,
      "teaching": 5890,
      "defined": 5891,
      "spacing": 5892,
      "eighth": 5893,
      "converted": 5894,
      "library": 5895,
      "71": 5896,
      "knew": 5897,
      "pse": 5898,
      "recru": 5899,
      "atus": 5900,
      "stic": 5901,
      "isis": 5902,
      "cong": 5903,
      "ider": 5904,
      "1916": 5905,
      "1913": 5906,
      "lover": 5907,
      "brazil": 5908,
      "spur": 5909,
      "pton": 5910,
      "formal": 5911,
      "renamed": 5912,
      "gency": 5913,
      "regime": 5914,
      "1980": 5915,
      "succeeded": 5916,
      "junction": 5917,
      "1976": 5918,
      "depicted": 5919,
      "harmon": 5920,
      "camps": 5921,
      "providing": 5922,
      "prize": 5923,
      "1956": 5924,
      "calcul": 5925,
      "engineers": 5926,
      "poems": 5927,
      "graded": 5928,
      "professor": 5929,
      "assistance": 5930,
      "credits": 5931,
      "issance": 5932,
      "masters": 5933,
      "split": 5934,
      "controvers": 5935,
      "rescue": 5936,
      "mushroom": 5937,
      "hat": 5938,
      "patt": 5939,
      "tied": 5940,
      "wet": 5941,
      "infe": 5942,
      "oral": 5943,
      "rober": 5944,
      "ilton": 5945,
      "immig": 5946,
      "iring": 5947,
      "hearts": 5948,
      "romantic": 5949,
      "iston": 5950,
      "soil": 5951,
      "cos": 5952,
      "strateg": 5953,
      "duke": 5954,
      "phone": 5955,
      "10th": 5956,
      "1943": 5957,
      "protect": 5958,
      "getting": 5959,
      "communist": 5960,
      "tests": 5961,
      "strip": 5962,
      "homer": 5963,
      "consisting": 5964,
      "separated": 5965,
      "citiz": 5966,
      "methods": 5967,
      "delivered": 5968,
      "circum": 5969,
      "certified": 5970,
      "article": 5971,
      "supplies": 5972,
      "siege": 5973,
      "daniel": 5974,
      "basketball": 5975,
      "amateur": 5976,
      "69": 5977,
      "72": 5978,
      "hits": 5979,
      "jum": 5980,
      "nbc": 5981,
      "pin": 5982,
      "rates": 5983,
      "tz": 5984,
      "wine": 5985,
      "eratops": 5986,
      "restor": 5987,
      "leaves": 5988,
      "versy": 5989,
      "sudden": 5990,
      "affect": 5991,
      "outstanding": 5992,
      "desire": 5993,
      "attle": 5994,
      "prey": 5995,
      "soul": 5996,
      "leads": 5997,
      "1963": 5998,
      "commanded": 5999,
      "morrison": 6000,
      "sequences": 6001,
      "rangers": 6002,
      "civilian": 6003,
      "colonies": 6004,
      "jersey": 6005,
      "lords": 6006,
      "athletic": 6007,
      "examples": 6008,
      "dinosaur": 6009,
      "rarely": 6010,
      "indicate": 6011,
      "adapted": 6012,
      "controversy": 6013,
      "distinct": 6014,
      "shooting": 6015,
      "cens": 6016,
      "iber": 6017,
      "nand": 6018,
      "rep": 6019,
      "stu": 6020,
      "orbit": 6021,
      "irs": 6022,
      "agents": 6023,
      "superi": 6024,
      "pled": 6025,
      "utc": 6026,
      "finishing": 6027,
      "ritual": 6028,
      "producing": 6029,
      "missis": 6030,
      "remainder": 6031,
      "walter": 6032,
      "classes": 6033,
      "australians": 6034,
      "11th": 6035,
      "references": 6036,
      "hollywood": 6037,
      "truj": 6038,
      "ruled": 6039,
      "interested": 6040,
      "archaeology": 6041,
      "montana": 6042,
      "columbia": 6043,
      "bradford": 6044,
      "portrayed": 6045,
      "alexander": 6046,
      "pattern": 6047,
      "chairman": 6048,
      "accounts": 6049,
      "sunday": 6050,
      "reputation": 6051,
      "mississip": 6052,
      "aire": 6053,
      "ias": 6054,
      "erted": 6055,
      "online": 6056,
      "ene": 6057,
      "leuk": 6058,
      "appre": 6059,
      "uma": 6060,
      "ameter": 6061,
      "worst": 6062,
      "assess": 6063,
      "disc": 6064,
      "forests": 6065,
      "specifically": 6066,
      "views": 6067,
      "oba": 6068,
      "studied": 6069,
      "divine": 6070,
      "memory": 6071,
      "cycle": 6072,
      "1978": 6073,
      "denied": 6074,
      "turns": 6075,
      "1953": 6076,
      "tomb": 6077,
      "occurs": 6078,
      "connection": 6079,
      "regularly": 6080,
      "maryland": 6081,
      "feelings": 6082,
      "substit": 6083,
      "threatened": 6084,
      "croatian": 6085,
      "bringing": 6086,
      "anzac": 6087,
      "agricultural": 6088,
      "trujillo": 6089,
      "112": 6090,
      "cash": 6091,
      "dna": 6092,
      "fro": 6093,
      "ku": 6094,
      "lau": 6095,
      "yank": 6096,
      "replace": 6097,
      "ensu": 6098,
      "eliza": 6099,
      "ivity": 6100,
      "agen": 6101,
      "plunk": 6102,
      "uted": 6103,
      "eme": 6104,
      "exit": 6105,
      "expect": 6106,
      "brand": 6107,
      "noting": 6108,
      "boom": 6109,
      "strand": 6110,
      "indig": 6111,
      "scop": 6112,
      "partial": 6113,
      "offense": 6114,
      "charlie": 6115,
      "stephen": 6116,
      "passage": 6117,
      "successor": 6118,
      "classical": 6119,
      "leagues": 6120,
      "appropri": 6121,
      "patrol": 6122,
      "wooden": 6123,
      "communities": 6124,
      "laws": 6125,
      "plane": 6126,
      "labour": 6127,
      "statement": 6128,
      "recognition": 6129,
      "alternative": 6130,
      "feeling": 6131,
      "favorite": 6132,
      "roxas": 6133,
      "mississippi": 6134,
      "58": 6135,
      "fab": 6136,
      "tall": 6137,
      "za": 6138,
      "inals": 6139,
      "plants": 6140,
      "ophy": 6141,
      "nether": 6142,
      "1915": 6143,
      "isters": 6144,
      "ques": 6145,
      "dismissed": 6146,
      "rend": 6147,
      "speech": 6148,
      "charges": 6149,
      "warri": 6150,
      "knight": 6151,
      "howard": 6152,
      "stefan": 6153,
      "storms": 6154,
      "talk": 6155,
      "reviewer": 6156,
      "patri": 6157,
      "basic": 6158,
      "activision": 6159,
      "samuel": 6160,
      "wrong": 6161,
      "rifles": 6162,
      "gallery": 6163,
      "global": 6164,
      "dollars": 6165,
      "picture": 6166,
      "message": 6167,
      "principal": 6168,
      "attributed": 6169,
      "arsenal": 6170,
      "supreme": 6171,
      "plunket": 6172,
      "cate": 6173,
      "dict": 6174,
      "iar": 6175,
      "ninth": 6176,
      "sb": 6177,
      "vet": 6178,
      "vary": 6179,
      "wim": 6180,
      "ini": 6181,
      "inland": 6182,
      "theater": 6183,
      "eds": 6184,
      "enge": 6185,
      "ora": 6186,
      "terior": 6187,
      "agree": 6188,
      "cture": 6189,
      "sher": 6190,
      "shark": 6191,
      "loose": 6192,
      "antly": 6193,
      "veget": 6194,
      "coll": 6195,
      "carbon": 6196,
      "wars": 6197,
      "retire": 6198,
      "legs": 6199,
      "continuing": 6200,
      "drawing": 6201,
      "enterprise": 6202,
      "calvert": 6203,
      "involvement": 6204,
      "hugh": 6205,
      "relationships": 6206,
      "discussed": 6207,
      "considerable": 6208,
      "adventure": 6209,
      "tribes": 6210,
      "specimens": 6211,
      "opponents": 6212,
      "academic": 6213,
      "twelve": 6214,
      "isabella": 6215,
      "knots": 6216,
      "capacity": 6217,
      "danny": 6218,
      "hud": 6219,
      "mol": 6220,
      "pale": 6221,
      "taught": 6222,
      "stap": 6223,
      "sevent": 6224,
      "decess": 6225,
      "oty": 6226,
      "mode": 6227,
      "absor": 6228,
      "1917": 6229,
      "shadow": 6230,
      "exchange": 6231,
      "firing": 6232,
      "evo": 6233,
      "predecess": 6234,
      "offers": 6235,
      "monit": 6236,
      "genre": 6237,
      "someone": 6238,
      "towers": 6239,
      "releg": 6240,
      "1948": 6241,
      "standards": 6242,
      "moral": 6243,
      "nighting": 6244,
      "saraj": 6245,
      "difficulty": 6246,
      "railroad": 6247,
      "teacher": 6248,
      "challenge": 6249,
      "extrem": 6250,
      "emotional": 6251,
      "fixed": 6252,
      "dangerous": 6253,
      "kitsune": 6254,
      "integr": 6255,
      "sarajevo": 6256,
      "57": 6257,
      "bil": 6258,
      "cod": 6259,
      "gather": 6260,
      "jif": 6261,
      "obl": 6262,
      "sang": 6263,
      "atures": 6264,
      "stall": 6265,
      "seek": 6266,
      "iles": 6267,
      "unes": 6268,
      "conce": 6269,
      "ava": 6270,
      "manner": 6271,
      "ardo": 6272,
      "austri": 6273,
      "acks": 6274,
      "cory": 6275,
      "grace": 6276,
      "intention": 6277,
      "poses": 6278,
      "offman": 6279,
      "disci": 6280,
      "paras": 6281,
      "ologists": 6282,
      "signing": 6283,
      "1979": 6284,
      "grounds": 6285,
      "1951": 6286,
      "rocky": 6287,
      "demol": 6288,
      "learn": 6289,
      "guardian": 6290,
      "victoria": 6291,
      "incorporated": 6292,
      "frederick": 6293,
      "bolivar": 6294,
      "superior": 6295,
      "yankovic": 6296,
      "88": 6297,
      "bure": 6298,
      "eper": 6299,
      "ano": 6300,
      "replacement": 6301,
      "alph": 6302,
      "armor": 6303,
      "mozam": 6304,
      "proceed": 6305,
      "clay": 6306,
      "cock": 6307,
      "spr": 6308,
      "landed": 6309,
      "sized": 6310,
      "joe": 6311,
      "ickets": 6312,
      "ultane": 6313,
      "barbar": 6314,
      "simultane": 6315,
      "1961": 6316,
      "tales": 6317,
      "ception": 6318,
      "furt": 6319,
      "advoc": 6320,
      "approved": 6321,
      "patrick": 6322,
      "somali": 6323,
      "1954": 6324,
      "historians": 6325,
      "brigades": 6326,
      "coup": 6327,
      "ruler": 6328,
      "liked": 6329,
      "nomination": 6330,
      "sessions": 6331,
      "painted": 6332,
      "skye": 6333,
      "observations": 6334,
      "leadership": 6335,
      "candidate": 6336,
      "neighbor": 6337,
      "chamber": 6338,
      "clarkson": 6339,
      "crossing": 6340,
      "heritage": 6341,
      "jifna": 6342,
      "dess": 6343,
      "hoc": 6344,
      "sic": 6345,
      "santa": 6346,
      "wan": 6347,
      "intr": 6348,
      "inhabit": 6349,
      "reconstruction": 6350,
      "ori": 6351,
      "adults": 6352,
      "bee": 6353,
      "bear": 6354,
      "agency": 6355,
      "avia": 6356,
      "estate": 6357,
      "pts": 6358,
      "parties": 6359,
      "intersection": 6360,
      "muscar": 6361,
      "visions": 6362,
      "covering": 6363,
      "helmet": 6364,
      "valu": 6365,
      "13th": 6366,
      "watershed": 6367,
      "provin": 6368,
      "streets": 6369,
      "believes": 6370,
      "1937": 6371,
      "fungus": 6372,
      "destroyers": 6373,
      "wilde": 6374,
      "existed": 6375,
      "bono": 6376,
      "learning": 6377,
      "teeth": 6378,
      "jerusal": 6379,
      "secured": 6380,
      "arrangement": 6381,
      "distributed": 6382,
      "emerged": 6383,
      "picked": 6384,
      "documentary": 6385,
      "extreme": 6386,
      "adams": 6387,
      "behavi": 6388,
      "recommended": 6389,
      "admiral": 6390,
      "francisco": 6391,
      "simpsons": 6392,
      "organizations": 6393,
      "ranean": 6394,
      "roberts": 6395,
      "leukem": 6396,
      "nightingale": 6397,
      "extremely": 6398,
      "bureau": 6399,
      "jerusalem": 6400,
      "bou": 6401,
      "matt": 6402,
      "tap": 6403,
      "tale": 6404,
      "ua": 6405,
      "thy": 6406,
      "inate": 6407,
      "thetic": 6408,
      "itled": 6409,
      "omy": 6410,
      "avada": 6411,
      "ghost": 6412,
      "essential": 6413,
      "coin": 6414,
      "blu": 6415,
      "foss": 6416,
      "marl": 6417,
      "indo": 6418,
      "oked": 6419,
      "norman": 6420,
      "fled": 6421,
      "carter": 6422,
      "annivers": 6423,
      "rell": 6424,
      "hore": 6425,
      "pointed": 6426,
      "showing": 6427,
      "hamilton": 6428,
      "ibility": 6429,
      "courts": 6430,
      "diameter": 6431,
      "winner": 6432,
      "1955": 6433,
      "nevertheless": 6434,
      "concerns": 6435,
      "banai": 6436,
      "surviving": 6437,
      "ivalent": 6438,
      "languages": 6439,
      "territories": 6440,
      "immediate": 6441,
      "surrounded": 6442,
      "audio": 6443,
      "rifle": 6444,
      "olympics": 6445,
      "constitution": 6446,
      "climate": 6447,
      "windows": 6448,
      "tunnel": 6449,
      "argentina": 6450,
      "isolated": 6451,
      "sufficient": 6452,
      "municipal": 6453,
      "expansion": 6454,
      "3d": 6455,
      "63": 6456,
      "echo": 6457,
      "hay": 6458,
      "hann": 6459,
      "kid": 6460,
      "math": 6461,
      "ras": 6462,
      "wants": 6463,
      "yon": 6464,
      "reunion": 6465,
      "chand": 6466,
      "deem": 6467,
      "detailed": 6468,
      "owen": 6469,
      "1900": 6470,
      "cles": 6471,
      "loan": 6472,
      "expo": 6473,
      "strate": 6474,
      "serial": 6475,
      "indicated": 6476,
      "compounds": 6477,
      "flat": 6478,
      "gerard": 6479,
      "ryan": 6480,
      "protests": 6481,
      "placing": 6482,
      "xture": 6483,
      "dipl": 6484,
      "aska": 6485,
      "1958": 6486,
      "heaven": 6487,
      "batter": 6488,
      "commonwealth": 6489,
      "graphs": 6490,
      "expensive": 6491,
      "approached": 6492,
      "giant": 6493,
      "institutions": 6494,
      "settled": 6495,
      "scientific": 6496,
      "encouraged": 6497,
      "beautiful": 6498,
      "crusad": 6499,
      "portrait": 6500,
      "inspiration": 6501,
      "satisf": 6502,
      "anniversary": 6503,
      "cular": 6504,
      "dag": 6505,
      "fate": 6506,
      "flower": 6507,
      "jere": 6508,
      "las": 6509,
      "pure": 6510,
      "ske": 6511,
      "tone": 6512,
      "wright": 6513,
      "ania": 6514,
      "republ": 6515,
      "stev": 6516,
      "orient": 6517,
      "arg": 6518,
      "roger": 6519,
      "lets": 6520,
      "sects": 6521,
      "aments": 6522,
      "admitted": 6523,
      "adjac": 6524,
      "deck": 6525,
      "lyn": 6526,
      "unusual": 6527,
      "implement": 6528,
      "aga": 6529,
      "teor": 6530,
      "tribut": 6531,
      "triple": 6532,
      "elli": 6533,
      "blow": 6534,
      "graf": 6535,
      "meg": 6536,
      "posit": 6537,
      "internal": 6538,
      "genetic": 6539,
      "understand": 6540,
      "1949": 6541,
      "1977": 6542,
      "treated": 6543,
      "videos": 6544,
      "designation": 6545,
      "sequel": 6546,
      "attempting": 6547,
      "donald": 6548,
      "equal": 6549,
      "crossed": 6550,
      "hoped": 6551,
      "counties": 6552,
      "employe": 6553,
      "suffering": 6554,
      "column": 6555,
      "lennon": 6556,
      "saurus": 6557,
      "eggs": 6558,
      "cloud": 6559,
      "normally": 6560,
      "freedom": 6561,
      "93": 6562,
      "bats": 6563,
      "dc": 6564,
      "faster": 6565,
      "gie": 6566,
      "goffman": 6567,
      "nan": 6568,
      "nad": 6569,
      "oak": 6570,
      "pier": 6571,
      "pione": 6572,
      "sapr": 6573,
      "anek": 6574,
      "orous": 6575,
      "arte": 6576,
      "assumed": 6577,
      "heat": 6578,
      "convoy": 6579,
      "aggress": 6580,
      "ctr": 6581,
      "commo": 6582,
      "compo": 6583,
      "absol": 6584,
      "shots": 6585,
      "prog": 6586,
      "prohib": 6587,
      "acknow": 6588,
      "herge": 6589,
      "meteor": 6590,
      "cki": 6591,
      "airline": 6592,
      "fron": 6593,
      "genes": 6594,
      "symp": 6595,
      "relative": 6596,
      "medium": 6597,
      "jean": 6598,
      "identity": 6599,
      "transition": 6600,
      "footage": 6601,
      "communications": 6602,
      "strongly": 6603,
      "statistics": 6604,
      "concerned": 6605,
      "taxon": 6606,
      "satur": 6607,
      "improve": 6608,
      "completion": 6609,
      "kilmer": 6610,
      "blocks": 6611,
      "duties": 6612,
      "cruisers": 6613,
      "hundreds": 6614,
      "possession": 6615,
      "janeiro": 6616,
      "wearing": 6617,
      "rhodes": 6618,
      "initiative": 6619,
      "environment": 6620,
      "pleasure": 6621,
      "indeed": 6622,
      "protagonist": 6623,
      "resources": 6624,
      "franchise": 6625,
      "saprang": 6626,
      "bac": 6627,
      "bce": 6628,
      "cater": 6629,
      "kim": 6630,
      "tip": 6631,
      "wich": 6632,
      "infl": 6633,
      "insur": 6634,
      "erog": 6635,
      "renew": 6636,
      "escort": 6637,
      "whel": 6638,
      "imo": 6639,
      "agas": 6640,
      "plus": 6641,
      "1910": 6642,
      "shor": 6643,
      "shif": 6644,
      "shakes": 6645,
      "isted": 6646,
      "aku": 6647,
      "prerog": 6648,
      "meets": 6649,
      "mega": 6650,
      "intense": 6651,
      "partly": 6652,
      "offs": 6653,
      "interpret": 6654,
      "cancer": 6655,
      "buck": 6656,
      "medal": 6657,
      "poll": 6658,
      "generated": 6659,
      "ificial": 6660,
      "starling": 6661,
      "operate": 6662,
      "operating": 6663,
      "musicians": 6664,
      "mature": 6665,
      "1983": 6666,
      "diag": 6667,
      "defended": 6668,
      "naissance": 6669,
      "lawton": 6670,
      "parks": 6671,
      "factory": 6672,
      "concerts": 6673,
      "georgia": 6674,
      "terminus": 6675,
      "attracted": 6676,
      "accused": 6677,
      "practices": 6678,
      "hospit": 6679,
      "richardson": 6680,
      "bledon": 6681,
      "debate": 6682,
      "trials": 6683,
      "behavior": 6684,
      "specimen": 6685,
      "cabin": 6686,
      "camera": 6687,
      "reconnaissance": 6688,
      "bridges": 6689,
      "easily": 6690,
      "jesus": 6691,
      "doubt": 6692,
      "diamond": 6693,
      "circumst": 6694,
      "wimbledon": 6695,
      "behaviour": 6696,
      "adjacent": 6697,
      "91": 6698,
      "aa": 6699,
      "cbs": 6700,
      "gri": 6701,
      "mam": 6702,
      "mers": 6703,
      "mail": 6704,
      "rons": 6705,
      "uct": 6706,
      "eric": 6707,
      "cha": 6708,
      "amph": 6709,
      "destruction": 6710,
      "congreg": 6711,
      "ayer": 6712,
      "compos": 6713,
      "opher": 6714,
      "modif": 6715,
      "aints": 6716,
      "umb": 6717,
      "manus": 6718,
      "ride": 6719,
      "ieved": 6720,
      "feather": 6721,
      "register": 6722,
      "amps": 6723,
      "understanding": 6724,
      "jeff": 6725,
      "recordings": 6726,
      "doctor": 6727,
      "publishing": 6728,
      "metall": 6729,
      "borne": 6730,
      "solution": 6731,
      "patron": 6732,
      "fallen": 6733,
      "falling": 6734,
      "effectively": 6735,
      "profit": 6736,
      "ministry": 6737,
      "representing": 6738,
      "influences": 6739,
      "cambridge": 6740,
      "reduce": 6741,
      "analy": 6742,
      "queens": 6743,
      "traveled": 6744,
      "administr": 6745,
      "printed": 6746,
      "spaces": 6747,
      "purchase": 6748,
      "sculpture": 6749,
      "korean": 6750,
      "dramatic": 6751,
      "parallel": 6752,
      "remnants": 6753,
      "somalia": 6754,
      "exhaust": 6755,
      "composer": 6756,
      "uous": 6757,
      "vast": 6758,
      "aniston": 6759,
      "recalled": 6760,
      "recovered": 6761,
      "sting": 6762,
      "isms": 6763,
      "itated": 6764,
      "tox": 6765,
      "icate": 6766,
      "sees": 6767,
      "heim": 6768,
      "convers": 6769,
      "convin": 6770,
      "context": 6771,
      "aviation": 6772,
      "astru": 6773,
      "overwhel": 6774,
      "keamy": 6775,
      "afterwards": 6776,
      "formally": 6777,
      "veer": 6778,
      "desert": 6779,
      "driving": 6780,
      "fert": 6781,
      "parish": 6782,
      "somewhat": 6783,
      "product": 6784,
      "matic": 6785,
      "perspect": 6786,
      "diet": 6787,
      "attacking": 6788,
      "stands": 6789,
      "household": 6790,
      "solar": 6791,
      "garcia": 6792,
      "burgh": 6793,
      "federation": 6794,
      "graphics": 6795,
      "holiday": 6796,
      "1909": 6797,
      "netic": 6798,
      "meetings": 6799,
      "selection": 6800,
      "pitcher": 6801,
      "funds": 6802,
      "measures": 6803,
      "seemed": 6804,
      "responsibility": 6805,
      "throwing": 6806,
      "pupils": 6807,
      "architecture": 6808,
      "obtained": 6809,
      "hunting": 6810,
      "continental": 6811,
      "victims": 6812,
      "kombat": 6813,
      "controversial": 6814,
      "restoration": 6815,
      "67": 6816,
      "bang": 6817,
      "cave": 6818,
      "ders": 6819,
      "gle": 6820,
      "gates": 6821,
      "sword": 6822,
      "slide": 6823,
      "tong": 6824,
      "wings": 6825,
      "thosaurus": 6826,
      "eries": 6827,
      "onso": 6828,
      "isle": 6829,
      "islam": 6830,
      "chen": 6831,
      "forth": 6832,
      "forcing": 6833,
      "igno": 6834,
      "ceme": 6835,
      "agan": 6836,
      "abund": 6837,
      "1912": 6838,
      "rescu": 6839,
      "propag": 6840,
      "aki": 6841,
      "crisis": 6842,
      "scatter": 6843,
      "lowest": 6844,
      "phr": 6845,
      "interaction": 6846,
      "fraser": 6847,
      "ensis": 6848,
      "poland": 6849,
      "divor": 6850,
      "numbered": 6851,
      "origins": 6852,
      "rows": 6853,
      "covers": 6854,
      "johnston": 6855,
      "township": 6856,
      "goddess": 6857,
      "germans": 6858,
      "communication": 6859,
      "productions": 6860,
      "1931": 6861,
      "1935": 6862,
      "destroyer": 6863,
      "panel": 6864,
      "praise": 6865,
      "researchers": 6866,
      "stayed": 6867,
      "institution": 6868,
      "hosted": 6869,
      "arabic": 6870,
      "linked": 6871,
      "circulation": 6872,
      "preserved": 6873,
      "deployed": 6874,
      "opposite": 6875,
      "distinguished": 6876,
      "passengers": 6877,
      "rebels": 6878,
      "plunketts": 6879,
      "corythosaurus": 6880,
      "stevens": 6881,
      "shakespe": 6882,
      "82": 6883,
      "bun": 6884,
      "bapt": 6885,
      "dish": 6886,
      "fia": 6887,
      "hid": 6888,
      "lists": 6889,
      "nintend": 6890,
      "rav": 6891,
      "sad": 6892,
      "sisters": 6893,
      "income": 6894,
      "inaug": 6895,
      "rene": 6896,
      "stro": 6897,
      "stol": 6898,
      "amino": 6899,
      "bearing": 6900,
      "olay": 6901,
      "abilities": 6902,
      "1911": 6903,
      "artificial": 6904,
      "bern": 6905,
      "fei": 6906,
      "aws": 6907,
      "lith": 6908,
      "disaster": 6909,
      "monuments": 6910,
      "gross": 6911,
      "charged": 6912,
      "archbishop": 6913,
      "consol": 6914,
      "generals": 6915,
      "hypo": 6916,
      "junior": 6917,
      "returns": 6918,
      "defences": 6919,
      "niel": 6920,
      "1932": 6921,
      "limit": 6922,
      "trading": 6923,
      "palmy": 6924,
      "programme": 6925,
      "crosses": 6926,
      "choir": 6927,
      "judge": 6928,
      "difficulties": 6929,
      "bombard": 6930,
      "exception": 6931,
      "equipped": 6932,
      "garden": 6933,
      "carrying": 6934,
      "elsewhere": 6935,
      "stanley": 6936,
      "infrastru": 6937,
      "alpha": 6938,
      "hockey": 6939,
      "marlborough": 6940,
      "prerogative": 6941,
      "shakespeare": 6942,
      "nintendo": 6943,
      "99": 6944,
      "baker": 6945,
      "jar": 6946,
      "kong": 6947,
      "lig": 6948,
      "lies": 6949,
      "pig": 6950,
      "tight": 6951,
      "wag": 6952,
      "iso": 6953,
      "ician": 6954,
      "ambass": 6955,
      "elabor": 6956,
      "impression": 6957,
      "impossible": 6958,
      "owie": 6959,
      "consum": 6960,
      "idae": 6961,
      "sugar": 6962,
      "comments": 6963,
      "abd": 6964,
      "1921": 6965,
      "1929": 6966,
      "geoff": 6967,
      "noon": 6968,
      "otherwise": 6969,
      "crest": 6970,
      "internet": 6971,
      "canter": 6972,
      "fles": 6973,
      "draf": 6974,
      "fernand": 6975,
      "surpr": 6976,
      "barr": 6977,
      "obser": 6978,
      "depict": 6979,
      "140": 6980,
      "casting": 6981,
      "horiz": 6982,
      "glad": 6983,
      "voiced": 6984,
      "universal": 6985,
      "villages": 6986,
      "lawrence": 6987,
      "switch": 6988,
      "burning": 6989,
      "extin": 6990,
      "promote": 6991,
      "texts": 6992,
      "biograph": 6993,
      "defeating": 6994,
      "pitman": 6995,
      "intensified": 6996,
      "occasions": 6997,
      "voted": 6998,
      "thousand": 6999,
      "environmental": 7000,
      "pushed": 7001,
      "princess": 7002,
      "resistance": 7003,
      "arrested": 7004,
      "legislation": 7005,
      "supporters": 7006,
      "elizabeth": 7007,
      "netherlands": 7008,
      "diplom": 7009,
      "manuscri": 7010,
      "ients": 7011,
      "och": 7012,
      "pas": 7013,
      "pink": 7014,
      "rar": 7015,
      "sab": 7016,
      "tav": 7017,
      "wives": 7018,
      "inh": 7019,
      "onica": 7020,
      "stick": 7021,
      "aria": 7022,
      "icit": 7023,
      "amaz": 7024,
      "elin": 7025,
      "acle": 7026,
      "accompany": 7027,
      "omin": 7028,
      "beet": 7029,
      "unsuccessful": 7030,
      "cement": 7031,
      "ctic": 7032,
      "util": 7033,
      "etime": 7034,
      "ester": 7035,
      "twin": 7036,
      "earl": 7037,
      "corner": 7038,
      "margin": 7039,
      "charity": 7040,
      "cars": 7041,
      "mayor": 7042,
      "mediter": 7043,
      "doctr": 7044,
      "raise": 7045,
      "retained": 7046,
      "products": 7047,
      "1962": 7048,
      "treas": 7049,
      "streak": 7050,
      "collect": 7051,
      "1959": 7052,
      "quez": 7053,
      "periods": 7054,
      "1938": 7055,
      "posted": 7056,
      "equivalent": 7057,
      "involving": 7058,
      "appointment": 7059,
      "atlanta": 7060,
      "biographer": 7061,
      "closer": 7062,
      "observatory": 7063,
      "caval": 7064,
      "objects": 7065,
      "drums": 7066,
      "tribute": 7067,
      "joining": 7068,
      "criminal": 7069,
      "convention": 7070,
      "vessels": 7071,
      "sleep": 7072,
      "survivors": 7073,
      "cambodia": 7074,
      "preferred": 7075,
      "stefani": 7076,
      "catech": 7077,
      "batsman": 7078,
      "cemetery": 7079,
      "bag": 7080,
      "bach": 7081,
      "gary": 7082,
      "hull": 7083,
      "iant": 7084,
      "oct": 7085,
      "informed": 7086,
      "thes": 7087,
      "retr": 7088,
      "recur": 7089,
      "represents": 7090,
      "ensure": 7091,
      "stab": 7092,
      "chant": 7093,
      "wasp": 7094,
      "convict": 7095,
      "ager": 7096,
      "nee": 7097,
      "ifies": 7098,
      "brick": 7099,
      "notably": 7100,
      "blaz": 7101,
      "overseas": 7102,
      "owners": 7103,
      "temples": 7104,
      "subspecies": 7105,
      "hob": 7106,
      "caes": 7107,
      "causes": 7108,
      "iously": 7109,
      "musician": 7110,
      "matters": 7111,
      "helic": 7112,
      "passion": 7113,
      "considers": 7114,
      "wonder": 7115,
      "grammy": 7116,
      "radiation": 7117,
      "latex": 7118,
      "styles": 7119,
      "criticised": 7120,
      "needs": 7121,
      "doesn": 7122,
      "committed": 7123,
      "laboratory": 7124,
      "reveals": 7125,
      "housing": 7126,
      "visitors": 7127,
      "moments": 7128,
      "dominican": 7129,
      "aerith": 7130,
      "saved": 7131,
      "spiritual": 7132,
      "apparently": 7133,
      "1920s": 7134,
      "collaboration": 7135,
      "narrative": 7136,
      "proposal": 7137,
      "palestine": 7138,
      "democratic": 7139,
      "dialogue": 7140,
      "phillies": 7141,
      "convection": 7142,
      "absence": 7143,
      "exposure": 7144,
      "modified": 7145,
      "canterbury": 7146,
      "mediterranean": 7147,
      "ml": 7148,
      "mak": 7149,
      "sale": 7150,
      "saves": 7151,
      "tag": 7152,
      "u2": 7153,
      "vig": 7154,
      "thews": 7155,
      "arr": 7156,
      "asian": 7157,
      "tool": 7158,
      "rod": 7159,
      "iling": 7160,
      "impl": 7161,
      "otic": 7162,
      "suic": 7163,
      "trick": 7164,
      "ression": 7165,
      "manga": 7166,
      "perce": 7167,
      "crush": 7168,
      "ports": 7169,
      "canyon": 7170,
      "shipping": 7171,
      "grown": 7172,
      "frig": 7173,
      "regist": 7174,
      "warning": 7175,
      "followers": 7176,
      "submarine": 7177,
      "15th": 7178,
      "markgraf": 7179,
      "skull": 7180,
      "caster": 7181,
      "bands": 7182,
      "listen": 7183,
      "listing": 7184,
      "suggesting": 7185,
      "jackrab": 7186,
      "representative": 7187,
      "stationed": 7188,
      "expand": 7189,
      "refers": 7190,
      "platoon": 7191,
      "colorado": 7192,
      "extension": 7193,
      "journalist": 7194,
      "krak": 7195,
      "lbw": 7196,
      "imagine": 7197,
      "throne": 7198,
      "raffles": 7199,
      "trouble": 7200,
      "installed": 7201,
      "rhythm": 7202,
      "furtado": 7203,
      "republican": 7204,
      "anekant": 7205,
      "helicop": 7206,
      "92": 7207,
      "bits": 7208,
      "hok": 7209,
      "lind": 7210,
      "mint": 7211,
      "nl": 7212,
      "nhl": 7213,
      "pad": 7214,
      "rants": 7215,
      "tis": 7216,
      "vati": 7217,
      "innov": 7218,
      "remember": 7219,
      "alu": 7220,
      "ili": 7221,
      "det": 7222,
      "deleg": 7223,
      "impressed": 7224,
      "igation": 7225,
      "ague": 7226,
      "trained": 7227,
      "abled": 7228,
      "shut": 7229,
      "sholay": 7230,
      "resign": 7231,
      "lob": 7232,
      "lose": 7233,
      "expression": 7234,
      "sover": 7235,
      "persu": 7236,
      "code": 7237,
      "bore": 7238,
      "actual": 7239,
      "crake": 7240,
      "keys": 7241,
      "aftermath": 7242,
      "format": 7243,
      "displays": 7244,
      "okes": 7245,
      "engines": 7246,
      "annually": 7247,
      "thereafter": 7248,
      "cape": 7249,
      "barker": 7250,
      "170": 7251,
      "depending": 7252,
      "valky": 7253,
      "waterfall": 7254,
      "directors": 7255,
      "nik": 7256,
      "purposes": 7257,
      "ranges": 7258,
      "extent": 7259,
      "ullen": 7260,
      "mexican": 7261,
      "predators": 7262,
      "networks": 7263,
      "altern": 7264,
      "materials": 7265,
      "poorly": 7266,
      "occupation": 7267,
      "reservo": 7268,
      "ultimate": 7269,
      "cotton": 7270,
      "sacred": 7271,
      "vehicle": 7272,
      "option": 7273,
      "happened": 7274,
      "recovery": 7275,
      "muscaria": 7276,
      "74": 7277,
      "dawn": 7278,
      "easy": 7279,
      "fus": 7280,
      "jet": 7281,
      "lia": 7282,
      "sper": 7283,
      "tide": 7284,
      "ww": 7285,
      "ware": 7286,
      "rebell": 7287,
      "robin": 7288,
      "entitled": 7289,
      "eless": 7290,
      "una": 7291,
      "withdrew": 7292,
      "agar": 7293,
      "apy": 7294,
      "trac": 7295,
      "mored": 7296,
      "peck": 7297,
      "ifer": 7298,
      "coins": 7299,
      "brush": 7300,
      "achu": 7301,
      "driver": 7302,
      "driven": 7303,
      "writings": 7304,
      "caa": 7305,
      "starlings": 7306,
      "1940s": 7307,
      "useful": 7308,
      "talking": 7309,
      "maggie": 7310,
      "childhood": 7311,
      "organised": 7312,
      "garian": 7313,
      "niowie": 7314,
      "fried": 7315,
      "claiming": 7316,
      "factors": 7317,
      "richmond": 7318,
      "looks": 7319,
      "representatives": 7320,
      "influential": 7321,
      "cope": 7322,
      "fifa": 7323,
      "munition": 7324,
      "telling": 7325,
      "watching": 7326,
      "situated": 7327,
      "layer": 7328,
      "wisniowie": 7329,
      "models": 7330,
      "injuries": 7331,
      "israeli": 7332,
      "adventures": 7333,
      "opportunities": 7334,
      "advertising": 7335,
      "excavation": 7336,
      "publisher": 7337,
      "substantial": 7338,
      "simultaneously": 7339,
      "infrastructure": 7340,
      "fusion": 7341,
      "gers": 7342,
      "jur": 7343,
      "kann": 7344,
      "llo": 7345,
      "mates": 7346,
      "oys": 7347,
      "vander": 7348,
      "thesis": 7349,
      "anthem": 7350,
      "anime": 7351,
      "chev": 7352,
      "ammunition": 7353,
      "aya": 7354,
      "usage": 7355,
      "moore": 7356,
      "movements": 7357,
      "1928": 7358,
      "uting": 7359,
      "emor": 7360,
      "excess": 7361,
      "ishment": 7362,
      "derf": 7363,
      "marc": 7364,
      "commemor": 7365,
      "partially": 7366,
      "norway": 7367,
      "shear": 7368,
      "flies": 7369,
      "parvati": 7370,
      "gosl": 7371,
      "relations": 7372,
      "ogical": 7373,
      "setts": 7374,
      "surge": 7375,
      "severely": 7376,
      "membr": 7377,
      "originated": 7378,
      "classification": 7379,
      "personality": 7380,
      "historically": 7381,
      "victories": 7382,
      "funer": 7383,
      "burned": 7384,
      "bique": 7385,
      "copy": 7386,
      "massachu": 7387,
      "interests": 7388,
      "fundament": 7389,
      "spores": 7390,
      "spoke": 7391,
      "giants": 7392,
      "scriptions": 7393,
      "platform": 7394,
      "properties": 7395,
      "athletics": 7396,
      "portugal": 7397,
      "pagan": 7398,
      "instruments": 7399,
      "struggle": 7400,
      "ordinary": 7401,
      "thinking": 7402,
      "iveness": 7403,
      "plateau": 7404,
      "wrestling": 7405,
      "gwen": 7406,
      "circumstances": 7407,
      "anekantavada": 7408,
      "massachusetts": 7409,
      "86": 7410,
      "900": 7411,
      "dat": 7412,
      "hamp": 7413,
      "khand": 7414,
      "lud": 7415,
      "nap": 7416,
      "pp": 7417,
      "sans": 7418,
      "wu": 7419,
      "inian": 7420,
      "rets": 7421,
      "stell": 7422,
      "armored": 7423,
      "isa": 7424,
      "roth": 7425,
      "chase": 7426,
      "ilst": 7427,
      "whilst": 7428,
      "heera": 7429,
      "usd": 7430,
      "plas": 7431,
      "1927": 7432,
      "shield": 7433,
      "prove": 7434,
      "poison": 7435,
      "afric": 7436,
      "twins": 7437,
      "price": 7438,
      "intent": 7439,
      "prefect": 7440,
      "weigh": 7441,
      "creative": 7442,
      "interpre": 7443,
      "engage": 7444,
      "carved": 7445,
      "understood": 7446,
      "anyone": 7447,
      "mixture": 7448,
      "raaf": 7449,
      "diver": 7450,
      "miller": 7451,
      "organisation": 7452,
      "aliers": 7453,
      "garrison": 7454,
      "amongst": 7455,
      "hurricanes": 7456,
      "everyone": 7457,
      "sung": 7458,
      "circu": 7459,
      "wilson": 7460,
      "survive": 7461,
      "departure": 7462,
      "biggest": 7463,
      "conduct": 7464,
      "boxing": 7465,
      "closure": 7466,
      "establishing": 7467,
      "loud": 7468,
      "emergency": 7469,
      "itzer": 7470,
      "shells": 7471,
      "scrap": 7472,
      "founder": 7473,
      "restricted": 7474,
      "eaton": 7475,
      "ustase": 7476,
      "bulls": 7477,
      "swedish": 7478,
      "yugosl": 7479,
      "affairs": 7480,
      "patty": 7481,
      "seventeen": 7482,
      "acknowled": 7483,
      "kannada": 7484,
      "84": 7485,
      "celt": 7486,
      "caves": 7487,
      "gap": 7488,
      "jr": 7489,
      "kau": 7490,
      "mack": 7491,
      "oing": 7492,
      "pes": 7493,
      "rand": 7494,
      "tack": 7495,
      "vn": 7496,
      "vation": 7497,
      "zi": 7498,
      "inju": 7499,
      "encing": 7500,
      "assu": 7501,
      "forty": 7502,
      "wasn": 7503,
      "univer": 7504,
      "veronica": 7505,
      "allen": 7506,
      "shock": 7507,
      "residence": 7508,
      "resigned": 7509,
      "brain": 7510,
      "herald": 7511,
      "spend": 7512,
      "spons": 7513,
      "blues": 7514,
      "gry": 7515,
      "grave": 7516,
      "marry": 7517,
      "marquez": 7518,
      "kees": 7519,
      "paraly": 7520,
      "howe": 7521,
      "westward": 7522,
      "stewart": 7523,
      "divers": 7524,
      "downtown": 7525,
      "trek": 7526,
      "offices": 7527,
      "readers": 7528,
      "restored": 7529,
      "midge": 7530,
      "dense": 7531,
      "asks": 7532,
      "slip": 7533,
      "1957": 7534,
      "1933": 7535,
      "burial": 7536,
      "instance": 7537,
      "formerly": 7538,
      "fifteen": 7539,
      "interesting": 7540,
      "experiences": 7541,
      "honour": 7542,
      "cules": 7543,
      "oxy": 7544,
      "documents": 7545,
      "nationally": 7546,
      "premiered": 7547,
      "corporation": 7548,
      "compete": 7549,
      "zoo": 7550,
      "pictures": 7551,
      "advertis": 7552,
      "techniques": 7553,
      "tanks": 7554,
      "simpson": 7555,
      "graduate": 7556,
      "false": 7557,
      "delayed": 7558,
      "terrorist": 7559,
      "crops": 7560,
      "wicca": 7561,
      "reinforcements": 7562,
      "phoenix": 7563,
      "citizens": 7564,
      "khandoba": 7565,
      "07": 7566,
      "113": 7567,
      "bn": 7568,
      "bones": 7569,
      "cant": 7570,
      "cous": 7571,
      "dak": 7572,
      "dwar": 7573,
      "dah": 7574,
      "frel": 7575,
      "ique": 7576,
      "mall": 7577,
      "mcl": 7578,
      "pistol": 7579,
      "sop": 7580,
      "wrap": 7581,
      "yce": 7582,
      "zes": 7583,
      "thered": 7584,
      "remarked": 7585,
      "leigh": 7586,
      "ilation": 7587,
      "detro": 7588,
      "olith": 7589,
      "imprison": 7590,
      "shaw": 7591,
      "peach": 7592,
      "clar": 7593,
      "costs": 7594,
      "brill": 7595,
      "brace": 7596,
      "compound": 7597,
      "pressing": 7598,
      "josh": 7599,
      "drain": 7600,
      "mah": 7601,
      "warren": 7602,
      "gery": 7603,
      "cleared": 7604,
      "ologies": 7605,
      "cyto": 7606,
      "designs": 7607,
      "approval": 7608,
      "differences": 7609,
      "21st": 7610,
      "moderate": 7611,
      "toronto": 7612,
      "sounds": 7613,
      "bald": 7614,
      "clearly": 7615,
      "ndh": 7616,
      "refu": 7617,
      "circle": 7618,
      "armament": 7619,
      "select": 7620,
      "recognised": 7621,
      "measured": 7622,
      "achieve": 7623,
      "susp": 7624,
      "martial": 7625,
      "frustr": 7626,
      "application": 7627,
      "audiences": 7628,
      "keeping": 7629,
      "favorable": 7630,
      "scientists": 7631,
      "weapon": 7632,
      "fatal": 7633,
      "jacob": 7634,
      "preparation": 7635,
      "illustrated": 7636,
      "thrill": 7637,
      "resolution": 7638,
      "feeding": 7639,
      "benefit": 7640,
      "minimum": 7641,
      "skills": 7642,
      "mulder": 7643,
      "jurchen": 7644,
      "retirement": 7645,
      "hudson": 7646,
      "mozambique": 7647,
      "saturday": 7648,
      "convinced": 7649,
      "lithuan": 7650,
      "inhg": 7651,
      "catechism": 7652,
      "wisniowiecki": 7653,
      "universe": 7654,
      "frelimo": 7655,
      "detroit": 7656,
      "bh": 7657,
      "bind": 7658,
      "dies": 7659,
      "gren": 7660,
      "hans": 7661,
      "iate": 7662,
      "kansas": 7663,
      "mbar": 7664,
      "rant": 7665,
      "sas": 7666,
      "zom": 7667,
      "ani": 7668,
      "remark": 7669,
      "chrom": 7670,
      "enters": 7671,
      "elic": 7672,
      "eline": 7673,
      "beam": 7674,
      "concess": 7675,
      "condem": 7676,
      "agement": 7677,
      "apers": 7678,
      "abby": 7679,
      "ables": 7680,
      "clip": 7681,
      "ett": 7682,
      "artwork": 7683,
      "astro": 7684,
      "acked": 7685,
      "boot": 7686,
      "kevin": 7687,
      "scap": 7688,
      "commons": 7689,
      "ocy": 7690,
      "1850": 7691,
      "scheme": 7692,
      "barry": 7693,
      "elections": 7694,
      "starred": 7695,
      "presentation": 7696,
      "depicts": 7697,
      "powered": 7698,
      "defending": 7699,
      "magdal": 7700,
      "characterized": 7701,
      "promised": 7702,
      "ranging": 7703,
      "tooth": 7704,
      "huge": 7705,
      "satell": 7706,
      "variation": 7707,
      "archaeologist": 7708,
      "altered": 7709,
      "violent": 7710,
      "boundary": 7711,
      "objective": 7712,
      "badly": 7713,
      "frequent": 7714,
      "expert": 7715,
      "scully": 7716,
      "revolutionary": 7717,
      "victorian": 7718,
      "suitable": 7719,
      "russia": 7720,
      "ethnic": 7721,
      "voyage": 7722,
      "excavations": 7723,
      "mechanical": 7724,
      "cubs": 7725,
      "tactics": 7726,
      "gilbert": 7727,
      "philosophy": 7728,
      "coleman": 7729,
      "appropriate": 7730,
      "dave": 7731,
      "hin": 7732,
      "hast": 7733,
      "hong": 7734,
      "ibar": 7735,
      "nings": 7736,
      "oscar": 7737,
      "inno": 7738,
      "inscription": 7739,
      "remo": 7740,
      "atop": 7741,
      "roots": 7742,
      "icity": 7743,
      "icia": 7744,
      "determ": 7745,
      "het": 7746,
      "1926": 7747,
      "pest": 7748,
      "ressing": 7749,
      "excell": 7750,
      "akum": 7751,
      "string": 7752,
      "intelle": 7753,
      "attained": 7754,
      "displayed": 7755,
      "angular": 7756,
      "jobs": 7757,
      "gros": 7758,
      "gov": 7759,
      "regiments": 7760,
      "carl": 7761,
      "carp": 7762,
      "buy": 7763,
      "steep": 7764,
      "eleph": 7765,
      "cide": 7766,
      "describe": 7767,
      "hamlet": 7768,
      "aide": 7769,
      "persian": 7770,
      "publications": 7771,
      "deput": 7772,
      "decides": 7773,
      "designer": 7774,
      "magnetic": 7775,
      "blacks": 7776,
      "striking": 7777,
      "jackets": 7778,
      "heroes": 7779,
      "closest": 7780,
      "davis": 7781,
      "ranking": 7782,
      "arriving": 7783,
      "assisted": 7784,
      "quarterback": 7785,
      "bulk": 7786,
      "duty": 7787,
      "mrs": 7788,
      "rupted": 7789,
      "protestant": 7790,
      "vote": 7791,
      "schedule": 7792,
      "revival": 7793,
      "qualified": 7794,
      "smooth": 7795,
      "opponent": 7796,
      "nurse": 7797,
      "alleged": 7798,
      "prompted": 7799,
      "magnitude": 7800,
      "cinema": 7801,
      "retreat": 7802,
      "residential": 7803,
      "predecessor": 7804,
      "discipl": 7805,
      "inhabitants": 7806,
      "valuable": 7807,
      "deemed": 7808,
      "strategy": 7809,
      "diagno": 7810,
      "feathers": 7811,
      "ambassador": 7812,
      "cavalry": 7813,
      "hokies": 7814,
      "determine": 7815,
      "intellect": 7816,
      "05": 7817,
      "cow": 7818,
      "cass": 7819,
      "haz": 7820,
      "krit": 7821,
      "laugh": 7822,
      "mitch": 7823,
      "pel": 7824,
      "pill": 7825,
      "punt": 7826,
      "wre": 7827,
      "inum": 7828,
      "edges": 7829,
      "atively": 7830,
      "stim": 7831,
      "aside": 7832,
      "isbn": 7833,
      "chain": 7834,
      "chagas": 7835,
      "amid": 7836,
      "ela": 7837,
      "acles": 7838,
      "beau": 7839,
      "degre": 7840,
      "whit": 7841,
      "owed": 7842,
      "confeder": 7843,
      "comics": 7844,
      "trio": 7845,
      "ulu": 7846,
      "neth": 7847,
      "nebr": 7848,
      "shi": 7849,
      "erected": 7850,
      "outbreak": 7851,
      "updated": 7852,
      "uding": 7853,
      "strict": 7854,
      "spher": 7855,
      "spots": 7856,
      "dual": 7857,
      "scope": 7858,
      "ignment": 7859,
      "centers": 7860,
      "cancell": 7861,
      "drug": 7862,
      "mines": 7863,
      "tenth": 7864,
      "mathews": 7865,
      "leslie": 7866,
      "releases": 7867,
      "hoo": 7868,
      "belg": 7869,
      "decay": 7870,
      "magad": 7871,
      "walking": 7872,
      "commandment": 7873,
      "considering": 7874,
      "gets": 7875,
      "difference": 7876,
      "explains": 7877,
      "tourist": 7878,
      "malley": 7879,
      "swim": 7880,
      "testing": 7881,
      "structural": 7882,
      "highways": 7883,
      "cruise": 7884,
      "1905": 7885,
      "ruling": 7886,
      "turks": 7887,
      "machines": 7888,
      "respective": 7889,
      "argues": 7890,
      "amounts": 7891,
      "premiere": 7892,
      "kelly": 7893,
      "definition": 7894,
      "budd": 7895,
      "beaten": 7896,
      "dominant": 7897,
      "waiting": 7898,
      "settlements": 7899,
      "newspapers": 7900,
      "globe": 7901,
      "liberal": 7902,
      "jonathan": 7903,
      "strengthened": 7904,
      "brooks": 7905,
      "adaptation": 7906,
      "exclusively": 7907,
      "batteries": 7908,
      "perspective": 7909,
      "wagner": 7910,
      "arrive": 7911,
      "valkyria": 7912,
      "injured": 7913,
      "paralymp": 7914,
      "dwarf": 7915,
      "refuge": 7916,
      "degrees": 7917,
      "68": 7918,
      "bren": 7919,
      "dick": 7920,
      "iest": 7921,
      "kam": 7922,
      "mg": 7923,
      "nash": 7924,
      "qi": 7925,
      "rim": 7926,
      "send": 7927,
      "inscriptions": 7928,
      "rec": 7929,
      "resumed": 7930,
      "ension": 7931,
      "stores": 7932,
      "iser": 7933,
      "toll": 7934,
      "icon": 7935,
      "oul": 7936,
      "ilty": 7937,
      "deity": 7938,
      "urs": 7939,
      "olia": 7940,
      "consequ": 7941,
      "prosecut": 7942,
      "emmy": 7943,
      "artistic": 7944,
      "exists": 7945,
      "exposed": 7946,
      "iped": 7947,
      "herze": 7948,
      "landings": 7949,
      "disappeared": 7950,
      "minster": 7951,
      "charm": 7952,
      "uefa": 7953,
      "carre": 7954,
      "mathem": 7955,
      "visiting": 7956,
      "northward": 7957,
      "wells": 7958,
      "lanes": 7959,
      "memor": 7960,
      "balls": 7961,
      "metre": 7962,
      "runners": 7963,
      "lights": 7964,
      "talent": 7965,
      "deliber": 7966,
      "reader": 7967,
      "handled": 7968,
      "slop": 7969,
      "furthermore": 7970,
      "bertin": 7971,
      "tested": 7972,
      "basement": 7973,
      "profile": 7974,
      "fifty": 7975,
      "liner": 7976,
      "consistent": 7977,
      "crews": 7978,
      "celebrated": 7979,
      "northeastern": 7980,
      "steps": 7981,
      "investigation": 7982,
      "distinctive": 7983,
      "chronicles": 7984,
      "manufactur": 7985,
      "defenders": 7986,
      "banned": 7987,
      "scattered": 7988,
      "suicide": 7989,
      "stellar": 7990,
      "celtic": 7991,
      "olithic": 7992,
      "govina": 7993,
      "nebraska": 7994,
      "magadheera": 7995,
      "08": 7996,
      "dens": 7997,
      "ecol": 7998,
      "fc": 7999
    },
    "merges": [
      [
        "t",
        "h"
      ],
      [
        "i",
        "n"
      ],
      [
        "th",
        "e"
      ],
      [
        "a",
        "n"
      ],
      [
        "e",
        "r"
      ],
      [
        "o",
        "n"
      ],
      [
        "r",
        "e"
      ],
      [
        "e",
        "d"
      ],
      [
        "a",
        "t"
      ],
      [
        "e",
        "n"
      ],
      [
        "s",
        "t"
      ],
      [
        "o",
        "r"
      ],
      [
        "a",
        "l"
      ],
      [
        "a",
        "r"
      ],
      [
        "an",
        "d"
      ],
      [
        "a",
        "s"
      ],
      [
        "o",
        "f"
      ],
      [
        "i",
        "s"
      ],
      [
        "e",
        "s"
      ],
      [
        "in",
        "g"
      ],
      [
        "i",
        "t"
      ],
      [
        "t",
        "o"
      ],
      [
        "r",
        "o"
      ],
      [
        "i",
        "c"
      ],
      [
        "o",
        "u"
      ],
      [
        "i",
        "on"
      ],
      [
        "l",
        "e"
      ],
      [
        "c",
        "h"
      ],
      [
        "s",
        "e"
      ],
      [
        "a",
        "m"
      ],
      [
        "i",
        "l"
      ],
      [
        "en",
        "t"
      ],
      [
        "a",
        "d"
      ],
      [
        "e",
        "l"
      ],
      [
        "a",
        "c"
      ],
      [
        "o",
        "m"
      ],
      [
        "b",
        "e"
      ],
      [
        "f",
        "or"
      ],
      [
        "d",
        "e"
      ],
      [
        "w",
        "as"
      ],
      [
        "u",
        "r"
      ],
      [
        "l",
        "y"
      ],
      [
        "u",
        "n"
      ],
      [
        "o",
        "l"
      ],
      [
        "w",
        "h"
      ],
      [
        "i",
        "m"
      ],
      [
        "i",
        "v"
      ],
      [
        "i",
        "r"
      ],
      [
        "i",
        "g"
      ],
      [
        "-",
        "@"
      ],
      [
        "@",
        "-@"
      ],
      [
        "o",
        "w"
      ],
      [
        "h",
        "e"
      ],
      [
        "w",
        "i"
      ],
      [
        "t",
        "er"
      ],
      [
        "c",
        "on"
      ],
      [
        "a",
        "y"
      ],
      [
        "c",
        "e"
      ],
      [
        "v",
        "er"
      ],
      [
        "wi",
        "th"
      ],
      [
        "a",
        "g"
      ],
      [
        "at",
        "ion"
      ],
      [
        "u",
        "s"
      ],
      [
        "th",
        "at"
      ],
      [
        "b",
        "y"
      ],
      [
        "c",
        "t"
      ],
      [
        "i",
        "d"
      ],
      [
        "o",
        "t"
      ],
      [
        "a",
        "p"
      ],
      [
        "s",
        "u"
      ],
      [
        "c",
        "om"
      ],
      [
        "t",
        "e"
      ],
      [
        "p",
        "l"
      ],
      [
        "t",
        "r"
      ],
      [
        "o",
        "p"
      ],
      [
        "ro",
        "m"
      ],
      [
        "a",
        "v"
      ],
      [
        "m",
        "o"
      ],
      [
        "u",
        "l"
      ],
      [
        "n",
        "e"
      ],
      [
        "a",
        "b"
      ],
      [
        "1",
        "9"
      ],
      [
        "al",
        "l"
      ],
      [
        "s",
        "h"
      ],
      [
        "a",
        "in"
      ],
      [
        "a",
        "re"
      ],
      [
        "p",
        "e"
      ],
      [
        "i",
        "st"
      ],
      [
        "er",
        "s"
      ],
      [
        "u",
        "t"
      ],
      [
        "er",
        "e"
      ],
      [
        "re",
        "s"
      ],
      [
        "0",
        "0"
      ],
      [
        "p",
        "ro"
      ],
      [
        "u",
        "m"
      ],
      [
        "e",
        "m"
      ],
      [
        "c",
        "l"
      ],
      [
        "f",
        "rom"
      ],
      [
        "h",
        "is"
      ],
      [
        "the",
        "r"
      ],
      [
        "e",
        "t"
      ],
      [
        "ou",
        "n"
      ],
      [
        "i",
        "es"
      ],
      [
        "p",
        "o"
      ],
      [
        "ar",
        "t"
      ],
      [
        "i",
        "f"
      ],
      [
        "e",
        "st"
      ],
      [
        "il",
        "l"
      ],
      [
        "l",
        "o"
      ],
      [
        "e",
        "x"
      ],
      [
        "s",
        "o"
      ],
      [
        "m",
        "an"
      ],
      [
        "a",
        "f"
      ],
      [
        "a",
        "k"
      ],
      [
        "w",
        "ere"
      ],
      [
        "r",
        "i"
      ],
      [
        "ig",
        "h"
      ],
      [
        "a",
        "st"
      ],
      [
        "b",
        "er"
      ],
      [
        "on",
        "g"
      ],
      [
        "at",
        "e"
      ],
      [
        "ar",
        "d"
      ],
      [
        "ic",
        "h"
      ],
      [
        "o",
        "d"
      ],
      [
        "an",
        "t"
      ],
      [
        "q",
        "u"
      ],
      [
        "p",
        "er"
      ],
      [
        "is",
        "h"
      ],
      [
        "g",
        "h"
      ],
      [
        "t",
        "w"
      ],
      [
        "it",
        "y"
      ],
      [
        "at",
        "ed"
      ],
      [
        "am",
        "e"
      ],
      [
        "on",
        "e"
      ],
      [
        "a",
        "u"
      ],
      [
        "es",
        "s"
      ],
      [
        "or",
        "t"
      ],
      [
        "ou",
        "t"
      ],
      [
        "e",
        "ar"
      ],
      [
        "iv",
        "e"
      ],
      [
        "c",
        "o"
      ],
      [
        "en",
        "d"
      ],
      [
        "re",
        "d"
      ],
      [
        "ac",
        "k"
      ],
      [
        "i",
        "e"
      ],
      [
        "l",
        "d"
      ],
      [
        "b",
        "r"
      ],
      [
        "h",
        "ad"
      ],
      [
        "f",
        "e"
      ],
      [
        "g",
        "e"
      ],
      [
        "m",
        "ent"
      ],
      [
        "n",
        "ot"
      ],
      [
        "d",
        "er"
      ],
      [
        "u",
        "p"
      ],
      [
        "wh",
        "ich"
      ],
      [
        "b",
        "o"
      ],
      [
        "i",
        "p"
      ],
      [
        "i",
        "an"
      ],
      [
        "b",
        "ut"
      ],
      [
        "h",
        "er"
      ],
      [
        "ou",
        "r"
      ],
      [
        "u",
        "d"
      ],
      [
        "ac",
        "t"
      ],
      [
        "st",
        "r"
      ],
      [
        "w",
        "or"
      ],
      [
        "in",
        "e"
      ],
      [
        "i",
        "al"
      ],
      [
        "s",
        "p"
      ],
      [
        "el",
        "l"
      ],
      [
        "it",
        "s"
      ],
      [
        "i",
        "a"
      ],
      [
        "d",
        "u"
      ],
      [
        "ic",
        "al"
      ],
      [
        "av",
        "e"
      ],
      [
        "b",
        "l"
      ],
      [
        "igh",
        "t"
      ],
      [
        "f",
        "ir"
      ],
      [
        "ar",
        "y"
      ],
      [
        "as",
        "s"
      ],
      [
        "a",
        "ch"
      ],
      [
        "c",
        "or"
      ],
      [
        "th",
        "is"
      ],
      [
        "g",
        "r"
      ],
      [
        "2",
        "00"
      ],
      [
        "a",
        "w"
      ],
      [
        "o",
        "ver"
      ],
      [
        "n",
        "o"
      ],
      [
        "l",
        "and"
      ],
      [
        "s",
        "er"
      ],
      [
        "c",
        "r"
      ],
      [
        "2",
        "0"
      ],
      [
        "the",
        "ir"
      ],
      [
        "ou",
        "s"
      ],
      [
        "fir",
        "st"
      ],
      [
        "t",
        "im"
      ],
      [
        "f",
        "o"
      ],
      [
        "m",
        "ar"
      ],
      [
        "ow",
        "n"
      ],
      [
        "p",
        "r"
      ],
      [
        "o",
        "ther"
      ],
      [
        "s",
        "i"
      ],
      [
        "k",
        "e"
      ],
      [
        "af",
        "ter"
      ],
      [
        "ag",
        "e"
      ],
      [
        "p",
        "ort"
      ],
      [
        "g",
        "u"
      ],
      [
        "i",
        "re"
      ],
      [
        "m",
        "e"
      ],
      [
        "ou",
        "ld"
      ],
      [
        "p",
        "t"
      ],
      [
        "in",
        "d"
      ],
      [
        "the",
        "y"
      ],
      [
        "for",
        "m"
      ],
      [
        "al",
        "so"
      ],
      [
        "v",
        "e"
      ],
      [
        "s",
        "c"
      ],
      [
        "it",
        "ion"
      ],
      [
        "pl",
        "ay"
      ],
      [
        "in",
        "t"
      ],
      [
        "com",
        "m"
      ],
      [
        "at",
        "er"
      ],
      [
        "com",
        "p"
      ],
      [
        "ne",
        "w"
      ],
      [
        "p",
        "art"
      ],
      [
        "ct",
        "ion"
      ],
      [
        "ig",
        "n"
      ],
      [
        "oun",
        "d"
      ],
      [
        "h",
        "as"
      ],
      [
        "p",
        "res"
      ],
      [
        "o",
        "c"
      ],
      [
        "c",
        "ent"
      ],
      [
        "d",
        "es"
      ],
      [
        "at",
        "t"
      ],
      [
        "u",
        "re"
      ],
      [
        "tw",
        "o"
      ],
      [
        "l",
        "i"
      ],
      [
        "e",
        "v"
      ],
      [
        "wh",
        "o"
      ],
      [
        "p",
        "re"
      ],
      [
        "h",
        "ave"
      ],
      [
        "w",
        "e"
      ],
      [
        "c",
        "re"
      ],
      [
        "1",
        "8"
      ],
      [
        "l",
        "ow"
      ],
      [
        "po",
        "s"
      ],
      [
        "of",
        "f"
      ],
      [
        "d",
        "is"
      ],
      [
        "o",
        "k"
      ],
      [
        "al",
        "ly"
      ],
      [
        "en",
        "ce"
      ],
      [
        "be",
        "en"
      ],
      [
        "n",
        "or"
      ],
      [
        "om",
        "e"
      ],
      [
        "ro",
        "u"
      ],
      [
        "s",
        "he"
      ],
      [
        ".",
        "@"
      ],
      [
        "@",
        ".@"
      ],
      [
        "i",
        "le"
      ],
      [
        "ou",
        "gh"
      ],
      [
        "y",
        "ear"
      ],
      [
        "ur",
        "ing"
      ],
      [
        "p",
        "h"
      ],
      [
        "it",
        "e"
      ],
      [
        "an",
        "g"
      ],
      [
        "re",
        "e"
      ],
      [
        "c",
        "ol"
      ],
      [
        "con",
        "t"
      ],
      [
        "ad",
        "e"
      ],
      [
        "or",
        "y"
      ],
      [
        "v",
        "i"
      ],
      [
        "in",
        "ter"
      ],
      [
        "j",
        "o"
      ],
      [
        "c",
        "an"
      ],
      [
        "20",
        "1"
      ],
      [
        "f",
        "l"
      ],
      [
        "re",
        "n"
      ],
      [
        "ol",
        "d"
      ],
      [
        "f",
        "in"
      ],
      [
        "cor",
        "d"
      ],
      [
        "c",
        "k"
      ],
      [
        "d",
        "r"
      ],
      [
        "el",
        "y"
      ],
      [
        "in",
        "cl"
      ],
      [
        "an",
        "ce"
      ],
      [
        "v",
        "ed"
      ],
      [
        "ac",
        "e"
      ],
      [
        "ation",
        "s"
      ],
      [
        "m",
        "on"
      ],
      [
        "sh",
        "ip"
      ],
      [
        "s",
        "pe"
      ],
      [
        "a",
        "ir"
      ],
      [
        "ic",
        "e"
      ],
      [
        "ab",
        "le"
      ],
      [
        ",",
        "@"
      ],
      [
        "@",
        ",@"
      ],
      [
        "ur",
        "n"
      ],
      [
        "f",
        "er"
      ],
      [
        "en",
        "g"
      ],
      [
        "d",
        "uring"
      ],
      [
        "g",
        "ro"
      ],
      [
        "tim",
        "e"
      ],
      [
        "mo",
        "st"
      ],
      [
        "p",
        "ar"
      ],
      [
        "wh",
        "en"
      ],
      [
        "an",
        "s"
      ],
      [
        "t",
        "ed"
      ],
      [
        "s",
        "ou"
      ],
      [
        "i",
        "z"
      ],
      [
        "f",
        "r"
      ],
      [
        "t",
        "y"
      ],
      [
        "v",
        "el"
      ],
      [
        "g",
        "o"
      ],
      [
        "m",
        "in"
      ],
      [
        "mo",
        "re"
      ],
      [
        "g",
        "en"
      ],
      [
        "t",
        "s"
      ],
      [
        "s",
        "ong"
      ],
      [
        "te",
        "m"
      ],
      [
        "un",
        "d"
      ],
      [
        "s",
        "ion"
      ],
      [
        "e",
        "ver"
      ],
      [
        "c",
        "ed"
      ],
      [
        "wor",
        "k"
      ],
      [
        "a",
        "il"
      ],
      [
        "rou",
        "gh"
      ],
      [
        "in",
        "to"
      ],
      [
        "c",
        "oun"
      ],
      [
        "e",
        "p"
      ],
      [
        "a",
        "th"
      ],
      [
        "fo",
        "re"
      ],
      [
        "c",
        "es"
      ],
      [
        "r",
        "it"
      ],
      [
        "re",
        "g"
      ],
      [
        "ic",
        "k"
      ],
      [
        "w",
        "ay"
      ],
      [
        "i",
        "ed"
      ],
      [
        "ch",
        "ar"
      ],
      [
        "be",
        "c"
      ],
      [
        "m",
        "ain"
      ],
      [
        "u",
        "e"
      ],
      [
        "con",
        "d"
      ],
      [
        "t",
        "en"
      ],
      [
        "w",
        "ould"
      ],
      [
        "as",
        "on"
      ],
      [
        "am",
        "p"
      ],
      [
        "s",
        "y"
      ],
      [
        "th",
        "ough"
      ],
      [
        "h",
        "im"
      ],
      [
        "us",
        "ed"
      ],
      [
        "c",
        "ar"
      ],
      [
        "an",
        "n"
      ],
      [
        "m",
        "a"
      ],
      [
        "it",
        "ed"
      ],
      [
        "ct",
        "ed"
      ],
      [
        "d",
        "ay"
      ],
      [
        "b",
        "u"
      ],
      [
        "ing",
        "s"
      ],
      [
        "wh",
        "ile"
      ],
      [
        "as",
        "ed"
      ],
      [
        "un",
        "der"
      ],
      [
        "g",
        "ame"
      ],
      [
        "ent",
        "s"
      ],
      [
        "e",
        "en"
      ],
      [
        "w",
        "ar"
      ],
      [
        "incl",
        "ud"
      ],
      [
        "p",
        "u"
      ],
      [
        "s",
        "ome"
      ],
      [
        "at",
        "es"
      ],
      [
        "on",
        "ly"
      ],
      [
        "f",
        "il"
      ],
      [
        "o",
        "s"
      ],
      [
        "an",
        "y"
      ],
      [
        "re",
        "l"
      ],
      [
        "as",
        "e"
      ],
      [
        "m",
        "ay"
      ],
      [
        "m",
        "ed"
      ],
      [
        "s",
        "on"
      ],
      [
        "ic",
        "an"
      ],
      [
        "m",
        "i"
      ],
      [
        "ak",
        "e"
      ],
      [
        "g",
        "an"
      ],
      [
        "k",
        "n"
      ],
      [
        "c",
        "ess"
      ],
      [
        "j",
        "e"
      ],
      [
        "ion",
        "s"
      ],
      [
        "il",
        "d"
      ],
      [
        "f",
        "ol"
      ],
      [
        "h",
        "ow"
      ],
      [
        "s",
        "ing"
      ],
      [
        "j",
        "u"
      ],
      [
        "the",
        "re"
      ],
      [
        "b",
        "le"
      ],
      [
        "l",
        "es"
      ],
      [
        "m",
        "us"
      ],
      [
        "al",
        "s"
      ],
      [
        "re",
        "cord"
      ],
      [
        "l",
        "ar"
      ],
      [
        "d",
        "o"
      ],
      [
        "r",
        "a"
      ],
      [
        "the",
        "m"
      ],
      [
        "ic",
        "t"
      ],
      [
        "th",
        "ree"
      ],
      [
        "ab",
        "out"
      ],
      [
        "re",
        "t"
      ],
      [
        "l",
        "ater"
      ],
      [
        "v",
        "is"
      ],
      [
        "h",
        "igh"
      ],
      [
        "en",
        "s"
      ],
      [
        "to",
        "w"
      ],
      [
        "s",
        "s"
      ],
      [
        "pu",
        "bl"
      ],
      [
        "se",
        "l"
      ],
      [
        "or",
        "s"
      ],
      [
        "se",
        "ason"
      ],
      [
        "th",
        "an"
      ],
      [
        "th",
        "rough"
      ],
      [
        "c",
        "ap"
      ],
      [
        "pro",
        "du"
      ],
      [
        "m",
        "y"
      ],
      [
        "el",
        "d"
      ],
      [
        "f",
        "ul"
      ],
      [
        "v",
        "ie"
      ],
      [
        "19",
        "9"
      ],
      [
        "tw",
        "een"
      ],
      [
        "be",
        "tween"
      ],
      [
        "ag",
        "ain"
      ],
      [
        "w",
        "est"
      ],
      [
        "fol",
        "low"
      ],
      [
        "str",
        "u"
      ],
      [
        "o",
        "g"
      ],
      [
        "n",
        "um"
      ],
      [
        "g",
        "er"
      ],
      [
        "spe",
        "c"
      ],
      [
        "am",
        "er"
      ],
      [
        "ation",
        "al"
      ],
      [
        "w",
        "rit"
      ],
      [
        "fil",
        "m"
      ],
      [
        "wh",
        "ere"
      ],
      [
        "b",
        "ro"
      ],
      [
        "k",
        "ing"
      ],
      [
        "ul",
        "ar"
      ],
      [
        "c",
        "all"
      ],
      [
        "re",
        "le"
      ],
      [
        "s",
        "ch"
      ],
      [
        "su",
        "b"
      ],
      [
        "l",
        "ed"
      ],
      [
        "st",
        "e"
      ],
      [
        "at",
        "ing"
      ],
      [
        "t",
        "on"
      ],
      [
        "p",
        "ol"
      ],
      [
        "ic",
        "s"
      ],
      [
        "g",
        "re"
      ],
      [
        "c",
        "er"
      ],
      [
        "se",
        "cond"
      ],
      [
        "am",
        "es"
      ],
      [
        "se",
        "t"
      ],
      [
        "vie",
        "w"
      ],
      [
        "1",
        "0"
      ],
      [
        "nor",
        "th"
      ],
      [
        "ul",
        "t"
      ],
      [
        "i",
        "o"
      ],
      [
        "al",
        "b"
      ],
      [
        "the",
        "n"
      ],
      [
        "b",
        "ack"
      ],
      [
        "s",
        "ur"
      ],
      [
        "m",
        "ade"
      ],
      [
        "f",
        "our"
      ],
      [
        "ish",
        "ed"
      ],
      [
        "r",
        "y"
      ],
      [
        "w",
        "ell"
      ],
      [
        "b",
        "ar"
      ],
      [
        "t",
        "ain"
      ],
      [
        "ur",
        "y"
      ],
      [
        "e",
        "le"
      ],
      [
        "c",
        "i"
      ],
      [
        "c",
        "ity"
      ],
      [
        "man",
        "y"
      ],
      [
        "wor",
        "ld"
      ],
      [
        "r",
        "iv"
      ],
      [
        "m",
        "u"
      ],
      [
        "ar",
        "ch"
      ],
      [
        "ap",
        "pe"
      ],
      [
        "f",
        "i"
      ],
      [
        "su",
        "ch"
      ],
      [
        "er",
        "ed"
      ],
      [
        "s",
        "a"
      ],
      [
        "alb",
        "um"
      ],
      [
        "h",
        "o"
      ],
      [
        "sou",
        "th"
      ],
      [
        "be",
        "fore"
      ],
      [
        "00",
        "0"
      ],
      [
        "o",
        "se"
      ],
      [
        "ter",
        "s"
      ],
      [
        "b",
        "el"
      ],
      [
        "ard",
        "s"
      ],
      [
        "con",
        "s"
      ],
      [
        "gen",
        "er"
      ],
      [
        "c",
        "ur"
      ],
      [
        "n",
        "ational"
      ],
      [
        "h",
        "ist"
      ],
      [
        "ser",
        "ies"
      ],
      [
        "m",
        "is"
      ],
      [
        "n",
        "ing"
      ],
      [
        "su",
        "p"
      ],
      [
        "lo",
        "c"
      ],
      [
        "e",
        "k"
      ],
      [
        "ad",
        "d"
      ],
      [
        "1",
        "6"
      ],
      [
        "p",
        "op"
      ],
      [
        "se",
        "ver"
      ],
      [
        "il",
        "y"
      ],
      [
        "if",
        "ic"
      ],
      [
        "an",
        "k"
      ],
      [
        ".",
        "."
      ],
      [
        "u",
        "al"
      ],
      [
        "bo",
        "th"
      ],
      [
        "be",
        "ing"
      ],
      [
        "year",
        "s"
      ],
      [
        "s",
        "im"
      ],
      [
        "c",
        "a"
      ],
      [
        "the",
        "se"
      ],
      [
        "o",
        "b"
      ],
      [
        "ur",
        "ch"
      ],
      [
        "f",
        "ound"
      ],
      [
        "1",
        "2"
      ],
      [
        "st",
        "ud"
      ],
      [
        "i",
        "ous"
      ],
      [
        "st",
        "ar"
      ],
      [
        "po",
        "int"
      ],
      [
        "l",
        "ong"
      ],
      [
        "c",
        "ri"
      ],
      [
        "al",
        "e"
      ],
      [
        "w",
        "ill"
      ],
      [
        "1",
        "5"
      ],
      [
        "d",
        "iv"
      ],
      [
        "how",
        "ever"
      ],
      [
        "l",
        "ine"
      ],
      [
        "op",
        "er"
      ],
      [
        "a",
        "z"
      ],
      [
        "1",
        "7"
      ],
      [
        "ro",
        "p"
      ],
      [
        "kn",
        "own"
      ],
      [
        "d",
        "ire"
      ],
      [
        "d",
        "own"
      ],
      [
        "e",
        "f"
      ],
      [
        "le",
        "t"
      ],
      [
        "num",
        "ber"
      ],
      [
        "c",
        "le"
      ],
      [
        "in",
        "s"
      ],
      [
        "un",
        "t"
      ],
      [
        "v",
        "en"
      ],
      [
        "re",
        "ce"
      ],
      [
        "ser",
        "v"
      ],
      [
        "l",
        "an"
      ],
      [
        "it",
        "ies"
      ],
      [
        "ir",
        "d"
      ],
      [
        "st",
        "ate"
      ],
      [
        "si",
        "de"
      ],
      [
        "u",
        "b"
      ],
      [
        "m",
        "ill"
      ],
      [
        "or",
        "ig"
      ],
      [
        "b",
        "att"
      ],
      [
        "au",
        "se"
      ],
      [
        "mus",
        "ic"
      ],
      [
        "e",
        "ast"
      ],
      [
        "in",
        "ce"
      ],
      [
        "m",
        "em"
      ],
      [
        "ro",
        "w"
      ],
      [
        "m",
        "at"
      ],
      [
        "h",
        "n"
      ],
      [
        "st",
        "or"
      ],
      [
        "i",
        "i"
      ],
      [
        "iv",
        "ed"
      ],
      [
        "vel",
        "op"
      ],
      [
        "ear",
        "ly"
      ],
      [
        "in",
        "es"
      ],
      [
        "li",
        "ke"
      ],
      [
        "char",
        "ac"
      ],
      [
        "ep",
        "is"
      ],
      [
        "br",
        "it"
      ],
      [
        "sever",
        "al"
      ],
      [
        "in",
        "v"
      ],
      [
        "j",
        "or"
      ],
      [
        "su",
        "l"
      ],
      [
        "er",
        "n"
      ],
      [
        "ol",
        "og"
      ],
      [
        "des",
        "cri"
      ],
      [
        "includ",
        "ing"
      ],
      [
        "again",
        "st"
      ],
      [
        "de",
        "velop"
      ],
      [
        "sh",
        "ow"
      ],
      [
        "h",
        "y"
      ],
      [
        "orig",
        "in"
      ],
      [
        "he",
        "ad"
      ],
      [
        "te",
        "am"
      ],
      [
        "bec",
        "ame"
      ],
      [
        "u",
        "ary"
      ],
      [
        "s",
        "m"
      ],
      [
        "ro",
        "l"
      ],
      [
        "o",
        "de"
      ],
      [
        "fe",
        "at"
      ],
      [
        "b",
        "ed"
      ],
      [
        "co",
        "ver"
      ],
      [
        "p",
        "ed"
      ],
      [
        "id",
        "ent"
      ],
      [
        "un",
        "ited"
      ],
      [
        "on",
        "d"
      ],
      [
        "cr",
        "it"
      ],
      [
        "l",
        "if"
      ],
      [
        "h",
        "am"
      ],
      [
        "19",
        "8"
      ],
      [
        "a",
        "i"
      ],
      [
        "is",
        "e"
      ],
      [
        "f",
        "t"
      ],
      [
        "c",
        "y"
      ],
      [
        "m",
        "il"
      ],
      [
        "tr",
        "y"
      ],
      [
        "3",
        "0"
      ],
      [
        "le",
        "ad"
      ],
      [
        "m",
        "s"
      ],
      [
        "at",
        "ive"
      ],
      [
        "le",
        "g"
      ],
      [
        "h",
        "el"
      ],
      [
        "al",
        "though"
      ],
      [
        "cont",
        "in"
      ],
      [
        "b",
        "all"
      ],
      [
        "m",
        "er"
      ],
      [
        "per",
        "i"
      ],
      [
        "c",
        "are"
      ],
      [
        "d",
        "if"
      ],
      [
        "ch",
        "r"
      ],
      [
        "su",
        "c"
      ],
      [
        "jo",
        "hn"
      ],
      [
        "m",
        "et"
      ],
      [
        "is",
        "ed"
      ],
      [
        "n",
        "am"
      ],
      [
        "cent",
        "ury"
      ],
      [
        "d",
        "ist"
      ],
      [
        "u",
        "res"
      ],
      [
        "op",
        "en"
      ],
      [
        "h",
        "ou"
      ],
      [
        "r",
        "un"
      ],
      [
        "b",
        "or"
      ],
      [
        "v",
        "ar"
      ],
      [
        "i",
        "b"
      ],
      [
        "s",
        "ign"
      ],
      [
        "follow",
        "ing"
      ],
      [
        "e",
        "u"
      ],
      [
        "le",
        "y"
      ],
      [
        "t",
        "ing"
      ],
      [
        "v",
        "em"
      ],
      [
        "pres",
        "ent"
      ],
      [
        "f",
        "am"
      ],
      [
        "19",
        "4"
      ],
      [
        "call",
        "ed"
      ],
      [
        "are",
        "d"
      ],
      [
        "g",
        "over"
      ],
      [
        "p",
        "or"
      ],
      [
        "tow",
        "n"
      ],
      [
        "ch",
        "urch"
      ],
      [
        "mar",
        "k"
      ],
      [
        "ne",
        "ar"
      ],
      [
        "al",
        "ong"
      ],
      [
        "ment",
        "s"
      ],
      [
        "c",
        "ial"
      ],
      [
        "u",
        "ally"
      ],
      [
        "u",
        "se"
      ],
      [
        "be",
        "gan"
      ],
      [
        "19",
        "6"
      ],
      [
        "p",
        "ers"
      ],
      [
        "j",
        "un"
      ],
      [
        "19",
        "7"
      ],
      [
        "i",
        "de"
      ],
      [
        "bec",
        "ause"
      ],
      [
        "ro",
        "ss"
      ],
      [
        "re",
        "main"
      ],
      [
        "publ",
        "ic"
      ],
      [
        "d",
        "am"
      ],
      [
        "je",
        "ct"
      ],
      [
        "p",
        "ass"
      ],
      [
        "c",
        "ould"
      ],
      [
        "d",
        "id"
      ],
      [
        "ro",
        "ad"
      ],
      [
        "ro",
        "y"
      ],
      [
        "m",
        "en"
      ],
      [
        "si",
        "x"
      ],
      [
        "end",
        "ed"
      ],
      [
        "de",
        "p"
      ],
      [
        "epis",
        "ode"
      ],
      [
        "sel",
        "f"
      ],
      [
        "t",
        "re"
      ],
      [
        "a",
        "h"
      ],
      [
        "v",
        "al"
      ],
      [
        "is",
        "ion"
      ],
      [
        "de",
        "c"
      ],
      [
        "bo",
        "ok"
      ],
      [
        "d",
        "om"
      ],
      [
        "or",
        "k"
      ],
      [
        "op",
        "le"
      ],
      [
        "are",
        "a"
      ],
      [
        "pro",
        "te"
      ],
      [
        "ak",
        "ing"
      ],
      [
        "fi",
        "eld"
      ],
      [
        "sa",
        "id"
      ],
      [
        "unt",
        "il"
      ],
      [
        "j",
        "an"
      ],
      [
        "b",
        "re"
      ],
      [
        "g",
        "g"
      ],
      [
        "gro",
        "up"
      ],
      [
        "t",
        "it"
      ],
      [
        "suc",
        "cess"
      ],
      [
        "1",
        "3"
      ],
      [
        "amer",
        "ican"
      ],
      [
        "st",
        "ates"
      ],
      [
        "n",
        "ow"
      ],
[...]
